</s>:0
<unk>:1
<0x00>:2
<0x01>:3
<0x02>:4
<0x03>:5
<0x04>:6
<0x05>:7
<0x06>:8
<0x07>:9
<0x08>:10
<0x09>:11
<0x0A>:12
<0x0B>:13
<0x0C>:14
<0x0D>:15
<0x0E>:16
<0x0F>:17
<0x10>:18
<0x11>:19
<0x12>:20
<0x13>:21
<0x14>:22
<0x15>:23
<0x16>:24
<0x17>:25
<0x18>:26
<0x19>:27
<0x1A>:28
<0x1B>:29
<0x1C>:30
<0x1D>:31
<0x1E>:32
<0x1F>:33
<0x20>:34
<0x21>:35
<0x22>:36
<0x23>:37
<0x24>:38
<0x25>:39
<0x26>:40
<0x27>:41
<0x28>:42
<0x29>:43
<0x2A>:44
<0x2B>:45
<0x2C>:46
<0x2D>:47
<0x2E>:48
<0x2F>:49
<0x30>:50
<0x31>:51
<0x32>:52
<0x33>:53
<0x34>:54
<0x35>:55
<0x36>:56
<0x37>:57
<0x38>:58
<0x39>:59
<0x3A>:60
<0x3B>:61
<0x3C>:62
<0x3D>:63
<0x3E>:64
<0x3F>:65
<0x40>:66
<0x41>:67
<0x42>:68
<0x43>:69
<0x44>:70
<0x45>:71
<0x46>:72
<0x47>:73
<0x48>:74
<0x49>:75
<0x4A>:76
<0x4B>:77
<0x4C>:78
<0x4D>:79
<0x4E>:80
<0x4F>:81
<0x50>:82
<0x51>:83
<0x52>:84
<0x53>:85
<0x54>:86
<0x55>:87
<0x56>:88
<0x57>:89
<0x58>:90
<0x59>:91
<0x5A>:92
<0x5B>:93
<0x5C>:94
<0x5D>:95
<0x5E>:96
<0x5F>:97
<0x60>:98
<0x61>:99
<0x62>:100
<0x63>:101
<0x64>:102
<0x65>:103
<0x66>:104
<0x67>:105
<0x68>:106
<0x69>:107
<0x6A>:108
<0x6B>:109
<0x6C>:110
<0x6D>:111
<0x6E>:112
<0x6F>:113
<0x70>:114
<0x71>:115
<0x72>:116
<0x73>:117
<0x74>:118
<0x75>:119
<0x76>:120
<0x77>:121
<0x78>:122
<0x79>:123
<0x7A>:124
<0x7B>:125
<0x7C>:126
<0x7D>:127
<0x7E>:128
<0x7F>:129
<0x80>:130
<0x81>:131
<0x82>:132
<0x83>:133
<0x84>:134
<0x85>:135
<0x86>:136
<0x87>:137
<0x88>:138
<0x89>:139
<0x8A>:140
<0x8B>:141
<0x8C>:142
<0x8D>:143
<0x8E>:144
<0x8F>:145
<0x90>:146
<0x91>:147
<0x92>:148
<0x93>:149
<0x94>:150
<0x95>:151
<0x96>:152
<0x97>:153
<0x98>:154
<0x99>:155
<0x9A>:156
<0x9B>:157
<0x9C>:158
<0x9D>:159
<0x9E>:160
<0x9F>:161
<0xA0>:162
<0xA1>:163
<0xA2>:164
<0xA3>:165
<0xA4>:166
<0xA5>:167
<0xA6>:168
<0xA7>:169
<0xA8>:170
<0xA9>:171
<0xAA>:172
<0xAB>:173
<0xAC>:174
<0xAD>:175
<0xAE>:176
<0xAF>:177
<0xB0>:178
<0xB1>:179
<0xB2>:180
<0xB3>:181
<0xB4>:182
<0xB5>:183
<0xB6>:184
<0xB7>:185
<0xB8>:186
<0xB9>:187
<0xBA>:188
<0xBB>:189
<0xBC>:190
<0xBD>:191
<0xBE>:192
<0xBF>:193
<0xC0>:194
<0xC1>:195
<0xC2>:196
<0xC3>:197
<0xC4>:198
<0xC5>:199
<0xC6>:200
<0xC7>:201
<0xC8>:202
<0xC9>:203
<0xCA>:204
<0xCB>:205
<0xCC>:206
<0xCD>:207
<0xCE>:208
<0xCF>:209
<0xD0>:210
<0xD1>:211
<0xD2>:212
<0xD3>:213
<0xD4>:214
<0xD5>:215
<0xD6>:216
<0xD7>:217
<0xD8>:218
<0xD9>:219
<0xDA>:220
<0xDB>:221
<0xDC>:222
<0xDD>:223
<0xDE>:224
<0xDF>:225
<0xE0>:226
<0xE1>:227
<0xE2>:228
<0xE3>:229
<0xE4>:230
<0xE5>:231
<0xE6>:232
<0xE7>:233
<0xE8>:234
<0xE9>:235
<0xEA>:236
<0xEB>:237
<0xEC>:238
<0xED>:239
<0xEE>:240
<0xEF>:241
<0xF0>:242
<0xF1>:243
<0xF2>:244
<0xF3>:245
<0xF4>:246
<0xF5>:247
<0xF6>:248
<0xF7>:249
<0xF8>:250
<0xF9>:251
<0xFA>:252
<0xFB>:253
<0xFC>:254
<0xFD>:255
<0xFE>:256
<0xFF>:257
.:258
,:259
▁the:260
▁to:261
▁of:262
':263
s:264
▁a:265
▁and:266
▁is:267
▁in:268
▁:269
-:270
▁":271
▁I:272
▁-:273
▁you:274
?:275
▁that:276
▁The:277
::278
▁for:279
▁it:280
▁are:281
▁be:282
":283
t:284
▁on:285
▁have:286
▁және:287
▁was:288
▁not:289
▁with:290
▁this:291
...:292
▁will:293
▁мен:294
▁үшін:295
▁(:296
):297
.":298
!:299
▁we:300
▁деп:301
▁да:302
▁бір:303
▁as:304
i:305
▁can:306
▁he:307
▁бұл:308
▁бар:309
ға:310
▁your:311
▁by:312
▁at:313
▁It:314
▁has:315
▁from:316
▁де:317
▁they:318
▁my:319
▁all:320
мен:321
▁Бұл:322
▁an:323
▁do:324
н:325
ды:326
▁ол:327
ның:328
▁one:329
▁керек:330
▁We:331
▁He:332
▁In:333
▁about:334
▁his:335
да:336
▁емес:337
▁me:338
▁time:339
▁their:340
▁there:341
▁people:342
▁or:343
▁been:344
ы:345
▁who:346
▁болады:347
▁but:348
▁жоқ:349
▁осы:350
▁This:351
▁туралы:352
▁were:353
ing:354
▁A:355
▁out:356
▁them:357
m:358
▁up:359
▁You:360
;:361
▁what:362
re:363
ге:364
▁know:365
▁our:366
▁had:367
ді:368
▁болып:369
м:370
▁өз:371
▁like:372
▁other:373
▁Мен:374
▁Ол:375
▁жақсы:376
ed:377
▁no:378
ын:379
дың:380
▁also:381
▁would:382
▁get:383
▁said:384
d:385
▁деген:386
▁so:387
▁болды:388
▁don:389
▁first:390
▁мүмкін:391
▁жұмыс:392
▁сіз:393
,":394
▁And:395
▁не:396
▁work:397
▁бойынша:398
▁немесе:399
де:400
▁ең:401
дан:402
▁her:403
▁ғана:404
▁оның:405
і:406
▁years:407
▁If:408
▁want:409
▁көп:410
▁which:411
▁when:412
▁кейін:413
▁more:414
▁if:415
▁адам:416
▁need:417
▁біз:418
▁There:419
▁өте:420
▁make:421
▁барлық:422
▁They:423
▁life:424
▁But:425
▁оны:426
▁only:427
▁should:428
нің:429
▁new:430
▁бірақ:431
ve:432
▁басқа:433
▁жылы:434
▁What:435
▁day:436
I:437
▁us:438
дің:439
▁him:440
▁some:441
▁how:442
▁these:443
▁болса:444
ll:445
ты:446
ң:447
▁she:448
▁қалай:449
▁very:450
▁going:451
▁world:452
▁Ал:453
▁two:454
▁year:455
▁think:456
▁Бірақ:457
▁сол:458
▁Егер:459
▁into:460
▁дейін:461
▁way:462
▁екі:463
▁good:464
▁Осы:465
▁see:466
▁болған:467
▁take:468
▁1:469
▁...:470
▁ма:471
▁than:472
▁So:473
?":474
▁go:475
▁тек:476
e:477
қа:478
ына:479
▁қажет:480
▁many:481
▁олар:482
▁келеді:483
▁2:484
▁еді:485
▁қандай:486
▁any:487
▁now:488
тың:489
▁then:490
▁жыл:491
▁God:492
▁жаңа:493
▁екен:494
▁just:495
ақ:496
▁say:497
▁Біз:498
▁кезде:499
▁3:500
▁over:501
▁back:502
▁use:503
▁деді:504
ін:505
с:506
▁well:507
▁арқылы:508
▁its:509
▁5:510
▁болуы:511
▁екенін:512
▁did:513
дағы:514
▁am:515
▁may:516
ден:517
▁As:518
▁those:519
▁біздің:520
▁must:521
▁made:522
▁келген:523
▁ғой:524
р:525
▁Сіз:526
нан:527
ны:528
▁үлкен:529
к:530
лық:531
▁right:532
ке:533
▁алып:534
▁10:535
▁дейді:536
▁When:537
▁менің:538
▁For:539
▁алады:540
▁':541
та:542
▁children:543
▁That:544
▁love:545
▁even:546
▁My:547
▁күні:548
ly:549
▁She:550
▁being:551
▁here:552
▁after:553
▁help:554
▁because:555
а:556
ті:557
▁does:558
▁уақыт:559
▁жатыр:560
▁used:561
▁come:562
▁рет:563
▁man:564
▁most:565
▁ретінде:566
▁Оның:567
▁4:568
п:569
▁home:570
▁олардың:571
▁lot:572
▁own:573
▁күн:574
▁each:575
▁байланысты:576
▁Олар:577
a:578
▁ба:579
▁ішінде:580
▁сияқты:581
▁find:582
тің:583
er:584
/:585
▁much:586
▁where:587
▁place:588
пен:589
▁How:590
лар:591
▁such:592
▁ал:593
▁still:594
S:595
▁could:596
▁өмір:597
▁бұрын:598
▁бірге:599
▁отыр:600
▁бірнеше:601
▁Do:602
▁family:603
у:604
▁Бір:605
▁important:606
▁Сол:607
не:608
▁through:609
сы:610
▁down:611
▁different:612
▁today:613
▁same:614
▁маңызды:615
▁every:616
т:617
).:618
▁name:619
▁дұрыс:620
▁part:621
▁money:622
▁арналған:623
y:624
іне:625
▁before:626
▁маған:627
▁береді:628
▁didn:629
▁сіздің:630
▁оған:631
▁әлі:632
▁always:633
▁three:634
▁жерде:635
▁look:636
▁last:637
th:638
▁қол:639
▁To:640
▁алу:641
на:642
▁long:643
▁жоғары:644
▁адамдар:645
▁кез:646
▁got:647
▁country:648
▁қайта:649
▁тағы:650
▁give:651
▁соң:652
▁қатар:653
сыз:654
▁things:655
▁болатын:656
▁бірі:657
▁At:658
▁әр:659
▁пен:660
▁great:661
▁able:662
л:663
▁No:664
▁Менің:665
▁6:666
▁end:667
▁between:668
▁state:669
▁жатқан:670
▁All:671
▁days:672
▁Сондықтан:673
▁бас:674
▁never:675
▁өзі:676
▁жағдайда:677
▁One:678
▁20:679
▁why:680
▁number:681
▁бе:682
▁уақытта:683
!":684
▁бәрі:685
▁жеке:686
▁аласыз:687
▁Сонымен:688
▁really:689
▁жауап:690
▁something:691
▁/:692
▁system:693
▁тиіс:694
▁too:695
нен:696
▁i:697
▁іс:698
▁school:699
▁old:700
▁7:701
▁information:702
▁кезінде:703
▁8:704
▁water:705
▁However:706
▁айтып:707
▁off:708
дар:709
▁табылады:710
▁away:711
▁бойы:712
те:713
▁ме:714
тан:715
▁course:716
▁feel:717
▁қазір:718
▁үш:719
шы:720
▁government:721
▁қатысты:722
▁көптеген:723
▁сатып:724
▁енді:725
сын:726
ының:727
▁өзінің:728
▁child:729
▁қарсы:730
▁түрде:731
▁қызмет:732
▁жол:733
▁person:734
▁next:735
▁бірінші:736
▁around:737
▁under:738
in:739
▁беру:740
▁times:741
▁онда:742
▁few:743
▁мүмкіндік:744
▁қарай:745
д:746
ым:747
▁сізге:748
▁алған:749
▁On:750
▁сөз:751
▁тұр:752
▁during:753
▁doesn:754
▁ата:755
▁change:756
▁put:757
▁best:758
▁белгілі:759
▁live:760
▁another:761
▁thing:762
▁бастап:763
▁start:764
▁against:765
мыз:766
▁little:767
мын:768
▁came:769
дегі:770
ші:771
з:772
▁пайда:773
▁жылдың:774
▁order:775
▁house:776
▁АҚШ:777
▁Біздің:778
▁business:779
▁соңғы:780
▁бала:781
The:782
▁again:783
▁let:784
▁done:785
▁working:786
сіз:787
▁нәрсе:788
▁сәйкес:789
▁оларды:790
▁осындай:791
▁сен:792
▁15:793
▁found:794
▁believe:795
▁hand:796
▁read:797
▁өткен:798
▁кім:799
▁C:800
▁fact:801
▁егер:802
▁example:803
▁Алайда:804
▁неге:805
▁әрі:806
▁second:807
▁•:808
▁students:809
▁келіп:810
▁tell:811
тар:812
▁аз:813
▁Енді:814
▁women:815
▁айтты:816
▁ақша:817
▁қиын:818
▁жер:819
▁case:820
▁young:821
ə:822
ында:823
▁keep:824
лер:825
▁12:826
▁мені:827
▁went:828
▁book:829
▁жылдан:830
▁understand:831
лы:832
▁future:833
▁set:834
▁Ең:835
▁body:836
n:837
▁жүзеге:838
▁үй:839
▁asked:840
▁келді:841
▁сайын:842
▁mother:843
▁тіпті:844
▁After:845
▁Let:846
r:847
▁already:848
тен:849
▁called:850
▁30:851
▁18:852
ма:853
▁толық:854
▁келе:855
▁қалған:856
е:857
▁қатты:858
▁түрлі:859
We:860
▁night:861
▁алғашқы:862
o:863
інің:864
▁Don:865
▁become:866
▁сондай:867
▁company:868
▁play:869
▁Now:870
дай:871
▁бері:872
▁show:873
дық:874
▁мемлекеттік:875
ыңыз:876
▁алды:877
▁high:878
▁enough:879
▁means:880
al:881
▁мұндай:882
▁since:883
▁отырып:884
▁ие:885
▁His:886
▁language:887
тер:888
es:889
▁берді:890
▁point:891
▁Қазір:892
▁looking:893
▁support:894
▁бола:895
▁process:896
▁law:897
▁қай:898
▁father:899
▁Why:900
▁негізгі:901
▁білім:902
▁бізге:903
▁words:904
▁орын:905
▁етеді:906
▁екінші:907
▁отырған:908
й:909
▁problem:910
▁S:911
▁одан:912
қ:913
ымыз:914
▁question:915
▁ойын:916
▁heart:917
▁hard:918
▁human:919
▁С:920
A:921
▁until:922
▁won:923
▁А:924
▁game:925
▁says:926
▁9:927
▁та:928
▁барлығы:929
▁едім:930
2:931
▁ала:932
▁try:933
▁жас:934
▁жолы:935
ған:936
▁small:937
▁city:938
▁possible:939
▁оқу:940
ers:941
▁told:942
▁yourself:943
▁men:944
▁These:945
▁ел:946
▁адамның:947
дер:948
▁care:949
▁power:950
▁алуға:951
▁often:952
▁келесі:953
▁both:954
▁11:955
ш:956
▁free:957
▁started:958
▁group:959
▁Олардың:960
▁friends:961
▁sure:962
б:963
▁without:964
▁болмайды:965
▁re:966
▁together:967
▁job:968
▁қалды:969
▁ерекше:970
▁doing:971
▁mind:972
▁б:973
▁өйткені:974
▁Әрине:975
▁сондықтан:976
▁ақпарат:977
▁нақты:978
лік:979
▁қыз:980
▁шығар:981
▁countries:982
▁қазіргі:983
▁car:984
▁area:985
▁word:986
▁_:987
▁food:988
▁months:989
▁isn:990
▁Қазақстан:991
▁алмайды:992
▁ж:993
▁ай:994
▁бүкіл:995
▁trying:996
▁қамтамасыз:997
▁week:998
▁балалар:999
▁су:1000
▁Then:1001
▁болу:1002
▁B:1003
▁son:1004
▁took:1005
▁given:1006
ңыз:1007
▁к:1008
▁болар:1009
▁might:1010
▁New:1011
▁public:1012
▁Тек:1013
▁жүрген:1014
▁пе:1015
▁parents:1016
▁жағдай:1017
мін:1018
лардың:1019
▁кетті:1020
▁әлеуметтік:1021
▁т:1022
▁айта:1023
▁woman:1024
▁Сондай:1025
▁айтады:1026
▁following:1027
1:1028
▁social:1029
▁ұзақ:1030
▁everything:1031
▁Сіздің:1032
▁Some:1033
▁іске:1034
▁shall:1035
▁ago:1036
▁experience:1037
▁project:1038
▁thought:1039
▁себебі:1040
▁age:1041
ымды:1042
▁мына:1043
▁берген:1044
▁с:1045
▁жалғыз:1046
▁өтті:1047
▁development:1048
▁жан:1049
▁Our:1050
міз:1051
▁Your:1052
▁friend:1053
▁әсер:1054
▁data:1055
▁level:1056
▁open:1057
▁mean:1058
▁тұрған:1059
▁U:1060
▁жақын:1061
▁кеткен:1062
▁others:1063
▁far:1064
тық:1065
▁Яғни:1066
▁болсын:1067
▁result:1068
▁қарап:1069
▁Тіпті:1070
▁бүгін:1071
▁China:1072
▁needs:1073
▁kind:1074
▁көз:1075
▁having:1076
▁while:1077
▁D:1078
▁idea:1079
▁seen:1080
▁жасау:1081
▁Қазіргі:1082
▁four:1083
▁Барлық:1084
ып:1085
▁side:1086
▁Себебі:1087
г:1088
▁girl:1089
▁кейбір:1090
▁ask:1091
и:1092
▁anything:1093
▁Жаңа:1094
▁death:1095
▁talk:1096
▁past:1097
▁сағат:1098
▁better:1099
▁story:1100
▁қанша:1101
▁learn:1102
▁алдында:1103
▁service:1104
▁16:1105
▁жалпы:1106
іңіз:1107
▁[:1108
▁Kazakhstan:1109
▁ешқашан:1110
▁someone:1111
▁14:1112
са:1113
▁team:1114
▁саны:1115
▁17:1116
▁E:1117
▁call:1118
▁pay:1119
▁taken:1120
▁арасында:1121
▁дәл:1122
▁members:1123
▁әйел:1124
▁several:1125
▁керемет:1126
▁left:1127
▁history:1128
▁басты:1129
▁local:1130
Мен:1131
▁light:1132
▁жайлы:1133
]:1134
▁comes:1135
▁жылғы:1136
3:1137
▁оңай:1138
▁full:1139
▁whole:1140
▁United:1141
▁real:1142
▁мың:1143
▁Here:1144
▁within:1145
▁war:1146
▁әрбір:1147
▁көріп:1148
D:1149
▁ешкім:1150
▁decision:1151
▁wanted:1152
▁living:1153
ні:1154
▁remember:1155
▁мәселе:1156
▁атап:1157
▁later:1158
▁Who:1159
▁Алла:1160
▁Сен:1161
▁room:1162
ша:1163
▁бәрін:1164
▁Мұндай:1165
▁P:1166
▁Is:1167
▁жиі:1168
▁жүр:1169
▁nothing:1170
▁however:1171
▁талап:1172
▁true:1173
▁control:1174
▁дайын:1175
▁қала:1176
▁Жалпы:1177
▁те:1178
ім:1179
▁Өйткені:1180
▁making:1181
▁Of:1182
▁астам:1183
▁happy:1184
сың:1185
іміз:1186
▁difficult:1187
▁ету:1188
▁special:1189
▁ready:1190
▁using:1191
▁арнайы:1192
▁An:1193
▁least:1194
▁жай:1195
c:1196
▁етіп:1197
▁ешқандай:1198
▁community:1199
▁алатын:1200
▁health:1201
▁answer:1202
▁easy:1203
▁көмек:1204
▁қара:1205
▁States:1206
▁continue:1207
▁жылға:1208
▁bad:1209
▁артық:1210
▁reason:1211
ынан:1212
▁known:1213
▁қарағанда:1214
ау:1215
▁kids:1216
▁though:1217
лары:1218
▁five:1219
▁stop:1220
▁questions:1221
or:1222
▁мемлекет:1223
▁T:1224
▁бірдей:1225
▁Дегенмен:1226
▁&:1227
▁month:1228
▁getting:1229
▁ауыр:1230
▁First:1231
▁once:1232
дей:1233
ларды:1234
▁hope:1235
▁көрсету:1236
▁program:1237
▁step:1238
▁face:1239
▁Are:1240
▁па:1241
▁оларға:1242
▁Бүгін:1243
▁барып:1244
▁Өз:1245
▁қосымша:1246
▁yet:1247
▁2019:1248
▁provide:1249
▁hours:1250
▁тез:1251
▁main:1252
▁ойлаймын:1253
▁100:1254
▁run:1255
▁Оны:1256
▁Содан:1257
▁бөлігі:1258
▁heard:1259
▁халықаралық:1260
▁World:1261
▁шыққан:1262
▁25:1263
▁туған:1264
▁issue:1265
▁а:1266
▁қарапайым:1267
▁People:1268
to:1269
▁lost:1270
C:1271
▁айтқан:1272
▁2020:1273
▁қой:1274
ғы:1275
the:1276
▁тұрады:1277
▁close:1278
▁өзін:1279
▁жасаған:1280
▁ашық:1281
тік:1282
▁13:1283
▁алмай:1284
▁Russia:1285
▁form:1286
▁coming:1287
▁political:1288
▁With:1289
▁ер:1290
▁problems:1291
▁international:1292
▁көңіл:1293
▁шығып:1294
інде:1295
▁еңбек:1296
▁land:1297
▁ұлттық:1298
дік:1299
ың:1300
You:1301
▁rights:1302
▁period:1303
▁saying:1304
▁Many:1305
▁қана:1306
келген:1307
▁қарым:1308
▁сақтау:1309
▁short:1310
▁leave:1311
▁music:1312
▁move:1313
ай:1314
▁қайда:1315
▁жөн:1316
▁шықты:1317
▁personal:1318
▁among:1319
▁cannot:1320
▁wife:1321
▁saw:1322
▁big:1323
▁Well:1324
▁рұқсат:1325
▁article:1326
▁necessary:1327
▁аса:1328
сін:1329
▁seems:1330
▁head:1331
▁жасап:1332
▁бес:1333
▁bring:1334
▁clear:1335
▁жағынан:1336
▁2017:1337
▁State:1338
g:1339
▁un:1340
▁ештеңе:1341
▁Lord:1342
b:1343
4:1344
▁таңда:1345
▁қолдау:1346
able:1347
▁24:1348
▁write:1349
▁кем:1350
▁million:1351
▁Today:1352
▁list:1353
▁front:1354
▁English:1355
▁2018:1356
▁matter:1357
▁жерге:1358
B:1359
▁50:1360
ңіз:1361
▁large:1362
▁Балалар:1363
▁fire:1364
...":1365
▁әлем:1366
▁міндетті:1367
▁truth:1368
▁early:1369
тағы:1370
▁plan:1371
▁Б:1372
▁F:1373
▁бүгінгі:1374
сына:1375
▁President:1376
▁бет:1377
С:1378
▁phone:1379
▁ever:1380
▁self:1381
▁келетін:1382
сі:1383
▁works:1384
▁video:1385
▁situation:1386
▁based:1387
▁пайдалану:1388
▁Сонда:1389
▁тиімді:1390
▁earth:1391
▁Мысалы:1392
▁Even:1393
▁түрі:1394
▁actually:1395
▁half:1396
▁көрген:1397
▁секілді:1398
імді:1399
▁results:1400
▁per:1401
▁халық:1402
▁беріп:1403
▁бірден:1404
▁жасауға:1405
▁Келесі:1406
▁біледі:1407
▁былай:1408
▁Міне:1409
▁Және:1410
▁барысында:1411
▁began:1412
▁2016:1413
▁create:1414
▁Әр:1415
ше:1416
▁hear:1417
▁minutes:1418
▁morning:1419
▁Маған:1420
▁According:1421
▁lives:1422
ness:1423
▁role:1424
▁makes:1425
▁eat:1426
▁eyes:1427
▁themselves:1428
▁сені:1429
▁taking:1430
ме:1431
It:1432
▁қорғау:1433
▁baby:1434
▁wasn:1435
▁born:1436
▁stay:1437
▁саған:1438
▁шын:1439
▁алдымен:1440
▁Re:1441
▁M:1442
▁Екі:1443
▁services:1444
▁Because:1445
▁song:1446
лі:1447
▁wrong:1448
▁тегін:1449
▁died:1450
▁available:1451
▁From:1452
▁became:1453
▁күнге:1454
▁held:1455
▁кеңес:1456
▁адамға:1457
▁By:1458
▁сізді:1459
▁ақ:1460
▁М:1461
▁G:1462
▁online:1463
▁шешім:1464
▁husband:1465
▁болмаса:1466
▁оқып:1467
ген:1468
▁сонымен:1469
▁төмен:1470
▁берілген:1471
▁бара:1472
▁істеу:1473
▁алдын:1474
▁дегенде:1475
▁Be:1476
▁R:1477
▁21:1478
▁адамдардың:1479
▁changes:1480
▁көбірек:1481
▁төрт:1482
▁party:1483
▁ways:1484
▁building:1485
▁орай:1486
▁2015:1487
▁turn:1488
▁knowledge:1489
▁economic:1490
▁ой:1491
▁бастады:1492
▁жаман:1493
▁upon:1494
kz:1495
▁19:1496
ов:1497
▁third:1498
G:1499
▁education:1500
▁саяси:1501
ымен:1502
▁жасалған:1503
▁айтуынша:1504
▁Or:1505
▁daughter:1506
▁Russian:1507
▁үнемі:1508
▁brother:1509
▁K:1510
▁himself:1511
▁everyone:1512
▁US:1513
▁тым:1514
▁Оған:1515
▁арасындағы:1516
▁үйде:1517
▁art:1518
▁else:1519
?!:1520
▁interest:1521
▁knew:1522
▁40:1523
▁Republic:1524
▁тұрақты:1525
▁аламын:1526
▁өзіне:1527
▁бере:1528
▁common:1529
▁study:1530
▁line:1531
▁К:1532
▁O:1533
▁market:1534
▁share:1535
ыңызды:1536
▁аламыз:1537
▁м:1538
▁type:1539
▁жеткілікті:1540
▁солай:1541
▁meeting:1542
▁тікелей:1543
▁ə:1544
тардың:1545
▁e:1546
▁танымал:1547
an:1548
▁Not:1549
▁заң:1550
▁speak:1551
▁қаржы:1552
▁decided:1553
▁тұрып:1554
нде:1555
),:1556
▁қарамастан:1557
▁қажетті:1558
man:1559
▁әдемі:1560
▁басым:1561
▁жергілікті:1562
x:1563
▁келмейді:1564
▁relationship:1565
сің:1566
▁Құдай:1567
▁issues:1568
▁beginning:1569
▁especially:1570
▁financial:1571
▁website:1572
on:1573
▁test:1574
▁moment:1575
▁қызықты:1576
▁істейді:1577
▁назар:1578
▁N:1579
▁gave:1580
▁ірі:1581
Біз:1582
▁provided:1583
▁beautiful:1584
▁products:1585
▁тауып:1586
▁еш:1587
▁rest:1588
▁created:1589
▁present:1590
▁білу:1591
о:1592
▁hands:1593
▁society:1594
▁экономикалық:1595
up:1596
▁әрқашан:1597
▁dream:1598
ту:1599
▁айында:1600
▁event:1601
▁Can:1602
▁Since:1603
▁жасай:1604
▁European:1605
▁field:1606
▁сенің:1607
▁көрінеді:1608
▁various:1609
▁топ:1610
▁Ресей:1611
▁buy:1612
▁түсті:1613
▁written:1614
▁media:1615
дардың:1616
▁он:1617
T:1618
▁анық:1619
▁meet:1620
▁police:1621
▁strong:1622
▁return:1623
▁Day:1624
▁көрсетеді:1625
▁talking:1626
▁die:1627
▁жігіт:1628
▁алмаймын:1629
▁сай:1630
▁aren:1631
▁attention:1632
▁Мүмкін:1633
▁policy:1634
бай:1635
▁сұрақ:1636
▁беретін:1637
▁Т:1638
▁содан:1639
ation:1640
▁келсе:1641
▁қалады:1642
▁яғни:1643
▁happened:1644
▁мұны:1645
▁natural:1646
іп:1647
▁өзге:1648
▁нәрсені:1649
What:1650
▁nature:1651
▁opportunity:1652
▁longer:1653
▁needed:1654
▁Соңғы:1655
▁орналасқан:1656
Бұл:1657
▁біраз:1658
▁соңында:1659
▁account:1660
▁Europe:1661
▁changed:1662
ымызды:1663
▁writing:1664
▁dead:1665
▁post:1666
▁cases:1667
▁тап:1668
▁amount:1669
▁including:1670
k:1671
▁outside:1672
ің:1673
▁күш:1674
▁forget:1675
▁site:1676
▁single:1677
▁тең:1678
▁беріледі:1679
▁мектеп:1680
▁national:1681
▁баға:1682
▁forward:1683
▁?:1684
▁bit:1685
year:1686
▁таба:1687
▁South:1688
▁top:1689
▁sent:1690
тегі:1691
l:1692
▁town:1693
▁орны:1694
▁energy:1695
▁Бүгінгі:1696
p:1697
▁film:1698
▁тура:1699
▁news:1700
▁choose:1701
▁product:1702
▁sense:1703
▁қазақ:1704
▁anyone:1705
▁quite:1706
▁books:1707
▁кітап:1708
▁ішкі:1709
▁air:1710
ла:1711
▁simple:1712
▁2014:1713
А:1714
▁according:1715
ж:1716
▁ұлы:1717
▁таңдау:1718
▁research:1719
ce:1720
▁байланыс:1721
▁аты:1722
▁certain:1723
▁адамды:1724
▁Қытай:1725
▁Dur:1726
▁әсіресе:1727
▁ones:1728
бір:1729
▁елдің:1730
▁value:1731
▁wants:1732
▁follow:1733
▁games:1734
▁әрине:1735
інен:1736
▁areas:1737
▁ресми:1738
▁О:1739
▁оң:1740
сының:1741
іңізді:1742
▁мұнда:1743
▁айтқанда:1744
▁салып:1745
W:1746
▁ана:1747
▁Сізге:1748
▁ән:1749
▁takes:1750
▁етті:1751
▁key:1752
▁Most:1753
▁turned:1754
▁quality:1755
old:1756
h:1757
ity:1758
▁сенімді:1759
▁бізді:1760
▁brought:1761
▁Неге:1762
▁тұратын:1763
▁currently:1764
▁өнер:1765
▁өзім:1766
▁soon:1767
▁осылай:1768
▁May:1769
▁бол:1770
K:1771
ру:1772
▁онлайн:1773
▁current:1774
▁less:1775
▁technology:1776
▁thinking:1777
▁белсенді:1778
▁goes:1779
▁peace:1780
▁білдіреді:1781
▁0:1782
V:1783
▁*:1784
▁Не:1785
▁зор:1786
▁болғанын:1787
▁кең:1788
▁әйелдер:1789
▁Where:1790
▁married:1791
▁deal:1792
▁2013:1793
▁22:1794
▁жылдары:1795
▁жатады:1796
▁myself:1797
▁behind:1798
▁Jesus:1799
▁V:1800
▁бос:1801
▁purpose:1802
▁happen:1803
▁бастысы:1804
▁әрекет:1805
▁companies:1806
▁жасайды:1807
▁беруге:1808
▁worked:1809
▁goal:1810
P:1811
▁weeks:1812
▁шығады:1813
▁industry:1814
▁жазып:1815
▁Басқа:1816
▁due:1817
▁along:1818
▁reading:1819
▁отбасы:1820
▁six:1821
▁wouldn:1822
ан:1823
▁hold:1824
▁non:1825
▁сауда:1826
▁жүріп:1827
▁қойған:1828
▁әртүрлі:1829
▁Мұнда:1830
▁itself:1831
▁білемін:1832
▁student:1833
5:1834
▁орта:1835
▁member:1836
▁offer:1837
▁blood:1838
▁door:1839
▁towards:1840
▁entire:1841
▁region:1842
лердің:1843
▁particular:1844
▁American:1845
▁Therefore:1846
▁қажеті:1847
▁өтеді:1848
▁қалпына:1849
▁de:1850
E:1851
▁National:1852
▁адамдарға:1853
▁respect:1854
▁complete:1855
▁sound:1856
st:1857
▁subject:1858
▁effect:1859
▁view:1860
▁кетеді:1861
▁playing:1862
▁қоса:1863
ыңды:1864
▁алғаш:1865
▁тамаша:1866
х:1867
▁worth:1868
▁мән:1869
▁Me:1870
▁басшысы:1871
▁пайдалы:1872
▁мүмкіндігі:1873
▁басында:1874
▁қашан:1875
en:1876
▁whether:1877
▁success:1878
▁states:1879
▁wait:1880
ка:1881
▁дүние:1882
▁түскен:1883
▁2012:1884
▁usually:1885
▁қоғамдық:1886
▁class:1887
▁L:1888
▁listen:1889
▁сонда:1890
▁basis:1891
ism:1892
▁кейде:1893
▁date:1894
▁Е:1895
▁War:1896
▁апта:1897
▁report:1898
▁тиісті:1899
▁lead:1900
ыма:1901
!!!:1902
▁ететін:1903
▁position:1904
▁couple:1905
ларын:1906
гі:1907
▁басқару:1908
▁wrote:1909
▁кішкентай:1910
▁таң:1911
▁бұрынғы:1912
▁tried:1913
▁culture:1914
▁миллион:1915
▁көлік:1916
▁Бірінші:1917
▁бұған:1918
▁екені:1919
▁болғаны:1920
▁қалып:1921
▁тыс:1922
▁Кейде:1923
▁H:1924
ic:1925
▁Chinese:1926
▁әрдайым:1927
лап:1928
▁co:1929
▁boy:1930
▁әңгіме:1931
▁таза:1932
▁оқиға:1933
▁болатынын:1934
▁sometimes:1935
▁terms:1936
▁general:1937
▁Кейбір:1938
▁couldn:1939
▁teacher:1940
▁similar:1941
▁еткен:1942
▁еске:1943
▁events:1944
▁әскери:1945
▁Every:1946
▁өтіп:1947
▁минут:1948
▁жүйесі:1949
▁above:1950
▁кісі:1951
▁required:1952
▁security:1953
▁addition:1954
▁Have:1955
▁Көп:1956
▁knows:1957
▁sleep:1958
▁Екінші:1959
▁Government:1960
▁interesting:1961
▁girls:1962
▁кейінгі:1963
▁жазу:1964
▁табу:1965
▁жоба:1966
▁#:1967
▁cost:1968
▁movie:1969
▁орнына:1970
▁[...]:1971
▁қолдану:1972
▁foreign:1973
ларға:1974
▁action:1975
▁істеп:1976
▁мақсаты:1977
▁alone:1978
▁жерден:1979
▁continued:1980
▁қаншалықты:1981
▁болуға:1982
▁Just:1983
▁отырмын:1984
▁gone:1985
▁specific:1986
сында:1987
▁жазған:1988
▁күнде:1989
▁Ұлттық:1990
▁сот:1991
us:1992
▁ойымша:1993
▁аталған:1994
▁соның:1995
▁choice:1996
▁learning:1997
тердің:1998
▁International:1999
com:2000
тарды:2001
▁салу:2002
▁Life:2003
▁өздерінің:2004
▁allowed:2005
▁medical:2006
▁түсіп:2007
M:2008
▁quickly:2009
▁stage:2010
▁қабылдау:2011
▁military:2012
▁cause:2013
▁Жақсы:2014
▁term:2015
▁ойлап:2016
▁production:2017
▁үйге:2018
лау:2019
▁legal:2020
▁кетіп:2021
тай:2022
▁отырмыз:2023
▁қолға:2024
▁Иә:2025
▁болдым:2026
▁faith:2027
нда:2028
▁office:2029
▁ас:2030
▁қысқа:2031
6:2032
▁Go:2033
▁анықтау:2034
▁chance:2035
▁Man:2036
ар:2037
▁road:2038
▁Her:2039
▁Тағы:2040
▁ұстап:2041
▁жұмысқа:2042
се:2043
▁соғыс:2044
▁practice:2045
▁focus:2046
▁алдым:2047
▁бөлек:2048
▁теңге:2049
ра:2050
▁бен:2051
▁groups:2052
▁major:2053
▁тыйым:2054
▁received:2055
▁2011:2056
▁low:2057
▁Take:2058
імен:2059
▁қан:2060
▁visit:2061
▁Each:2062
▁Осындай:2063
▁picture:2064
▁fall:2065
▁doctor:2066
▁жылдар:2067
▁stand:2068
▁үшінші:2069
▁involved:2070
▁grow:2071
▁growth:2072
▁hour:2073
▁болсаңыз:2074
▁халықтың:2075
▁бізде:2076
▁Бас:2077
▁allow:2078
▁build:2079
▁23:2080
ғ:2081
▁жөніндегі:2082
▁мәнінде:2083
F:2084
▁nation:2085
▁eye:2086
▁felt:2087
▁fight:2088
я:2089
▁conditions:2090
▁waiting:2091
▁Адам:2092
▁бақытты:2093
▁бақылау:2094
▁activities:2095
▁Бала:2096
▁пайдалануға:2097
▁economy:2098
▁айту:2099
▁fear:2100
▁жуық:2101
▁кезеңде:2102
▁ақпаратты:2103
▁сабақ:2104
▁жатқанын:2105
▁боп:2106
▁running:2107
▁June:2108
f:2109
▁learned:2110
▁ағылшын:2111
▁ғылыми:2112
▁projects:2113
▁орындау:2114
▁бай:2115
it:2116
▁1.:2117
ion:2118
▁c:2119
▁шағын:2120
▁жасады:2121
▁wish:2122
▁зерттеу:2123
тары:2124
▁Көптеген:2125
▁protect:2126
▁individual:2127
▁save:2128
▁built:2129
тын:2130
▁Ж:2131
▁Өткен:2132
▁барады:2133
▁March:2134
▁Бар:2135
ер:2136
▁қолданылады:2137
▁training:2138
7:2139
▁considered:2140
▁computer:2141
▁looked:2142
N:2143
▁шынымен:2144
▁қайтадан:2145
▁болмаған:2146
▁America:2147
▁win:2148
▁sign:2149
▁pre:2150
▁Ата:2151
▁мүлдем:2152
▁difference:2153
▁шығу:2154
▁design:2155
▁September:2156
▁көре:2157
▁method:2158
▁increase:2159
▁animals:2160
▁price:2161
▁көреді:2162
▁бер:2163
▁ұқсас:2164
▁paper:2165
ди:2166
▁Google:2167
▁met:2168
▁>:2169
▁walk:2170
ады:2171
▁Мына:2172
▁көпшілігі:2173
▁дегеніміз:2174
▁voice:2175
▁meaning:2176
▁impact:2177
▁Ақ:2178
▁жазылған:2179
▁weight:2180
Т:2181
▁жастағы:2182
▁алдағы:2183
▁interested:2184
▁Home:2185
▁дейінгі:2186
▁осында:2187
▁access:2188
▁табыс:2189
▁құру:2190
ба:2191
▁сыртқы:2192
▁reasons:2193
▁шынайы:2194
▁телефон:2195
▁күтіп:2196
ist:2197
▁табиғи:2198
▁January:2199
▁алға:2200
▁біреу:2201
▁material:2202
▁almost:2203
▁content:2204
▁Israel:2205
▁ондай:2206
▁асыру:2207
8:2208
▁Одан:2209
▁бизнес:2210
▁тіл:2211
▁жарық:2212
▁жеткізу:2213
імізді:2214
▁space:2215
▁есеп:2216
▁компания:2217
▁шамамен:2218
▁себеп:2219
▁көмектеседі:2220
ен:2221
▁travel:2222
▁деңгейде:2223
▁ауыл:2224
▁court:2225
▁seem:2226
▁керектігін:2227
▁ҚР:2228
▁moved:2229
Б:2230
▁shows:2231
▁Басты:2232
▁жөнінде:2233
▁д:2234
терді:2235
▁completely:2236
▁July:2237
O:2238
▁қайтыс:2239
▁afraid:2240
▁мал:2241
▁summer:2242
▁веб:2243
▁есе:2244
▁рас:2245
▁certainly:2246
▁University:2247
▁о:2248
▁played:2249
▁across:2250
▁watch:2251
▁president:2252
бек:2253
▁families:2254
▁Айта:2255
▁екендігін:2256
▁seven:2257
▁білетін:2258
▁28:2259
▁дауыс:2260
▁бермейді:2261
▁келгенде:2262
▁break:2263
▁қойды:2264
атын:2265
▁responsibility:2266
▁successful:2267
▁1-:2268
▁хабар:2269
▁rules:2270
▁condition:2271
▁В:2272
▁types:2273
▁guy:2274
▁killed:2275
u:2276
ment:2277
▁қадам:2278
▁себепті:2279
▁хат:2280
▁middle:2281
▁fish:2282
▁күндері:2283
▁lose:2284
▁60:2285
▁ерте:2286
▁өздері:2287
▁Дәл:2288
▁жетті:2289
▁жылда:2290
▁пікір:2291
▁treatment:2292
дердің:2293
▁therefore:2294
▁едік:2295
▁іздеп:2296
лері:2297
▁check:2298
rs:2299
▁W:2300
▁арада:2301
▁алынған:2302
▁feeling:2303
▁ground:2304
▁тірі:2305
▁Шын:2306
▁қою:2307
▁poor:2308
▁әлемдегі:2309
▁Президент:2310
▁сурет:2311
▁мықты:2312
▁risk:2313
▁баланың:2314
ю:2315
▁басып:2316
▁force:2317
▁search:2318
▁Осыған:2319
мды:2320
na:2321
▁application:2322
▁Мемлекет:2323
▁Д:2324
▁уақыты:2325
дарды:2326
▁final:2327
▁construction:2328
▁lived:2329
▁2010:2330
▁үздік:2331
▁systems:2332
▁aware:2333
▁sun:2334
▁safe:2335
▁қызметі:2336
▁tree:2337
▁өзара:2338
▁evil:2339
▁percent:2340
▁жағдайы:2341
▁Осылайша:2342
▁негізінде:2343
▁steps:2344
▁population:2345
▁Алланың:2346
▁Осыдан:2347
▁бастайды:2348
▁күшті:2349
▁Жұмыс:2350
▁26:2351
▁қоғам:2352
▁importance:2353
▁birth:2354
▁sister:2355
▁жүреді:2356
▁бағасы:2357
▁келісім:2358
▁disease:2359
▁жылдық:2360
▁haven:2361
▁City:2362
▁Әрбір:2363
▁ортақ:2364
This:2365
▁күнделікті:2366
▁Қай:2367
▁tax:2368
лерді:2369
▁cut:2370
▁дегенді:2371
▁Ай:2372
▁version:2373
He:2374
▁provides:2375
▁2008:2376
▁даму:2377
іңді:2378
▁begin:2379
▁page:2380
▁perfect:2381
▁емеспін:2382
▁send:2383
▁тапқан:2384
▁Once:2385
▁developed:2386
▁салынған:2387
▁environment:2388
▁board:2389
▁sell:2390
▁П:2391
▁spend:2392
▁daily:2393
▁clean:2394
▁Кейін:2395
▁message:2396
▁қымбат:2397
▁айналды:2398
▁мәселені:2399
▁2009:2400
▁әлде:2401
уы:2402
▁Ойын:2403
▁helped:2404
▁series:2405
тері:2406
шылар:2407
▁$:2408
▁rule:2409
▁doubt:2410
▁көрсетті:2411
▁ability:2412
▁атты:2413
▁sea:2414
▁түседі:2415
▁total:2416
▁Internet:2417
▁аман:2418
▁ауа:2419
▁орыс:2420
▁күрделі:2421
▁тексеру:2422
▁өзіңіз:2423
▁trust:2424
▁Those:2425
▁response:2426
and:2427
▁алмады:2428
▁Union:2429
▁уақытқа:2430
▁көрсетілген:2431
▁ем:2432
less:2433
▁білесіз:2434
▁hospital:2435
▁sold:2436
▁білеміз:2437
▁becomes:2438
▁management:2439
▁property:2440
▁об:2441
▁parts:2442
▁бұдан:2443
▁жағдайларда:2444
▁Facebook:2445
ти:2446
▁More:2447
▁December:2448
тау:2449
▁Үй:2450
▁өзгерістер:2451
▁ideas:2452
▁House:2453
уға:2454
▁білмеймін:2455
>:2456
▁October:2457
▁allows:2458
▁April:2459
М:2460
▁Mr:2461
▁TV:2462
деп:2463
га:2464
▁әлдеқайда:2465
▁көрдім:2466
▁Бұдан:2467
▁Жер:2468
▁ат:2469
▁қа:2470
▁drink:2471
▁қайдан:2472
▁century:2473
▁probably:2474
▁қауіпті:2475
▁ет:2476
▁елде:2477
▁Department:2478
▁Will:2479
▁letter:2480
▁popular:2481
▁North:2482
ли:2483
ыңызға:2484
▁өтініш:2485
▁жылдам:2486
▁27:2487
▁тілінде:2488
▁деректер:2489
ындағы:2490
co:2491
▁жұмысын:2492
▁әлемдік:2493
▁тамақ:2494
▁жүйе:2495
▁understanding:2496
%:2497
If:2498
▁active:2499
▁safety:2500
дым:2501
▁мақала:2502
▁әдетте:2503
▁Earth:2504
▁заңды:2505
▁Windows:2506
▁ескі:2507
▁рахмет:2508
▁paid:2509
▁Two:2510
▁responsible:2511
▁thank:2512
▁Мені:2513
▁throughout:2514
▁Council:2515
ала:2516
▁immediately:2517
▁екеуі:2518
▁Only:2519
▁жасқа:2520
▁Күн:2521
би:2522
▁effective:2523
ин:2524
▁сәтте:2525
▁жеті:2526
▁kill:2527
▁киім:2528
▁activity:2529
▁билік:2530
▁айтуға:2531
▁күннен:2532
▁Қандай:2533
▁Кез:2534
▁inside:2535
▁agree:2536
▁related:2537
▁сүйікті:2538
▁happens:2539
▁spent:2540
▁fast:2541
▁істей:2542
▁pressure:2543
▁bank:2544
▁тілі:2545
▁late:2546
▁organization:2547
▁published:2548
ive:2549
▁медициналық:2550
▁Also:2551
▁J:2552
▁жауапты:2553
▁previous:2554
▁болғандықтан:2555
▁Мұның:2556
▁winter:2557
▁құқық:2558
▁жеңіл:2559
▁қызық:2560
▁У:2561
▁бағдарлама:2562
▁official:2563
In:2564
w:2565
▁carried:2566
▁болмады:2567
▁season:2568
▁positive:2569
▁receive:2570
ry:2571
▁жүргізу:2572
▁science:2573
▁Қалай:2574
▁өнім:2575
▁mentioned:2576
▁significant:2577
▁адамдарды:2578
▁August:2579
▁India:2580
▁жатырмыз:2581
▁көру:2582
▁secret:2583
▁ensure:2584
▁өзінде:2585
▁у:2586
ымызға:2587
▁тапсырыс:2588
▁істер:2589
▁Мәселен:2590
▁ten:2591
▁Алматы:2592
▁аға:2593
Д:2594
▁Children:2595
▁Get:2596
▁pain:2597
дары:2598
▁Қыз:2599
К:2600
па:2601
▁қаласында:2602
▁алыңыз:2603
▁plans:2604
▁қалыпты:2605
▁loved:2606
▁сөздер:2607
▁near:2608
▁Q:2609
z:2610
▁consider:2611
▁азамат:2612
▁rate:2613
▁соны:2614
H:2615
▁schools:2616
▁fun:2617
▁шығару:2618
▁looks:2619
▁қызметкерлері:2620
▁table:2621
▁Minister:2622
▁Мемлекеттік:2623
▁бастаған:2624
▁either:2625
▁evidence:2626
▁қауіп:2627
▁шығарып:2628
▁Ер:2629
▁code:2630
▁қауіпсіздік:2631
▁internet:2632
My:2633
▁тұрғын:2634
▁полиция:2635
▁act:2636
▁physical:2637
▁Good:2638
іңізге:2639
▁жеткен:2640
▁қосу:2641
▁opinion:2642
▁тәжірибе:2643
▁pretty:2644
▁арқасында:2645
▁While:2646
▁жаза:2647
▁Next:2648
▁өзіңіздің:2649
▁Барлығы:2650
▁болсақ:2651
▁барлығын:2652
▁күніне:2653
дарын:2654
▁correct:2655
▁Sometimes:2656
▁Еуропа:2657
▁players:2658
▁Before:2659
▁extremely:2660
▁De:2661
▁enjoy:2662
ия:2663
▁record:2664
▁loss:2665
▁ұсынады:2666
▁Онда:2667
▁жайында:2668
le:2669
▁сала:2670
▁жазды:2671
9:2672
▁сұрады:2673
▁жастар:2674
▁мол:2675
▁мысалы:2676
▁path:2677
▁original:2678
▁released:2679
▁нәтиже:2680
▁thousands:2681
▁gives:2682
▁Қара:2683
▁сайлау:2684
▁Мұны:2685
▁сәл:2686
▁іздеу:2687
▁Co:2688
▁truly:2689
▁кәсіби:2690
▁бағытта:2691
▁алғанда:2692
time:2693
▁тастап:2694
▁starting:2695
▁білген:2696
▁trip:2697
▁Соның:2698
▁further:2699
дығы:2700
▁әлемде:2701
▁passed:2702
▁section:2703
▁author:2704
▁trade:2705
-19:2706
ie:2707
▁болмауы:2708
▁істеген:2709
▁fully:2710
▁X:2711
▁ourselves:2712
▁толығымен:2713
▁тұлға:2714
▁терең:2715
▁тарту:2716
▁established:2717
▁салық:2718
▁teachers:2719
▁average:2720
▁жету:2721
▁character:2722
ле:2723
▁ұнайды:2724
▁болмақ:2725
▁ақын:2726
▁махаббат:2727
▁Қазақстанда:2728
▁marriage:2729
су:2730
▁Иса:2731
▁тілін:2732
▁басталады:2733
▁29:2734
▁Over:2735
▁сапалы:2736
▁болғанда:2737
▁Love:2738
▁кезең:2739
el:2740
▁Although:2741
▁thousand:2742
▁жолмен:2743
▁protection:2744
▁expected:2745
▁drive:2746
▁tomorrow:2747
▁image:2748
өзі:2749
▁И:2750
▁дамыту:2751
R:2752
▁үстіне:2753
▁solution:2754
▁avoid:2755
▁Al:2756
▁мақсат:2757
▁қыздар:2758
▁жұмысы:2759
ри:2760
▁Астана:2761
▁agreement:2762
at:2763
▁баласы:2764
▁Apple:2765
ling:2766
▁charge:2767
▁кету:2768
▁resources:2769
▁global:2770
▁мәселесі:2771
▁modern:2772
▁Him:2773
▁Maybe:2774
▁led:2775
ting:2776
▁дүниеге:2777
▁сендер:2778
▁November:2779
▁laws:2780
▁сақтап:2781
▁names:2782
▁дедім:2783
▁advice:2784
жан:2785
▁доллар:2786
▁Өкінішке:2787
▁higher:2788
▁кері:2789
▁shown:2790
▁мұқият:2791
▁Make:2792
▁Оңтүстік:2793
▁деймін:2794
▁French:2795
▁achieve:2796
▁алты:2797
▁ұсыныс:2798
▁cover:2799
▁Америка:2800
▁би:2801
▁text:2802
▁teach:2803
▁қолайлы:2804
_:2805
▁easily:2806
▁тарихи:2807
▁b:2808
▁+:2809
v:2810
▁Оларды:2811
▁той:2812
▁на:2813
▁proud:2814
▁reality:2815
ia:2816
лығы:2817
▁added:2818
▁gift:2819
▁decisions:2820
▁нағыз:2821
▁елге:2822
▁көзі:2823
▁қайтып:2824
▁Жас:2825
▁істейтін:2826
▁former:2827
▁қойып:2828
▁бірқатар:2829
ь:2830
▁мақсатында:2831
▁тарихы:2832
▁жұмыстары:2833
▁staff:2834
▁moving:2835
▁жоғарғы:2836
▁тақырыбы:2837
▁o:2838
▁азық:2839
▁Бұған:2840
▁mom:2841
▁likely:2842
▁өлең:2843
▁effort:2844
ar:2845
ңдар:2846
▁center:2847
▁Father:2848
▁ашып:2849
▁task:2850
▁таныс:2851
▁тұра:2852
▁деңгейі:2853
қатынас:2854
▁directly:2855
▁Жыл:2856
▁develop:2857
▁еркін:2858
▁model:2859
no:2860
▁видео:2861
is:2862
▁1):2863
▁31:2864
▁fine:2865
▁сәтті:2866
▁өкілдері:2867
▁жүз:2868
▁біле:2869
▁біліп:2870
ат:2871
▁қауіпсіз:2872
▁жоқпын:2873
Ш:2874
▁contact:2875
▁білмейді:2876
▁Абай:2877
L:2878
▁Germany:2879
▁places:2880
▁басталды:2881
▁opened:2882
▁parties:2883
▁көремін:2884
О:2885
ty:2886
▁Unfortunately:2887
▁ақыл:2888
тап:2889
▁алмайтын:2890
▁huge:2891
te:2892
▁жұмыстар:2893
▁демалыс:2894
▁Allah:2895
▁mouth:2896
▁statement:2897
▁Нұр:2898
▁и:2899
▁Әсіресе:2900
▁village:2901
▁аталады:2902
▁мәселелер:2903
▁piece:2904
▁салған:2905
▁web:2906
▁Өмір:2907
▁leaders:2908
▁жолын:2909
▁2.:2910
▁маңызы:2911
▁growing:2912
▁талдау:2913
▁ыңғайлы:2914
▁қаза:2915
▁citizens:2916
▁source:2917
▁көмегімен:2918
▁approach:2919
▁reach:2920
Менің:2921
▁қаражат:2922
▁progress:2923
Қ:2924
▁өткізу:2925
ре:2926
▁ретте:2927
▁freedom:2928
▁points:2929
▁Thank:2930
▁Pro:2931
тарын:2932
▁employees:2933
▁айтылған:2934
▁президент:2935
▁topic:2936
▁ете:2937
▁өмірі:2938
▁direction:2939
▁барған:2940
▁әлемнің:2941
▁аптада:2942
▁explain:2943
▁сөзі:2944
▁feet:2945
▁Г:2946
de:2947
▁мұнай:2948
▁айқын:2949
▁please:2950
▁алтын:2951
▁remain:2952
▁міне:2953
▁carry:2954
▁apply:2955
▁lack:2956
▁кеш:2957
day:2958
▁reported:2959
▁sing:2960
▁80:2961
▁мәжбүр:2962
▁college:2963
ian:2964
▁айтарлықтай:2965
▁p:2966
▁East:2967
▁showed:2968
▁hit:2969
▁Another:2970
ary:2971
дығын:2972
▁Орталық:2973
X:2974
▁function:2975
▁finally:2976
▁тобы:2977
▁kept:2978
▁онымен:2979
▁release:2980
age:2981
▁range:2982
▁Bank:2983
▁сын:2984
▁2-:2985
▁Қ:2986
▁completed:2987
▁беремін:2988
▁address:2989
▁serve:2990
▁қатаң:2991
▁size:2992
▁мерзімі:2993
▁returned:2994
Why:2995
▁болашақ:2996
▁influence:2997
лу:2998
▁бейне:2999
▁Please:3000
▁improve:3001
▁балалардың:3002
▁Their:3003
ық:3004
сақ:3005
▁include:3006
▁мәні:3007
▁арзан:3008
▁prepared:3009
▁көруге:3010
▁заттар:3011
▁ahead:3012
▁exactly:3013
▁ше:3014
▁John:3015
▁соңына:3016
▁gas:3017
▁ex:3018
▁stopped:3019
▁талай:3020
▁France:3021
▁еліміздің:3022
▁90:3023
▁сұрақтар:3024
▁тән:3025
And:3026
▁realized:3027
▁белгісіз:3028
▁concept:3029
ies:3030
▁өзің:3031
▁shouldn:3032
тып:3033
▁мынадай:3034
▁сөзді:3035
▁users:3036
▁creating:3037
▁pick:3038
▁келтіру:3039
▁сенім:3040
▁жалған:3041
▁сұрап:3042
do:3043
в:3044
▁Алдыңғы:3045
ст:3046
▁iPhone:3047
ки:3048
▁қолдануға:3049
▁teaching:3050
▁иесі:3051
▁Ұлы:3052
▁hair:3053
un:3054
as:3055
▁нашар:3056
▁мүшесі:3057
▁performance:3058
▁толы:3059
▁strength:3060
дарға:3061
▁gold:3062
▁келдім:3063
▁Like:3064
▁Негізгі:3065
▁Жоқ:3066
▁attack:3067
ne:3068
▁career:3069
▁anti:3070
▁зат:3071
▁алдыңғы:3072
);:3073
▁барынша:3074
ман:3075
▁Бізге:3076
▁generation:3077
▁шаралар:3078
▁Ел:3079
▁ашу:3080
▁200:3081
▁wonderful:3082
▁designed:3083
ization:3084
ғым:3085
▁programs:3086
▁challenges:3087
▁taught:3088
▁қор:3089
▁уәде:3090
▁speed:3091
▁алмаған:3092
10:3093
▁гөрі:3094
▁болыңыз:3095
▁мәліметтер:3096
▁қызметін:3097
▁көретін:3098
▁электр:3099
J:3100
▁бастау:3101
▁сау:3102
май:3103
▁race:3104
▁Алғашқы:3105
▁Үкімет:3106
▁дос:3107
▁nice:3108
▁benefit:3109
▁patients:3110
▁көрсетіп:3111
▁languages:3112
▁tool:3113
▁ар:3114
▁70:3115
Y:3116
▁нені:3117
▁қалаған:3118
▁instead:3119
тін:3120
)::3121
▁willing:3122
▁pass:3123
▁есте:3124
▁отырады:3125
▁100%:3126
Н:3127
▁Ш:3128
▁workers:3129
▁note:3130
▁Үлкен:3131
▁February:3132
▁мемлекеттің:3133
ңызды:3134
▁астында:3135
▁түс:3136
▁жаз:3137
еді:3138
▁goals:3139
▁қаржылық:3140
▁patient:3141
майды:3142
ton:3143
▁бағалау:3144
▁giving:3145
▁в:3146
▁bus:3147
кен:3148
▁dark:3149
▁Солтүстік:3150
▁қалдым:3151
біріне:3152
▁Finally:3153
▁older:3154
▁жүзінде:3155
▁сөзсіз:3156
▁аясында:3157
▁жазба:3158
▁нәтижесінде:3159
хан:3160
▁wedding:3161
ized:3162
▁бағытталған:3163
▁methods:3164
▁Committee:3165
▁stories:3166
▁eight:3167
▁түрлері:3168
▁cities:3169
▁Law:3170
▁rather:3171
▁Су:3172
▁жүре:3173
▁етуге:3174
▁measures:3175
▁жедел:3176
▁below:3177
ларының:3178
▁тарапынан:3179
▁оқуға:3180
▁red:3181
▁айт:3182
▁Japan:3183
▁көбі:3184
▁evening:3185
am:3186
▁құрайды:3187
▁Yes:3188
▁Халықаралық:3189
▁банк:3190
*:3191
▁About:3192
▁mine:3193
▁Christ:3194
▁500:3195
▁potential:3196
▁professional:3197
▁табуға:3198
,"-:3199
▁journey:3200
▁Құдайдың:3201
▁simply:3202
▁сан:3203
▁materials:3204
▁street:3205
▁анасы:3206
▁35:3207
▁шешу:3208
▁түнде:3209
▁оқыту:3210
▁сендерге:3211
▁Аллаһ:3212
▁Бізде:3213
▁алмаймыз:3214
▁құрылған:3215
В:3216
іме:3217
▁алыс:3218
▁expect:3219
▁саналады:3220
▁Instead:3221
▁жаққа:3222
▁variety:3223
▁қар:3224
▁өту:3225
▁кедергі:3226
▁creation:3227
▁Н:3228
ни:3229
▁School:3230
▁діни:3231
▁сізде:3232
▁енгізу:3233
▁әдіс:3234
▁Oh:3235
▁техникалық:3236
▁white:3237
▁store:3238
▁served:3239
▁memory:3240
▁definitely:3241
▁sports:3242
▁береміз:3243
▁орында:3244
▁тапсырма:3245
▁York:3246
▁Party:3247
▁Жан:3248
▁style:3249
▁effects:3250
▁жау:3251
▁қонақ:3252
▁қойылған:3253
бе:3254
▁requirements:3255
▁атын:3256
ой:3257
ымыздың:3258
men:3259
▁жақында:3260
▁Year:3261
дері:3262
▁continues:3263
▁биыл:3264
▁department:3265
▁fell:3266
▁religion:3267
▁біреуі:3268
▁қ:3269
▁азаматтар:3270
▁alive:3271
▁cars:3272
There:3273
▁күннің:3274
▁dad:3275
▁skills:3276
one:3277
▁Республикасының:3278
▁committed:3279
▁Both:3280
▁compared:3281
▁Жеке:3282
ance:3283
▁дәрі:3284
▁whom:3285
▁балаларға:3286
ch:3287
Е:3288
▁jobs:3289
▁St:3290
▁2021:3291
0:3292
▁songs:3293
▁2007:3294
ф:3295
▁sex:3296
▁жете:3297
▁қару:3298
▁қараңыз:3299
▁тапты:3300
▁king:3301
▁үйдің:3302
▁rich:3303
▁құқығы:3304
ана:3305
▁Нәтижесінде:3306
▁жою:3307
▁Бірнеше:3308
▁Ministry:3309
▁Time:3310
▁crime:3311
▁join:3312
ц:3313
▁add:3314
▁құрал:3315
▁орталық:3316
▁мұның:3317
▁twice:3318
▁surprised:3319
▁істеуге:3320
▁боламыз:3321
▁benefits:3322
▁өмірде:3323
▁күрес:3324
▁soul:3325
▁ықпал:3326
▁West:3327
▁advantage:3328
▁оқушы:3329
▁useful:3330
▁gets:3331
▁device:3332
▁individuals:3333
▁түсіну:3334
▁Қазақ:3335
▁guys:3336
nd:3337
▁арттыру:3338
▁қате:3339
▁meant:3340
▁oil:3341
▁ертең:3342
▁saved:3343
▁sector:3344
▁денсаулық:3345
▁ғылым:3346
▁Өте:3347
▁көріңіз:3348
▁numbers:3349
П:3350
▁қарау:3351
▁option:3352
▁көр:3353
▁enter:3354
то:3355
▁pro:3356
▁интернет:3357
▁location:3358
ate:3359
▁discussed:3360
▁private:3361
▁ту:3362
етін:3363
▁президенті:3364
ted:3365
▁жа:3366
▁Бүгінде:3367
▁Адамдар:3368
▁leader:3369
▁amazing:3370
дерді:3371
▁дәрігер:3372
ful:3373
▁noted:3374
▁lower:3375
▁халқы:3376
▁әдісі:3377
▁Read:3378
▁file:3379
▁Last:3380
▁Ә:3381
біз:3382
▁төменгі:3383
ant:3384
▁үстінде:3385
▁recent:3386
▁өмірін:3387
▁құрылыс:3388
▁hot:3389
ra:3390
line:3391
қан:3392
▁негізінен:3393
▁seemed:3394
▁believed:3395
▁жағдайды:3396
▁actions:3397
▁пайдалана:3398
маған:3399
▁British:3400
▁plant:3401
▁Кім:3402
▁сұрайды:3403
▁Did:3404
▁prayer:3405
▁Despite:3406
of:3407
est:3408
▁dog:3409
▁мамандар:3410
лігі:3411
▁Меніңше:3412
▁алайда:3413
▁жар:3414
▁movement:3415
он:3416
▁UK:3417
▁бірде:3418
▁exist:3419
▁whose:3420
▁battle:3421
▁Human:3422
▁particularly:3423
▁desire:3424
▁бөлігін:3425
▁соған:3426
▁sort:3427
▁жоғарыда:3428
▁орталығы:3429
▁үкімет:3430
▁атауы:3431
▁Asia:3432
▁оқушылар:3433
▁ұйым:3434
▁аяқ:3435
▁status:3436
▁deep:3437
▁accept:3438
▁figure:3439
▁алғыс:3440
▁competition:3441
▁саласында:3442
▁duty:3443
▁King:3444
▁спорт:3445
▁regarding:3446
▁collection:3447
▁interests:3448
▁жолға:3449
▁Africa:3450
▁адал:3451
▁шарт:3452
▁pictures:3453
▁жұрт:3454
▁d:3455
▁sit:3456
▁кино:3457
▁мүшелері:3458
імізге:3459
▁Un:3460
▁тартып:3461
▁көбінесе:3462
▁located:3463
▁дене:3464
▁шабуыл:3465
ал:3466
▁finished:3467
▁команда:3468
▁сүру:3469
▁Ана:3470
▁бағдарламасы:3471
▁wear:3472
▁ыстық:3473
▁маман:3474
▁tools:3475
▁f:3476
▁additional:3477
▁touch:3478
індегі:3479
▁әке:3480
▁Демек:3481
ыңа:3482
▁closed:3483
▁Keep:3484
▁елді:3485
▁биік:3486
▁title:3487
▁мекен:3488
▁window:3489
▁appear:3490
▁announced:3491
▁тығыз:3492
▁айтатын:3493
▁облыс:3494
▁ended:3495
▁Great:3496
▁regular:3497
▁са:3498
▁card:3499
▁software:3500
▁қос:3501
йды:3502
▁church:3503
ine:3504
▁explained:3505
ous:3506
▁wall:3507
▁Әрі:3508
▁ақпараттық:3509
тарға:3510
▁Үш:3511
▁Z:3512
▁followed:3513
▁La:3514
▁жәрдем:3515
▁бәріміз:3516
go:3517
▁Other:3518
▁Әдетте:3519
▁Ислам:3520
▁орташа:3521
▁сөзін:3522
▁сұрау:3523
▁орнату:3524
▁дұға:3525
▁Бәрі:3526
▁теңіз:3527
+:3528
мді:3529
▁religious:3530
▁өзгерту:3531
be:3532
▁құжат:3533
▁spread:3534
▁жүру:3535
▁тіршілік:3536
▁weather:3537
саң:3538
▁өзімнің:3539
▁Қазақстанның:3540
ңды:3541
▁reports:3542
▁емдеу:3543
▁үміт:3544
▁пошта:3545
▁сайты:3546
▁Christmas:3547
▁Court:3548
▁basic:3549
▁efforts:3550
▁газ:3551
▁guess:3552
▁жақта:3553
▁structure:3554
▁answered:3555
▁ауыз:3556
ол:3557
▁reached:3558
▁levels:3559
дықтан:3560
▁asking:3561
▁2000:3562
▁dis:3563
▁қызыл:3564
▁planning:3565
▁жұмысты:3566
▁Look:3567
▁белгіленген:3568
▁equal:3569
▁claim:3570
▁famous:3571
мақ:3572
▁негізделген:3573
▁құны:3574
▁шара:3575
▁өтетін:3576
▁shot:3577
▁түр:3578
▁басқаша:3579
дерін:3580
▁serious:3581
▁heaven:3582
▁unit:3583
▁жүрмін:3584
▁vehicle:3585
лерге:3586
▁уақытша:3587
▁Бұрын:3588
▁уақытты:3589
▁алмайсыз:3590
▁от:3591
▁баланы:3592
▁purchase:3593
▁мүлде:3594
▁driver:3595
▁raised:3596
▁scientific:3597
▁High:3598
▁signs:3599
▁features:3600
быз:3601
▁шыға:3602
▁орнын:3603
▁сынып:3604
▁noticed:3605
▁кел:3606
▁жетімді:3607
▁depends:3608
▁айтар:3609
▁көлемі:3610
▁таңдаңыз:3611
▁Сенің:3612
▁Ukraine:3613
▁Әйел:3614
▁Health:3615
▁электрондық:3616
Do:3617
▁connection:3618
мызды:3619
лай:3620
▁пайызы:3621
▁supposed:3622
▁тұрғындар:3623
▁саяхат:3624
▁тұрды:3625
▁beauty:3626
▁interview:3627
me:3628
▁Tell:3629
▁кіріп:3630
▁earlier:3631
▁boys:3632
▁бірдеңе:3633
▁trees:3634
▁named:3635
▁саласындағы:3636
▁мынау:3637
си:3638
▁track:3639
▁review:3640
▁sin:3641
▁боламын:3642
▁басы:3643
▁салды:3644
▁happening:3645
іміздің:3646
▁tells:3647
▁arrived:3648
▁мектепке:3649
▁experienced:3650
▁фильм:3651
▁Remember:3652
▁аудан:3653
▁drug:3654
▁тақырып:3655
▁жасайтын:3656
▁өлім:3657
▁stuff:3658
▁құпия:3659
▁теріс:3660
▁prevent:3661
▁fruit:3662
сыңдар:3663
▁н:3664
▁unique:3665
▁жеңіске:3666
20:3667
▁Which:3668
▁кешірім:3669
▁holiday:3670
▁gonna:3671
▁бастапқы:3672
▁Company:3673
land:3674
▁кетейік:3675
▁realize:3676
сам:3677
▁Group:3678
▁decide:3679
▁values:3680
os:3681
ta:3682
▁leading:3683
▁increased:3684
▁сыйлық:3685
▁рухани:3686
▁app:3687
▁details:3688
ланған:3689
▁hasn:3690
▁require:3691
▁қылмыстық:3692
▁Жаңалықтар:3693
▁residents:3694
▁healthy:3695
▁election:3696
▁unable:3697
mm:3698
▁000:3699
▁болашақта:3700
▁conducted:3701
▁reduce:3702
▁естіген:3703
дігін:3704
▁кепілдік:3705
▁мамыр:3706
▁бел:3707
▁Women:3708
▁айтамын:3709
▁color:3710
▁жарты:3711
▁мінез:3712
▁essential:3713
▁кезеңі:3714
▁remove:3715
▁g:3716
▁partner:3717
▁қатысы:3718
▁Халық:3719
▁request:3720
um:3721
▁десе:3722
▁capital:3723
▁opportunities:3724
▁түсінікті:3725
▁дамуы:3726
▁проблема:3727
▁forced:3728
▁independent:3729
дігі:3730
▁Car:3731
▁аралығында:3732
▁authorities:3733
▁жек:3734
▁thoughts:3735
▁direct:3736
▁әзірге:3737
▁Right:3738
▁үлгі:3739
▁бу:3740
▁Canada:3741
▁жүрек:3742
▁дыбыс:3743
▁сақтандыру:3744
▁Social:3745
▁enemy:3746
▁described:3747
▁сіздерге:3748
▁45:3749
Г:3750
▁өрт:3751
▁қоршаған:3752
▁алдына:3753
▁шетелдік:3754
▁fit:3755
▁осыған:3756
▁машина:3757
▁recently:3758
▁(19:3759
▁нәтижесі:3760
уге:3761
out:3762
▁болмай:3763
▁brand:3764
▁photo:3765
▁көрсете:3766
мыздың:3767
ова:3768
▁қоңырау:3769
▁ancient:3770
▁notice:3771
▁offered:3772
▁normal:3773
▁берілді:3774
ad:3775
түлік:3776
▁екеніне:3777
▁зардап:3778
▁пәтер:3779
▁signed:3780
▁ешбір:3781
ем:3782
ating:3783
▁беріңіз:3784
▁Алдағы:3785
▁included:3786
▁clearly:3787
▁milk:3788
▁Thus:3789
▁teams:3790
▁2):3791
Ә:3792
▁joy:3793
▁өзімді:3794
▁dreams:3795
дап:3796
▁theme:3797
▁n:3798
лады:3799
▁ш:3800
▁user:3801
▁тұрғындары:3802
▁keeping:3803
▁бірін:3804
▁жобасы:3805
▁Білім:3806
▁бағыт:3807
▁rid:3808
▁Алдымен:3809
▁Жоғарыда:3810
▁пайдаланып:3811
▁See:3812
▁салады:3813
▁star:3814
▁2006:3815
ет:3816
▁ship:3817
▁жетеді:3818
▁сату:3819
▁жағы:3820
▁Central:3821
U:3822
▁Х:3823
▁ақшаны:3824
▁providing:3825
Егер:3826
▁customers:3827
▁operation:3828
▁El:3829
▁несие:3830
▁Уақыт:3831
▁энергия:3832
▁player:3833
▁forces:3834
И:3835
▁кей:3836
il:3837
▁Korea:3838
бұл:3839
▁wind:3840
by:3841
▁казино:3842
▁кездесу:3843
▁Red:3844
▁Отан:3845
▁сенемін:3846
▁conversation:3847
▁г:3848
▁impossible:3849
▁sons:3850
▁ұлт:3851
▁nuclear:3852
▁үлес:3853
▁3-:3854
▁Such:3855
▁costs:3856
▁әсері:3857
▁sick:3858
▁Sunday:3859
▁nations:3860
▁species:3861
▁жолдары:3862
▁осыдан:3863
▁әлгі:3864
▁футбол:3865
▁кездеседі:3866
▁machine:3867
▁crisis:3868
▁speech:3869
▁жүйесін:3870
▁challenge:3871
▁толықтай:3872
▁мерзімді:3873
▁Word:3874
▁басын:3875
▁білуге:3876
▁separate:3877
▁жазады:3878
▁халыққа:3879
▁асып:3880
▁ау:3881
▁бөліп:3882
▁ұл:3883
▁тұру:3884
When:3885
▁уақытында:3886
▁speaking:3887
▁әкімшілік:3888
▁қорытынды:3889
▁ішіндегі:3890
▁largest:3891
▁hurt:3892
▁female:3893
▁өздерін:3894
▁алдық:3895
▁technical:3896
term:3897
▁powerful:3898
▁Japanese:3899
▁бәріне:3900
▁Dr:3901
▁ортасында:3902
▁worship:3903
▁Оларға:3904
▁жеткізді:3905
▁Азия:3906
▁тырысады:3907
▁жасалады:3908
▁партия:3909
▁қосылған:3910
▁сұхбат:3911
Ж:3912
▁spirit:3913
▁changing:3914
▁forever:3915
▁sub:3916
▁әуе:3917
▁3.:3918
▁сыр:3919
▁өзіңізді:3920
ор:3921
▁Немесе:3922
▁кете:3923
▁ойындар:3924
▁міндет:3925
▁мөлшері:3926
▁sale:3927
▁компаниясы:3928
▁Биыл:3929
▁university:3930
▁азаматтық:3931
▁бөлу:3932
▁жағдайға:3933
▁participate:3934
▁қыздың:3935
▁сезім:3936
rd:3937
▁сәт:3938
▁train:3939
▁келу:3940
▁organizations:3941
▁өмірге:3942
▁limited:3943
леу:3944
we:3945
▁placed:3946
▁батыр:3947
▁officials:3948
▁News:3949
▁аң:3950
▁Turkey:3951
▁менде:3952
▁Board:3953
▁Сөз:3954
▁factors:3955
▁feed:3956
▁төлем:3957
▁Қала:3958
▁айда:3959
▁communication:3960
▁contains:3961
▁sky:3962
▁көк:3963
▁Center:3964
▁жоспар:3965
▁ұсынамыз:3966
▁айтсам:3967
▁studies:3968
лығын:3969
▁eating:3970
▁degree:3971
▁ғашық:3972
▁heat:3973
▁instance:3974
▁тас:3975
▁familiar:3976
▁mistakes:3977
▁brothers:3978
ит:3979
▁standard:3980
▁балық:3981
▁manner:3982
▁төлеу:3983
ul:3984
▁мәлімдеді:3985
▁өсіп:3986
ль:3987
▁қағаз:3988
How:3989
▁solve:3990
▁hundred:3991
▁жатып:3992
▁кездері:3993
per:3994
▁stated:3995
▁керісінше:3996
▁түн:3997
▁promise:3998
▁spoke:3999
▁лайықты:4000
▁құқықтық:4001
▁таңертең:4002
▁мүмкіндігінше:4003
▁discussion:4004
▁комиссия:4005
▁items:4006
▁offers:4007
терін:4008
▁Ой:4009
▁distance:4010
саңыз:4011
▁businesses:4012
▁temperature:4013
▁дамуына:4014
▁guide:4015
▁жатырмын:4016
▁perform:4017
▁қызығушылық:4018
▁m:4019
▁plants:4020
ымның:4021
▁өңдеу:4022
▁contract:4023
▁Everyone:4024
▁primary:4025
▁begins:4026
▁wealth:4027
▁garden:4028
▁мәлімет:4029
ru:4030
ко:4031
▁жағдайлар:4032
▁білдірді:4033
▁сақтауға:4034
▁қазан:4035
▁кіші:4036
▁тәсілі:4037
▁politics:4038
▁Республикасы:4039
▁басыңыз:4040
▁birthday:4041
▁Батыс:4042
▁өзекті:4043
▁әкесі:4044
▁animal:4045
00:4046
▁conference:4047
No:4048
▁келер:4049
▁тест:4050
▁жолында:4051
ұлы:4052
▁removed:4053
▁maybe:4054
▁мұғалім:4055
▁Жол:4056
▁determine:4057
▁жіберді:4058
▁процесс:4059
▁по:4060
ter:4061
▁brain:4062
▁Act:4063
▁kid:4064
▁қояды:4065
▁Кеңес:4066
▁айналады:4067
▁көрсеткіш:4068
▁Э:4069
▁дайындау:4070
▁length:4071
▁дейтін:4072
▁occur:4073
▁дін:4074
▁жағымды:4075
They:4076
▁суб:4077
▁floor:4078
▁тіркелген:4079
▁айдан:4080
▁justice:4081
▁өзіміз:4082
▁sales:4083
▁белгісі:4084
▁maintain:4085
▁сіздер:4086
▁broken:4087
▁Дұрыс:4088
▁наурыз:4089
tic:4090
▁Неліктен:4091
▁remains:4092
▁министрлігі:4093
▁ойлаған:4094
▁writer:4095
▁Use:4096
▁кіреді:4097
▁dangerous:4098
ma:4099
тты:4100
▁grew:4101
▁асқан:4102
▁Three:4103
ated:4104
▁300:4105
ize:4106
▁әкімі:4107
ларына:4108
▁қолданылатын:4109
▁басынан:4110
▁тиесілі:4111
▁shared:4112
▁бой:4113
іңе:4114
▁маусым:4115
▁easier:4116
▁түрінде:4117
▁жіберген:4118
▁Аталған:4119
леп:4120
▁watching:4121
Z:4122
▁4-:4123
▁black:4124
▁produce:4125
▁жасаңыз:4126
▁Сосын:4127
▁rise:4128
se:4129
▁алар:4130
▁жанында:4131
бен:4132
11:4133
▁алынды:4134
▁kinds:4135
▁tend:4136
▁prepare:4137
▁айналып:4138
▁өтірік:4139
▁nor:4140
терге:4141
▁қатысқан:4142
▁май:4143
▁existence:4144
▁әйелі:4145
▁seek:4146
ңді:4147
сіне:4148
▁ешкімге:4149
▁сегіз:4150
▁covered:4151
ган:4152
▁owner:4153
лан:4154
▁негізі:4155
▁budget:4156
▁күй:4157
▁санын:4158
▁lots:4159
▁кішкене:4160
▁ағаш:4161
▁жақ:4162
за:4163
▁жыныстық:4164
▁network:4165
▁кездегі:4166
▁bed:4167
▁шешуге:4168
▁bought:4169
▁қорытындысы:4170
▁сұраққа:4171
▁тұрмын:4172
▁мәселелерді:4173
▁negative:4174
▁ми:4175
▁Әлем:4176
▁screen:4177
▁Does:4178
▁адамдармен:4179
ke:4180
▁despite:4181
▁excellent:4182
30:4183
▁violence:4184
▁entered:4185
▁үйіне:4186
▁салмақ:4187
▁п:4188
▁зиян:4189
▁намаз:4190
▁жыр:4191
▁central:4192
▁арман:4193
▁includes:4194
▁Would:4195
▁шет:4196
ists:4197
▁participants:4198
ally:4199
▁идея:4200
▁presence:4201
▁алмадым:4202
дім:4203
▁army:4204
▁hell:4205
но:4206
▁Компания:4207
▁қызды:4208
▁осыны:4209
▁answers:4210
▁catch:4211
mo:4212
son:4213
▁none:4214
▁ары:4215
▁YouTube:4216
▁General:4217
▁tradition:4218
▁орынды:4219
У:4220
▁expensive:4221
▁measure:4222
▁күші:4223
▁мәдениет:4224
▁rain:4225
▁табысты:4226
▁grown:4227
▁екендігі:4228
▁vision:4229
▁happiness:4230
▁helps:4231
▁relationships:4232
▁traditional:4233
▁bodies:4234
▁екеуміз:4235
▁caused:4236
▁жаңалықтар:4237
ңа:4238
▁аяқталды:4239
▁тұрғыдан:4240
▁parent:4241
▁құлақ:4242
▁standards:4243
▁қызы:4244
▁formed:4245
▁Оқушылар:4246
▁round:4247
▁affect:4248
Ол:4249
▁supply:4250
кі:4251
▁оқыған:4252
▁Free:4253
▁міндеті:4254
▁Ендеше:4255
id:4256
▁opening:4257
▁жолда:4258
▁equipment:4259
▁басына:4260
▁performed:4261
▁түрін:4262
▁Аллаға:4263
▁appears:4264
▁Сізді:4265
▁хан:4266
ir:4267
▁exercise:4268
ә:4269
▁via:4270
▁civil:4271
▁options:4272
▁Ма:4273
▁елдер:4274
▁жігіттер:4275
▁сайт:4276
▁forms:4277
▁prove:4278
▁ит:4279
▁produced:4280
▁London:4281
▁Rights:4282
▁құралы:4283
▁жерді:4284
▁Қол:4285
рі:4286
▁Жаратқан:4287
ah:4288
▁шығарды:4289
▁жел:4290
▁master:4291
Ал:4292
▁ортаға:4293
▁Ақша:4294
▁аяқталған:4295
▁Art:4296
▁Up:4297
con:4298
▁youth:4299
▁қылмыс:4300
▁әбден:4301
▁Жақында:4302
▁е:4303
▁ұсынылады:4304
▁Air:4305
▁әлемге:4306
▁campaign:4307
▁аудару:4308
▁көрсететін:4309
▁ә:4310
▁introduced:4311
▁honor:4312
▁focused:4313
▁дереу:4314
▁нұсқа:4315
▁associated:4316
But:4317
▁complex:4318
▁prison:4319
▁listening:4320
▁жеткізе:4321
▁жарқын:4322
▁ұсыныстар:4323
▁тәжірибесі:4324
▁болдық:4325
▁жылу:4326
▁қоғамның:4327
▁possibility:4328
▁Commission:4329
▁әл:4330
▁Under:4331
▁жасы:4332
▁caught:4333
▁анықталды:4334
▁Open:4335
▁тәуелсіз:4336
▁болсаң:4337
▁жариялады:4338
▁жарым:4339
▁respond:4340
▁халқының:4341
ғыңыз:4342
изм:4343
▁көрсеткен:4344
▁starts:4345
▁жүк:4346
▁criminal:4347
▁differences:4348
Бір:4349
▁Everything:4350
▁мазмұны:4351
▁Y:4352
Ұ:4353
▁homes:4354
ңдер:4355
▁appropriate:4356
▁god:4357
▁German:4358
Who:4359
▁жүретін:4360
▁Mother:4361
▁жіберіп:4362
▁қабылдауға:4363
j:4364
▁шай:4365
▁although:4366
▁тәрбие:4367
▁wide:4368
▁Ас:4369
▁bread:4370
талған:4371
▁жағында:4372
▁бүгінде:4373
рек:4374
12:4375
▁presented:4376
▁context:4377
▁ауру:4378
That:4379
дерге:4380
▁қамқорлық:4381
▁қоры:4382
▁circumstances:4383
▁Ондай:4384
▁кезегінде:4385
▁wine:4386
▁ұнады:4387
▁табады:4388
▁accordan:4389
тқан:4390
ымда:4391
▁кінәлі:4392
▁қабылдаған:4393
▁болашағы:4394
▁мереке:4395
▁feelings:4396
▁behavior:4397
▁picked:4398
▁көрді:4399
▁nearly:4400
▁сана:4401
▁treated:4402
▁сұраған:4403
▁Р:4404
▁telling:4405
▁шаруа:4406
▁achieved:4407
▁балам:4408
ми:4409
▁attempt:4410
▁қабылданған:4411
▁cross:4412
▁ran:4413
гісі:4414
▁stayed:4415
▁standing:4416
▁affected:4417
▁қызметтер:4418
▁clothes:4419
▁саясат:4420
▁stress:4421
▁жұмыстарын:4422
▁map:4423
▁Іс:4424
им:4425
▁Екеуі:4426
▁planet:4427
▁seeing:4428
рақ:4429
ылған:4430
▁ойлайсыз:4431
▁асыл:4432
▁Олай:4433
▁ти:4434
://:4435
▁authority:4436
▁көрініс:4437
▁қуаныштымын:4438
▁Шығыс:4439
▁нәрсеге:4440
▁млн:4441
▁І:4442
▁өзіндік:4443
▁determined:4444
▁министр:4445
▁отырды:4446
▁мақтан:4447
▁қалу:4448
Х:4449
імнің:4450
▁billion:4451
▁құжаттар:4452
▁санайды:4453
▁көтеріп:4454
▁жаста:4455
▁Осының:4456
Сен:4457
ңізді:4458
▁шақырды:4459
▁Service:4460
▁жинап:4461
▁гүл:4462
▁қолдана:4463
шылық:4464
▁funds:4465
▁қашып:4466
▁suitable:4467
▁feature:4468
▁жаттығу:4469
▁Еңбек:4470
▁салыстырғанда:4471
▁approved:4472
▁(1):4473
▁income:4474
▁мектепте:4475
▁олай:4476
▁шексіз:4477
▁нұсқасы:4478
▁Соған:4479
▁creative:4480
▁biggest:4481
▁relations:4482
▁жасар:4483
▁өткізіп:4484
▁кіру:4485
пын:4486
▁құр:4487
▁dear:4488
▁plenty:4489
ent:4490
▁Елбасы:4491
▁Әлде:4492
▁Work:4493
▁press:4494
▁хабарлама:4495
▁Business:4496
▁quick:4497
▁Second:4498
▁hate:4499
▁естіп:4500
▁doctors:4501
▁base:4502
ыр:4503
ish:4504
▁filled:4505
▁Жоба:4506
▁minister:4507
▁дегенмен:4508
▁Yet:4509
▁Android:4510
діктен:4511
▁өзіме:4512
екі:4513
▁шындық:4514
▁draw:4515
▁trouble:4516
▁көрмеген:4517
▁committee:4518
▁қосып:4519
▁Note:4520
▁материал:4521
▁images:4522
▁(":4523
▁Қалған:4524
▁әнші:4525
▁cool:4526
▁becoming:4527
▁mobile:4528
▁компаниялар:4529
▁елімізде:4530
▁Өзі:4531
ro:4532
▁ұстау:4533
▁sitting:4534
▁мұқтаж:4535
▁existing:4536
▁суық:4537
:):4538
жай:4539
дау:4540
▁Bible:4541
▁Son:4542
▁Әлі:4543
▁сапасы:4544
▁жері:4545
▁payment:4546
▁latest:4547
▁тау:4548
▁хабарлады:4549
▁жинау:4550
▁fair:4551
et:4552
▁supported:4553
▁drugs:4554
▁қабілетті:4555
▁requires:4556
▁Ф:4557
▁жалға:4558
▁glad:4559
▁анам:4560
▁border:4561
▁көрсетуге:4562
▁асырылады:4563
▁Spirit:4564
▁жаңалық:4565
▁demand:4566
ise:4567
▁San:4568
▁музыка:4569
▁match:4570
▁қызығы:4571
▁fill:4572
▁жүрміз:4573
li:4574
▁тастау:4575
▁сүріп:4576
▁келуі:4577
▁concerned:4578
ғысы:4579
▁ұшып:4580
▁warm:4581
▁Тағала:4582
▁characters:4583
▁өзгеше:4584
▁Айтпақшы:4585
▁тәтті:4586
▁жатса:4587
▁skin:4588
▁баруға:4589
▁discuss:4590
▁таңдап:4591
▁ұйымдастыру:4592
if:4593
▁II:4594
гер:4595
▁мұсылман:4596
▁failed:4597
▁bear:4598
▁белгі:4599
▁жауапкершілік:4600
▁дегенге:4601
▁finish:4602
▁Any:4603
▁менен:4604
▁қаласы:4605
▁Мектеп:4606
▁pleased:4607
▁link:4608
▁нәрселер:4609
шілер:4610
▁дамыған:4611
▁қыр:4612
▁білді:4613
▁implementation:4614
▁тәрізді:4615
▁32:4616
▁Paul:4617
▁ісі:4618
▁сөздерді:4619
▁pregnant:4620
ік:4621
▁түсіндіру:4622
▁mission:4623
▁дер:4624
▁camp:4625
▁photos:4626
he:4627
▁заман:4628
кер:4629
▁білесің:4630
▁баратын:4631
▁қасиетті:4632
▁scene:4633
▁elements:4634
▁балаға:4635
▁Са:4636
▁Wi:4637
▁делінген:4638
йтын:4639
жа:4640
▁bill:4641
▁drinking:4642
▁Western:4643
▁үйрену:4644
▁Book:4645
▁Parliament:4646
▁жалақы:4647
▁missing:4648
ей:4649
▁пайдаланушылар:4650
▁Сөйтіп:4651
кім:4652
▁қатысу:4653
▁Би:4654
▁stock:4655
for:4656
▁horse:4657
▁балаларды:4658
▁birds:4659
▁Come:4660
сыздар:4661
▁етпейді:4662
уі:4663
▁description:4664
▁thanks:4665
▁digital:4666
▁кімге:4667
▁Бай:4668
▁humans:4669
▁trial:4670
▁өнімдер:4671
▁көшіп:4672
im:4673
▁Try:4674
▁carefully:4675
▁рөл:4676
▁box:4677
▁Islam:4678
▁шығармашылық:4679
▁Жергілікті:4680
▁suffering:4681
▁айтайын:4682
▁студенттер:4683
▁өндіріс:4684
ial:4685
▁pray:4686
иялық:4687
▁operating:4688
▁дәстүрлі:4689
▁x:4690
▁Жоғары:4691
▁nine:4692
.....:4693
▁expressed:4694
▁weren:4695
▁сый:4696
lo:4697
▁АҚ:4698
ak:4699
▁сал:4700
▁деректерді:4701
▁сұлу:4702
▁Құдайға:4703
▁2003:4704
▁error:4705
▁Бүкіл:4706
▁NOT:4707
▁алуы:4708
▁mention:4709
▁жүргізуші:4710
▁Students:4711
▁Ask:4712
▁command:4713
▁жат:4714
▁әйелдің:4715
▁Congress:4716
▁негіз:4717
la:4718
▁ойладым:4719
&:4720
▁мәдени:4721
йық:4722
▁сүт:4723
▁previously:4724
▁неліктен:4725
▁про:4726
▁қоя:4727
▁түсінік:4728
▁capable:4729
ва:4730
▁tired:4731
▁Show:4732
▁shape:4733
sa:4734
▁сирек:4735
▁majority:4736
▁ішіп:4737
▁шығуға:4738
▁fly:4739
▁оқы:4740
лаған:4741
▁Family:4742
ur:4743
▁consists:4744
▁2004:4745
▁anymore:4746
▁connected:4747
▁favorite:4748
▁досым:4749
▁document:4750
▁бару:4751
▁climate:4752
▁жүргізіледі:4753
▁қалыптастыру:4754
▁Find:4755
▁ғалымдар:4756
▁invited:4757
▁сұраймын:4758
▁тырысыңыз:4759
▁көреміз:4760
▁leaving:4761
алды:4762
▁accepted:4763
▁кезекте:4764
▁150:4765
▁Ауыл:4766
▁мәңгі:4767
▁object:4768
▁Сіздер:4769
sh:4770
▁sounds:4771
▁сапар:4772
▁leadership:4773
▁promised:4774
▁consequences:4775
▁credit:4776
▁cold:4777
деді:4778
▁тамыз:4779
▁3):4780
▁мыңдаған:4781
▁қабылдады:4782
▁Education:4783
▁қуат:4784
▁сенімдімін:4785
▁неше:4786
▁р:4787
▁тіркеу:4788
▁дей:4789
▁walking:4790
▁island:4791
▁Қайта:4792
▁developing:4793
бет:4794
▁Еуропалық:4795
▁азаматтардың:4796
▁ұмытып:4797
ner:4798
▁band:4799
▁Құрама:4800
▁selling:4801
▁кіре:4802
▁hide:4803
▁aid:4804
▁Prime:4805
▁highest:4806
▁driving:4807
19:4808
▁қалам:4809
мізді:4810
▁lie:4811
▁Біріншіден:4812
▁sides:4813
▁күткен:4814
▁жарияланған:4815
▁болсам:4816
▁definition:4817
▁waste:4818
▁өмірдің:4819
▁Post:4820
▁жаным:4821
▁жоспарлап:4822
І:4823
▁Ар:4824
▁суреттер:4825
ев:4826
Ф:4827
▁Police:4828
▁highly:4829
▁лайық:4830
▁analysis:4831
▁шүкір:4832
▁lesson:4833
▁жоспары:4834
▁көмектесу:4835
▁ерекшелігі:4836
Р:4837
Біздің:4838
▁Give:4839
▁2005:4840
▁жарақат:4841
▁кететін:4842
▁әлемді:4843
▁boat:4844
▁sites:4845
▁talked:4846
▁тізімі:4847
▁phase:4848
▁hearing:4849
▁белгілері:4850
▁v:4851
▁careful:4852
мин:4853
ka:4854
▁асты:4855
▁бөлінеді:4856
▁жетіп:4857
▁Негізі:4858
▁шешімін:4859
▁judge:4860
▁өнімді:4861
▁соншалықты:4862
▁Play:4863
▁едің:4864
▁өзгеріс:4865
▁нан:4866
З:4867
▁желтоқсан:4868
▁мәселелері:4869
▁Soviet:4870
▁Chapter:4871
▁Интернет:4872
▁бастан:4873
▁chapter:4874
▁calls:4875
▁fighting:4876
▁жағымсыз:4877
▁пайыз:4878
▁ұмытпаңыз:4879
▁білмей:4880
ғыш:4881
▁Holy:4882
▁орынға:4883
▁launched:4884
▁radio:4885
▁district:4886
da:4887
▁proper:4888
▁экономика:4889
▁labor:4890
▁slow:4891
▁stars:4892
лықты:4893
▁ке:4894
▁applied:4895
▁есімде:4896
▁ойнап:4897
ыңдар:4898
▁devices:4899
▁жөндеу:4900
▁бізбен:4901
▁discovered:4902
ө:4903
▁recognize:4904
▁5-:4905
▁шығарма:4906
▁Pre:4907
▁айының:4908
▁құдай:4909
▁шектеу:4910
▁орайда:4911
▁Өзіңіз:4912
▁суға:4913
▁multiple:4914
▁hundreds:4915
▁honest:4916
▁елдердің:4917
▁agreed:4918
жақты:4919
▁surface:4920
▁display:4921
▁оқиғалар:4922
▁аталатын:4923
▁millions:4924
лей:4925
▁Con:4926
▁мәлім:4927
ping:4928
сынан:4929
▁Part:4930
▁ұсынды:4931
▁арыз:4932
▁заңсыз:4933
▁applications:4934
▁damage:4935
▁Back:4936
▁болмасын:4937
▁legislation:4938
▁тырысамын:4939
▁theory:4940
▁historical:4941
▁greater:4942
▁encourage:4943
▁Өзім:4944
▁тартқан:4945
▁жақсылық:4946
▁жақсарту:4947
▁David:4948
▁түсіндім:4949
▁worry:4950
▁деңгейін:4951
▁ескерту:4952
▁көркем:4953
▁relevant:4954
ge:4955
▁жұмыстан:4956
▁айырмашылығы:4957
▁үйі:4958
▁тергеу:4959
▁мүше:4960
ңызға:4961
▁mid:4962
▁асыруға:4963
▁табылған:4964
▁үйден:4965
▁express:4966
▁forgotten:4967
▁әкем:4968
▁suffered:4969
▁raise:4970
▁қолдан:4971
▁forth:4972
▁understood:4973
▁Заң:4974
▁adults:4975
▁иман:4976
▁отыру:4977
▁sport:4978
▁appearance:4979
▁Сұрақ:4980
▁surgery:4981
So:4982
▁Әзірге:4983
▁dry:4984
ыл:4985
ov:4986
▁claims:4987
▁тер:4988
▁жүйесінің:4989
▁қабыл:4990
▁жүктеу:4991
▁Hey:4992
▁count:4993
э:4994
▁уақытын:4995
▁searching:4996
▁independence:4997
▁tough:4998
ду:4999
▁minute:5000
▁Men:5001
▁зейнетақы:5002
нд:5003
▁comments:5004
▁білмейтін:5005
▁documents:5006
▁sight:5007
▁Ла:5008
▁шығарған:5009
▁ақылды:5010
▁cooperation:5011
▁Am:5012
▁көтеру:5013
▁Office:5014
▁беруші:5015
ors:5016
▁folks:5017
▁танысу:5018
▁жылына:5019
▁commercial:5020
40:5021
▁recommend:5022
▁sexual:5023
▁Spanish:5024
▁Sea:5025
▁ескере:5026
▁Өзінің:5027
▁ин:5028
▁қорғаныс:5029
▁situations:5030
▁wisdom:5031
сем:5032
mp:5033
▁ре:5034
тон:5035
▁Кітап:5036
ac:5037
▁түні:5038
▁investment:5039
▁сұра:5040
▁топқа:5041
▁Де:5042
▁calling:5043
▁dedicated:5044
▁lines:5045
▁әділ:5046
лен:5047
▁пайдасы:5048
▁қарама:5049
▁banks:5050
тарының:5051
ро:5052
▁Out:5053
▁салдарынан:5054
▁қызметкерлер:5055
▁кешке:5056
▁cell:5057
▁бал:5058
ina:5059
▁БҰҰ:5060
сон:5061
Осы:5062
бірімен:5063
▁heavy:5064
▁chosen:5065
▁facts:5066
▁appeared:5067
▁helping:5068
▁қатысып:5069
▁тар:5070
▁жерлерде:5071
▁Power:5072
▁қамтиды:5073
▁дайындық:5074
тей:5075
▁Egypt:5076
▁greatest:5077
стан:5078
▁audience:5079
▁жіберу:5080
▁Isn:5081
▁setting:5082
ыңыздың:5083
▁whatever:5084
▁жара:5085
▁cash:5086
▁manage:5087
▁бетінде:5088
▁шығатын:5089
▁conflict:5090
аналар:5091
▁Әлеуметтік:5092
▁электронды:5093
▁houses:5094
▁.":5095
▁құмар:5096
▁cry:5097
▁өткізді:5098
▁Know:5099
▁салада:5100
▁болжам:5101
лерін:5102
▁басталған:5103
▁Light:5104
▁England:5105
▁regions:5106
▁toward:5107
▁Тіл:5108
▁тыңдап:5109
▁fourth:5110
you:5111
▁Christian:5112
▁тауар:5113
▁шаш:5114
шыл:5115
▁managed:5116
▁едіңіз:5117
▁studying:5118
ol:5119
▁көрінді:5120
▁жандар:5121
▁flow:5122
▁айналған:5123
▁жасаймыз:5124
▁қараша:5125
▁Best:5126
▁33:5127
▁тартты:5128
▁уақыттан:5129
▁жоқпыз:5130
▁Ar:5131
▁assistance:5132
▁email:5133
▁жасырын:5134
▁ride:5135
▁describe:5136
▁medicine:5137
мызға:5138
▁ақпан:5139
▁атынан:5140
▁Development:5141
▁ұялы:5142
▁ұрпақ:5143
▁арна:5144
▁Security:5145
▁тур:5146
▁recommended:5147
▁облыстық:5148
▁жарнама:5149
▁con:5150
▁ашылды:5151
шаралар:5152
▁vehicles:5153
▁өздеріне:5154
▁айттым:5155
▁атайды:5156
▁fix:5157
▁алуды:5158
▁revealed:5159
▁tasks:5160
based:5161
▁Prophet:5162
сен:5163
pe:5164
▁herself:5165
▁қалада:5166
▁k:5167
▁male:5168
▁educational:5169
▁Мұғалім:5170
▁generally:5171
▁пайдаланады:5172
▁danger:5173
▁opposite:5174
▁қатынас:5175
▁бердім:5176
▁examples:5177
▁weapons:5178
▁достар:5179
▁implemented:5180
деу:5181
led:5182
▁comment:5183
мас:5184
▁зерттеулер:5185
тті:5186
▁олармен:5187
bo:5188
▁атқарады:5189
off:5190
Fi:5191
▁фото:5192
▁welcome:5193
▁station:5194
▁пікірінше:5195
▁ара:5196
▁студент:5197
ылып:5198
▁кімнің:5199
▁желі:5200
▁қатысады:5201
ларда:5202
▁wash:5203
▁COVID:5204
▁insurance:5205
▁жеткізген:5206
▁communities:5207
▁жұмысына:5208
▁со:5209
ya:5210
▁leads:5211
▁worse:5212
▁шешімі:5213
▁destroyed:5214
▁қаланың:5215
▁occurred:5216
ex:5217
▁ядролық:5218
▁Әйтпесе:5219
▁бәрібір:5220
▁кезеңінде:5221
▁мырза:5222
▁EU:5223
▁компанияның:5224
▁өткізген:5225
лас:5226
▁физикалық:5227
▁Old:5228
▁Microsoft:5229
▁ұпай:5230
▁кісінің:5231
▁тану:5232
лин:5233
▁flowers:5234
▁жасалды:5235
ыс:5236
▁ойлайды:5237
▁planned:5238
▁38:5239
▁сотқа:5240
▁ауқымды:5241
▁movies:5242
▁берілетін:5243
▁asks:5244
▁debt:5245
▁wild:5246
▁кеше:5247
зи:5248
▁factor:5249
▁қыркүйек:5250
▁тыныш:5251
▁иә:5252
▁бастадым:5253
▁river:5254
▁USA:5255
▁36:5256
▁болмас:5257
▁оқи:5258
▁Mac:5259
▁Web:5260
▁жастан:5261
▁қылып:5262
▁қорқынышты:5263
▁defense:5264
▁Saturday:5265
▁қалалық:5266
▁Public:5267
▁дәрігерлер:5268
▁боласыз:5269
▁түсіріп:5270
▁етуі:5271
ло:5272
▁crying:5273
▁бөлме:5274
▁заманауи:5275
▁түрлерін:5276
▁өкілі:5277
▁joined:5278
▁көрінісі:5279
▁Нью:5280
▁obvious:5281
қы:5282
▁істе:5283
деген:5284
▁1000:5285
▁шектеулі:5286
▁біл:5287
!!:5288
▁Рас:5289
▁artist:5290
▁false:5291
▁шы:5292
▁құрмет:5293
ик:5294
▁қысым:5295
▁Mo:5296
▁hotel:5297
▁шаруашылығы:5298
іңіздің:5299
ч:5300
Re:5301
▁мөлшерде:5302
▁mountain:5303
▁есепке:5304
▁attend:5305
▁жаппай:5306
For:5307
стер:5308
▁Church:5309
▁1990:5310
▁тілеймін:5311
▁қытай:5312
▁cast:5313
▁әйелдердің:5314
▁құл:5315
▁territory:5316
▁operations:5317
▁Having:5318
▁берсін:5319
ндағы:5320
▁Ex:5321
▁aspects:5322
▁buildings:5323
▁жүрді:5324
▁мағынасы:5325
▁құқықтары:5326
▁х:5327
▁sweet:5328
▁кездесетін:5329
▁administration:5330
▁тоқтату:5331
▁аулақ:5332
▁баспасөз:5333
ri:5334
▁entitled:5335
▁Махаббат:5336
▁өзіңізге:5337
▁Americans:5338
▁era:5339
▁ұста:5340
тіп:5341
▁turns:5342
▁қарыз:5343
▁ықтимал:5344
▁beat:5345
▁жұлдыз:5346
▁regard:5347
▁meetings:5348
гім:5349
▁hearts:5350
▁тарап:5351
▁48:5352
▁мысал:5353
▁loves:5354
▁pieces:5355
▁extra:5356
▁2002:5357
▁declared:5358
▁transfer:5359
▁кір:5360
▁мақалада:5361
Ө:5362
▁Name:5363
▁speaks:5364
▁қалың:5365
▁заттарды:5366
▁soil:5367
▁жаны:5368
▁американдық:5369
dy:5370
▁Twitter:5371
▁сонша:5372
▁institutions:5373
▁enjoyed:5374
▁feels:5375
▁confidence:5376
▁escape:5377
Сіз:5378
▁әлсіз:5379
▁орнында:5380
тады:5381
▁патша:5382
▁байқау:5383
▁сағаттан:5384
▁Оқу:5385
▁manager:5386
▁дерлік:5387
25:5388
▁азайту:5389
▁guests:5390
▁болуды:5391
▁breath:5392
▁сынақ:5393
▁officers:5394
▁handle:5395
▁Ре:5396
▁classes:5397
▁novel:5398
end:5399
пе:5400
▁мүмкіндігін:5401
▁Қызыл:5402
бас:5403
▁Head:5404
▁жолды:5405
▁бағдарламалар:5406
▁en:5407
ымызда:5408
▁за:5409
▁farm:5410
▁біршама:5411
▁Muslim:5412
▁blind:5413
▁компьютер:5414
кт:5415
15:5416
▁Le:5417
▁білдім:5418
▁құрамында:5419
қол:5420
▁орындауға:5421
▁4.:5422
▁imagine:5423
▁uses:5424
▁initial:5425
vo:5426
ci:5427
▁сіздердің:5428
▁Indian:5429
▁holding:5430
▁Сот:5431
▁біреудің:5432
▁бөлім:5433
▁жұмыспен:5434
▁balance:5435
▁жекпе:5436
▁ауыстыру:5437
▁жазушы:5438
▁showing:5439
▁foot:5440
▁нәтижелері:5441
▁қуаныш:5442
ning:5443
▁Water:5444
▁қиындықтар:5445
▁қаңтар:5446
▁Black:5447
▁Құран:5448
▁қатарына:5449
▁2001:5450
▁кетуі:5451
▁бақ:5452
▁медицина:5453
▁үкіметі:5454
▁жатқанда:5455
▁functions:5456
▁таңдаған:5457
▁түсу:5458
▁ләззат:5459
▁ұсынылған:5460
▁келетінін:5461
▁Iran:5462
▁күнә:5463
▁ill:5464
▁төмендегі:5465
mail:5466
▁ру:5467
▁темір:5468
▁істі:5469
▁кеңінен:5470
▁есім:5471
▁ball:5472
дыр:5473
▁Middle:5474
16:5475
▁жаңбыр:5476
▁Наурыз:5477
▁bar:5478
▁байқалады:5479
▁Әке:5480
▁жеп:5481
▁мыңнан:5482
▁қаласының:5483
▁issued:5484
▁қызметінің:5485
▁walked:5486
▁тағам:5487
▁құбылыс:5488
▁emergency:5489
▁өндіру:5490
▁wonder:5491
▁шеше:5492
бар:5493
▁Иран:5494
▁Hi:5495
▁Australia:5496
em:5497
▁алма:5498
▁testing:5499
Q:5500
▁жобалар:5501
▁Due:5502
▁ди:5503
▁елдегі:5504
▁ғасырдың:5505
ист:5506
лардан:5507
ус:5508
ая:5509
▁шал:5510
▁сапасын:5511
▁сөзбен:5512
▁көрші:5513
▁Қарағанды:5514
▁schedule:5515
▁ұқсайды:5516
▁dress:5517
▁десем:5518
▁twenty:5519
▁күмән:5520
▁әкеледі:5521
▁sorry:5522
▁жеткізуге:5523
▁көзқарас:5524
17:5525
▁fresh:5526
бер:5527
▁көрсетіледі:5528
▁қарайды:5529
▁мемлекеттер:5530
▁қатысуға:5531
▁intended:5532
▁табылды:5533
▁finding:5534
▁хабарлайды:5535
▁өткізуге:5536
▁engaged:5537
▁Fire:5538
▁қысқаша:5539
▁divided:5540
ence:5541
▁істеді:5542
▁өзіміздің:5543
▁readers:5544
▁сәуір:5545
▁behalf:5546
▁south:5547
▁күту:5548
▁ақиқат:5549
▁тұлғалар:5550
▁билігі:5551
сеңіз:5552
сіңдер:5553
▁бірегей:5554
▁рөлі:5555
▁біріне:5556
▁dur:5557
▁үйрету:5558
▁Step:5559
▁34:5560
▁амал:5561
▁council:5562
red:5563
▁қатысушы:5564
▁principle:5565
▁жартысы:5566
▁тың:5567
▁gain:5568
▁аш:5569
ілген:5570
▁refers:5571
▁тарих:5572
▁views:5573
responsibilities:5574
▁bottom:5575
▁ғалым:5576
▁deliver:5577
▁жатты:5578
▁Түркия:5579
▁аумағында:5580
▁технологиялар:5581
▁құрылысы:5582
▁қалдық:5583
▁session:5584
▁оқ:5585
▁flight:5586
den:5587
▁hidden:5588
▁қатысушылар:5589
▁көрсет:5590
▁obviously:5591
▁exchange:5592
▁straight:5593
▁салуға:5594
▁scientists:5595
▁constantly:5596
▁азаматы:5597
▁adopted:5598
▁білуі:5599
▁алдындағы:5600
▁шолу:5601
▁қолында:5602
▁қызметіне:5603
▁critical:5604
▁mass:5605
▁Nevertheless:5606
▁медиа:5607
▁television:5608
▁closer:5609
▁саясаты:5610
▁younger:5611
▁wood:5612
▁жобаны:5613
▁White:5614
▁federal:5615
▁installed:5616
▁Ия:5617
▁recognized:5618
▁shop:5619
▁шығыс:5620
▁мүмкіндіктер:5621
▁жаса:5622
▁шағым:5623
▁Жүргізуші:5624
▁prior:5625
▁ашылған:5626
▁сөйлеу:5627
▁moon:5628
▁camera:5629
▁құнды:5630
▁football:5631
▁diet:5632
▁ұзамай:5633
▁анықталған:5634
▁stone:5635
▁academic:5636
▁Ли:5637
▁жағдайын:5638
▁шақыру:5639
▁struggle:5640
▁ойыны:5641
▁Islamic:5642
▁жолдарын:5643
▁Sun:5644
▁кәсіпкер:5645
▁childhood:5646
▁Instagram:5647
▁threat:5648
▁жеңіп:5649
ги:5650
▁alcohol:5651
▁suggested:5652
▁Army:5653
дейді:5654
60:5655
▁риза:5656
▁purposes:5657
▁Asian:5658
сіп:5659
▁sat:5660
▁деңгейдегі:5661
▁қайтару:5662
▁қабылданды:5663
▁баспана:5664
▁internal:5665
▁hoping:5666
▁құрамы:5667
▁capacity:5668
▁бақыт:5669
▁streets:5670
▁темекі:5671
▁Ағылшын:5672
▁organized:5673
▁Сені:5674
▁suffer:5675
▁scale:5676
▁overall:5677
тығы:5678
▁жердің:5679
▁Call:5680
▁келтірілген:5681
▁қолынан:5682
▁reference:5683
▁quiet:5684
▁Сендер:5685
▁Institute:5686
▁defined:5687
▁алмас:5688
▁Әкем:5689
ley:5690
▁мәселеге:5691
мның:5692
▁сүре:5693
▁еркек:5694
▁Бес:5695
▁ойлау:5696
▁түсіру:5697
▁Ресейдің:5698
ana:5699
▁literature:5700
▁дәлел:5701
▁weak:5702
▁құрылды:5703
▁олардан:5704
▁Italy:5705
▁тұңғыш:5706
▁есептеу:5707
▁plane:5708
▁principles:5709
▁жарыс:5710
мей:5711
▁4):5712
▁spot:5713
▁director:5714
удың:5715
▁тәуелді:5716
▁Израиль:5717
▁persons:5718
▁Олимпиада:5719
▁ки:5720
▁бетіне:5721
▁Previous:5722
▁actual:5723
))):5724
70:5725
▁soldiers:5726
▁Still:5727
▁sentence:5728
▁қоныс:5729
▁Жауап:5730
▁көрме:5731
▁БАҚ:5732
▁шығарады:5733
▁жетекші:5734
▁менімен:5735
▁Кей:5736
ities:5737
▁Полиция:5738
▁жазуға:5739
▁causes:5740
▁қосылды:5741
▁identify:5742
▁газет:5743
▁Қа:5744
▁табылатын:5745
▁believes:5746
ғай:5747
▁Орта:5748
▁Satan:5749
сек:5750
▁шілде:5751
▁spiritual:5752
▁болуына:5753
▁жоққа:5754
▁енгізілген:5755
▁іздеген:5756
▁ойнауға:5757
▁smell:5758
▁сосын:5759
▁көмектесе:5760
лет:5761
▁Франция:5762
▁табиғат:5763
▁increasing:5764
▁талқылау:5765
▁сән:5766
▁supporting:5767
▁көрсетіңіз:5768
▁өскен:5769
▁virus:5770
▁Менде:5771
▁somebody:5772
▁жасында:5773
▁елеулі:5774
▁Kingdom:5775
▁background:5776
▁әрқайсысы:5777
▁көш:5778
▁ерлер:5779
▁survive:5780
▁album:5781
ля:5782
▁selection:5783
07:5784
▁blame:5785
▁қалайды:5786
▁алда:5787
▁target:5788
▁з:5789
▁жануарлар:5790
▁депті:5791
▁experiences:5792
▁grade:5793
▁prices:5794
▁bird:5795
▁indeed:5796
▁instructions:5797
▁мәселесін:5798
Э:5799
▁дана:5800
▁club:5801
▁Young:5802
▁қолына:5803
▁Корея:5804
▁көңілді:5805
▁connect:5806
▁gun:5807
▁(2):5808
ел:5809
▁sins:5810
▁келемін:5811
▁тілді:5812
ғын:5813
▁бастама:5814
ку:5815
▁confirmed:5816
▁шығаруға:5817
▁firm:5818
▁құс:5819
▁victory:5820
▁бюджет:5821
▁mistake:5822
▁бөлінген:5823
▁Аллаһтың:5824
▁ниет:5825
▁drop:5826
▁videos:5827
▁Тақырыбы:5828
▁Германия:5829
▁әсерін:5830
▁properly:5831
law:5832
▁aim:5833
▁э:5834
▁thus:5835
▁cultural:5836
▁grace:5837
▁Se:5838
ыз:5839
▁platform:5840
▁resolution:5841
пақ:5842
▁аймақ:5843
que:5844
▁алса:5845
Don:5846
op:5847
▁receiving:5848
▁үлесі:5849
тек:5850
▁түсінеді:5851
▁сілтеме:5852
▁құқығын:5853
▁loan:5854
▁бекітілген:5855
▁gathered:5856
▁ислам:5857
▁елі:5858
▁отыратын:5859
▁Жалғыз:5860
▁ұйымдар:5861
▁funding:5862
▁abroad:5863
▁Көк:5864
ship:5865
▁сақ:5866
▁жаңадан:5867
▁қиындық:5868
▁кеттім:5869
▁көзін:5870
▁инвестиция:5871
▁strategy:5872
▁al:5873
▁Trump:5874
18:5875
▁қолданған:5876
▁миллиард:5877
лес:5878
▁жария:5879
▁Ұ:5880
▁kingdom:5881
▁broke:5882
▁processes:5883
▁мәнін:5884
▁teeth:5885
▁matters:5886
our:5887
▁күнін:5888
▁келгенін:5889
▁Аз:5890
▁belongs:5891
▁400:5892
▁tour:5893
▁meal:5894
50:5895
▁Music:5896
ян:5897
▁foundation:5898
▁суретке:5899
▁policies:5900
▁stood:5901
90:5902
▁shut:5903
▁пайғамбар:5904
▁қайғы:5905
▁елдерде:5906
▁кітаптар:5907
ions:5908
▁Big:5909
▁divorce:5910
▁Project:5911
▁identity:5912
тану:5913
▁жұп:5914
▁Л:5915
▁constant:5916
▁Үшінші:5917
▁Ұзақ:5918
▁paying:5919
▁experts:5920
лықтар:5921
▁На:5922
▁Article:5923
▁тұрғанын:5924
▁баста:5925
▁celebrate:5926
▁қабылдайды:5927
▁тезірек:5928
▁marketing:5929
▁кеп:5930
min:5931
▁Kazakh:5932
▁expression:5933
▁Хан:5934
▁delivery:5935
ron:5936
лем:5937
▁тұрғыда:5938
▁аздап:5939
(:5940
▁қауіпсіздігі:5941
▁беруді:5942
▁annual:5943
▁follows:5944
▁components:5945
▁punishment:5946
▁ерекшеліктері:5947
▁articles:5948
▁ашқан:5949
▁аласың:5950
мер:5951
▁owners:5952
▁singing:5953
сең:5954
▁себептері:5955
▁реттеу:5956
инг:5957
▁айтамыз:5958
▁түсіне:5959
▁неке:5960
▁lay:5961
▁үйінде:5962
▁forest:5963
▁қоюға:5964
▁Кішкентай:5965
▁орган:5966
▁ұсынған:5967
▁адамнан:5968
▁excited:5969
▁жабық:5970
▁Киелі:5971
ымнан:5972
▁сәттілік:5973
▁көпшілік:5974
▁бо:5975
▁Дүниежүзілік:5976
▁files:5977
ек:5978
▁lies:5979
▁listed:5980
▁Пікірлер:5981
пін:5982
го:5983
▁қызметті:5984
▁Ten:5985
▁Information:5986
рген:5987
▁қараған:5988
▁Бер:5989
lin:5990
▁үлгісі:5991
▁r:5992
▁қыл:5993
▁solutions:5994
▁42:5995
▁grandmother:5996
▁protected:5997
▁Has:5998
▁иелері:5999
ee:6000
▁күнді:6001
▁өзгерді:6002
▁министрі:6003
▁Without:6004
бап:6005
▁алынып:6006
▁Банк:6007
же:6008
▁exciting:6009
▁қолданады:6010
▁біреуге:6011
▁болмайтын:6012
▁күйде:6013
▁жағдайында:6014
▁preparing:6015
лмыш:6016
▁пайызға:6017
▁conclusion:6018
▁сәлем:6019
▁саласы:6020
ланып:6021
▁болатыны:6022
ха:6023
▁дамып:6024
▁көне:6025
▁шу:6026
▁relatively:6027
▁етілген:6028
▁till:6029
▁treat:6030
▁attacks:6031
▁units:6032
▁отандық:6033
▁select:6034
▁except:6035
▁қосқан:6036
шара:6037
▁ынтымақтастық:6038
▁taste:6039
▁қайсысы:6040
izing:6041
▁supports:6042
▁аспан:6043
▁ереже:6044
▁putting:6045
▁pages:6046
▁қасында:6047
▁rock:6048
▁өндірістік:6049
▁Ma:6050
▁agency:6051
my:6052
▁же:6053
▁тәртіп:6054
ткен:6055
▁referred:6056
▁жазда:6057
▁Қосымша:6058
▁Street:6059
▁болғанымен:6060
▁traffic:6061
▁Ғ:6062
▁қуанышты:6063
▁practical:6064
▁pride:6065
ba:6066
lan:6067
▁өзіңді:6068
▁Watch:6069
▁ақы:6070
▁шақырады:6071
▁облысы:6072
▁proof:6073
▁Ешкім:6074
▁тілде:6075
▁тор:6076
▁хабардар:6077
▁көресіз:6078
▁tests:6079
▁төлеуге:6080
ang:6081
ңе:6082
Ай:6083
14:6084
▁ауданы:6085
▁seconds:6086
▁plays:6087
▁Moses:6088
▁қамту:6089
▁beings:6090
▁сары:6091
▁Star:6092
ding:6093
▁анықталады:6094
▁алмайсың:6095
▁Moscow:6096
▁әрекеті:6097
▁Я:6098
▁customer:6099
▁айырмашылық:6100
шілік:6101
▁материалдар:6102
▁жазғы:6103
▁75:6104
▁адамзат:6105
▁newspaper:6106
▁кітапты:6107
▁дүниежүзілік:6108
ability:6109
ig:6110
▁баса:6111
▁Комментарии:6112
▁қорғауға:6113
▁қалаға:6114
▁төртінші:6115
▁жасыл:6116
ative:6117
▁habit:6118
▁құқылы:6119
▁Mar:6120
▁директоры:6121
▁қыс:6122
▁жүкті:6123
▁Times:6124
кей:6125
▁шақырып:6126
▁қойыңыз:6127
q:6128
▁depend:6129
▁Games:6130
▁Vi:6131
▁ұғым:6132
▁қатал:6133
▁Екіншіден:6134
▁promote:6135
▁қаншама:6136
▁occurs:6137
▁қалар:6138
▁құжаттарды:6139
▁remembered:6140
▁сақта:6141
▁chose:6142
▁cent:6143
▁осылайша:6144
▁represent:6145
▁Spain:6146
▁анықтауға:6147
▁қызметкері:6148
▁қалса:6149
▁қазірдің:6150
▁басу:6151
▁Сабақтың:6152
▁etc:6153
▁тағдыры:6154
▁қарауға:6155
зд:6156
ұ:6157
▁айыппұл:6158
▁Алматыда:6159
▁reliable:6160
▁sources:6161
▁emotions:6162
▁қолданып:6163
▁harm:6164
▁Ко:6165
іл:6166
▁істемейді:6167
▁regional:6168
▁framework:6169
▁арқа:6170
▁қал:6171
▁қызым:6172
▁тамақтану:6173
▁advertising:6174
▁officer:6175
▁айтқым:6176
▁hadn:6177
майтын:6178
▁сауал:6179
▁Сан:6180
▁thread:6181
▁host:6182
ам:6183
▁көбіне:6184
▁African:6185
▁берер:6186
▁procedure:6187
▁agencies:6188
бол:6189
сер:6190
▁blog:6191
лікке:6192
▁unto:6193
▁отыра:6194
ite:6195
▁inspired:6196
▁refused:6197
▁improved:6198
пи:6199
▁perhaps:6200
▁En:6201
▁belong:6202
▁murder:6203
▁technologies:6204
▁берсе:6205
▁ұйқы:6206
▁guilty:6207
▁қош:6208
▁көрдік:6209
▁айып:6210
▁tongue:6211
▁анықтама:6212
▁ойыншы:6213
▁attitude:6214
▁арнап:6215
▁қоғамда:6216
▁dying:6217
▁кен:6218
маңыз:6219
▁Peace:6220
▁adult:6221
▁Жоғарғы:6222
▁халықты:6223
▁staying:6224
▁ша:6225
▁орындайды:6226
▁күндер:6227
▁салмағы:6228
▁радио:6229
уды:6230
▁Ин:6231
▁Code:6232
ши:6233
▁inter:6234
▁Отбасы:6235
▁victim:6236
45:6237
▁кетуге:6238
▁Бәлкім:6239
▁Syria:6240
▁spoken:6241
▁dollars:6242
▁балалары:6243
▁lights:6244
немесе:6245
▁келгенше:6246
▁л:6247
▁Foreign:6248
ring:6249
▁Thanks:6250
▁recorded:6251
▁core:6252
▁numerous:6253
дығына:6254
▁құрамына:6255
▁1::6256
▁кеңестер:6257
▁мәңгілік:6258
▁қорқыныш:6259
▁сөйлесіп:6260
▁THE:6261
▁Қытайда:6262
▁баяу:6263
▁сәби:6264
▁есімі:6265
▁тастады:6266
mon:6267
▁қайтарып:6268
▁теледидар:6269
▁Civil:6270
▁сақталады:6271
▁төменде:6272
▁partners:6273
▁Бағдарлама:6274
▁Қанша:6275
▁...":6276
▁деңгейге:6277
▁taxes:6278
▁шықтым:6279
▁технология:6280
▁есік:6281
▁elected:6282
▁library:6283
мет:6284
▁барды:6285
▁проблемалар:6286
▁Should:6287
▁regulations:6288
▁жоспарланған:6289
▁Шынында:6290
▁театр:6291
▁Economic:6292
▁әдебиет:6293
▁айға:6294
▁Meanwhile:6295
▁операция:6296
▁үміттенемін:6297
▁жобасын:6298
ация:6299
▁қосылады:6300
▁ұсыну:6301
▁asleep:6302
▁сөздің:6303
▁шығындар:6304
▁түсіндірді:6305
▁басшылары:6306
ушы:6307
▁сөйлем:6308
▁табыңыз:6309
▁centre:6310
▁8-:6311
▁анықтайды:6312
▁өмірінің:6313
▁Help:6314
▁солтүстік:6315
до:6316
▁l:6317
▁өлген:6318
▁батыс:6319
сінде:6320
▁дем:6321
▁Мал:6322
▁ұ:6323
▁шар:6324
▁Mary:6325
▁green:6326
аралық:6327
▁орындары:6328
▁challenging:6329
▁абзал:6330
▁тұруға:6331
▁System:6332
▁Science:6333
▁Being:6334
▁domestic:6335
▁Food:6336
what:6337
▁Белгілі:6338
▁wise:6339
)):6340
▁француз:6341
ology:6342
▁UN:6343
Балалар:6344
▁Саған:6345
▁тыңдау:6346
▁мақсатқа:6347
▁екіншісі:6348
▁lady:6349
▁Friday:6350
▁windows:6351
▁cycle:6352
▁қалыптасқан:6353
▁sad:6354
▁игілігі:6355
▁келмейтін:6356
▁Осыны:6357
▁throw:6358
▁кірген:6359
▁losing:6360
▁Өнер:6361
▁approximately:6362
▁democracy:6363
▁пікірлер:6364
▁қу:6365
ис:6366
▁brings:6367
▁қатыса:6368
▁қызметкер:6369
▁victims:6370
▁h:6371
side:6372
▁болуын:6373
▁dance:6374
▁sufficient:6375
way:6376
qui:6377
▁Трамп:6378
▁асыра:6379
мейді:6380
▁бейбіт:6381
light:6382
▁Украина:6383
▁Dis:6384
▁satisfied:6385
ель:6386
▁айлық:6387
▁37:6388
▁Онлайн:6389
кс:6390
▁Он:6391
ыш:6392
▁Ие:6393
▁55:6394
▁бермей:6395
▁Туған:6396
ium:6397
▁ты:6398
▁Currently:6399
Л:6400
▁selected:6401
▁Аудан:6402
▁білесіздер:6403
▁етіледі:6404
▁Ка:6405
▁ағымдағы:6406
▁proposed:6407
▁автоматты:6408
▁сұрақтарға:6409
▁Learn:6410
▁universe:6411
▁жарамды:6412
▁құруға:6413
ned:6414
▁Bill:6415
▁conduct:6416
ut:6417
▁қуып:6418
▁республикалық:6419
қай:6420
▁dinner:6421
▁тік:6422
▁Turkish:6423
▁confident:6424
▁housing:6425
▁earn:6426
▁stick:6427
▁frequently:6428
▁үйді:6429
▁бөлімі:6430
▁10-:6431
▁оңтүстік:6432
▁қабілеті:6433
▁detailed:6434
күй:6435
▁replied:6436
▁witness:6437
Астана:6438
▁2-3:6439
▁glass:6440
▁туындаған:6441
▁Ja:6442
▁меншік:6443
ү:6444
бірін:6445
▁Among:6446
▁remained:6447
▁тілек:6448
▁reduced:6449
▁бізден:6450
▁жүргізіп:6451
▁концерт:6452
▁contribute:6453
▁заманда:6454
▁бекіту:6455
▁citizen:6456
As:6457
iv:6458
▁танып:6459
▁Live:6460
▁бата:6461
ha:6462
Well:6463
port:6464
▁қойдым:6465
▁Whether:6466
▁refugees:6467
▁тапсыру:6468
▁comfortable:6469
▁тыныс:6470
▁ойнау:6471
▁жиналған:6472
▁Адамның:6473
▁admit:6474
▁Ресейде:6475
▁ант:6476
▁50%:6477
▁65:6478
▁enemies:6479
▁Ka:6480
ped:6481
▁limit:6482
▁rely:6483
▁Арман:6484
▁жылап:6485
▁Per:6486
▁сы:6487
сындағы:6488
[:6489
▁Ұлыбритания:6490
▁ҰБТ:6491
▁arrested:6492
▁шаруашылық:6493
24:6494
▁edge:6495
▁Ертең:6496
▁көзге:6497
▁оқиды:6498
▁Бізді:6499
▁керегі:6500
қын:6501
▁кәсіпорын:6502
▁College:6503
▁mental:6504
▁жердегі:6505
▁assigned:6506
▁блог:6507
▁mainly:6508
▁recovery:6509
▁scared:6510
▁отбасының:6511
▁коммерциялық:6512
▁films:6513
▁тәртібі:6514
▁Десе:6515
лыққа:6516
▁тұрғындардың:6517
▁wake:6518
▁бағдарламалық:6519
Не:6520
▁қалуы:6521
▁fans:6522
les:6523
▁ертегі:6524
▁vote:6525
▁жұма:6526
▁Ө:6527
▁я:6528
▁Think:6529
лген:6530
▁айдың:6531
▁difficulty:6532
Your:6533
▁Бет:6534
▁тонна:6535
▁transport:6536
▁failure:6537
лікті:6538
▁symptoms:6539
▁нәрселерді:6540
▁барын:6541
▁aircraft:6542
▁биылғы:6543
▁Say:6544
▁салынады:6545
теу:6546
▁Қызмет:6547
▁apart:6548
▁Ми:6549
▁suggestions:6550
▁Көз:6551
▁қосты:6552
▁Атырау:6553
▁сыртқа:6554
▁exists:6555
▁copy:6556
жар:6557
▁кезекті:6558
▁қарқынды:6559
21:6560
▁preparation:6561
пар:6562
▁Қаз:6563
сіздер:6564
▁displayed:6565
▁California:6566
ас:6567
▁өзгеруі:6568
ңыздар:6569
▁қолын:6570
▁Про:6571
▁дамытуға:6572
▁mercy:6573
▁Georgia:6574
▁еуропалық:6575
▁Especially:6576
▁берік:6577
▁debate:6578
▁Дос:6579
▁duties:6580
йын:6581
▁Ра:6582
ный:6583
▁east:6584
▁көмектесетін:6585
▁жарияланды:6586
▁пост:6587
▁компаниясының:6588
80:6589
▁format:6590
▁құрылымы:6591
99:6592
▁тері:6593
▁кетсе:6594
▁Until:6595
▁1999:6596
▁Астанада:6597
▁mark:6598
▁себебін:6599
▁бағдарламасын:6600
▁топтың:6601
▁symbol:6602
▁daughters:6603
ылды:6604
▁қосыңыз:6605
ap:6606
қызы:6607
▁құлап:6608
ран:6609
so:6610
▁valuable:6611
▁ежелгі:6612
▁дәмді:6613
ster:6614
▁translation:6615
▁smart:6616
▁Қасым:6617
▁Moreover:6618
лармен:6619
▁identified:6620
▁қажеттілігі:6621
▁қолжетімді:6622
▁ақымақ:6623
▁Hong:6624
▁өміріне:6625
▁елден:6626
To:6627
▁шаралары:6628
лігін:6629
▁maintained:6630
▁delivered:6631
▁destroy:6632
▁бағыты:6633
▁қоятын:6634
▁1998:6635
▁Қоғам:6636
▁ministry:6637
▁құралдары:6638
▁Na:6639
▁Мұса:6640
▁Гүл:6641
▁аяқталады:6642
▁ораза:6643
▁pull:6644
▁Amazon:6645
▁Four:6646
▁сынап:6647
▁worst:6648
▁дербес:6649
▁ко:6650
▁балл:6651
▁үйреніп:6652
ви:6653
▁жататын:6654
▁өсуі:6655
▁айналысатын:6656
▁severe:6657
▁Bo:6658
▁vital:6659
▁IT:6660
▁north:6661
▁жерінде:6662
▁ұзын:6663
ғанда:6664
▁алмасу:6665
▁Online:6666
▁download:6667
▁deserve:6668
ran:6669
▁Кел:6670
▁Қар:6671
▁Su:6672
амын:6673
▁markets:6674
▁бұны:6675
▁жібереді:6676
▁Қыздар:6677
▁маусымда:6678
▁tested:6679
▁куә:6680
ңыздың:6681
▁шарты:6682
▁extent:6683
▁relatives:6684
▁external:6685
▁айнала:6686
▁жүктеп:6687
▁visitors:6688
ак:6689
ult:6690
▁burden:6691
▁prayers:6692
▁Әй:6693
▁се:6694
▁fixed:6695
▁қорқып:6696
▁fan:6697
▁dating:6698
▁ауырып:6699
▁ішінен:6700
▁worldwide:6701
pro:6702
▁жүйенің:6703
▁storm:6704
▁өзгертуге:6705
▁pair:6706
ник:6707
▁кет:6708
▁(1:6709
▁typically:6710
▁describes:6711
▁element:6712
▁opposition:6713
▁attached:6714
▁жеткіліксіз:6715
▁мезгілде:6716
▁келмеді:6717
іліп:6718
▁ан:6719
▁glory:6720
▁1995:6721
▁flower:6722
▁газеті:6723
▁ла:6724
▁Кон:6725
▁түсетін:6726
▁cook:6727
▁ауылда:6728
let:6729
кем:6730
▁білімді:6731
▁restrictions:6732
▁күйінде:6733
▁Со:6734
▁кешкі:6735
тарына:6736
▁ра:6737
▁employment:6738
▁Nations:6739
▁buying:6740
▁2::6741
▁Peter:6742
▁singer:6743
▁ұстаз:6744
▁angry:6745
▁пайдаланған:6746
▁мәліметтерді:6747
▁runs:6748
▁ішіне:6749
▁басшы:6750
икалық:6751
▁осының:6752
▁Үйде:6753
▁Master:6754
▁elections:6755
▁(2:6756
▁сәлемі:6757
ий:6758
▁түсі:6759
▁importantly:6760
▁counter:6761
▁премьер:6762
▁өседі:6763
▁Қаржы:6764
▁тырысамыз:6765
▁10%:6766
▁дау:6767
▁double:6768
▁rooms:6769
▁процесі:6770
▁Ха:6771
▁тыңда:6772
▁belief:6773
▁кездейсоқ:6774
All:6775
▁Again:6776
▁w:6777
▁fields:6778
▁жұмыстың:6779
▁facing:6780
▁шындықты:6781
▁автор:6782
▁surprise:6783
▁есептеледі:6784
▁submitted:6785
▁passion:6786
but:6787
тор:6788
▁Li:6789
▁тарату:6790
▁оқушылардың:6791
▁республика:6792
▁refer:6793
▁secure:6794
▁ұйықтап:6795
▁Kong:6796
▁елдері:6797
▁мин:6798
▁ideal:6799
▁барлығына:6800
▁Қытайдың:6801
▁chief:6802
▁автобус:6803
fi:6804
▁Расында:6805
▁шығын:6806
▁мүмкіндіктері:6807
▁жақтан:6808
▁барша:6809
▁arms:6810
▁yes:6811
▁Mexico:6812
▁отбасылық:6813
ph:6814
▁electronic:6815
ator:6816
▁route:6817
аль:6818
▁сүрген:6819
▁suggest:6820
тал:6821
▁айтқандай:6822
ста:6823
▁Әйелдер:6824
▁сөздері:6825
▁әкім:6826
▁Afghanistan:6827
▁eventually:6828
▁баласын:6829
▁минуттан:6830
▁заманғы:6831
▁әйелдерге:6832
▁жүйелі:6833
ard:6834
▁everyday:6835
▁records:6836
▁бағасын:6837
▁Бо:6838
▁ойнайды:6839
▁ашты:6840
▁құрылғы:6841
▁атау:6842
▁кедей:6843
▁crowd:6844
▁List:6845
▁distribution:6846
▁өр:6847
▁органдар:6848
▁decades:6849
▁өзгереді:6850
▁біліңіз:6851
▁claimed:6852
▁prophet:6853
Let:6854
pa:6855
▁electric:6856
▁ка:6857
▁көмектесті:6858
ланды:6859
лған:6860
▁magic:6861
▁Check:6862
▁everywhere:6863
▁біреуін:6864
di:6865
▁commitment:6866
▁marry:6867
po:6868
гу:6869
-1:6870
▁вакцина:6871
▁ауруханаға:6872
іңдер:6873
ze:6874
▁Та:6875
тас:6876
▁шығуы:6877
▁1997:6878
▁concerning:6879
інше:6880
▁өмірді:6881
all:6882
▁favor:6883
▁мақсатта:6884
Қазақстан:6885
▁difficulties:6886
▁төрағасы:6887
▁$1:6888
▁Paris:6889
▁Looking:6890
▁Бұлар:6891
ni:6892
▁Start:6893
▁отырғанын:6894
▁Want:6895
her:6896
▁пайдаланушы:6897
▁орындалады:6898
▁тапсырды:6899
▁қайшы:6900
▁аптасына:6901
▁сізбен:6902
▁illegal:6903
▁reaction:6904
ил:6905
ga:6906
05:6907
▁Land:6908
▁Convention:6909
▁leaves:6910
▁басталып:6911
▁химиялық:6912
▁ды:6913
▁Керісінше:6914
▁қызметке:6915
▁addressed:6916
▁expand:6917
22:6918
▁praise:6919
▁апа:6920
▁өмірлік:6921
▁тал:6922
▁grateful:6923
▁біртіндеп:6924
pi:6925
▁жобаның:6926
▁native:6927
▁Біраз:6928
▁туындайды:6929
▁multi:6930
▁буын:6931
▁таралған:6932
▁Perhaps:6933
▁Mark:6934
▁winning:6935
ап:6936
▁аша:6937
▁Өзің:6938
▁білмеген:6939
▁алудың:6940
▁dogs:6941
▁Президенті:6942
ина:6943
▁fault:6944
▁Constitution:6945
қара:6946
▁mis:6947
▁spring:6948
▁болғаннан:6949
▁draft:6950
▁десек:6951
13:6952
лығына:6953
▁пайдаланылады:6954
▁offering:6955
▁Тегін:6956
▁зорлық:6957
▁кезіндегі:6958
sy:6959
ev:6960
▁жасауды:6961
▁қозғалыс:6962
▁күтеді:6963
▁болыпты:6964
▁Алтын:6965
▁жоғалып:6966
▁бұлай:6967
▁өзгерте:6968
қыр:6969
der:6970
▁толған:6971
▁load:6972
▁салқын:6973
▁нөмірі:6974
▁өзгеріп:6975
▁Need:6976
▁collect:6977
▁ақылы:6978
▁History:6979
▁port:6980
ep:6981
▁орындап:6982
▁Super:6983
▁бәлкім:6984
▁clothing:6985
▁кон:6986
▁Democratic:6987
▁registered:6988
▁knowing:6989
▁орналастыру:6990
▁USB:6991
▁көше:6992
лды:6993
▁Research:6994
леріне:6995
ры:6996
▁120:6997
▁өткізеді:6998
▁білдіріп:6999
▁dealing:7000
▁наразылық:7001
▁тізімін:7002
шысы:7003
▁Қан:7004
▁тартады:7005
▁қарады:7006
▁trend:7007
▁өмірден:7008
▁өзінен:7009
▁clients:7010
▁тұрмысқа:7011
▁Әлбетте:7012
▁сақтай:7013
▁ұйымы:7014
▁дәрежеде:7015
▁acts:7016
▁Соны:7017
▁түсінуге:7018
▁жылдамдығы:7019
▁мекеме:7020
▁Парламент:7021
000:7022
▁Көлік:7023
▁әрекеттер:7024
▁Was:7025
▁recipe:7026
▁ашылады:7027
гін:7028
▁асыға:7029
▁сақталған:7030
▁Support:7031
Be:7032
▁Agreement:7033
імде:7034
▁appeal:7035
▁1991:7036
▁инвестициялық:7037
▁көрінетін:7038
ud:7039
ably:7040
▁өнімнің:7041
▁warning:7042
іс:7043
house:7044
▁Truth:7045
мады:7046
▁Ат:7047
▁Way:7048
▁Африка:7049
▁Әңгіме:7050
▁advance:7051
▁objectives:7052
▁anywhere:7053
▁risks:7054
▁ресейлік:7055
▁6-:7056
▁мәрте:7057
▁есебінен:7058
▁devil:7059
▁тоғыз:7060
▁permanent:7061
▁stands:7062
▁letters:7063
▁нысан:7064
free:7065
амыз:7066
▁асады:7067
▁helpful:7068
ised:7069
▁Жастар:7070
▁неде:7071
▁super:7072
▁engine:7073
▁қалатын:7074
▁желісі:7075
▁jail:7076
▁ғ:7077
▁operate:7078
▁fashion:7079
▁апай:7080
▁секунд:7081
▁phrase:7082
▁posted:7083
▁habits:7084
▁fundamental:7085
рт:7086
26:7087
▁entirely:7088
▁effectively:7089
▁corner:7090
▁rural:7091
▁union:7092
▁lessons:7093
▁chemical:7094
▁temporary:7095
▁дерек:7096
▁карта:7097
▁орынбасары:7098
▁жауып:7099
▁explains:7100
▁басшысының:7101
ca:7102
▁жұмсақ:7103
▁troops:7104
▁Казино:7105
▁widely:7106
вер:7107
▁mode:7108
▁contrary:7109
▁1980:7110
▁аптадан:7111
over:7112
▁жатқаны:7113
▁Ү:7114
▁faced:7115
▁artists:7116
ленген:7117
▁өндірушілер:7118
▁establish:7119
▁келмей:7120
▁Сабақ:7121
ps:7122
▁visited:7123
▁талаптар:7124
шылардың:7125
▁Мо:7126
▁Association:7127
▁gained:7128
▁Толық:7129
▁Heart:7130
▁wishes:7131
01:7132
▁appreciate:7133
▁park:7134
▁stable:7135
▁сізден:7136
▁luck:7137
▁ordered:7138
▁Жай:7139
▁Greek:7140
▁мерзім:7141
▁өзіңе:7142
▁Language:7143
▁Astana:7144
▁Ad:7145
▁айына:7146
▁райы:7147
▁obtained:7148
▁Телефон:7149
ming:7150
▁coronavirus:7151
▁тұрғысынан:7152
▁goods:7153
▁darkness:7154
▁бойында:7155
▁spending:7156
▁Қазақстандағы:7157
ft:7158
▁unknown:7159
▁aspect:7160
▁тырысты:7161
▁stages:7162
▁біреуді:7163
▁сүреді:7164
▁launch:7165
▁rates:7166
ong:7167
▁актер:7168
▁affects:7169
▁processing:7170
▁кірді:7171
▁келеміз:7172
▁анықтап:7173
▁си:7174
айын:7175
▁алынады:7176
▁тексеріп:7177
▁азап:7178
пыз:7179
▁тоқтап:7180
▁suddenly:7181
▁mountains:7182
▁entry:7183
▁granted:7184
▁қыста:7185
▁employee:7186
▁forgive:7187
▁usual:7188
▁орындай:7189
▁үйлер:7190
▁award:7191
▁Ішкі:7192
▁introduction:7193
▁суды:7194
▁тегі:7195
▁Special:7196
▁Question:7197
▁күшіне:7198
▁block:7199
▁1993:7200
▁мамандық:7201
▁Muslims:7202
▁толтыру:7203
▁нәзік:7204
▁атқарушы:7205
пай:7206
▁солардың:7207
▁серіктес:7208
▁laid:7209
▁файл:7210
▁тексеріңіз:7211
▁айтсақ:7212
▁қиял:7213
▁мұз:7214
▁objective:7215
▁бардым:7216
▁фактор:7217
▁кесте:7218
▁тырысып:7219
▁түгел:7220
▁Korean:7221
▁involves:7222
ten:7223
үй:7224
▁5):7225
▁600:7226
▁accurate:7227
▁44:7228
▁барамыз:7229
▁guarantee:7230
▁pleasure:7231
▁бойына:7232
oc:7233
▁attacked:7234
▁Services:7235
▁деңгейіне:7236
▁Choose:7237
▁орман:7238
▁considering:7239
▁Later:7240
▁жауабы:7241
ну:7242
▁жиырма:7243
▁дағдарыс:7244
үш:7245
▁ойланып:7246
▁Jews:7247
▁cried:7248
▁тіс:7249
▁Dad:7250
▁қалдырды:7251
▁Ra:7252
▁тақырыпты:7253
▁struggling:7254
▁Пайғамбарымыз:7255
лерінің:7256
▁humanity:7257
that:7258
▁тұрса:7259
▁seat:7260
om:7261
▁көктем:7262
ғалы:7263
▁сөзіне:7264
зу:7265
▁judgment:7266
ылады:7267
▁bright:7268
▁шығара:7269
▁Бал:7270
▁license:7271
▁сандық:7272
▁okay:7273
▁сұраныс:7274
▁жаһандық:7275
▁joint:7276
▁себептермен:7277
▁Order:7278
▁relative:7279
▁Видео:7280
Ы:7281
▁шетел:7282
▁денсаулығы:7283
▁iron:7284
▁Мәскеу:7285
▁deeds:7286
▁тәуекел:7287
va:7288
▁бірыңғай:7289
▁авторы:7290
▁шақырамыз:7291
▁objects:7292
▁diseases:7293
▁prime:7294
▁мәселенің:7295
▁generations:7296
▁assume:7297
мда:7298
▁killing:7299
▁орнатылған:7300
▁негізде:7301
▁қаупі:7302
▁industrial:7303
▁ойынды:7304
▁соңы:7305
▁Қайрат:7306
▁түсінген:7307
▁Си:7308
▁Алладан:7309
vi:7310
▁жоғалту:7311
▁Road:7312
▁totally:7313
ey:7314
▁түсірген:7315
tor:7316
▁ғасыр:7317
▁desired:7318
▁кесіп:7319
use:7320
рған:7321
▁айналысады:7322
▁үйлену:7323
▁slave:7324
▁шоу:7325
▁Through:7326
▁жолдар:7327
қым:7328
▁brief:7329
▁Poland:7330
▁wanting:7331
▁өліп:7332
▁тапсырманы:7333
▁regularly:7334
▁medium:7335
life:7336
▁әзірлеу:7337
▁End:7338
▁қызметтерді:7339
-2:7340
▁қойылады:7341
▁ends:7342
▁LORD:7343
▁800:7344
▁сұраймыз:7345
▁шешімдер:7346
▁Бу:7347
▁жағына:7348
▁барамын:7349
▁fail:7350
▁Ән:7351
▁ойында:7352
▁neighborhood:7353
▁қабылдап:7354
▁сендердің:7355
lu:7356
▁Money:7357
▁celebration:7358
▁Management:7359
▁оқитын:7360
▁survey:7361
▁атақты:7362
▁Society:7363
▁root:7364
▁celebrated:7365
▁compare:7366
▁жігіттің:7367
▁Жақын:7368
▁Little:7369
▁ден:7370
:30:7371
▁жеңіс:7372
▁әркім:7373
▁аралап:7374
▁Ес:7375
▁қосуға:7376
▁1994:7377
▁Анам:7378
▁шұғыл:7379
▁item:7380
▁жетуге:7381
▁Real:7382
▁advantages:7383
▁Organization:7384
▁күндік:7385
▁discover:7386
"):7387
▁illness:7388
▁айтылды:7389
▁ашады:7390
▁Park:7391
▁painting:7392
ара:7393
▁7-:7394
▁fat:7395
▁Болашақта:7396
▁models:7397
▁ережелер:7398
▁жасалып:7399
!..:7400
▁америкалық:7401
▁жұмыстарды:7402
▁latter:7403
рып:7404
меген:7405
▁тұрмыс:7406
▁Latin:7407
ki:7408
▁адаммен:7409
▁lyrics:7410
▁Eastern:7411
▁01:7412
▁enforcement:7413
▁далада:7414
▁сағатқа:7415
▁topics:7416
▁doors:7417
▁жаяу:7418
▁қонақтар:7419
▁height:7420
▁түріне:7421
▁дейміз:7422
мау:7423
аға:7424
▁founded:7425
қайта:7426
▁өнімдерін:7427
Oh:7428
▁қуатты:7429
▁1-2:7430
▁қарсылық:7431
▁elderly:7432
▁қолмен:7433
алы:7434
▁smoke:7435
▁игі:7436
▁Very:7437
▁pool:7438
▁Тәрбиеші:7439
▁жүргізуге:7440
лып:7441
▁exact:7442
▁Сыр:7443
▁деңгейінде:7444
▁busy:7445
▁tonight:7446
▁comparison:7447
▁өсу:7448
▁ережелері:7449
▁шараларын:7450
▁shoot:7451
▁бейім:7452
▁әкелді:7453
▁жастардың:7454
▁250:7455
known:7456
▁Write:7457
▁байқап:7458
▁аласыздар:7459
▁wearing:7460
▁білікті:7461
▁channel:7462
▁қайталап:7463
▁39:7464
▁gifts:7465
▁volume:7466
making:7467
▁Таң:7468
▁қолданатын:7469
▁actively:7470
▁Сыртқы:7471
▁reply:7472
мыс:7473
▁cleaning:7474
she:7475
▁River:7476
▁noise:7477
▁жылқы:7478
▁байланысы:7479
▁көрейік:7480
▁қолы:7481
net:7482
▁жайт:7483
▁сүйген:7484
▁таңдауға:7485
▁obtain:7486
▁profit:7487
▁Орал:7488
za:7489
▁аударма:7490
▁кімдер:7491
▁негізін:7492
▁Түркістан:7493
▁serving:7494
▁Besides:7495
▁фильмдер:7496
▁afternoon:7497
▁едәуір:7498
Where:7499
▁studied:7500
лд:7501
▁қалғанын:7502
She:7503
▁тү:7504
▁Di:7505
▁unity:7506
ғымыз:7507
▁transition:7508
ical:7509
▁returning:7510
ең:7511
▁қосылу:7512
▁кіріс:7513
▁киіп:7514
▁Ақпарат:7515
▁жүздеген:7516
28:7517
▁мыңға:7518
▁orders:7519
▁мәтін:7520
▁батыл:7521
▁университет:7522
▁bringing:7523
▁зауыт:7524
▁print:7525
▁hang:7526
▁өсті:7527
▁емеспіз:7528
▁техника:7529
▁exposed:7530
bi:7531
▁origin:7532
▁көмекке:7533
▁кездесіп:7534
▁тастаған:7535
▁Ро:7536
▁түзету:7537
▁араб:7538
рей:7539
▁оралды:7540
▁Қор:7541
tro:7542
▁сұрадым:7543
▁кейінірек:7544
▁ice:7545
▁аяғы:7546
жи:7547
▁crucial:7548
▁ban:7549
▁1996:7550
▁crimes:7551
▁programme:7552
әр:7553
▁opinions:7554
work:7555
▁efficient:7556
▁экологиялық:7557
▁қызға:7558
▁тәрбиелеу:7559
▁көшу:7560
айық:7561
▁қазақстандық:7562
▁келісімге:7563
▁edition:7564
▁ес:7565
▁есептеймін:7566
▁sharing:7567
▁governments:7568
▁атып:7569
▁айы:7570
▁Тақырып:7571
▁шешіп:7572
▁күйі:7573
▁%:7574
▁шеккен:7575
пер:7576
che:7577
▁жалғастыру:7578
75:7579
▁magazine:7580
▁беруі:7581
▁category:7582
▁Local:7583
▁comfort:7584
▁кор:7585
мде:7586
мат:7587
?,":7588
▁қолдайды:7589
▁сәті:7590
▁Ку:7591
ber:7592
▁ген:7593
▁James:7594
▁то:7595
▁түнгі:7596
▁бермеді:7597
▁бұрыннан:7598
ид:7599
▁валюта:7600
▁жүйесіне:7601
▁сайынғы:7602
из:7603
▁reflect:7604
▁мұра:7605
▁Long:7606
▁forgiveness:7607
▁maintenance:7608
▁талабы:7609
▁Italian:7610
▁жетілдіру:7611
▁absolutely:7612
▁достық:7613
ция:7614
ler:7615
▁отын:7616
▁қайырымдылық:7617
▁Child:7618
▁соққы:7619
▁incident:7620
ins:7621
ab:7622
▁заңға:7623
▁айтыңыз:7624
▁Technology:7625
Ана:7626
▁facilities:7627
▁Within:7628
▁салатын:7629
▁worried:7630
▁екенсің:7631
▁шығаратын:7632
анасы:7633
▁Justice:7634
▁Біреу:7635
▁шығарылған:7636
▁құралдар:7637
▁туризм:7638
▁басқаларға:7639
▁investigation:7640
▁poem:7641
▁Ko:7642
▁кәсіп:7643
▁кетер:7644
▁larger:7645
▁музыкалық:7646
▁ғажайып:7647
▁сендерді:7648
ow:7649
от:7650
сып:7651
▁Мәселе:7652
▁түсірілген:7653
▁ұрып:7654
▁жүргенде:7655
▁тағдыр:7656
▁карантин:7657
▁Нақты:7658
▁бұлар:7659
▁manufacturing:7660
▁smaller:7661
▁сақтаңыз:7662
▁talks:7663
▁powers:7664
▁жинаған:7665
▁messages:7666
▁Gold:7667
▁Ту:7668
▁ought:7669
▁Several:7670
▁роман:7671
маймын:7672
▁деуге:7673
оз:7674
▁bound:7675
▁centuries:7676
рат:7677
▁score:7678
▁basically:7679
▁Its:7680
▁өнері:7681
▁legs:7682
▁accounts:7683
▁бетін:7684
▁Data:7685
▁convinced:7686
▁облысының:7687
▁Еске:7688
▁communicate:7689
▁мөлшерін:7690
▁кейіпкер:7691
▁banned:7692
▁қабылданады:7693
▁іш:7694
▁ескеру:7695
▁жалғастыра:7696
▁ауылға:7697
not:7698
▁келдік:7699
▁commission:7700
▁туристік:7701
▁жалғасын:7702
▁apartment:7703
ek:7704
▁Green:7705
De:7706
▁Night:7707
▁өкінішке:7708
▁Wednesday:7709
▁angels:7710
▁push:7711
▁detail:7712
▁ұйымның:7713
ос:7714
▁өздігінен:7715
▁шекара:7716
▁directions:7717
▁түсе:7718
▁автокөлік:7719
▁ages:7720
▁сүй:7721
▁YOU:7722
гіңіз:7723
дарына:7724
▁calm:7725
▁күшін:7726
▁relation:7727
видео:7728
теп:7729
шіл:7730
▁Global:7731
ктер:7732
▁мазмұнын:7733
▁Ди:7734
ймын:7735
▁Obviously:7736
▁алушы:7737
▁Death:7738
▁сапа:7739
IN:7740
▁Policy:7741
▁ойыншылар:7742
▁websites:7743
во:7744
▁естідім:7745
▁сөйлесу:7746
▁replace:7747
500:7748
▁журналист:7749
▁Anti:7750
▁досы:7751
Ү:7752
▁тұлғаның:7753
нды:7754
▁таныстыру:7755
▁seeking:7756
▁researchers:7757
▁тартуға:7758
▁Listen:7759
дарының:7760
маса:7761
▁келмеген:7762
▁mankind:7763
▁household:7764
▁moments:7765
бу:7766
▁onto:7767
▁Washington:7768
▁жүргізілген:7769
▁бөтен:7770
▁азаматтары:7771
сан:7772
▁Ан:7773
▁мұң:7774
▁идеялар:7775
▁көрініп:7776
ков:7777
▁оқыңыз:7778
▁дала:7779
▁poverty:7780
▁solid:7781
дықтар:7782
▁хабарласыңыз:7783
▁zone:7784
▁рөлін:7785
▁авто:7786
▁dropped:7787
▁Mom:7788
▁Тоқаев:7789
▁бөлмеде:7790
▁дайындап:7791
▁кездескен:7792
▁өсімдіктер:7793
▁жауабын:7794
▁білдіру:7795
▁improving:7796
fa:7797
▁тарихын:7798
▁шеш:7799
ғанын:7800
▁Ақыры:7801
▁уақыттың:7802
йді:7803
ING:7804
▁authors:7805
ларында:7806
▁бақылап:7807
▁drivers:7808
▁сандар:7809
▁ойлар:7810
▁democratic:7811
▁representatives:7812
▁цикл:7813
▁коронавирус:7814
tal:7815
▁жо:7816
▁нұсқасын:7817
▁implement:7818
▁кенеттен:7819
▁беті:7820
▁еліміз:7821
▁апарып:7822
▁көргенде:7823
▁Бастысы:7824
ах:7825
▁Media:7826
▁кітабы:7827
▁тиімділігі:7828
▁Дәрігер:7829
▁кәсіпкерлер:7830
▁бұзу:7831
▁represents:7832
▁қас:7833
▁boyfriend:7834
▁sc:7835
tin:7836
ip:7837
▁күтеміз:7838
▁денесі:7839
▁electricity:7840
Иә:7841
▁кеткенін:7842
▁білем:7843
▁angel:7844
▁manufacturer:7845
uring:7846
▁Рахмет:7847
▁кемінде:7848
▁ұнатады:7849
▁soft:7850
ho:7851
▁келін:7852
▁Сіздердің:7853
▁тасымалдау:7854
▁chances:7855
▁беріліп:7856
▁дизайн:7857
▁университеті:7858
▁Тәуелсіздік:7859
▁құрып:7860
▁contrast:7861
▁perspective:7862
▁пікірін:7863
▁promises:7864
▁drawn:7865
▁бей:7866
▁Шындығында:7867
▁Ro:7868
▁аударыңыз:7869
kin:7870
▁pandemic:7871
▁ғимарат:7872
▁қателік:7873
▁Ho:7874
▁мақсатты:7875
▁әйгілі:7876
▁friendly:7877
Олар:7878
▁complicated:7879
▁ойнаған:7880
▁responded:7881
▁Айт:7882
▁Бірде:7883
▁Бос:7884
▁парламент:7885
▁жақты:7886
▁жүрегі:7887
мызда:7888
▁ойым:7889
▁органдары:7890
▁OK:7891
▁көрсеткіші:7892
▁Tom:7893
▁мектептің:7894
топ:7895
▁ЖШС:7896
▁Plan:7897
▁пара:7898
▁бірінде:7899
▁бермейтін:7900
▁Almaty:7901
▁properties:7902
▁кесу:7903
▁41:7904
▁өтуге:7905
▁млрд:7906
▁науқас:7907
мо:7908
▁ор:7909
▁әлемі:7910
▁Әлемдегі:7911
▁advised:7912
▁кеңесі:7913
▁Сайт:7914
▁Sp:7915
▁fellow:7916
▁ceremony:7917
▁ізгі:7918
▁remaining:7919
леді:7920
▁outcome:7921
▁Төрт:7922
▁теңгеге:7923
▁көзім:7924
▁ақыры:7925
▁қолда:7926
▁қатарынан:7927
▁Video:7928
▁кәсіпорындар:7929
▁әкеліп:7930
Our:7931
кон:7932
▁Негізінде:7933
ыңнан:7934
▁әдістері:7935
▁afford:7936
▁ған:7937
▁жетпей:7938
▁латын:7939
▁walls:7940
▁суы:7941
ика:7942
▁материалдық:7943
бан:7944
▁жоғалған:7945
▁Monday:7946
лықтың:7947
▁writes:7948
cy:7949
▁мас:7950
ng:7951
▁Lo:7952
▁20-:7953
даған:7954
▁есепте:7955
▁еңбегі:7956
терінің:7957
▁nobody:7958
ger:7959
▁Britain:7960
ko:7961
ип:7962
▁басқалар:7963
▁cards:7964
▁vacation:7965
▁өткізіледі:7966
▁Lu:7967
▁parliament:7968
▁оралған:7969
03:7970
▁Ендігі:7971
▁З:7972
ліктің:7973
▁meat:7974
жол:7975
▁Ашық:7976
▁құрады:7977
баев:7978
лайды:7979
▁closely:7980
▁түсініп:7981
▁Жігіт:7982
▁сырт:7983
со:7984
▁ring:7985
▁Financial:7986
▁Director:7987
▁cheap:7988
▁етемін:7989
▁келіссөздер:7990
▁қуанып:7991
▁Денсаулық:7992
▁begun:7993
сінің:7994
▁Жаз:7995
35:7996
▁зиянды:7997
тикалық:7998
......:7999
right:8000
▁worthy:8001
▁бағдар:8002
▁injured:8003
▁болғысы:8004
▁дейсің:8005
▁Биылғы:8006
don:8007
▁observed:8008
▁өтуі:8009
▁үздіксіз:8010
▁көпір:8011
▁күйеуі:8012
▁neighbors:8013
▁Key:8014
тылған:8015
аз:8016
Қа:8017
▁Self:8018
▁үн:8019
▁therapy:8020
▁settled:8021
au:8022
▁shoulder:8023
▁snow:8024
▁shoes:8025
▁қадағалау:8026
▁memories:8027
95:8028
▁20%:8029
▁Өзге:8030
▁сатуға:8031
dis:8032
ология:8033
▁pointed:8034
▁енген:8035
▁servants:8036
▁liked:8037
!):8038
▁arrival:8039
▁minimum:8040
ңізге:8041
▁drawing:8042
▁injury:8043
▁кісілер:8044
▁емтихан:8045
▁assets:8046
▁тағамдар:8047
ct:8048
▁repeat:8049
▁recommendations:8050
▁1992:8051
▁мейірімді:8052
▁Джон:8053
▁collected:8054
▁жүргізіліп:8055
ham:8056
▁Vietnam:8057
▁ұзақтығы:8058
▁құрған:8059
▁қорқады:8060
▁courage:8061
▁жеткізіп:8062
▁төтенше:8063
▁аяғына:8064
▁quit:8065
▁шараларды:8066
▁сөйлеген:8067
▁ку:8068
▁абай:8069
fer:8070
▁Тұрғындар:8071
▁ұрыс:8072
қимыл:8073
▁flat:8074
▁нұр:8075
▁тарта:8076
▁sample:8077
▁beach:8078
▁аурудың:8079
бірі:8080
▁candidates:8081
▁Қысқасы:8082
▁App:8083
▁falling:8084
▁пайдаланыңыз:8085
▁жүрдім:8086
▁square:8087
▁Federal:8088
▁stuck:8089
▁scheduled:8090
▁Бастапқыда:8091
▁кезек:8092
▁colors:8093
▁client:8094
▁болатындығын:8095
▁Өзін:8096
сс:8097
▁қаржыландыру:8098
▁реакция:8099
▁tips:8100
▁paint:8101
▁Премьер:8102
▁pattern:8103
06:8104
▁ойна:8105
▁шамасы:8106
ілді:8107
іңізде:8108
▁Pa:8109
▁Plus:8110
уын:8111
▁primarily:8112
▁Put:8113
▁Алдын:8114
▁Бұрынғы:8115
▁болғым:8116
▁smoking:8117
ven:8118
▁әзір:8119
▁сөзінде:8120
▁Jerusalem:8121
▁practices:8122
▁суретін:8123
▁replaced:8124
▁clock:8125
▁Ескі:8126
▁ойы:8127
жоқ:8128
▁sum:8129
▁submit:8130
▁туыстары:8131
▁babies:8132
▁Қазақстанға:8133
ible:8134
▁мынаны:8135
▁ұмыт:8136
▁ға:8137
▁қараңғы:8138
▁Bar:8139
▁оқушылары:8140
▁ек:8141
▁carrying:8142
▁іші:8143
▁Ireland:8144
▁түрік:8145
▁punished:8146
ens:8147
▁Жамбыл:8148
▁күресу:8149
▁registration:8150
▁02:8151
▁себептер:8152
Та:8153
▁roof:8154
▁өнімдері:8155
▁sisters:8156
▁қатынастар:8157
▁Осылай:8158
▁//:8159
▁maximum:8160
▁overcome:8161
▁елінің:8162
▁establishment:8163
▁Жапония:8164
▁Дәрігерлер:8165
▁ethnic:8166
▁cells:8167
▁оқиғаны:8168
▁visible:8169
▁қо:8170
ғыз:8171
▁ұсақ:8172
▁Girl:8173
мнің:8174
▁десеңіз:8175
▁writers:8176
▁waited:8177
▁ұшу:8178
▁деңгей:8179
▁табысқа:8180
▁білдірген:8181
▁Sha:8182
▁сарапшылар:8183
▁purchased:8184
▁бермеу:8185
▁contest:8186
▁рецепт:8187
▁жоғалтып:8188
йік:8189
▁қойылды:8190
▁дүкен:8191
▁anger:8192
▁қоймай:8193
бала:8194
▁motor:8195
sk:8196
▁жұмыста:8197
▁кезімде:8198
▁extended:8199
▁Community:8200
▁тұрғыны:8201
▁ұшақ:8202
▁heads:8203
▁Үйге:8204
▁permission:8205
29:8206
mar:8207
сымен:8208
тайды:8209
▁split:8210
▁ханым:8211
▁өзен:8212
▁accident:8213
▁03:8214
емін:8215
▁fund:8216
▁артып:8217
▁necessarily:8218
лайтын:8219
▁бөлігінде:8220
чи:8221
ck:8222
▁micro:8223
▁тобының:8224
шының:8225
▁Jewish:8226
▁неміс:8227
▁friendship:8228
ез:8229
▁мүдделі:8230
▁Арнайы:8231
▁қарастыру:8232
▁custom:8233
▁психологиялық:8234
▁teaches:8235
▁қазына:8236
back:8237
▁жартылай:8238
▁miss:8239
▁guard:8240
▁байланыста:8241
бі:8242
Алла:8243
▁suggests:8244
▁mostly:8245
▁көлемінде:8246
ries:8247
Өз:8248
▁долларға:8249
▁ап:8250
▁жұмбақ:8251
▁Jo:8252
▁Күні:8253
▁кезден:8254
▁significance:8255
▁біздер:8256
▁сүр:8257
▁сенен:8258
▁portion:8259
▁тазалау:8260
▁technique:8261
ект:8262
▁То:8263
▁girlfriend:8264
▁жүруге:8265
▁80%:8266
ations:8267
▁Қоғамдық:8268
▁жары:8269
▁спорттық:8270
▁қасиеті:8271
▁pulled:8272
▁Sa:8273
qu:8274
▁Queen:8275
▁Must:8276
▁таппай:8277
▁қаз:8278
▁argument:8279
▁Ah:8280
▁Оқиға:8281
▁күл:8282
▁әскер:8283
king:8284
уда:8285
▁advanced:8286
▁contain:8287
▁шеңберінде:8288
▁есепті:8289
▁fallen:8290
▁west:8291
▁жасадым:8292
ung:8293
▁із:8294
▁шақ:8295
▁talent:8296
▁қалаймын:8297
овтың:8298
▁Кар:8299
▁министрлігінің:8300
▁талаптарына:8301
▁мәдениеті:8302
io:8303
▁облысында:8304
▁proved:8305
▁guest:8306
▁боласың:8307
▁encouraged:8308
▁pet:8309
▁trading:8310
шық:8311
▁қосылып:8312
фа:8313
▁әзіл:8314
▁everybody:8315
ғам:8316
▁орнынан:8317
▁құлшылық:8318
▁Қой:8319
▁Ha:8320
▁Сурет:8321
▁ұстаған:8322
▁жетпейді:8323
▁көптен:8324
дин:8325
▁faster:8326
▁жеріне:8327
рен:8328
▁bike:8329
▁Things:8330
▁merely:8331
▁(3:8332
▁Third:8333
lic:8334
▁unfortunately:8335
Ақ:8336
▁stability:8337
мар:8338
▁loving:8339
▁жал:8340
ңызда:8341
▁шақырған:8342
▁fee:8343
▁үнсіз:8344
▁Energy:8345
Are:8346
▁Ор:8347
▁судың:8348
▁міндеттері:8349
tain:8350
▁successfully:8351
▁ойға:8352
▁Қос:8353
▁flying:8354
▁arm:8355
▁заңы:8356
▁мешіт:8357
▁shooting:8358
татын:8359
▁астына:8360
▁көшеде:8361
▁environmental:8362
▁командасы:8363
▁қоғамға:8364
мек:8365
▁мұғалімдер:8366
▁кеңейту:8367
▁Ukrainian:8368
▁Har:8369
▁сабаққа:8370
▁картасы:8371
▁разы:8372
▁бірлескен:8373
▁топтар:8374
▁Ne:8375
▁switch:8376
▁күтпеген:8377
▁кейбіреулері:8378
▁arrive:8379
▁жолаушы:8380
▁Топ:8381
▁қалмайды:8382
▁сипаттамасы:8383
▁composition:8384
▁тапсырмалар:8385
▁Мақсат:8386
рет:8387
▁turning:8388
▁choices:8389
▁айналысып:8390
ns:8391
▁жоюға:8392
▁киелі:8393
▁жағын:8394
▁үкім:8395
▁wave:8396
▁Балалардың:8397
▁алатынын:8398
▁Christians:8399
▁таңғы:8400
▁ұят:8401
▁presentation:8402
▁Five:8403
well:8404
▁үйренген:8405
▁ісін:8406
▁guidance:8407
▁сыбайлас:8408
▁sp:8409
▁алаң:8410
▁ешкімнің:8411
экономикалық:8412
▁Program:8413
66:8414
▁correctly:8415
ub:8416
▁түсіндіреді:8417
▁қарайтын:8418
▁екенімді:8419
соңды:8420
▁құрама:8421
▁Ca:8422
▁Joseph:8423
▁бұйрық:8424
ification:8425
▁білдірмейді:8426
▁cutting:8427
ырақ:8428
▁банктер:8429
▁represented:8430
ach:8431
▁install:8432
▁traveling:8433
▁қалуға:8434
▁қам:8435
▁аяғында:8436
гы:8437
▁translated:8438
ндегі:8439
▁nose:8440
▁beyond:8441
▁ойнай:8442
▁Мынау:8443
▁consistent:8444
ja:8445
▁significantly:8446
▁CD:8447
▁ғасырда:8448
▁идеясы:8449
▁laugh:8450
▁салыстырмалы:8451
▁сабақтар:8452
ммен:8453
▁bride:8454
▁сатылады:8455
▁шығарылады:8456
▁шарап:8457
▁Соңында:8458
▁шартты:8459
▁өсімдік:8460
▁blessed:8461
▁За:8462
ске:8463
▁көбісі:8464
▁proven:8465
▁fruits:8466
еке:8467
▁courses:8468
ians:8469
▁қатарында:8470
▁тұ:8471
▁елдерінің:8472
▁Қарапайым:8473
▁қаласындағы:8474
32:8475
▁мамандығы:8476
▁consideration:8477
▁қант:8478
▁90%:8479
▁defend:8480
▁автомобиль:8481
▁Someone:8482
▁deserves:8483
▁fate:8484
ыңызда:8485
▁Өрт:8486
өз:8487
▁тұрғанда:8488
▁айтарым:8489
od:8490
із:8491
▁жұ:8492
▁miles:8493
▁blessings:8494
IT:8495
▁Зерттеу:8496
▁sleeping:8497
▁технологиялық:8498
▁abuse:8499
▁Travel:8500
▁ғарыш:8501
▁CO:8502
▁sets:8503
▁informed:8504
қар:8505
▁аналар:8506
Жаңа:8507
▁қыркүйекте:8508
▁pop:8509
27:8510
▁output:8511
▁proposal:8512
▁permitted:8513
▁cat:8514
▁Біріккен:8515
▁арт:8516
▁reminded:8517
▁тегіс:8518
▁Рим:8519
▁еліміздегі:8520
▁formation:8521
▁мемлекетке:8522
▁жақсартуға:8523
▁құ:8524
▁туылған:8525
▁Таңертең:8526
▁түк:8527
▁бейнесі:8528
▁баласының:8529
▁Шымкент:8530
tle:8531
Қазір:8532
pt:8533
▁assist:8534
▁entering:8535
▁Rome:8536
▁өзгерген:8537
▁sake:8538
▁Ta:8539
wa:8540
▁attended:8541
▁сезіну:8542
Ел:8543
▁жүргенін:8544
▁түркі:8545
▁Бизнес:8546
▁package:8547
▁Federation:8548
God:8549
▁бөле:8550
▁ортаны:8551
▁қатынасы:8552
▁көтере:8553
▁шарттары:8554
▁concluded:8555
AL:8556
▁script:8557
ективті:8558
▁тырысқан:8559
▁forum:8560
can:8561
▁ішкен:8562
▁define:8563
▁depression:8564
▁салынды:8565
▁allowing:8566
▁Adam:8567
ag:8568
▁метр:8569
▁storage:8570
▁Wall:8571
осы:8572
ile:8573
▁аймақта:8574
▁District:8575
▁experiment:8576
▁жаттығулар:8577
▁Answer:8578
зе:8579
room:8580
▁біткен:8581
▁кіруге:8582
сауық:8583
▁жиынтығы:8584
▁silver:8585
▁қағып:8586
▁burning:8587
▁captured:8588
▁әкелген:8589
▁қалдыру:8590
called:8591
▁үстел:8592
▁жағдайдың:8593
▁Қажет:8594
▁От:8595
жі:8596
▁түбегейлі:8597
▁сүресі:8598
▁ұзындығы:8599
▁statements:8600
▁Мұхаммед:8601
▁positions:8602
▁lifetime:8603
▁silence:8604
▁applies:8605
тика:8606
▁өсіру:8607
▁түсіндіріп:8608
▁frame:8609
▁Қызылорда:8610
▁мүшелерінің:8611
Нұр:8612
▁қарастырылған:8613
hu:8614
гүл:8615
▁салыстыру:8616
▁шама:8617
▁сипаты:8618
36:8619
▁Ак:8620
▁сап:8621
▁requested:8622
ice:8623
▁ерекшеленеді:8624
▁Сағат:8625
▁supplies:8626
▁net:8627
▁depending:8628
▁estate:8629
▁Басында:8630
▁жеткізіңіз:8631
▁сүруге:8632
еу:8633
▁coach:8634
▁domain:8635
Yes:8636
▁жылдардың:8637
▁Syrian:8638
▁Тарих:8639
▁argue:8640
▁баяндама:8641
▁үміткер:8642
cent:8643
▁calendar:8644
eg:8645
▁regime:8646
▁metal:8647
әл:8648
▁екпе:8649
▁rare:8650
▁қуаты:8651
▁атқарып:8652
▁көзделген:8653
▁lying:8654
gen:8655
▁салдары:8656
▁сөзге:8657
▁жаңарту:8658
▁суреті:8659
▁Мар:8660
▁43:8661
▁Medical:8662
▁дайындалып:8663
▁pure:8664
▁бөлісті:8665
▁techniques:8666
▁watched:8667
form:8668
▁philosophy:8669
▁fishing:8670
mer:8671
▁Дін:8672
▁елінде:8673
▁жүйені:8674
▁шыны:8675
▁күте:8676
▁асырады:8677
ified:8678
▁келуге:8679
▁мерзімде:8680
бес:8681
▁қалғаны:8682
▁қалдырып:8683
▁жүйеге:8684
▁басылым:8685
▁awarded:8686
▁туды:8687
▁айтыс:8688
▁білімі:8689
▁порталы:8690
▁reader:8691
▁аудандық:8692
▁шықпай:8693
▁weapon:8694
▁indicates:8695
▁конкурс:8696
▁қасиет:8697
ом:8698
▁Әкесі:8699
▁Шыны:8700
▁бетке:8701
▁кіретін:8702
▁дәстүр:8703
▁жақсырақ:8704
▁Жұма:8705
▁әйтеуір:8706
▁сөйлеп:8707
▁сараптама:8708
▁initially:8709
▁Hell:8710
▁жет:8711
▁vegetables:8712
▁салт:8713
▁есептік:8714
▁көл:8715
▁succeed:8716
▁жи:8717
▁ауылдық:8718
▁dependent:8719
▁шешеді:8720
▁essay:8721
▁тай:8722
▁restaurant:8723
▁есірткі:8724
▁Көр:8725
▁бөлімінде:8726
istic:8727
▁вирус:8728
▁қуана:8729
▁тағала:8730
▁Future:8731
▁Never:8732
▁Casino:8733
▁кешір:8734
▁Following:8735
▁notes:8736
▁infection:8737
▁жылды:8738
▁emotional:8739
▁resolve:8740
▁миллиондаған:8741
▁қабылдай:8742
▁төсек:8743
▁сумен:8744
▁көздері:8745
▁Дене:8746
▁стратегиялық:8747
▁Сіздерге:8748
нер:8749
▁righteousness:8750
іледі:8751
▁қап:8752
▁charged:8753
▁ойлайтын:8754
▁holds:8755
▁жоспарын:8756
▁resource:8757
▁Much:8758
▁crew:8759
▁айрықша:8760
▁fulfilled:8761
▁chain:8762
об:8763
жек:8764
▁билет:8765
▁дегенім:8766
▁falls:8767
▁participated:8768
▁Болашақ:8769
мнан:8770
▁efficiency:8771
▁соғысы:8772
▁тыныштық:8773
▁мемлекеттердің:8774
▁1970:8775
▁Жарайды:8776
▁Ауа:8777
▁бағдарламаны:8778
▁сайттар:8779
▁Ау:8780
▁сиыр:8781
▁қабырға:8782
▁Қайда:8783
▁Жүйе:8784
рды:8785
▁threatened:8786
▁component:8787
▁Republican:8788
▁Change:8789
▁monthly:8790
▁тұжырым:8791
▁санаты:8792
▁ауданында:8793
ир:8794
▁көрсетілетін:8795
▁amongst:8796
▁explanation:8797
▁қадамдар:8798
▁тағайындау:8799
like:8800
▁remind:8801
▁requirement:8802
▁register:8803
▁шақыр:8804
▁Stop:8805
▁Соғыс:8806
▁foods:8807
быр:8808
isation:8809
▁Батыр:8810
▁burn:8811
Is:8812
министр:8813
ji:8814
▁respected:8815
▁cooking:8816
▁Hu:8817
▁participation:8818
▁kitchen:8819
гіш:8820
▁horses:8821
▁pregnancy:8822
▁Өзіңізді:8823
▁slightly:8824
▁күнінде:8825
▁Қорытынды:8826
▁білмейміз:8827
▁estimated:8828
▁Baby:8829
▁Аға:8830
▁seed:8831
▁peaceful:8832
▁пікірі:8833
▁әдеби:8834
▁жеуге:8835
▁Президенттің:8836
▁сыйлықтар:8837
▁сахна:8838
▁ү:8839
▁сөйлей:8840
▁Roman:8841
▁Care:8842
▁жауапкершілігі:8843
▁holy:8844
▁mess:8845
▁introduce:8846
▁ұсынамын:8847
нов:8848
▁арманым:8849
▁қырық:8850
▁specifically:8851
▁Атап:8852
▁зақым:8853
▁аударып:8854
▁scheme:8855
▁cr:8856
ier:8857
▁Бол:8858
▁evolution:8859
▁тоқ:8860
▁reputation:8861
▁Ерте:8862
▁Ti:8863
▁Анасы:8864
▁мүмкіндікті:8865
▁universities:8866
▁жалғасады:8867
▁ересек:8868
▁жүргізеді:8869
▁owned:8870
▁Samsung:8871
▁wondering:8872
▁түсін:8873
▁бітірген:8874
▁trained:8875
сау:8876
▁episode:8877
▁бағыттағы:8878
▁жиын:8879
ide:8880
board:8881
▁өмірінде:8882
▁домбыра:8883
▁9-:8884
▁suit:8885
▁нәтижесін:8886
▁empty:8887
▁Conference:8888
▁етеміз:8889
▁IP:8890
▁таптым:8891
міздің:8892
▁Abraham:8893
▁белгілер:8894
▁күліп:8895
▁upcoming:8896
▁адамы:8897
▁figures:8898
▁шек:8899
▁бәрінен:8900
▁upper:8901
▁жабу:8902
▁жасаймын:8903
▁неғұрлым:8904
▁тартымды:8905
бақ:8906
▁Солай:8907
бей:8908
▁жеміс:8909
▁combination:8910
▁күлкі:8911
▁Olympic:8912
▁істеймін:8913
▁қалдырған:8914
▁температура:8915
▁атқаратын:8916
▁anniversary:8917
▁қаласына:8918
▁Team:8919
▁ешқайсысы:8920
▁саласына:8921
▁қимыл:8922
▁admitted:8923
▁тұста:8924
▁бетіндегі:8925
▁атындағы:8926
▁Trade:8927
▁Nothing:8928
ual:8929
▁дауысы:8930
▁элемент:8931
▁дегендей:8932
▁ear:8933
▁recognition:8934
▁тан:8935
▁decade:8936
▁жеңе:8937
▁кеме:8938
▁кездесулер:8939
▁оралу:8940
▁егжей:8941
▁демек:8942
▁ашуға:8943
▁гол:8944
▁30%:8945
▁тұтас:8946
▁skill:8947
▁(3):8948
▁Academy:8949
▁accomplished:8950
▁Ле:8951
▁жарылыс:8952
Ма:8953
▁Ескерту:8954
▁ұсынатын:8955
act:8956
▁бөл:8957
ск:8958
▁disaster:8959
▁aimed:8960
▁Though:8961
▁slowly:8962
▁адамдары:8963
▁шынында:8964
▁ақпараттар:8965
▁accused:8966
▁Inter:8967
war:8968
▁click:8969
тардан:8970
▁жерлер:8971
▁neck:8972
▁ортада:8973
ons:8974
1):8975
▁сезімі:8976
▁appointed:8977
▁Құрылыс:8978
▁мәлімдеме:8979
▁formula:8980
▁branch:8981
▁1960:8982
▁Бек:8983
▁Whatever:8984
▁жасадық:8985
қты:8986
▁қи:8987
▁Асыл:8988
▁Дүние:8989
▁бүгінге:8990
▁festival:8991
▁дайындалған:8992
▁қы:8993
▁заттардың:8994
▁Island:8995
▁орталығында:8996
▁атауын:8997
імізде:8998
▁reminds:8999
▁сез:9000
▁сәттен:9001
▁motion:9002
▁classic:9003
▁жібере:9004
▁ондаған:9005
▁partnership:9006
▁онша:9007
▁оқиғаның:9008
ery:9009
#:9010
ot:9011
▁sheep:9012
▁келдіңіз:9013
55:9014
▁Russians:9015
▁Кеше:9016
▁орындар:9017
▁Pay:9018
▁shopping:9019
▁occasion:9020
▁пән:9021
▁құрғақ:9022
▁мерзімге:9023
▁мобильді:9024
▁Sadly:9025
▁blue:9026
ug:9027
▁таңдай:9028
ылатын:9029
▁ойындары:9030
или:9031
▁infrastructure:9032
▁берейін:9033
▁explore:9034
▁casino:9035
▁Set:9036
▁Өзбекстан:9037
мон:9038
oo:9039
▁жерін:9040
▁салыңыз:9041
▁professionals:9042
▁кезі:9043
по:9044
▁сөйлейді:9045
▁алаңда:9046
▁мағынасын:9047
▁сұраңыз:9048
▁ая:9049
▁басшылық:9050
▁strange:9051
▁tourism:9052
ray:9053
▁құнын:9054
▁періште:9055
▁Алаш:9056
▁executive:9057
▁берудің:9058
▁Италия:9059
▁білдік:9060
▁telephone:9061
ейін:9062
▁musical:9063
▁Оқушы:9064
▁Welcome:9065
▁уайым:9066
▁Сізде:9067
▁көтерген:9068
fully:9069
▁resulted:9070
▁жанды:9071
▁corporate:9072
▁approval:9073
▁Қауіпсіздік:9074
▁естен:9075
▁47:9076
іш:9077
▁impression:9078
▁Cor:9079
▁resistance:9080
▁Based:9081
▁Control:9082
▁жеген:9083
▁atmosphere:9084
▁Кем:9085
▁есептейді:9086
▁Әл:9087
▁анықтады:9088
▁protecting:9089
▁survived:9090
▁жүгіріп:9091
▁thou:9092
▁хал:9093
▁Азамат:9094
▁аптаның:9095
▁тұрамын:9096
▁үйдегі:9097
▁Supreme:9098
▁fought:9099
▁neighbor:9100
▁төлеп:9101
▁qualities:9102
йтін:9103
▁49:9104
▁комитеті:9105
▁По:9106
▁ф:9107
анам:9108
SE:9109
▁жазыңыз:9110
▁officially:9111
▁іштей:9112
▁reasonable:9113
▁тұрғындарының:9114
▁bag:9115
▁plot:9116
▁қойылатын:9117
▁HD:9118
▁opposed:9119
оған:9120
▁Ben:9121
bar:9122
▁жұмысының:9123
▁county:9124
▁арта:9125
▁созылады:9126
▁тиімділігін:9127
sion:9128
▁әкелуі:9129
▁True:9130
▁beneficial:9131
▁holidays:9132
▁санаймын:9133
▁auto:9134
Күн:9135
▁likes:9136
ылмаған:9137
Жа:9138
▁Ақын:9139
▁жанжал:9140
▁үшеуі:9141
▁Ба:9142
кин:9143
▁сыйақы:9144
▁None:9145
▁атқарған:9146
art:9147
sen:9148
65:9149
▁County:9150
тарда:9151
▁ұнайтын:9152
▁баспа:9153
▁одақ:9154
▁moral:9155
▁орындаған:9156
www:9157
▁ком:9158
▁Foundation:9159
▁қорқамын:9160
▁Құл:9161
▁жобаларды:9162
▁басшылығы:9163
▁Game:9164
▁Қатты:9165
▁оз:9166
▁awesome:9167
▁Furthermore:9168
▁өлтіру:9169
▁Top:9170
▁Pakistan:9171
04:9172
▁құқықтарын:9173
▁influenced:9174
31:9175
▁46:9176
▁күрт:9177
▁алсаңыз:9178
▁priority:9179
▁deals:9180
▁Қашан:9181
▁әйелді:9182
pre:9183
▁hole:9184
▁convenient:9185
асы:9186
du:9187
▁Talk:9188
▁айтылады:9189
On:9190
iz:9191
▁ешкімді:9192
▁finance:9193
▁бөлініп:9194
▁Da:9195
▁impressed:9196
ци:9197
▁мамандары:9198
▁Облыс:9199
▁аяқтау:9200
▁Mi:9201
han:9202
▁Мәжіліс:9203
▁төлейді:9204
▁western:9205
▁танытып:9206
▁700:9207
▁іздейді:9208
ларың:9209
wi:9210
Солардың:9211
▁бейбітшілік:9212
▁Бұны:9213
▁модель:9214
▁Елбасының:9215
▁stronger:9216
▁құтқару:9217
▁әуелі:9218
▁cancer:9219
▁ішу:9220
▁180:9221
▁referring:9222
▁Po:9223
▁Мақсаты:9224
▁күз:9225
▁competitive:9226
▁танысып:9227
▁орысша:9228
пан:9229
▁ұстауға:9230
еміз:9231
▁passing:9232
▁аймағы:9233
▁жу:9234
▁Trust:9235
▁жиналып:9236
екті:9237
▁characteristics:9238
ріп:9239
▁жетістікке:9240
▁болатынына:9241
▁бірлесіп:9242
▁істің:9243
▁нөмір:9244
▁бақылауға:9245
▁қаулы:9246
▁Chief:9247
▁келісімшарт:9248
uk:9249
▁rose:9250
▁түсір:9251
▁links:9252
▁assessment:9253
▁еліне:9254
▁Исраил:9255
▁мақсаттары:9256
▁ate:9257
ие:9258
▁Us:9259
ван:9260
▁жолдама:9261
▁Абайдың:9262
▁барысы:9263
▁terrorism:9264
▁Шынымен:9265
▁fifth:9266
▁http:9267
▁Heaven:9268
атты:9269
▁достарым:9270
▁engage:9271
▁айналасында:9272
▁minds:9273
▁класс:9274
▁өндіруші:9275
▁қылған:9276
49:9277
орк:9278
▁неден:9279
▁Arab:9280
▁Catholic:9281
▁Personal:9282
▁арманы:9283
▁бұрынғыдай:9284
Қазақ:9285
▁айтасыз:9286
head:9287
▁penalty:9288
▁өтінім:9289
ектісі:9290
38:9291
▁жағдайына:9292
▁comply:9293
▁2020.:9294
▁шетелде:9295
▁ma:9296
▁strike:9297
▁Сұрақтар:9298
▁сіздермен:9299
▁Да:9300
▁Saudi:9301
▁tries:9302
▁iOS:9303
▁Құрметті:9304
▁дүниеде:9305
▁instruments:9306
▁League:9307
▁bridge:9308
▁тәсіл:9309
▁туады:9310
▁бонус:9311
▁бауыр:9312
▁кітапхана:9313
▁30-:9314
▁Халықтың:9315
▁Working:9316
▁Michael:9317
улы:9318
▁Sub:9319
▁revolution:9320
▁ха:9321
▁алғаннан:9322
86:9323
▁қарт:9324
ліп:9325
▁сабақта:9326
▁forgot:9327
▁invite:9328
▁Grand:9329
▁дүниені:9330
▁intention:9331
▁destruction:9332
▁тіркелу:9333
▁ережелерін:9334
▁жүрегім:9335
▁арттыруға:9336
▁roles:9337
▁personality:9338
▁acting:9339
▁la:9340
▁Ya:9341
▁атқарды:9342
▁қозғалысы:9343
▁жинағы:9344
▁signal:9345
▁күнгі:9346
▁құрметті:9347
▁recover:9348
23:9349
▁при:9350
▁келтіруге:9351
▁үстінен:9352
▁exhibition:9353
!!!!:9354
ging:9355
▁өзімен:9356
▁КСРО:9357
▁causing:9358
gar:9359
▁enjoying:9360
▁қорғайды:9361
▁таңқаларлық:9362
▁51:9363
▁күтілуде:9364
▁cream:9365
▁себептен:9366
▁Tri:9367
▁otherwise:9368
▁қатысатын:9369
▁жолдың:9370
▁presents:9371
▁Баланың:9372
▁Brazil:9373
▁agent:9374
▁ұжым:9375
100:9376
▁gather:9377
ыңның:9378
▁possibilities:9379
▁көрінуі:9380
▁vast:9381
▁fuel:9382
▁курс:9383
▁см:9384
▁Сирия:9385
▁іріктеу:9386
▁update:9387
09:9388
екең:9389
▁азаматтың:9390
▁жұмысшы:9391
▁халқына:9392
▁Теңіз:9393
зия:9394
▁доп:9395
▁payments:9396
▁кәсіпкерлік:9397
Бала:9398
▁жазбаша:9399
▁Java:9400
ass:9401
▁Sam:9402
▁шеңбер:9403
▁ІІ:9404
▁concern:9405
▁жүректен:9406
▁тақырыпқа:9407
▁Hello:9408
▁өлі:9409
▁екендігіне:9410
▁мерекелік:9411
▁Берілген:9412
▁клуб:9413
ланады:9414
▁бокс:9415
▁орындалуы:9416
▁көмектесуге:9417
▁спортшы:9418
▁жүргізген:9419
▁info:9420
▁Есіңізде:9421
▁мезгіл:9422
▁ақшасын:9423
▁3::9424
▁сену:9425
ure:9426
▁астанасы:9427
▁жоспарлау:9428
▁Ит:9429
▁institution:9430
▁керектігі:9431
▁қамтылған:9432
аны:9433
▁басталуы:9434
▁орталығына:9435
▁тон:9436
▁controlled:9437
терден:9438
▁mood:9439
қарсы:9440
des:9441
▁errors:9442
▁papers:9443
▁саясатын:9444
▁алайық:9445
▁отыз:9446
▁emphasis:9447
▁мәселелерін:9448
▁жіберілген:9449
▁commit:9450
▁кер:9451
▁Cup:9452
▁pace:9453
▁jump:9454
▁талаптары:9455
▁көмегі:9456
▁server:9457
▁governor:9458
▁MP:9459
▁артықшылығы:9460
▁саладағы:9461
▁мамырда:9462
▁әйелге:9463
▁Бізбен:9464
▁meantime:9465
▁Obama:9466
▁депутат:9467
▁missed:9468
▁ойнайтын:9469
▁subjects:9470
▁миллионнан:9471
▁қайтар:9472
which:9473
▁Indeed:9474
▁сенеміз:9475
Маған:9476
▁соңынан:9477
▁желіде:9478
▁ойынға:9479
▁камера:9480
▁Се:9481
▁degrees:9482
▁Club:9483
▁кездесуге:9484
cul:9485
Кім:9486
▁coast:9487
▁елдерінде:9488
▁тоқсан:9489
▁11-:9490
▁poetry:9491
▁кепіл:9492
als:9493
▁midst:9494
▁жеңімпаз:9495
▁ағасы:9496
▁Anyone:9497
▁тазарту:9498
▁аралас:9499
▁completion:9500
▁facility:9501
▁оқырман:9502
▁hall:9503
▁бұқаралық:9504
▁пайдаланатын:9505
▁Той:9506
ғыр:9507
▁prisoners:9508
▁дәрігерге:9509
▁Something:9510
▁Description:9511
▁құрбан:9512
85:9513
▁дәм:9514
таған:9515
▁directed:9516
▁тудырады:9517
ес:9518
▁сіздерді:9519
▁panel:9520
▁Бейне:9521
▁sacrifice:9522
▁coverage:9523
▁айналдыру:9524
▁Iraq:9525
▁Kids:9526
▁болғанына:9527
▁диалог:9528
▁PS:9529
▁heal:9530
▁іздеуге:9531
▁ертерек:9532
▁металл:9533
▁жетекшісі:9534
▁Әскери:9535
▁басқарма:9536
lon:9537
";:9538
▁өткізілді:9539
KZ:9540
▁үйренуге:9541
▁қажеттілік:9542
▁covers:9543
▁Керемет:9544
book:9545
▁eliminate:9546
ever:9547
▁Number:9548
▁суретші:9549
▁se:9550
▁меңгеру:9551
nt:9552
▁артында:9553
сай:9554
▁орнатуға:9555
▁бесінші:9556
▁ісіне:9557
▁historic:9558
▁сене:9559
▁Turn:9560
▁fulfill:9561
▁thankful:9562
▁gratitude:9563
▁participating:9564
▁пи:9565
▁Age:9566
▁жіберіледі:9567
▁өткеннен:9568
▁Па:9569
▁жартысын:9570
▁row:9571
▁көмір:9572
▁differently:9573
▁Page:9574
▁52:9575
▁бұ:9576
▁серіктестік:9577
▁жүйесінде:9578
▁созылған:9579
▁артады:9580
▁шақырым:9581
▁жаздым:9582
▁жеңілдік:9583
▁ыдыс:9584
шу:9585
▁Town:9586
▁есебі:9587
▁Doctor:9588
▁жібер:9589
▁Исаның:9590
▁бермек:9591
▁Орыс:9592
▁қауіпсіздігін:9593
ңның:9594
▁отыруға:9595
▁Бәріміз:9596
▁айтылып:9597
▁шаң:9598
▁өнімдерді:9599
Ер:9600
▁combat:9601
▁Film:9602
▁тұруы:9603
being:9604
▁Балам:9605
▁disciples:9606
02:9607
▁төбе:9608
▁шіркеу:9609
▁Салық:9610
▁артқы:9611
▁Zealand:9612
▁кө:9613
▁биліктің:9614
▁generated:9615
▁бастаңыз:9616
▁statistics:9617
▁expert:9618
▁ain:9619
▁қоқыс:9620
▁Empire:9621
▁entertainment:9622
33:9623
▁Hand:9624
▁пенде:9625
▁improvement:9626
▁дейсіз:9627
▁міндеттерді:9628
▁demonstrated:9629
▁battery:9630
bb:9631
Ғ:9632
▁клиент:9633
Бүгін:9634
▁Hope:9635
▁studio:9636
▁кездесті:9637
шарт:9638
▁ұзаққа:9639
▁profile:9640
▁imp:9641
▁PC:9642
▁жауапкершілікті:9643
▁pursue:9644
▁күтім:9645
One:9646
▁факторлар:9647
▁00:9648
▁Аталмыш:9649
▁нәрсенің:9650
▁қаласа:9651
▁Бақыт:9652
▁мін:9653
sis:9654
▁prefer:9655
▁valid:9656
▁publication:9657
▁6):9658
▁procedures:9659
▁Еуропада:9660
▁нүкте:9661
▁formal:9662
▁таңдайды:9663
▁attracted:9664
▁әдет:9665
▁expecting:9666
▁құрылғылар:9667
▁стандартты:9668
▁суретті:9669
▁shed:9670
▁repair:9671
▁Ресейге:9672
▁Сатып:9673
▁нәтижеге:9674
▁candidate:9675
лігіне:9676
08:9677
▁reaching:9678
▁relief:9679
▁strengthen:9680
▁extreme:9681
▁Wait:9682
▁ұр:9683
ble:9684
▁өлтірген:9685
▁Assembly:9686
▁сотта:9687
▁decline:9688
▁linked:9689
ком:9690
▁Line:9691
▁солар:9692
ыңда:9693
▁roads:9694
▁жаға:9695
▁Сары:9696
Алматы:9697
▁Dream:9698
▁lunch:9699
▁nearby:9700
br:9701
▁secrets:9702
▁тілінің:9703
▁ынталандыру:9704
▁Dead:9705
▁Павлодар:9706
▁Арал:9707
▁ears:9708
▁99:9709
▁surrounding:9710
▁сырттан:9711
▁жариялаған:9712
▁жұмыссыз:9713
▁мақал:9714
▁сома:9715
▁пайызын:9716
ita:9717
бо:9718
▁meets:9719
▁сеніп:9720
▁visual:9721
ынша:9722
▁plate:9723
▁жарамсыз:9724
▁III:9725
▁көлігі:9726
200:9727
▁temple:9728
▁Full:9729
▁inform:9730
▁urban:9731
▁reviews:9732
▁бетінше:9733
▁кезеңге:9734
CA:9735
▁Есеп:9736
▁Құ:9737
▁бәсекеге:9738
▁ыңғайсыз:9739
▁Көбінесе:9740
▁ad:9741
▁privacy:9742
▁Қал:9743
▁қамауға:9744
рин:9745
▁thirty:9746
ттың:9747
імнен:9748
▁faces:9749
▁болма:9750
леген:9751
▁Ешқашан:9752
▁мақта:9753
▁Ba:9754
▁сипаттама:9755
AR:9756
▁жанын:9757
▁сезінеді:9758
▁ұсына:9759
▁болмағанда:9760
▁бүтін:9761
ES:9762
gi:9763
▁десең:9764
ik:9765
▁continuing:9766
▁harvest:9767
▁stored:9768
ілетін:9769
▁шындыққа:9770
мізге:9771
▁scope:9772
ант:9773
▁өкпе:9774
һ:9775
▁мағына:9776
▁көрсеткіштер:9777
▁th:9778
▁provisions:9779
▁бағалы:9780
▁әнді:9781
chi:9782
▁Келісім:9783
▁партиясы:9784
▁Бірі:9785
▁organisation:9786
▁amazed:9787
▁bother:9788
▁бек:9789
▁га:9790
▁Hall:9791
▁compete:9792
▁тын:9793
▁Мә:9794
▁тұлғалардың:9795
pers:9796
▁қанағаттандыру:9797
▁өзімізді:9798
▁ongoing:9799
▁applicable:9800
▁Otherwise:9801
▁теміржол:9802
ймыз:9803
vin:9804
▁үрей:9805
▁Between:9806
▁шығармын:9807
▁мерекесі:9808
▁тақырыбына:9809
▁legacy:9810
▁сайлауға:9811
сты:9812
▁есту:9813
▁experiencing:9814
әрекет:9815
▁тіліне:9816
қатынаста:9817
▁faithful:9818
▁journal:9819
▁remarkable:9820
▁шарттар:9821
▁Blue:9822
▁қызу:9823
құлық:9824
▁жалғасуда:9825
▁drunk:9826
▁турнир:9827
мы:9828
▁екеуінің:9829
▁көлемін:9830
▁periods:9831
▁тауарлар:9832
▁құтты:9833
▁терезе:9834
▁Texas:9835
▁атымен:9836
аяқ:9837
▁/>:9838
▁72:9839
▁posts:9840
▁шебер:9841
▁Республика:9842
▁Машина:9843
▁ауылдың:9844
▁мм:9845
▁solved:9846
▁cloud:9847
▁түсініксіз:9848
▁bigger:9849
▁computers:9850
ум:9851
US:9852
▁атады:9853
▁мыс:9854
▁ауданда:9855
▁Title:9856
▁орталығының:9857
рай:9858
▁Аман:9859
▁мақалалар:9860
тин:9861
▁Әлемдік:9862
▁(5:9863
▁listened:9864
▁Фильм:9865
▁effectiveness:9866
дайды:9867
▁bathroom:9868
▁preserve:9869
▁өсім:9870
▁ending:9871
▁airport:9872
ver:9873
▁сайтта:9874
▁мо:9875
▁profession:9876
$:9877
▁топта:9878
▁иісі:9879
▁View:9880
сынып:9881
Go:9882
▁азаматтарға:9883
▁Патша:9884
▁winner:9885
▁дара:9886
▁топырақ:9887
▁deaths:9888
▁енгізілді:9889
▁бекер:9890
▁somewhere:9891
бат:9892
▁мүмкіндіктерін:9893
▁stores:9894
▁көрермен:9895
▁мақсаттар:9896
▁грант:9897
фер:9898
▁ruling:9899
▁cattle:9900
▁ұсынып:9901
гей:9902
▁білесіңдер:9903
▁маска:9904
дардан:9905
▁increases:9906
рады:9907
жыл:9908
▁provision:9909
мауы:9910
▁blessing:9911
▁labour:9912
▁steel:9913
▁ұшыраған:9914
▁pot:9915
▁Seven:9916
▁terrible:9917
▁layer:9918
▁chat:9919
▁шөп:9920
▁heavens:9921
▁айтуы:9922
ick:9923
▁quarter:9924
▁тырысу:9925
▁бұрынғыдан:9926
▁contribution:9927
▁білдіретін:9928
▁Polish:9929
▁banking:9930
▁сәнді:9931
▁келтіреді:9932
▁кілт:9933
get:9934
▁rescue:9935
▁желілер:9936
альды:9937
▁Ke:9938
▁кісіні:9939
ейік:9940
мейтін:9941
▁әже:9942
37:9943
▁Royal:9944
▁балама:9945
▁соқты:9946
▁экономикасы:9947
▁жеткізеді:9948
▁байқаған:9949
▁Ақтөбе:9950
hand:9951
▁сенеді:9952
▁бұндай:9953
▁жасанды:9954
▁ғұмыр:9955
▁тырыстым:9956
▁инновациялық:9957
▁farmers:9958
Адам:9959
▁solar:9960
bit:9961
▁шектеулер:9962
▁бермеген:9963
▁Press:9964
▁Si:9965
ada:9966
▁Тау:9967
▁белгілеу:9968
▁алғысы:9969
▁отбасында:9970
▁айынан:9971
▁Бұлардың:9972
▁Путин:9973
▁Fund:9974
▁тұрыңыз:9975
yl:9976
▁сценарий:9977
▁struck:9978
▁қатын:9979
▁өлшеу:9980
▁separated:9981
▁equipped:9982
▁leg:9983
▁compliance:9984
▁табысы:9985
▁cleaned:9986
▁барлығымыз:9987
ве:9988
▁plastic:9989
▁Machine:9990
▁wherever:9991
▁қуаныштымыз:9992
▁кешенді:9993
▁машиналар:9994
▁1989:9995
69:9996
▁үйрен:9997
▁ережесі:9998
▁мақаланы:9999
це:10000
▁немен:10001
▁нәтижелер:10002
▁Israeli:10003
▁Лондон:10004
▁personally:10005
▁Ru:10006
▁promotion:10007
▁Happy:10008
▁Section:10009
▁білгім:10010
▁толқын:10011
▁жанама:10012
▁экономиканың:10013
▁оқыдым:10014
cus:10015
▁директор:10016
▁елшісі:10017
▁бағаны:10018
▁түсінбей:10019
▁Greece:10020
▁Follow:10021
▁Жеті:10022
▁пана:10023
көз:10024
▁келіншек:10025
теріне:10026
терде:10027
▁қолданыстағы:10028
ius:10029
▁тәуелсіздік:10030
▁carbon:10031
▁instrument:10032
▁өт:10033
ок:10034
▁болдырмау:10035
39:10036
▁Жа:10037
▁түскі:10038
▁алуан:10039
▁Гу:10040
▁commands:10041
▁originally:10042
▁Years:10043
▁Америкада:10044
▁expansion:10045
ED:10046
▁Билік:10047
▁жететін:10048
▁Test:10049
ren:10050
▁specified:10051
▁affairs:10052
▁қауым:10053
▁норма:10054
▁толыққанды:10055
00-:10056
вин:10057
▁дегені:10058
аның:10059
▁тұқым:10060
сте:10061
▁дауыл:10062
▁нәресте:10063
state:10064
▁дәрежесі:10065
▁southern:10066
88:10067
▁адаммын:10068
ney:10069
▁технологиясы:10070
▁сөйлесе:10071
ур:10072
▁clinical:10073
ments:10074
▁ойынның:10075
▁concerns:10076
▁қалмай:10077
▁қазақтың:10078
▁tournament:10079
IP:10080
▁назарын:10081
▁қасиеттері:10082
▁аула:10083
▁му:10084
▁үміттенеміз:10085
▁gender:10086
ris:10087
▁талаптарын:10088
▁оқиғасы:10089
▁иіс:10090
▁жобаға:10091
tra:10092
org:10093
▁нысандар:10094
▁денсаулығына:10095
▁yesterday:10096
▁obey:10097
▁қатерлі:10098
▁тиген:10099
87:10100
▁жазылып:10101
▁versions:10102
▁Place:10103
▁accomplish:10104
ыңызбен:10105
▁Ман:10106
▁Семей:10107
▁Parents:10108
▁арттырады:10109
▁Secretary:10110
▁journalists:10111
▁отбасын:10112
▁Jehovah:10113
▁Going:10114
▁residence:10115
▁Northern:10116
tu:10117
кан:10118
▁depth:10119
Pro:10120
▁Музыка:10121
▁жүргізілді:10122
▁Story:10123
▁жұмысшылар:10124
▁Ұл:10125
▁mo:10126
▁үлесін:10127
▁күйеу:10128
SA:10129
▁Оң:10130
▁default:10131
▁аян:10132
мм:10133
▁жақындап:10134
▁Add:10135
тегжейлі:10136
▁Қонақ:10137
ny:10138
▁жазылады:10139
▁озық:10140
▁ерлі:10141
▁артынан:10142
▁төл:10143
▁етіңіз:10144
▁тастайды:10145
▁тастауға:10146
▁Tu:10147
▁Ver:10148
▁George:10149
see:10150
▁елестете:10151
▁aside:10152
▁агенттігі:10153
▁аудар:10154
▁meals:10155
▁ауруы:10156
▁аралық:10157
Жоқ:10158
▁есімін:10159
▁sections:10160
▁Dear:10161
▁Garden:10162
▁бітті:10163
▁болашаққа:10164
▁басқан:10165
▁қолданылуы:10166
ілуі:10167
▁Philippines:10168
▁remote:10169
▁gap:10170
▁sustainable:10171
▁мектептер:10172
▁дайынмын:10173
▁absence:10174
▁Pe:10175
▁игеру:10176
▁кеттік:10177
▁міндеттер:10178
▁tendency:10179
▁алаңы:10180
▁айтпай:10181
▁функция:10182
▁Мәдениет:10183
нш:10184
▁жұмыртқа:10185
▁threw:10186
ators:10187
▁кірісті:10188
▁тапсырған:10189
▁берілуі:10190
▁Нағыз:10191
▁еріп:10192
▁айтқанын:10193
▁moves:10194
▁салмақты:10195
▁Әйтеуір:10196
▁Nature:10197
▁Май:10198
▁маңыздылығын:10199
▁отырысы:10200
▁Sweden:10201
▁phenomenon:10202
▁existed:10203
▁под:10204
▁presidential:10205
!,":10206
▁тараған:10207
▁initiative:10208
▁Friends:10209
сайт:10210
ay:10211
▁Аспан:10212
▁салынып:10213
▁орындарын:10214
▁kindness:10215
:15:10216
▁ескерткіш:10217
▁attempted:10218
өл:10219
▁SEO:10220
▁1950:10221
▁ingredients:10222
сқа:10223
▁код:10224
▁Member:10225
лык:10226
▁балалық:10227
ture:10228
72:10229
▁blow:10230
▁балалармен:10231
▁Ти:10232
▁түзу:10233
▁барғанда:10234
▁қызметтің:10235
▁қателіктер:10236
▁Күнделікті:10237
▁Пайғамбар:10238
▁ca:10239
▁көлікті:10240
▁64:10241
▁кеңесінің:10242
▁phones:10243
▁beloved:10244
▁roll:10245
▁ease:10246
▁шикізат:10247
▁сұлулық:10248
▁клиникалық:10249
ration:10250
▁жолаушылар:10251
▁сайтында:10252
▁комитетінің:10253
med:10254
name:10255
▁Market:10256
▁membership:10257
▁көрмей:10258
лия:10259
▁болмайтынын:10260
shi:10261
▁форма:10262
▁колледж:10263
▁классикалық:10264
▁servant:10265
▁regards:10266
▁reform:10267
▁dreamed:10268
▁шешімді:10269
IC:10270
▁Freedom:10271
▁үйретеді:10272
▁Design:10273
▁relating:10274
▁базар:10275
▁Always:10276
Қара:10277
▁flu:10278
▁есімді:10279
▁мұражай:10280
▁алғанын:10281
▁ұлым:10282
▁filed:10283
▁шақырамын:10284
▁наурызда:10285
▁қолданысқа:10286
77:10287
жас:10288
нг:10289
▁тоқтата:10290
▁тұз:10291
▁gods:10292
▁Тай:10293
▁тарихында:10294
▁Members:10295
▁ұйымының:10296
▁куәлік:10297
▁сүйіп:10298
47:10299
▁85:10300
▁Fa:10301
▁өзімізге:10302
▁таңба:10303
▁indicate:10304
▁шайтан:10305
▁Жау:10306
▁Ехоба:10307
▁толығырақ:10308
gu:10309
Неге:10310
▁Министр:10311
▁істейміз:10312
▁саналы:10313
▁rent:10314
▁сайыс:10315
▁Тәжірибе:10316
▁отырыңыз:10317
▁балаларын:10318
▁берушінің:10319
▁nodded:10320
▁Мамандар:10321
есі:10322
ets:10323
▁Онымен:10324
▁көйлек:10325
▁di:10326
▁тараптар:10327
▁хабарласып:10328
сіздік:10329
▁keeps:10330
▁жасалуы:10331
▁анықтаңыз:10332
ess:10333
▁өмірім:10334
▁st:10335
▁engineering:10336
▁іскерлік:10337
▁thin:10338
▁сөйлескен:10339
▁neither:10340
ties:10341
▁әйтпесе:10342
▁қайғылы:10343
▁жануар:10344
▁шық:10345
▁атым:10346
▁шот:10347
истік:10348
▁Small:10349
▁Сайлау:10350
▁соншалық:10351
▁Ғылым:10352
масын:10353
▁кәдімгі:10354
▁жылдардағы:10355
▁ахуал:10356
%-:10357
▁семинар:10358
iff:10359
▁recording:10360
ER:10361
▁құқы:10362
▁mix:10363
▁traditions:10364
▁күйеуім:10365
har:10366
▁mu:10367
▁alternative:10368
▁диета:10369
▁wheel:10370
▁focuses:10371
▁Бастапқы:10372
▁салуды:10373
▁Серік:10374
▁Толығырақ:10375
ane:10376
▁біреулер:10377
▁charges:10378
▁журналистер:10379
lor:10380
▁тамыр:10381
▁көрем:10382
▁қаламын:10383
cha:10384
▁артықшылықтары:10385
▁коды:10386
▁boss:10387
▁санының:10388
▁жолдан:10389
▁Керек:10390
▁Ғалымдар:10391
▁towns:10392
▁ALL:10393
▁кредит:10394
▁тапсырмасы:10395
▁тастай:10396
▁Cross:10397
▁таста:10398
▁Кейбіреулер:10399
▁breaking:10400
хо:10401
su:10402
▁Ақыл:10403
ky:10404
▁бағдарламасының:10405
▁оп:10406
▁қамқор:10407
▁Select:10408
▁жын:10409
▁province:10410
▁істейтінін:10411
▁visiting:10412
▁Nobody:10413
▁expectations:10414
▁Әлгі:10415
▁қарсылас:10416
ec:10417
▁айтса:10418
▁асатын:10419
▁Jan:10420
фи:10421
▁өтеу:10422
▁Бұның:10423
▁сынға:10424
▁shame:10425
▁нарық:10426
маймыз:10427
▁жазбалар:10428
▁еті:10429
▁favour:10430
▁truck:10431
ened:10432
▁көлемде:10433
▁Florida:10434
▁тілейміз:10435
▁classroom:10436
▁тапсырмаларды:10437
▁Others:10438
▁examination:10439
ғали:10440
bal:10441
▁Student:10442
▁сауалнама:10443
▁мақсатымыз:10444
▁ұнатамын:10445
▁қосады:10446
▁spouse:10447
2%:10448
▁consent:10449
▁seeds:10450
▁До:10451
▁дайынбыз:10452
▁сөзінше:10453
Did:10454
жеке:10455
▁қолданылған:10456
▁есеппен:10457
▁байқа:10458
▁devoted:10459
▁marked:10460
▁жолымен:10461
▁Thailand:10462
▁қайт:10463
▁Жар:10464
▁берілмейді:10465
▁мәселелердің:10466
34:10467
истер:10468
уа:10469
▁Әлемнің:10470
▁көзқарасы:10471
данып:10472
▁serves:10473
▁кішігірім:10474
▁denied:10475
▁precious:10476
▁instantly:10477
▁сомасы:10478
▁sand:10479
▁есеге:10480
▁Театр:10481
▁жады:10482
▁сүретін:10483
▁анықтай:10484
▁толып:10485
ward:10486
▁grand:10487
▁без:10488
▁circle:10489
▁арба:10490
▁нысаны:10491
▁сүйемін:10492
▁бренд:10493
▁басқалары:10494
▁09:10495
▁Forum:10496
▁ерікті:10497
▁тұтынушылар:10498
▁silent:10499
ть:10500
▁Мексика:10501
▁түсініктеме:10502
▁жылдарға:10503
▁Affairs:10504
▁gambling:10505
▁perfectly:10506
▁ашылып:10507
▁есіме:10508
▁режимінде:10509
▁Ұлттар:10510
▁туынды:10511
▁grave:10512
▁артта:10513
▁формасы:10514
▁factory:10515
▁келтіріп:10516
▁сенбі:10517
▁жәрдемақы:10518
▁3-4:10519
▁Ежелгі:10520
ses:10521
▁жастарға:10522
▁демократиялық:10523
▁heating:10524
▁кетіпті:10525
▁түсінді:10526
▁passage:10527
▁repeated:10528
▁sending:10529
▁міндеттерін:10530
▁bomb:10531
▁Табиғат:10532
▁әкімінің:10533
▁ота:10534
▁dust:10535
▁Ga:10536
▁equivalent:10537
▁Желтоқсан:10538
▁қарастырылады:10539
▁ignore:10540
▁Мәсіх:10541
қон:10542
▁Жеңіс:10543
пайды:10544
▁amounts:10545
▁сақтайды:10546
▁ocean:10547
▁oldest:10548
▁Messenger:10549
рам:10550
▁анасының:10551
▁theater:10552
▁quote:10553
ымыздан:10554
▁anybody:10555
▁monitor:10556
▁жолына:10557
▁Әлемде:10558
▁division:10559
▁виза:10560
▁mystery:10561
▁Additionally:10562
▁1945:10563
▁distributed:10564
▁Төменде:10565
▁https:10566
тр:10567
▁ұш:10568
▁зар:10569
▁Region:10570
▁үрдіс:10571
▁жексенбі:10572
▁ойлады:10573
▁әні:10574
nes:10575
▁thy:10576
▁Canadian:10577
▁ө:10578
▁алмаса:10579
▁reduction:10580
▁берсеңіз:10581
ose:10582
Ата:10583
44:10584
▁indicated:10585
▁кофе:10586
▁шығарсыз:10587
▁pitch:10588
▁дәріс:10589
▁strategic:10590
сол:10591
ala:10592
▁j:10593
▁пар:10594
▁heritage:10595
▁айырылған:10596
▁forty:10597
▁gotten:10598
▁тақырыптар:10599
▁өзгертті:10600
▁жамандық:10601
▁өңір:10602
▁қиынға:10603
▁Main:10604
▁шығарылды:10605
▁ед:10606
68:10607
▁Ей:10608
▁ешнәрсе:10609
▁considerable:10610
▁applying:10611
▁сапары:10612
▁Өздеріңіз:10613
▁істері:10614
▁ashamed:10615
▁Аты:10616
Ma:10617
▁inner:10618
сал:10619
▁voted:10620
▁қорға:10621
▁interpretation:10622
▁reward:10623
▁Country:10624
ku:10625
▁Em:10626
▁мектебі:10627
▁құн:10628
ara:10629
▁бақша:10630
▁Төмендегі:10631
▁рахат:10632
nce:10633
▁жапон:10634
▁Ауыр:10635
ологиялық:10636
▁Го:10637
▁айналысқан:10638
▁greatly:10639
▁lock:10640
▁loans:10641
▁етуді:10642
▁термин:10643
▁көтеріліп:10644
▁күтуге:10645
▁Қытайға:10646
▁ақшаға:10647
▁көрінген:10648
ash:10649
▁бауырым:10650
вар:10651
ica:10652
лик:10653
▁өкілдерінің:10654
▁түп:10655
▁басқаруға:10656
▁button:10657
ықты:10658
▁Еуропаның:10659
▁дөңгелек:10660
▁honestly:10661
▁алмадық:10662
▁eternal:10663
тандыру:10664
▁flag:10665
▁transferred:10666
▁смартфон:10667
▁қолдап:10668
▁Жігіттер:10669
▁sought:10670
▁armed:10671
▁transportation:10672
▁Кездесу:10673
▁жылдай:10674
▁педагогикалық:10675
▁Американың:10676
▁Moon:10677
▁келмесе:10678
▁Азаттық:10679
тым:10680
▁жұрттың:10681
▁installation:10682
▁Алғаш:10683
▁Түн:10684
▁арамызда:10685
▁көтерілген:10686
▁қойылым:10687
▁дүниелер:10688
▁бөлуге:10689
▁асыр:10690
▁түсінігі:10691
▁тәжірибелі:10692
▁Сауда:10693
▁сапасына:10694
▁aged:10695
▁бағдарламаның:10696
▁футболшы:10697
▁мәселесіне:10698
▁literally:10699
▁алушылар:10700
ino:10701
▁қанағат:10702
▁Living:10703
▁Шу:10704
▁DVD:10705
қи:10706
▁Басқаша:10707
▁боксшы:10708
▁arrest:10709
2):10710
▁bedroom:10711
▁менікі:10712
▁Pacific:10713
▁достары:10714
pl:10715
▁Finance:10716
▁мейрам:10717
▁athletes:10718
▁Agency:10719
▁бұзушылық:10720
▁әдісін:10721
▁рух:10722
46:10723
▁05:10724
▁шам:10725
class:10726
▁lovely:10727
▁оқушыларға:10728
▁сезімін:10729
▁түсуге:10730
cho:10731
▁networks:10732
▁аулау:10733
mit:10734
▁көңілі:10735
▁Дауыс:10736
▁Автор:10737
кар:10738
қыз:10739
▁құстар:10740
▁lasted:10741
▁тұтыну:10742
▁pan:10743
Жас:10744
▁ғажап:10745
▁ұйымдардың:10746
дж:10747
▁dated:10748
▁Алматыға:10749
нама:10750
▁жариялау:10751
▁жабылған:10752
▁restore:10753
▁мақсатына:10754
St:10755
▁100-:10756
▁қабылдайтын:10757
▁құрылым:10758
▁u:10759
▁даусы:10760
▁қызметтері:10761
▁choosing:10762
▁өлшемі:10763
▁Pi:10764
▁Communist:10765
▁партияның:10766
▁тілге:10767
▁қоймайды:10768
▁көбейту:10769
ндай:10770
▁блок:10771
▁Тал:10772
жал:10773
ez:10774
▁Александр:10775
▁байлық:10776
ұрақ:10777
▁tears:10778
▁есігі:10779
▁көліктер:10780
▁мекемелер:10781
▁клиенттер:10782
▁жобалау:10783
лерден:10784
▁көшесі:10785
▁steal:10786
▁Together:10787
▁reducing:10788
▁жарыққа:10789
▁Southern:10790
▁upset:10791
▁жіберуге:10792
▁inhabitants:10793
▁Кино:10794
▁Ni:10795
дес:10796
▁Ltd:10797
▁бастапқыда:10798
лім:10799
▁секс:10800
Ар:10801
▁соғып:10802
егер:10803
▁defeat:10804
▁ағайын:10805
▁қаламыз:10806
▁ships:10807
▁Канада:10808
▁Australian:10809
▁ТМД:10810
▁landscape:10811
▁courts:10812
uff:10813
▁villages:10814
▁атом:10815
▁жазылу:10816
▁chair:10817
▁матч:10818
▁артты:10819
Сұлтан:10820
ынды:10821
▁lighting:10822
▁ши:10823
▁Айтуынша:10824
Now:10825
▁association:10826
▁функциясы:10827
▁құттықтау:10828
▁heading:10829
▁lucky:10830
ура:10831
әм:10832
▁пайдаланылатын:10833
▁пайдалануды:10834
▁Көріп:10835
йін:10836
▁Centre:10837
▁Кейіннен:10838
▁minor:10839
▁затты:10840
▁аударған:10841
▁нұсқаулық:10842
▁Жо:10843
▁асырап:10844
▁пәндер:10845
▁бірлік:10846
▁theatre:10847
▁мұндағы:10848
▁қалта:10849
ттық:10850
EC:10851
▁Еліміздің:10852
▁Тас:10853
▁қолдауға:10854
▁мысық:10855
▁Culture:10856
▁Қас:10857
▁ұнаған:10858
▁ақпараттың:10859
▁жалғасып:10860
ama:10861
▁locations:10862
▁шайқас:10863
▁behaviour:10864
хана:10865
▁Jack:10866
▁NO:10867
▁Хо:10868
▁сыры:10869
▁Головкин:10870
▁жыныс:10871
▁execution:10872
▁Баға:10873
▁reporting:10874
▁келгені:10875
fin:10876
▁жүлде:10877
▁developments:10878
▁viewed:10879
▁аударды:10880
▁жабдықталған:10881
▁үзіліс:10882
▁monitoring:10883
▁қоғамдағы:10884
тпай:10885
▁бастауға:10886
▁көтерді:10887
од:10888
▁bunch:10889
▁өлімі:10890
▁ендігі:10891
▁mothers:10892
ker:10893
▁shift:10894
▁bio:10895
▁келтіре:10896
▁earned:10897
уына:10898
▁теле:10899
▁жүрсің:10900
▁қалдырады:10901
гар:10902
▁саласының:10903
изация:10904
▁Бәрін:10905
лек:10906
▁екеніңізді:10907
▁көші:10908
▁vaccine:10909
▁жасаудың:10910
лед:10911
▁материалдарды:10912
ева:10913
▁мү:10914
▁шақты:10915
▁Report:10916
▁Өлең:10917
▁Around:10918
▁құрастыру:10919
▁сайтқа:10920
▁Сау:10921
▁Ұлт:10922
ID:10923
▁Search:10924
▁awareness:10925
▁ordinary:10926
▁70%:10927
▁Тұр:10928
At:10929
теді:10930
▁returns:10931
▁professor:10932
▁Достар:10933
▁әкімдігі:10934
nch:10935
▁OF:10936
талып:10937
ғың:10938
▁файлдар:10939
▁балабақша:10940
ising:10941
▁resort:10942
▁еркіндік:10943
иль:10944
▁Әрқашан:10945
▁ажал:10946
▁destination:10947
▁берушілер:10948
▁representative:10949
▁мерзімін:10950
.[1]:10951
fe:10952
▁ақынның:10953
▁Fe:10954
TA:10955
эй:10956
▁алам:10957
how:10958
▁нарықтық:10959
▁visa:10960
▁operates:10961
▁focusing:10962
▁Жарық:10963
▁ауруханада:10964
дыққа:10965
▁Мысыр:10966
іңнің:10967
Әрине:10968
ерлер:10969
▁түйе:10970
OS:10971
▁twelve:10972
▁Тұрақты:10973
▁Room:10974
▁programming:10975
лауға:10976
▁recall:10977
нын:10978
▁ұмытпа:10979
▁Дәуіт:10980
▁Құқық:10981
ans:10982
AD:10983
▁dollar:10984
▁отбасына:10985
▁assumed:10986
▁ұстаным:10987
▁кеуде:10988
67:10989
▁Англия:10990
▁бірлігі:10991
▁бастамасы:10992
96:10993
▁Қазан:10994
▁сусын:10995
▁performing:10996
ата:10997
▁жоғалтқан:10998
▁босату:10999
yn:11000
▁соғысқа:11001
▁тиын:11002
▁бағалайды:11003
▁кілті:11004
quality:11005
▁үштен:11006
▁өлшем:11007
▁Card:11008
▁ортасына:11009
▁өнеркәсіп:11010
ада:11011
▁carries:11012
▁бөлшек:11013
▁sees:11014
▁employed:11015
▁аймағында:11016
▁есігін:11017
▁аяқтаған:11018
▁approached:11019
малы:11020
▁Girls:11021
▁ойлайсың:11022
▁ибн:11023
▁Questions:11024
▁көрдіңіз:11025
▁айна:11026
▁заңдар:11027
▁currency:11028
▁гөр:11029
▁ұнататын:11030
▁1,5:11031
▁hungry:11032
▁demonstrate:11033
▁typical:11034
▁Hard:11035
▁Жүрек:11036
▁мәліметінше:11037
▁honour:11038
жы:11039
рд:11040
▁Bay:11041
▁56:11042
▁Singapore:11043
▁сабақты:11044
▁қолымен:11045
dia:11046
▁Ақырында:11047
ғаны:11048
▁әкімдік:11049
▁Ду:11050
▁кінә:11051
байды:11052
57:11053
▁ho:11054
▁оларда:11055
▁жүйелер:11056
▁үйленген:11057
new:11058
кө:11059
aries:11060
▁екенмін:11061
тарында:11062
тра:11063
▁туып:11064
▁ақысыз:11065
this:11066
жайы:11067
▁мойында:11068
▁cousin:11069
▁driven:11070
▁қасқыр:11071
▁Boy:11072
▁consequence:11073
▁жетістік:11074
▁traveled:11075
▁егін:11076
▁қасына:11077
▁күміс:11078
▁суреттерді:11079
▁Port:11080
▁әкімшілігі:11081
▁bite:11082
▁educated:11083
Жауап:11084
▁Sports:11085
▁сыйлаған:11086
▁iPad:11087
ыңыздан:11088
▁дәрігердің:11089
▁түпнұсқа:11090
▁Ру:11091
дікі:11092
мес:11093
▁saving:11094
▁мысалдар:11095
▁оралып:11096
▁Had:11097
▁сынды:11098
▁санап:11099
▁12-:11100
ox:11101
▁әкесінің:11102
▁жатқанына:11103
▁Мұнай:11104
▁тілінен:11105
▁united:11106
шын:11107
шақ:11108
▁жүзі:11109
▁жолдас:11110
▁апат:11111
▁Қо:11112
rate:11113
▁Га:11114
▁келтірген:11115
Con:11116
▁министрлік:11117
▁Тә:11118
▁таңдалған:11119
▁normally:11120
▁жекелеген:11121
table:11122
▁Actually:11123
▁restored:11124
▁Bi:11125
▁меніңше:11126
Name:11127
▁patience:11128
▁қалайша:11129
▁әлеміне:11130
▁strongly:11131
▁Bring:11132
▁Азаматтық:11133
▁журнал:11134
▁но:11135
▁дамуының:11136
▁арғы:11137
▁Battle:11138
▁оңтайлы:11139
▁naturally:11140
▁electrical:11141
▁ұтып:11142
уль:11143
ун:11144
▁есі:11145
ул:11146
▁айналыс:11147
▁жем:11148
79:11149
▁Сәл:11150
down:11151
▁Мақала:11152
gra:11153
▁thrown:11154
▁shares:11155
▁күндіз:11156
▁grant:11157
▁stream:11158
▁Пікір:11159
42:11160
оның:11161
▁limits:11162
▁отбасылар:11163
▁Спорт:11164
▁қысқы:11165
▁(4:11166
▁interior:11167
саяси:11168
▁мойындады:11169
▁бөлмеге:11170
▁жаратқан:11171
car:11172
▁болғандай:11173
▁баяғы:11174
▁Sh:11175
▁conflicts:11176
▁whenever:11177
▁shit:11178
▁жүргізілуде:11179
Me:11180
▁SMS:11181
▁Bad:11182
▁04:11183
▁warned:11184
▁жігітті:11185
▁енгізіледі:11186
▁Learning:11187
▁Independence:11188
▁righteous:11189
▁парыз:11190
▁аймақтық:11191
Come:11192
▁corruption:11193
▁айтам:11194
▁Site:11195
▁сұрай:11196
▁Too:11197
▁әдейі:11198
▁dialogue:11199
▁алынатын:11200
▁weekend:11201
▁Job:11202
▁мемлекеті:11203
▁IS:11204
▁ші:11205
▁Тұңғыш:11206
▁(18:11207
▁велосипед:11208
▁Natural:11209
▁Six:11210
▁анау:11211
▁pen:11212
▁қазақша:11213
тір:11214
▁Azerbaijan:11215
▁prize:11216
жарақ:11217
▁discussing:11218
▁Euro:11219
▁Студенттер:11220
▁көшбасшы:11221
▁жасалатын:11222
▁Gu:11223
▁Sure:11224
▁қосалқы:11225
▁нығайту:11226
▁желтоқсанда:11227
▁беттер:11228
▁Inc:11229
қор:11230
92:11231
▁ұстай:11232
▁negotiations:11233
▁лицензия:11234
▁бағамен:11235
▁percentage:11236
▁Жаратушы:11237
▁нарықта:11238
mor:11239
▁лық:11240
▁figured:11241
▁advise:11242
▁feedback:11243
▁әскері:11244
▁Назар:11245
▁Интернетте:11246
▁doubts:11247
▁settings:11248
▁Senate:11249
▁тақта:11250
▁көмектесіп:11251
py:11252
▁шабыт:11253
▁rapidly:11254
▁mutual:11255
▁кетейін:11256
▁Fall:11257
▁54:11258
▁компаниялардың:11259
▁cure:11260
ңнан:11261
▁тобына:11262
▁accompanied:11263
▁brave:11264
▁тақырыпта:11265
▁urged:11266
▁refuse:11267
▁байқауға:11268
▁enable:11269
▁назарына:11270
tar:11271
▁атқару:11272
ят:11273
▁ак:11274
▁ли:11275
шыға:11276
▁бояу:11277
▁injuries:11278
▁obligations:11279
▁honey:11280
▁deny:11281
▁дұшпан:11282
-20:11283
▁тестілеу:11284
▁сұмдық:11285
▁Еуропадағы:11286
▁жеткіз:11287
set:11288
▁бетімен:11289
▁repeatedly:11290
▁тамызда:11291
▁ұрпағы:11292
▁Arabic:11293
▁шаршы:11294
▁рақмет:11295
▁Protection:11296
▁орындалған:11297
▁solely:11298
▁Firstly:11299
▁Әдемі:11300
▁Жүз:11301
▁capture:11302
▁машинасы:11303
▁08:11304
▁WordPress:11305
▁тату:11306
▁нұсқау:11307
▁ағам:11308
▁түсінемін:11309
▁компьютерлік:11310
▁белсенділік:11311
аш:11312
▁тіліндегі:11313
▁shower:11314
▁алмау:11315
▁kick:11316
▁өңірде:11317
▁күтіңіз:11318
▁міндетіміз:11319
ants:11320
▁consumption:11321
▁2017.:11322
▁керекті:11323
мысалы:11324
▁achieving:11325
▁appreciated:11326
▁pack:11327
▁даяр:11328
нді:11329
LE:11330
▁updated:11331
▁жүрсіз:11332
▁шетелге:11333
▁ертеңгі:11334
▁passengers:11335
ісі:11336
▁кеңістік:11337
▁Асқар:11338
▁Class:11339
ura:11340
▁азат:11341
тармен:11342
▁күшейту:11343
пыр:11344
xi:11345
▁dose:11346
тығын:11347
▁wicked:11348
тқа:11349
ліктер:11350
▁Студент:11351
▁Ши:11352
▁Шет:11353
▁concert:11354
▁(4):11355
▁Негізінен:11356
▁бересіз:11357
▁өлеңдер:11358
▁мойын:11359
▁сөздерін:11360
▁Tax:11361
кке:11362
▁branches:11363
▁қалалар:11364
▁арасынан:11365
▁жаңғырту:11366
PA:11367
▁seriously:11368
▁орналасуы:11369
▁Force:11370
▁лас:11371
лді:11372
▁атаулы:11373
ena:11374
▁кг:11375
▁privilege:11376
▁қарулы:11377
▁күллі:11378
талды:11379
▁dishes:11380
▁сөйлейтін:11381
▁Сара:11382
▁gate:11383
▁тәулік:11384
▁сатушы:11385
▁өткізетін:11386
▁күлкілі:11387
▁safely:11388
▁рубль:11389
▁Өлім:11390
▁мата:11391
41:11392
▁ұмтылу:11393
▁2014.:11394
sha:11395
ious:11396
???:11397
▁ауданының:11398
тес:11399
▁жасына:11400
▁дәлелдеу:11401
қысы:11402
▁2015.:11403
▁ман:11404
▁Веб:11405
▁loud:11406
рсе:11407
рді:11408
▁оралады:11409
▁құралдарын:11410
▁танысқан:11411
bs:11412
▁ге:11413
▁Bitcoin:11414
▁ұтымды:11415
▁тұрмыстық:11416
▁Қанат:11417
▁ақындар:11418
▁қорғап:11419
мд:11420
▁төлемдер:11421
▁Down:11422
vis:11423
▁жұмса:11424
▁>>:11425
▁атанды:11426
nic:11427
.'":11428
тик:11429
▁өшіру:11430
▁жауын:11431
▁қыздардың:11432
▁trail:11433
▁шың:11434
▁бұр:11435
▁museum:11436
▁өмірдегі:11437
▁Темір:11438
▁WhatsApp:11439
▁chest:11440
▁MS:11441
▁terrorist:11442
▁бойындағы:11443
рын:11444
далған:11445
▁Әуе:11446
▁Stay:11447
▁Point:11448
▁Қош:11449
▁атаған:11450
▁қолданыңыз:11451
▁ұшырады:11452
▁адамдардан:11453
▁complain:11454
▁сүйетін:11455
▁әдеттегі:11456
▁өлке:11457
▁marks:11458
▁рәсімі:11459
алық:11460
▁agenda:11461
▁сүйкімді:11462
▁өткір:11463
▁көліктің:11464
▁Комиссия:11465
▁өлтірді:11466
▁сынақтар:11467
who:11468
▁gay:11469
▁lifted:11470
▁arranged:11471
▁бірер:11472
▁consciousness:11473
ңіздер:11474
▁globe:11475
▁Сұрағым:11476
▁Woman:11477
▁құқықтар:11478
▁бөледі:11479
▁түсіре:11480
▁құра:11481
▁сәтсіз:11482
71:11483
▁қоямын:11484
▁escaped:11485
▁Тапсырыс:11486
зер:11487
▁drama:11488
▁көңілім:11489
▁essence:11490
▁реформа:11491
▁жемқорлыққа:11492
▁Жә:11493
▁олимпиада:11494
гем:11495
air:11496
▁delay:11497
▁reflects:11498
▁құндылықтар:11499
▁Ше:11500
лерде:11501
▁Қытайдан:11502
▁программа:11503
▁Hence:11504
▁көзіне:11505
▁transformation:11506
▁капитал:11507
ңіздің:11508
▁бастадық:11509
step:11510
▁өткенде:11511
▁broad:11512
▁қорқатын:11513
▁қаңтарда:11514
▁әнін:11515
▁делік:11516
▁жатырсыз:11517
▁produces:11518
▁revenue:11519
▁сыныпта:11520
▁Ресми:11521
▁Reading:11522
▁Кеш:11523
▁режимі:11524
ңда:11525
▁сапарға:11526
▁тұрарлық:11527
▁мағынада:11528
▁politicians:11529
▁Адамдардың:11530
▁уа:11531
ken:11532
rk:11533
▁іздестіру:11534
▁Store:11535
▁диск:11536
▁fees:11537
ілмеген:11538
▁Еуразиялық:11539
▁ертіп:11540
▁бермейміз:11541
▁қақпа:11542
▁Te:11543
▁Мұндағы:11544
▁жүрсе:11545
▁материалды:11546
▁өздеріңіз:11547
▁қызметкерлердің:11548
▁entrance:11549
▁regardless:11550
▁өндірісі:11551
▁Building:11552
▁shy:11553
▁кейінге:11554
▁оқиғаға:11555
▁exam:11556
еш:11557
▁Жаман:11558
▁бағдарламасына:11559
▁cup:11560
шілердің:11561
▁Ac:11562
▁база:11563
▁есіне:11564
▁серік:11565
▁trans:11566
▁талас:11567
ся:11568
▁кол:11569
▁Sign:11570
point:11571
▁Араб:11572
▁liquid:11573
▁reveal:11574
▁celebrating:11575
▁strive:11576
▁ұсталды:11577
паған:11578
уді:11579
лама:11580
▁announcement:11581
▁Конкурс:11582
▁маңыздылығы:11583
▁Компьютер:11584
▁отырысында:11585
▁Му:11586
сар:11587
▁colour:11588
▁бердік:11589
уд:11590
▁tied:11591
▁volunteers:11592
▁foreigners:11593
▁байқадым:11594
▁институты:11595
▁agents:11596
▁кар:11597
▁dare:11598
▁инвестициялар:11599
▁bond:11600
▁Жұрт:11601
▁жүйке:11602
▁Экономика:11603
▁мәртебе:11604
▁чемпионы:11605
48:11606
▁білсін:11607
▁healing:11608
▁grain:11609
▁Сауд:11610
▁экран:11611
▁40%:11612
алдық:11613
▁95:11614
▁Фа:11615
▁қонаққа:11616
▁sword:11617
▁түймесін:11618
▁appointment:11619
▁органдарының:11620
▁салтанатты:11621
▁есті:11622
related:11623
ani:11624
▁achievements:11625
▁arguments:11626
ok:11627
▁Саяси:11628
вен:11629
▁strict:11630
▁widespread:11631
термен:11632
▁сұр:11633
▁manufacturers:11634
▁Өзіңді:11635
▁criteria:11636
▁үгіт:11637
▁Иенің:11638
▁астана:11639
▁Сын:11640
▁treaty:11641
▁жүгіру:11642
ққа:11643
▁Meeting:11644
▁сер:11645
▁creativity:11646
▁Шағын:11647
▁Summer:11648
удің:11649
made:11650
▁жатпайды:11651
▁шықса:11652
▁delighted:11653
▁salt:11654
▁categories:11655
▁contemporary:11656
▁ғаламтор:11657
▁орындаңыз:11658
▁шекті:11659
▁immigrants:11660
▁hiding:11661
▁ойларын:11662
▁айналасындағы:11663
▁саламыз:11664
ңмен:11665
▁статистика:11666
▁exposure:11667
▁representation:11668
▁ашылуы:11669
▁observe:11670
▁мүмкіндігіне:11671
▁гүлдер:11672
▁stolen:11673
▁билікке:11674
▁күресуге:11675
▁deposit:11676
▁музей:11677
▁hire:11678
▁broadcast:11679
Al:11680
зомбылық:11681
ығы:11682
▁кемпір:11683
▁суреттері:11684
ET:11685
▁білуіңіз:11686
▁әңгімелер:11687
▁Таза:11688
bu:11689
▁Компанияның:11690
▁микро:11691
pri:11692
▁extend:11693
▁атқара:11694
▁мә:11695
ight:11696
MS:11697
▁диплом:11698
сия:11699
▁Түнде:11700
cl:11701
▁отырамын:11702
▁golden:11703
▁көтерілді:11704
▁ойлаймыз:11705
▁Бел:11706
▁abandoned:11707
▁fled:11708
▁attempts:11709
▁бағын:11710
▁қаладағы:11711
▁ойдағыдай:11712
uc:11713
▁тексер:11714
Са:11715
▁Cat:11716
▁күштері:11717
▁printed:11718
▁тара:11719
▁photographs:11720
▁Gi:11721
менен:11722
▁eaten:11723
▁label:11724
ылмайды:11725
▁растау:11726
▁анағұрлым:11727
▁ұшыра:11728
▁ерлік:11729
▁settle:11730
▁түйін:11731
▁Футбол:11732
▁тақ:11733
▁converted:11734
▁Сіздерді:11735
▁obligation:11736
▁comprehensive:11737
89:11738
und:11739
көл:11740
78:11741
луы:11742
▁usage:11743
▁Mind:11744
▁мүгедек:11745
▁bottle:11746
▁profits:11747
▁көтеруге:11748
▁атқа:11749
app:11750
▁ақылға:11751
▁deleted:11752
▁Үлгі:11753
▁қатысуымен:11754
▁dressed:11755
іңізбен:11756
▁тұрғандай:11757
▁Off:11758
▁Жиі:11759
▁тиіп:11760
long:11761
▁асхана:11762
▁басқармасы:11763
▁көшті:11764
▁Model:11765
ғып:11766
▁woods:11767
▁Nor:11768
▁Chi:11769
▁Қысқа:11770
▁Soon:11771
▁бапкер:11772
▁тыңдай:11773
інші:11774
▁investors:11775
▁discussions:11776
▁сақтық:11777
▁53:11778
▁rejected:11779
▁түрмеге:11780
▁сабыр:11781
▁әсерлі:11782
▁surely:11783
▁concrete:11784
▁Ортаққорда:11785
▁ladies:11786
▁healthcare:11787
▁Ever:11788
▁structures:11789
▁бүл:11790
▁combined:11791
▁жүктілік:11792
▁жой:11793
56:11794
▁жалын:11795
▁northern:11796
▁minority:11797
▁бұйырды:11798
SP:11799
▁ы:11800
▁берем:11801
▁шешті:11802
▁күт:11803
ack:11804
▁adopt:11805
▁machines:11806
▁Leave:11807
sky:11808
▁Factory:11809
▁шатыр:11810
▁демократия:11811
▁теориясы:11812
▁Испания:11813
аза:11814
▁Балаларға:11815
шар:11816
▁тоқта:11817
▁қарсаңында:11818
▁database:11819
▁soldier:11820
▁Электрондық:11821
▁тапсырмасын:11822
▁input:11823
!.":11824
бірінен:11825
▁құлаған:11826
▁threats:11827
▁flood:11828
▁massive:11829
▁тигізеді:11830
ікті:11831
▁үкіметтің:11832
▁Ab:11833
их:11834
▁ауызша:11835
ғар:11836
▁SO:11837
▁кісіге:11838
▁үнемдеу:11839
▁reveals:11840
▁sheet:11841
▁understands:11842
▁танытқан:11843
Өмір:11844
lia:11845
▁Жоспар:11846
cur:11847
az:11848
▁couples:11849
▁отырғаны:11850
▁болудың:11851
▁Ло:11852
ob:11853
▁gradually:11854
▁column:11855
▁Manager:11856
▁жұмыстардың:11857
▁режиссер:11858
▁мар:11859
▁қайыр:11860
▁арам:11861
▁экс:11862
▁дамуын:11863
▁жазуды:11864
эн:11865
▁математика:11866
▁funeral:11867
▁күдікті:11868
▁senior:11869
▁Ұстаз:11870
gy:11871
▁қысқарту:11872
▁септігін:11873
▁ID:11874
▁жинауға:11875
ад:11876
▁байлығы:11877
▁үйретті:11878
▁1986:11879
▁әжем:11880
▁көрсе:11881
▁Димаш:11882
▁Ары:11883
af:11884
▁заттың:11885
▁соғыстан:11886
▁кейбірі:11887
▁Джо:11888
▁инфляция:11889
▁ондағы:11890
▁түсуі:11891
▁дені:11892
иг:11893
▁жағдайларды:11894
про:11895
▁collecting:11896
▁Thursday:11897
▁mirror:11898
▁технологияларды:11899
▁айналуы:11900
▁өлтіріп:11901
lar:11902
▁creates:11903
▁Әнші:11904
▁бастауыш:11905
▁үлгісін:11906
▁үйінің:11907
▁Copyright:11908
▁wanna:11909
▁Mobile:11910
▁apologize:11911
піз:11912
▁shelter:11913
▁хабарды:11914
▁Mag:11915
▁enhance:11916
▁Париж:11917
латын:11918
▁сарапшы:11919
▁vice:11920
▁ойла:11921
▁қағида:11922
▁occasions:11923
▁Күйеуім:11924
▁Far:11925
▁табиғаты:11926
▁бағытын:11927
▁Маңғыстау:11928
▁қорқу:11929
▁қолымнан:11930
▁vary:11931
▁roots:11932
▁maintaining:11933
▁contributed:11934
▁po:11935
▁атына:11936
▁індет:11937
▁аштық:11938
ымызбен:11939
▁Smart:11940
▁duration:11941
▁Ешқандай:11942
▁disappeared:11943
пас:11944
▁fake:11945
▁жинақ:11946
▁судья:11947
▁құрайтын:11948
Қазіргі:11949
▁әмір:11950
▁Series:11951
▁notion:11952
▁concepts:11953
▁әдістер:11954
▁сервер:11955
▁finds:11956
▁жанына:11957
▁guidelines:11958
▁Кейінгі:11959
▁mail:11960
▁ta:11961
▁Табиғи:11962
пор:11963
ction:11964
▁қойдық:11965
▁principal:11966
ча:11967
▁хаттама:11968
▁бақылауда:11969
ланатын:11970
ros:11971
▁Рамазан:11972
тыр:11973
▁бөліміне:11974
▁personnel:11975
▁reign:11976
▁Өтініш:11977
▁ticket:11978
▁confirm:11979
▁халықтар:11980
сти:11981
▁1,000:11982
▁Non:11983
▁unless:11984
құ:11985
▁жаңалықтары:11986
-10:11987
▁мінсіз:11988
▁57:11989
қта:11990
▁pe:11991
▁regulation:11992
▁университетінің:11993
▁finger:11994
▁аңғар:11995
▁tea:11996
▁қалауы:11997
▁бөлімінің:11998
қала:11999
some:12000
▁ЖОО:12001
▁кітаптың:12002
▁сілтемелер:12003
▁Ге:12004
▁минутқа:12005
▁possibly:12006
▁салаға:12007
▁артқа:12008
▁шілдеде:12009
▁жабайы:12010
рап:12011
▁азаматтарды:12012
▁і:12013
▁sectors:12014
▁campus:12015
▁үйрендім:12016
level:12017
">:12018
▁cap:12019
▁қажеттіліктерін:12020
▁handed:12021
▁мінезі:12022
▁жандарға:12023
Енді:12024
▁settlement:12025
▁қақтығыс:12026
▁Өзіне:12027
▁Шымкентте:12028
▁violent:12029
техникалық:12030
▁мұсылмандар:12031
тайтын:12032
▁agricultural:12033
▁таңғажайып:12034
▁58:12035
-3:12036
▁Жанар:12037
▁lawyer:12038
хи:12039
Үй:12040
▁айтпа:12041
▁бағыттар:12042
ір:12043
▁adoption:12044
кіл:12045
▁Hold:12046
▁concentration:12047
▁қосыла:12048
▁Но:12049
ological:12050
▁тақырыбын:12051
▁bi:12052
▁#1:12053
ич:12054
▁contents:12055
▁сәуле:12056
▁dies:12057
▁constitution:12058
▁факт:12059
▁Мү:12060
▁Үндістан:12061
▁жең:12062
▁ішуге:12063
mes:12064
▁fa:12065
▁сенімен:12066
76:12067
▁Кейінірек:12068
▁spite:12069
▁Мұрат:12070
▁отырсыз:12071
▁көтер:12072
▁импорт:12073
Ке:12074
▁colleagues:12075
▁өлтір:12076
▁қолөнер:12077
▁Түс:12078
▁5%:12079
▁producing:12080
▁sh:12081
64:12082
▁followers:12083
▁4::12084
оп:12085
▁ен:12086
▁хақ:12087
▁өріс:12088
▁мамандықтар:12089
қал:12090
▁Museum:12091
▁жетім:12092
▁жағдайларға:12093
▁тұрамыз:12094
▁үйренеді:12095
▁жасамайды:12096
▁сөйле:12097
▁reaches:12098
uck:12099
▁adapt:12100
▁manual:12101
▁сайттың:12102
▁жуу:12103
59:12104
зы:12105
▁Те:12106
▁түстер:12107
лмақ:12108
▁температурасы:12109
rum:12110
gg:12111
▁raising:12112
▁Ки:12113
▁Мамыр:12114
▁таным:12115
▁suppose:12116
мнен:12117
▁ұнамайды:12118
▁paragraph:12119
▁deeply:12120
▁қайран:12121
▁immediate:12122
▁кемшіліктер:12123
▁Қыс:12124
▁Қостанай:12125
▁істеуі:12126
▁ле:12127
▁Рождество:12128
▁Network:12129
▁құрамасы:12130
▁кейіннен:12131
▁болат:12132
ou:12133
ларыңыз:12134
▁predict:12135
▁психикалық:12136
▁өсуіне:12137
▁сұрақты:12138
▁өткізілген:12139
TM:12140
▁medication:12141
▁доза:12142
3%:12143
▁Сер:12144
▁Электр:12145
ath:12146
▁Фе:12147
▁grass:12148
▁password:12149
▁төлей:12150
▁дененің:12151
▁аяқтады:12152
▁automatically:12153
▁ойынша:12154
▁15-:12155
▁қақ:12156
▁қатып:12157
▁төмендеуі:12158
лю:12159
800:12160
▁extensive:12161
▁ның:12162
▁киген:12163
▁regarded:12164
load:12165
▁desk:12166
▁тізе:12167
▁Жүр:12168
▁депозит:12169
▁танылған:12170
▁сыз:12171
▁sensitive:12172
▁жалғасты:12173
▁жеңу:12174
▁Blood:12175
арлық:12176
▁дүниеден:12177
▁Usually:12178
AS:12179
ғаннан:12180
▁agreements:12181
▁im:12182
▁Area:12183
▁Auto:12184
▁соғады:12185
ындай:12186
адам:12187
тпа:12188
▁міндетін:12189
▁ісік:12190
▁күдік:12191
▁ұсынылды:12192
▁жойылған:12193
▁headed:12194
▁lifestyle:12195
▁сахнаға:12196
ларыңызды:12197
▁Бе:12198
▁мұхит:12199
Я:12200
ero:12201
▁Prize:12202
сінен:12203
▁06:12204
▁атқан:12205
▁dispute:12206
▁Бұ:12207
▁фон:12208
▁тізім:12209
▁оқуды:12210
▁grows:12211
▁Команда:12212
Mo:12213
▁жанр:12214
▁RE:12215
cing:12216
▁қызметтерін:12217
ить:12218
▁қаражатты:12219
▁industries:12220
▁resist:12221
▁келіпті:12222
▁мейірім:12223
▁reminder:12224
бын:12225
▁differ:12226
▁gr:12227
▁аяқта:12228
▁fathers:12229
▁achievement:12230
▁маркетинг:12231
▁студенттердің:12232
▁сезініп:12233
1%:12234
▁Malaysia:12235
▁Shi:12236
жақсы:12237
field:12238
уші:12239
дағыдай:12240
кін:12241
▁білгіңіз:12242
▁араласып:12243
▁жәй:12244
▁Баян:12245
▁editor:12246
▁қадірін:12247
мір:12248
▁меңгерген:12249
6%:12250
▁университеттер:12251
▁Hotel:12252
тынын:12253
▁минутта:12254
▁келдің:12255
▁assembly:12256
▁элементтер:12257
▁асыратын:12258
tech:12259
▁beer:12260
7%:12261
tion:12262
баған:12263
▁Бірден:12264
кет:12265
▁hunger:12266
▁қарашада:12267
данған:12268
ья:12269
▁qualified:12270
▁оқимын:12271
▁ұя:12272
▁келі:12273
▁90-:12274
▁жатақхана:12275
деріне:12276
▁peak:12277
▁burned:12278
пт:12279
▁lift:12280
▁дайындауға:12281
▁мәжіліс:12282
▁50-:12283
▁алыста:12284
▁имам:12285
▁айналым:12286
▁Германияда:12287
▁Save:12288
месе:12289
▁өледі:12290
▁smooth:12291
gan:12292
▁жемқорлық:12293
▁қамын:12294
▁Arabia:12295
▁eggs:12296
▁intelligence:12297
▁палата:12298
▁тағайындалды:12299
енді:12300
▁интеграция:12301
▁президенттік:12302
▁беріңдер:12303
▁балалы:12304
▁қазақтар:12305
▁Астанаға:12306
▁даярлау:12307
▁ұқса:12308
▁біртұтас:12309
▁айырылып:12310
ics:12311
-2017:12312
▁acid:12313
ДЫ:12314
▁sir:12315
▁Сәлем:12316
▁loose:12317
▁seats:12318
▁бастығы:12319
▁Anyway:12320
▁regret:12321
▁Los:12322
ix:12323
рма:12324
▁революция:12325
▁Muhammad:12326
▁тарау:12327
▁Secondly:12328
itis:12329
▁ойыншық:12330
▁сериал:12331
▁Мер:12332
▁одағы:12333
▁Revolution:12334
▁ескертті:12335
▁жүктелген:12336
▁көбейіп:12337
▁Іш:12338
▁Ме:12339
жүргізуші:12340
▁Dan:12341
▁жанындағы:12342
▁sacred:12343
▁табатын:12344
▁resolved:12345
▁өзгерістерге:12346
▁Уа:12347
▁комиссияның:12348
ылса:12349
▁ұсынуға:12350
▁log:12351
▁Тез:12352
▁мойындау:12353
▁ақшаның:12354
▁ha:12355
тпайды:12356
▁құтылу:12357
▁үсті:12358
▁Мәскеуде:12359
▁ұйымдастырылған:12360
▁төмендету:12361
▁stressed:12362
AC:12363
▁банктің:12364
▁eastern:12365
▁жасөспірімдер:12366
▁arts:12367
▁employer:12368
TS:12369
ign:12370
58:12371
▁Шаш:12372
кор:12373
▁worker:12374
43:12375
▁жұқа:12376
▁Фи:12377
▁мүлік:12378
▁жетістіктерге:12379
▁әкелетін:12380
▁акт:12381
▁жұмсау:12382
EL:12383
▁аурухана:12384
▁ISO:12385
лса:12386
▁whoever:12387
гіз:12388
дегідей:12389
▁lowest:12390
▁талаптарға:12391
▁boost:12392
керлер:12393
▁witnessed:12394
рде:12395
▁adequate:12396
▁menu:12397
▁Қожа:12398
▁бағыттары:12399
▁орындалатын:12400
▁bath:12401
▁сүйе:12402
▁satisfaction:12403
▁ықпалы:12404
▁тарихындағы:12405
mate:12406
▁бермеңіз:12407
▁полицияға:12408
▁requests:12409
▁Com:12410
▁Тәңір:12411
▁айтпаған:12412
ered:12413
▁hat:12414
▁теңгеден:12415
▁ye:12416
▁Body:12417
▁Early:12418
▁1%:12419
▁орындарының:12420
▁ауырған:12421
▁Week:12422
дерден:12423
▁кестесі:12424
▁күйін:12425
▁жанып:12426
▁кетпейді:12427
есен:12428
oy:12429
▁болғандар:12430
▁cope:12431
▁келісемін:12432
хат:12433
▁ақысын:12434
hood:12435
▁Sorry:12436
генде:12437
ұқ:12438
▁біріктіру:12439
▁жауаптар:12440
герлер:12441
▁ойлай:12442
▁толмаған:12443
gs:12444
▁бәрімізге:12445
▁отырамыз:12446
▁flesh:12447
▁тілектер:12448
▁Арт:12449
pos:12450
лмеген:12451
▁Mu:12452
▁жазасын:12453
▁Du:12454
▁жанұя:12455
▁Tag:12456
▁фотосуреттер:12457
▁үйлесімді:12458
▁expenses:12459
▁crash:12460
▁Table:12461
▁етуде:12462
лде:12463
▁Австралия:12464
▁бөлшектер:12465
▁енеді:12466
▁жұбайы:12467
▁Hospital:12468
face:12469
ria:12470
▁сәуірде:12471
▁босқа:12472
wo:12473
танып:12474
▁Cu:12475
▁дәуір:12476
▁interaction:12477
▁Gen:12478
▁resulting:12479
▁мәтінді:12480
▁Конституция:12481
▁spell:12482
▁Осында:12483
▁процесін:12484
▁санына:12485
▁scenario:12486
▁thinks:12487
Мұхаммед:12488
▁қажеттілігін:12489
▁DO:12490
▁Экономикалық:12491
del:12492
low:12493
▁ЭКСПО:12494
▁murdered:12495
шаға:12496
▁файлдарды:12497
▁1930:12498
ivity:12499
▁түсіруге:12500
▁орындады:12501
▁әдісті:12502
▁өміріндегі:12503
▁астындағы:12504
▁shine:12505
▁шаруалар:12506
дану:12507
▁Кір:12508
▁қызметінен:12509
▁айтылғандай:12510
▁қаласың:12511
пты:12512
▁конференция:12513
▁beliefs:12514
▁complaints:12515
▁күтемін:12516
▁tourists:12517
▁болжау:12518
▁энергиясы:12519
▁protest:12520
▁Defense:12521
▁export:12522
лмаған:12523
▁форум:12524
▁Nigeria:12525
▁жинай:12526
▁7):12527
din:12528
▁tends:12529
▁psychological:12530
▁Назарбаев:12531
▁ғасырлар:12532
▁Жаным:12533
▁07:12534
жайлар:12535
▁Байланыс:12536
▁motivation:12537
▁көшіру:12538
▁ауыстыр:12539
▁түсірді:12540
ear:12541
▁ойыншықтар:12542
CC:12543
▁тепе:12544
▁сыйла:12545
▁sugar:12546
▁қабілетін:12547
▁уақтылы:12548
▁бизнесті:12549
▁құм:12550
▁Sri:12551
▁басымдық:12552
▁елдерге:12553
▁түбінде:12554
▁Қызым:12555
▁қоян:12556
ites:12557
▁Indonesia:12558
▁Айнала:12559
▁көтерме:12560
▁төзімді:12561
▁әрекетін:12562
▁Aren:12563
▁өзгерістерді:12564
▁жастық:12565
▁шештім:12566
▁fairly:12567
▁тартылған:12568
кті:12569
▁2022:12570
▁Елімізде:12571
▁пойыз:12572
ном:12573
▁терапия:12574
▁annually:12575
▁Ақыр:12576
▁акция:12577
par:12578
▁copyright:12579
▁оқырмандар:12580
▁ғимараттар:12581
▁Often:12582
▁shortage:12583
▁өкінішті:12584
▁verse:12585
▁sorts:12586
▁Kaz:12587
▁отырдым:12588
▁demands:12589
▁promoting:12590
▁decrease:12591
▁Шар:12592
▁complaint:12593
▁ересектер:12594
▁доллардан:12595
▁Жу:12596
леніп:12597
▁екеуін:12598
▁сертификат:12599
▁қызметте:12600
дарда:12601
▁далаға:12602
▁scored:12603
▁сақшылары:12604
▁келсек:12605
▁par:12606
▁hopes:12607
▁republic:12608
▁істедім:12609
▁жерлерді:12610
▁winners:12611
▁таныту:12612
▁тексеруге:12613
▁Сұлтан:12614
▁Газет:12615
more:12616
bra:12617
1-:12618
▁ok:12619
ңызбен:12620
ақты:12621
▁жылдағы:12622
▁Елдің:12623
▁қайтқан:12624
▁Ak:12625
▁әзірше:12626
▁HTML:12627
▁Journal:12628
▁breast:12629
▁Switzerland:12630
ea:12631
MP:12632
рылып:12633
▁дүкендер:12634
These:12635
▁айтасың:12636
▁covering:12637
▁комиссиясы:12638
тура:12639
▁Za:12640
ттар:12641
▁бұзылған:12642
▁suspect:12643
nu:12644
▁Winter:12645
Ex:12646
▁жап:12647
▁баласына:12648
ысты:12649
▁алаңға:12650
▁68:12651
-5:12652
▁екеуіміз:12653
▁түсінетін:12654
▁filter:12655
▁buried:12656
егі:12657
▁Faith:12658
▁алақан:12659
▁Unit:12660
▁Putin:12661
▁сағатта:12662
▁ұлттың:12663
▁хабарлаған:12664
▁Аш:12665
ches:12666
▁Swedish:12667
▁Er:12668
▁аудио:12669
▁Lake:12670
▁кеңсе:12671
▁(7:12672
▁dish:12673
▁timely:12674
Co:12675
sp:12676
▁әріп:12677
val:12678
▁Ұйым:12679
▁Digital:12680
▁offices:12681
▁dates:12682
▁Sch:12683
▁ұрпаққа:12684
▁пандемия:12685
▁Ша:12686
▁Байқау:12687
▁Consider:12688
▁сүйене:12689
▁сериясы:12690
▁answering:12691
Ең:12692
People:12693
▁immigration:12694
▁жаңғыру:12695
▁curious:12696
▁Еш:12697
▁дүниенің:12698
▁aims:12699
дықты:12700
▁насихаттау:12701
▁шеберлік:12702
▁жү:12703
▁оператор:12704
▁hired:12705
▁Ku:12706
▁decides:12707
▁Phone:12708
▁Executive:12709
▁айырмашылықтар:12710
box:12711
▁ізденіс:12712
▁қалғанда:12713
82:12714
▁бейнесін:12715
▁Bur:12716
▁Бө:12717
▁grandfather:12718
▁ғибадат:12719
▁жата:12720
▁желілерде:12721
Hey:12722
▁Wild:12723
▁жабдықтар:12724
▁бетте:12725
▁маңдай:12726
▁infected:12727
▁қалыптасты:12728
▁permit:12729
▁diverse:12730
▁хош:12731
ched:12732
▁Құр:12733
▁тойға:12734
▁киімдер:12735
▁Nation:12736
▁ratio:12737
▁органдардың:12738
▁priest:12739
▁AM:12740
▁invitation:12741
▁acquainted:12742
▁қарамай:12743
▁Мәсіхтің:12744
▁бергі:12745
▁OS:12746
▁басылымдар:12747
BA:12748
▁Орын:12749
▁shock:12750
▁wives:12751
▁Return:12752
▁тұрғындарға:12753
▁мәз:12754
▁уағыз:12755
▁шығындарды:12756
▁маманы:12757
▁стилі:12758
▁sequence:12759
▁receives:12760
▁өнерін:12761
▁өсиет:12762
▁favourite:12763
▁ойлайсыңдар:12764
▁ауырады:12765
▁weekly:12766
▁Max:12767
▁иттер:12768
▁шашты:12769
▁түсіндіре:12770
mb:12771
▁ME:12772
▁Golden:12773
▁Ok:12774
▁беруден:12775
▁Хабар:12776
▁Рух:12777
▁сөздердің:12778
▁түссе:12779
▁сүйіспеншілік:12780
▁ensuring:12781
▁сөзінің:12782
▁architecture:12783
▁асқазан:12784
▁Бұндай:12785
▁unusual:12786
▁жауапкершілікке:12787
▁Құдайдан:12788
amp:12789
лмайды:12790
▁Village:12791
▁мұ:12792
▁Кіші:12793
▁treasure:12794
▁бәрінің:12795
лог:12796
▁Сұхбат:12797
▁сауатты:12798
▁жұлдыздар:12799
▁painful:12800
▁бюджеттік:12801
▁Пе:12802
▁Тәрбие:12803
▁sn:12804
▁$2:12805
▁narrow:12806
▁Ju:12807
▁дыбысы:12808
туға:12809
▁жалақысы:12810
сайттар:12811
▁дамудың:12812
▁мемлекетте:12813
▁congregation:12814
▁basketball:12815
ify:12816
▁rising:12817
▁weakness:12818
pm:12819
EN:12820
▁деу:12821
▁бұзылуы:12822
ari:12823
▁Кешіріңіз:12824
▁Ғылыми:12825
аб:12826
▁Thomas:12827
98:12828
▁жетістігі:12829
▁туристер:12830
▁көмекші:12831
оль:12832
▁Ри:12833
51:12834
шыларға:12835
▁тұрмыз:12836
▁соғыстың:12837
▁сыртында:12838
▁тиіспіз:12839
OR:12840
▁Университет:12841
бы:12842
▁асқа:12843
▁лауазымды:12844
▁мақсатым:12845
▁операциялық:12846
▁Prince:12847
▁дәлелі:12848
▁Jacob:12849
▁Political:12850
Thank:12851
▁Price:12852
▁generate:12853
▁сабағы:12854
▁әкел:12855
▁анти:12856
дон:12857
tan:12858
▁savings:12859
300:12860
▁Dutch:12861
▁alarm:12862
▁Didn:12863
▁Space:12864
▁есептер:12865
▁акциясы:12866
▁алсақ:12867
дігіне:12868
▁Же:12869
▁Tim:12870
▁seeks:12871
▁em:12872
▁emerged:12873
▁патшасы:12874
▁айтқаны:12875
▁collaboration:12876
▁Modern:12877
▁Нұрсұлтан:12878
▁Жел:12879
▁елу:12880
▁managers:12881
▁ұрпақтары:12882
▁шешесі:12883
▁plain:12884
▁жартысында:12885
▁Hot:12886
▁completing:12887
gh:12888
▁Governor:12889
министрі:12890
▁fool:12891
рық:12892
▁newspapers:12893
▁ұмтылады:12894
▁сым:12895
▁жеттік:12896
▁exercises:12897
▁санат:12898
тама:12899
▁жасауы:12900
▁кешегі:12901
▁қараймын:12902
▁commanded:12903
▁130:12904
▁нөмірін:12905
▁шықтық:12906
ью:12907
Шын:12908
▁күнім:12909
▁ұстаздар:12910
▁creatures:12911
▁trends:12912
▁әсем:12913
▁GPS:12914
▁Өмірде:12915
▁encounter:12916
▁әрекеттері:12917
▁бөлігіне:12918
▁студенттері:12919
▁комитет:12920
▁әрекеттерді:12921
▁sa:12922
3):12923
▁жартысынан:12924
▁Getting:12925
▁ownership:12926
▁Dec:12927
▁жалғастырып:12928
Ба:12929
▁scratch:12930
▁кескін:12931
▁батып:12932
▁сипатта:12933
▁continuous:12934
▁осал:12935
▁damaged:12936
▁жабылып:12937
▁Мырза:12938
▁intent:12939
▁сенген:12940
▁жалғастырды:12941
бірте:12942
Today:12943
▁Египет:12944
hal:12945
▁сыйлығы:12946
Сол:12947
▁сынақтан:12948
әй:12949
▁Face:12950
len:12951
▁suicide:12952
▁earthquake:12953
▁тө:12954
▁ақпанда:12955
▁төмендегідей:12956
▁Сапар:12957
▁Gar:12958
▁аумағы:12959
uch:12960
▁шалып:12961
▁пәні:12962
eb:12963
AP:12964
▁дәлелдер:12965
▁ынта:12966
▁өтсе:12967
▁оқушының:12968
cal:12969
▁Әркім:12970
▁Францияда:12971
▁науқан:12972
▁Әйтсе:12973
▁breed:12974
▁қатысуы:12975
▁құла:12976
▁Upon:12977
▁honored:12978
▁тақырыбында:12979
▁Демалыс:12980
▁min:12981
▁құбыр:12982
шінің:12983
ион:12984
▁алуда:12985
▁diversity:12986
▁attract:12987
eng:12988
жу:12989
rin:12990
▁customs:12991
real:12992
ыла:12993
▁2030:12994
▁қолдады:12995
▁Radio:12996
беков:12997
▁әңгімені:12998
▁limitations:12999
▁қалдырыңыз:13000
сыр:13001
▁random:13002
yan:13003
▁gathering:13004
ym:13005
▁құтыла:13006
▁Сәби:13007
dom:13008
▁ережесін:13009
▁нақ:13010
стік:13011
▁Netherlands:13012
▁ойламаймын:13013
▁зерттеп:13014
▁сигнал:13015
гелі:13016
▁hurting:13017
▁етсе:13018
ттер:13019
▁жануарлардың:13020
▁қалыптасады:13021
▁жігітке:13022
▁sessions:13023
▁мақтаныш:13024
▁қатынасқа:13025
▁departments:13026
▁custody:13027
▁Нұрлан:13028
▁бөлінді:13029
▁extension:13030
▁Әділет:13031
иф:13032
▁осынау:13033
are:13034
▁табан:13035
▁жала:13036
▁coal:13037
▁Taiwan:13038
▁есіңізде:13039
▁жауапқа:13040
▁Аяқ:13041
▁largely:13042
where:13043
▁Өзімнің:13044
▁айларында:13045
▁Көңіл:13046
▁cable:13047
▁ортасы:13048
▁өткізіліп:13049
▁қамтитын:13050
▁қатысушылардың:13051
▁weird:13052
▁hero:13053
▁тіркелді:13054
▁Сұра:13055
▁қоршау:13056
▁өздерің:13057
▁жалғасы:13058
▁Nonetheless:13059
▁үйлеріне:13060
▁бәсеке:13061
▁Common:13062
▁жейді:13063
▁apps:13064
▁lit:13065
▁департаменті:13066
▁орал:13067
▁өтіңіз:13068
▁планета:13069
La:13070
▁тоқтатуға:13071
▁км:13072
▁сипатталады:13073
▁ұсталған:13074
ware:13075
▁өткізе:13076
▁Көпшілік:13077
▁шөл:13078
▁Train:13079
▁audio:13080
▁Solomon:13081
▁тиімсіз:13082
▁developers:13083
▁Along:13084
лену:13085
▁commonly:13086
▁қоймас:13087
ылуы:13088
▁slaves:13089
▁tickets:13090
ақы:13091
▁prophets:13092
▁Cons:13093
pen:13094
mi:13095
▁құрды:13096
▁Doesn:13097
▁бұның:13098
▁жолындағы:13099
water:13100
▁realised:13101
▁қорғаушы:13102
▁terrified:13103
▁нәтижелі:13104
▁67:13105
▁зерттеуге:13106
сөз:13107
▁ақыр:13108
▁AI:13109
▁дәрілік:13110
▁adjust:13111
▁зұлымдық:13112
▁ауысу:13113
qua:13114
▁қабат:13115
Can:13116
▁Аб:13117
▁2016.:13118
CO:13119
▁virtual:13120
▁қызметкерлеріне:13121
▁stops:13122
▁Ed:13123
▁Тұ:13124
fire:13125
▁fabric:13126
АТ:13127
▁жетістіктері:13128
▁үйін:13129
▁cheaper:13130
▁Mass:13131
▁тоқтатты:13132
▁absolute:13133
▁apparent:13134
▁бәсекелестік:13135
▁Secret:13136
▁партиясының:13137
▁Тоқта:13138
▁Жауабы:13139
▁Safety:13140
▁қарастырайық:13141
▁Күл:13142
▁66:13143
▁Overall:13144
▁көрмейді:13145
▁проблемасы:13146
▁Clean:13147
▁Болат:13148
▁әсерінен:13149
▁Using:13150
cer:13151
▁кемі:13152
▁белг:13153
▁қызын:13154
▁(6:13155
▁жанкүйерлер:13156
:20:13157
▁ЖА:13158
▁енгізген:13159
jo:13160
▁сезінемін:13161
▁Sir:13162
▁Одақ:13163
▁frequency:13164
және:13165
▁distinct:13166
▁көрсетеміз:13167
▁қазанда:13168
▁сағаты:13169
▁harmful:13170
▁азайтуға:13171
▁қаланы:13172
▁ұрлық:13173
▁күнінен:13174
▁fired:13175
▁tip:13176
▁сына:13177
▁2017,:13178
оны:13179
▁келтіретін:13180
▁guaranteed:13181
▁аптаға:13182
▁ұстайды:13183
▁reflection:13184
▁ару:13185
▁connections:13186
▁хаттар:13187
▁ресурстар:13188
:10:13189
▁harder:13190
ио:13191
▁Ve:13192
▁бастаймыз:13193
▁Ұлыбританияда:13194
ияның:13195
▁пайыздық:13196
▁Жұлдыз:13197
▁Бей:13198
▁мемлекетт:13199
нып:13200
▁тәртібін:13201
▁Шара:13202
▁league:13203
▁IN:13204
CH:13205
▁шаһар:13206
ff:13207
лермен:13208
▁нұсқаулар:13209
▁Пер:13210
▁қағазға:13211
▁ақшасы:13212
▁хабарламада:13213
▁Miss:13214
int:13215
▁оқыды:13216
▁meters:13217
read:13218
▁айтпайды:13219
▁түрмеде:13220
▁шыққанда:13221
іні:13222
▁Жүрегім:13223
▁describing:13224
сь:13225
▁астынан:13226
кел:13227
▁pushed:13228
▁riding:13229
▁inspiration:13230
▁сүю:13231
▁мәлімдеген:13232
▁Жарыс:13233
▁келтірді:13234
▁күзет:13235
▁Біреуі:13236
▁witnesses:13237
▁қасық:13238
ade:13239
▁сәттер:13240
▁аймақтарда:13241
▁bowl:13242
▁мерекелер:13243
▁Маусым:13244
▁түсінеміз:13245
фф:13246
▁Could:13247
▁өтінемін:13248
▁қыздарға:13249
▁дамиды:13250
▁қорғай:13251
mal:13252
▁su:13253
▁проблемаларды:13254
RC:13255
▁автоматтары:13256
▁нәтижелерін:13257
▁invented:13258
▁кешені:13259
▁Ереже:13260
▁hardly:13261
▁бұлардың:13262
▁жабдықтау:13263
▁сарай:13264
▁feeding:13265
▁Жедел:13266
▁Құжат:13267
▁өліміне:13268
▁convert:13269
▁borders:13270
▁доллары:13271
▁accepting:13272
▁Close:13273
▁орасан:13274
▁соқыр:13275
тқыш:13276
▁Youth:13277
▁келтір:13278
▁Сүйікті:13279
▁Ауру:13280
мақшы:13281
tz:13282
▁саба:13283
▁артқан:13284
CE:13285
▁кеткені:13286
▁Базар:13287
▁prayed:13288
ova:13289
▁tech:13290
▁Brother:13291
▁ресей:13292
▁көрсеткіштері:13293
▁Оқушылардың:13294
лану:13295
▁жұмыстарына:13296
▁өсе:13297
▁күштер:13298
▁drove:13299
▁биологиялық:13300
арт:13301
▁desert:13302
▁PR:13303
▁көресің:13304
▁көзбен:13305
▁Сар:13306
MA:13307
▁түске:13308
▁relate:13309
with:13310
▁періштелер:13311
▁жағдайлары:13312
oon:13313
теген:13314
▁сом:13315
▁тастаңыз:13316
▁болуыңыз:13317
▁төңкеріс:13318
▁сақтаған:13319
▁Believe:13320
▁Born:13321
▁орналасу:13322
▁басталатын:13323
▁аймаққа:13324
▁сенде:13325
му:13326
ks:13327
▁әйелім:13328
▁complained:13329
▁жетуі:13330
▁серия:13331
▁Rose:13332
▁Basically:13333
▁инфекция:13334
▁awards:13335
Because:13336
ут:13337
▁18-:13338
жаңа:13339
▁әкеп:13340
▁бөлімде:13341
▁енгізуге:13342
▁санау:13343
▁құрт:13344
rated:13345
▁мүдде:13346
лықпен:13347
ski:13348
▁мойнына:13349
▁жалғаса:13350
▁санитарлық:13351
▁Rock:13352
▁хатшысы:13353
▁Польша:13354
▁competing:13355
▁спортшылар:13356
▁pump:13357
▁кәрі:13358
▁жүктеме:13359
қатынасы:13360
▁perception:13361
Әй:13362
орын:13363
TC:13364
▁екенсіз:13365
▁келбеті:13366
▁react:13367
▁пышақ:13368
▁коммуналдық:13369
▁түсіреді:13370
▁hated:13371
▁алғыңыз:13372
ups:13373
ье:13374
▁Ая:13375
▁alter:13376
▁evident:13377
▁мөлшер:13378
▁surprising:13379
шылдық:13380
▁жазатын:13381
▁abilities:13382
AM:13383
газ:13384
▁қорғайтын:13385
▁ананың:13386
▁есікті:13387
▁еркектер:13388
▁естігенде:13389
▁Ұйқы:13390
▁authorized:13391
▁ойнады:13392
▁сұрағым:13393
star:13394
world:13395
▁жиынтық:13396
▁қарыздар:13397
▁тойы:13398
▁күлді:13399
▁талқыланды:13400
▁құры:13401
▁possess:13402
▁көргім:13403
▁bug:13404
қызметкерлерінің:13405
▁оқиғалардың:13406
▁тамшы:13407
▁шенеуніктер:13408
▁қайту:13409
▁қызықтыратын:13410
▁отқа:13411
Мені:13412
▁capabilities:13413
▁Нобель:13414
▁hospitals:13415
▁tons:13416
▁шешіледі:13417
▁Иман:13418
▁Martin:13419
▁түрлендіру:13420
▁Қуаныш:13421
▁жойылады:13422
▁мынандай:13423
▁Run:13424
әлі:13425
▁Sound:13426
▁Ги:13427
▁provider:13428
▁жад:13429
▁миллионға:13430
▁Апта:13431
tes:13432
▁ұлдары:13433
імізбен:13434
▁def:13435
▁Саяхат:13436
▁Азық:13437
▁үйлердің:13438
▁тұтқын:13439
▁evaluation:13440
▁tape:13441
▁бітіріп:13442
▁chicken:13443
▁шаршаған:13444
ами:13445
▁wire:13446
▁түзе:13447
▁Әли:13448
▁Teacher:13449
▁аманат:13450
▁Festival:13451
▁fantastic:13452
▁technological:13453
▁соты:13454
▁құндылығы:13455
▁нормативтік:13456
9%:13457
▁қызметтердің:13458
▁channels:13459
Ой:13460
▁профессор:13461
▁барма:13462
ент:13463
▁барар:13464
нат:13465
▁сүйек:13466
▁Col:13467
ғу:13468
иннің:13469
▁lord:13470
▁distinguish:13471
рін:13472
▁інісі:13473
▁Иеміз:13474
▁полицейлер:13475
▁қолдануды:13476
зге:13477
▁compassion:13478
▁ережелерді:13479
▁demanded:13480
▁мініп:13481
▁mod:13482
▁қанат:13483
▁соққан:13484
▁сұранысқа:13485
▁crack:13486
▁para:13487
▁Ағаш:13488
идің:13489
▁curse:13490
телген:13491
▁divorced:13492
▁шыдай:13493
ларымен:13494
▁құрылады:13495
▁түсінбеймін:13496
▁Against:13497
▁Win:13498
▁Американдық:13499
school:13500
▁дауысты:13501
▁басқарушы:13502
▁Bas:13503
▁бизнестің:13504
IA:13505
▁қажеттігін:13506
▁invest:13507
бұ:13508
▁Ара:13509
ys:13510
▁пісіру:13511
▁дәуірі:13512
▁enterprise:13513
рон:13514
▁acknowledge:13515
▁Award:13516
▁pushing:13517
▁өрнек:13518
▁отырғызу:13519
▁consumers:13520
▁жемісті:13521
бірімізге:13522
▁инвесторлар:13523
жет:13524
▁төлеген:13525
▁өткіз:13526
▁Mor:13527
▁shocked:13528
▁Тамақ:13529
▁woke:13530
▁survival:13531
▁healed:13532
▁бөліктері:13533
▁осымен:13534
зин:13535
▁ры:13536
▁Үкіметтің:13537
▁бұрыш:13538
лам:13539
▁graduate:13540
▁retail:13541
▁eligible:13542
▁copies:13543
Халық:13544
▁providers:13545
▁құрамдас:13546
▁Friend:13547
▁graduated:13548
▁Bu:13549
▁деректері:13550
▁мамандардың:13551
-4:13552
▁Czech:13553
▁бұзып:13554
▁implies:13555
▁Үнемі:13556
OL:13557
▁Mc:13558
▁PM:13559
▁Standard:13560
▁ақпаратқа:13561
▁иесінің:13562
▁attractive:13563
▁қоймаған:13564
▁адамзаттың:13565
▁measured:13566
▁ұғымы:13567
▁аузы:13568
▁Ахмет:13569
▁қызықтырады:13570
stan:13571
ency:13572
▁кімді:13573
▁мониторинг:13574
▁қалмады:13575
▁процесінде:13576
▁LED:13577
▁таяқ:13578
▁liability:13579
▁таниды:13580
▁Көбі:13581
▁жемістер:13582
▁прокуратура:13583
ная:13584
▁pit:13585
▁алмасаңыз:13586
▁nights:13587
▁pin:13588
▁жеңілдіктер:13589
▁мәселелерге:13590
▁discipline:13591
▁Dubai:13592
▁өтемақы:13593
▁белсенділігі:13594
▁sl:13595
зі:13596
ег:13597
▁үйреткен:13598
▁vulnerable:13599
▁аяз:13600
▁жұмсайды:13601
▁бастауы:13602
▁сұ:13603
бал:13604
▁checked:13605
▁ұры:13606
▁ақшалай:13607
ching:13608
▁guns:13609
вр:13610
97:13611
ye:13612
wing:13613
▁photography:13614
▁Дайын:13615
▁surrounded:13616
аят:13617
▁ұн:13618
zi:13619
Жақсы:13620
▁маңыздысы:13621
clock:13622
▁reads:13623
▁Ge:13624
▁reviewed:13625
▁мақтау:13626
▁жасөспірім:13627
ls:13628
▁Administration:13629
▁AND:13630
мал:13631
▁парақшасында:13632
▁Ойынның:13633
▁тол:13634
▁ризамын:13635
▁түтін:13636
▁етпейтін:13637
▁құжаттарын:13638
▁айтшы:13639
▁Hack:13640
▁оқулық:13641
Әр:13642
лана:13643
▁жойылды:13644
▁жарысқа:13645
▁derived:13646
алу:13647
али:13648
▁Хат:13649
▁AS:13650
▁fi:13651
▁бірігіп:13652
▁cave:13653
▁шекте:13654
тарынан:13655
саттық:13656
▁қорыққан:13657
▁organisations:13658
▁модельдер:13659
▁Author:13660
▁meaningful:13661
▁өлімге:13662
▁екіге:13663
лов:13664
сқан:13665
▁көрсетуді:13666
▁білімін:13667
▁5::13668
▁harsh:13669
▁jumped:13670
▁жасыра:13671
▁tall:13672
▁жасырып:13673
▁арақ:13674
Де:13675
▁Eli:13676
roll:13677
▁approaching:13678
▁Han:13679
▁қайтаруға:13680
▁judges:13681
▁дайындаған:13682
▁gym:13683
▁Treaty:13684
▁Жапонияда:13685
▁кесірінен:13686
рес:13687
▁Access:13688
win:13689
рлық:13690
ole:13691
▁Білмеймін:13692
▁студенттерге:13693
▁Ch:13694
▁Products:13695
Man:13696
▁Біл:13697
▁қорының:13698
▁Тым:13699
▁көшеге:13700
▁Одағы:13701
▁biological:13702
▁кафедра:13703
▁сызық:13704
▁Фото:13705
▁мазмұнды:13706
▁tiny:13707
▁дәмі:13708
▁centers:13709
▁сыйлады:13710
▁жеу:13711
▁мәдениетін:13712
▁2018,:13713
▁Кесте:13714
дір:13715
▁treatments:13716
▁Half:13717
▁қарастырамыз:13718
▁Devil:13719
▁элементтері:13720
▁жүріңіз:13721
▁handled:13722
дерінің:13723
▁Dar:13724
▁funded:13725
▁acquired:13726
▁қоспа:13727
▁Ы:13728
▁Par:13729
▁физика:13730
▁poet:13731
▁vi:13732
Қай:13733
▁commented:13734
▁availability:13735
▁алуына:13736
▁Coast:13737
▁citizenship:13738
▁funny:13739
атор:13740
лат:13741
▁believing:13742
ball:13743
▁сезінген:13744
күйі:13745
▁құда:13746
▁бірінен:13747
▁ұдайы:13748
▁decent:13749
▁тоқтат:13750
▁60%:13751
ары:13752
▁тәсілдері:13753
▁дән:13754
▁instruction:13755
зерттеу:13756
▁actor:13757
▁еңбектері:13758
lat:13759
tri:13760
▁түбі:13761
An:13762
▁touched:13763
▁тосын:13764
▁gear:13765
▁Imagine:13766
zy:13767
▁шабуылдар:13768
▁әңгімесін:13769
▁клубы:13770
▁ток:13771
▁дарынды:13772
▁entity:13773
PS:13774
▁Бой:13775
▁Кең:13776
▁анықтаған:13777
ив:13778
▁Кө:13779
▁Type:13780
▁reverse:13781
▁сезімтал:13782
▁тапсырып:13783
▁көшіріп:13784
стро:13785
▁соғыста:13786
▁lover:13787
▁орамал:13788
▁Маңызды:13789
▁әрекетті:13790
▁адвокат:13791
▁жіберілді:13792
▁армия:13793
play:13794
▁інім:13795
▁қалайтын:13796
▁Mad:13797
▁Көбіне:13798
4):13799
▁жақсылап:13800
тта:13801
▁Қиын:13802
▁кезеңнің:13803
84:13804
▁алдынан:13805
test:13806
▁eliminated:13807
▁Ке:13808
▁craft:13809
▁disabled:13810
▁demon:13811
▁қайсы:13812
ху:13813
▁Көктем:13814
▁assignment:13815
▁сабақтың:13816
▁chart:13817
▁bones:13818
▁қолдайтын:13819
▁мыналар:13820
63:13821
▁әулие:13822
▁bold:13823
54:13824
▁ағылшынша:13825
▁certificate:13826
▁z:13827
▁movements:13828
▁жобасының:13829
▁құрылғыны:13830
▁сайлауы:13831
▁супер:13832
▁мектепті:13833
▁аспайды:13834
ДА:13835
▁63:13836
масы:13837
▁tear:13838
▁attempting:13839
▁том:13840
нт:13841
▁tail:13842
рту:13843
▁IV:13844
▁бөлімдер:13845
йе:13846
▁атмосфера:13847
▁workplace:13848
▁bless:13849
pin:13850
▁аят:13851
пон:13852
▁romantic:13853
▁dreaming:13854
▁сақталып:13855
▁composed:13856
▁reject:13857
▁нарығы:13858
▁үр:13859
▁жүйелері:13860
▁дәлелдеді:13861
ңнің:13862
▁implementing:13863
▁Шамамен:13864
▁contained:13865
олог:13866
▁бағалар:13867
▁1/2:13868
▁grief:13869
▁Either:13870
▁semi:13871
тігі:13872
▁designated:13873
там:13874
▁из:13875
Барлық:13876
▁believers:13877
▁фактілер:13878
▁Бақ:13879
шылығы:13880
▁байла:13881
▁Қане:13882
ili:13883
▁Making:13884
▁тәжірибесін:13885
▁camps:13886
▁140:13887
ola:13888
▁қайық:13889
▁closing:13890
▁yellow:13891
▁2013.:13892
ral:13893
▁Қылмыстық:13894
▁somewhat:13895
▁Form:13896
▁ұшырайды:13897
▁sanctions:13898
▁collapse:13899
▁Сал:13900
▁consumed:13901
▁экспорт:13902
▁highlighted:13903
▁Төртінші:13904
тт:13905
▁ultimate:13906
көп:13907
▁convention:13908
▁Consequently:13909
▁Pros:13910
▁қашықтан:13911
▁аймақтың:13912
▁bleeding:13913
▁бірінің:13914
алар:13915
▁алсам:13916
▁нарыққа:13917
▁сырын:13918
ласа:13919
▁opens:13920
▁Contact:13921
▁mixed:13922
▁мәнді:13923
▁Өндіріс:13924
▁Fear:13925
▁тұлғаларға:13926
▁құпиясы:13927
▁lips:13928
▁Chris:13929
▁жалғастыр:13930
▁wings:13931
▁Irish:13932
▁expanded:13933
▁энергиясын:13934
ня:13935
зайыптылар:13936
▁әкемнің:13937
▁емессің:13938
▁comp:13939
▁бардық:13940
▁welcomed:13941
▁nervous:13942
▁1988:13943
▁үміткерлер:13944
▁көлемді:13945
▁na:13946
спе:13947
five:13948
▁Сенат:13949
▁отбасым:13950
▁мезгілінде:13951
81:13952
▁guilt:13953
▁Level:13954
▁тосқауыл:13955
:11:13956
▁Rather:13957
▁өнеркәсіптік:13958
▁ашыңыз:13959
▁практикалық:13960
-12:13961
▁SD:13962
▁тозақ:13963
▁мазмұн:13964
hour:13965
▁sentenced:13966
▁resident:13967
▁rapid:13968
құл:13969
▁possession:13970
▁fed:13971
таң:13972
date:13973
▁transmission:13974
▁жайып:13975
▁ruined:13976
▁Eye:13977
▁бөлісу:13978
▁алмайтынын:13979
▁Spring:13980
▁Professor:13981
gr:13982
▁орындарында:13983
▁майдан:13984
NA:13985
қалы:13986
▁бөлшегі:13987
▁белгіленеді:13988
▁dirty:13989
▁тірлік:13990
▁бағасының:13991
tter:13992
▁сөйлесуге:13993
Бар:13994
▁портал:13995
▁Есім:13996
іңде:13997
▁препарат:13998
▁Жаңбыр:13999
▁келісті:14000
▁саласын:14001
▁шығармалар:14002
▁заңның:14003
▁Ерекше:14004
▁browser:14005
▁төленетін:14006
▁organize:14007
▁құтқарып:14008
las:14009
▁Таяу:14010
▁диагноз:14011
▁атам:14012
▁арнаған:14013
▁организм:14014
▁атақ:14015
▁операциялар:14016
▁Грузия:14017
pp:14018
зо:14019
▁Action:14020
non:14021
▁Industry:14022
▁жалғастырады:14023
▁Мак:14024
▁brush:14025
▁discount:14026
▁activists:14027
уч:14028
▁Robert:14029
▁өзгермейді:14030
▁talented:14031
▁отыруы:14032
▁Qur:14033
▁жағдайдан:14034
▁батырмасын:14035
қыш:14036
▁банкі:14037
▁до:14038
wood:14039
▁pilot:14040
▁қашанда:14041
▁өлді:14042
take:14043
▁Tra:14044
менің:14045
▁қылмыстар:14046
▁ЕО:14047
hi:14048
▁heavily:14049
▁argued:14050
▁engagement:14051
▁conclusions:14052
▁explaining:14053
▁басқарады:14054
IL:14055
▁грек:14056
▁Sky:14057
▁siblings:14058
▁себептерін:14059
▁Almost:14060
▁тоқталып:14061
▁үкіметінің:14062
▁ағып:14063
Абай:14064
▁шығыңыз:14065
▁pretend:14066
fall:14067
▁шаңырақ:14068
▁wondered:14069
▁stupid:14070
▁вице:14071
ав:14072
▁Tree:14073
▁оңайырақ:14074
▁тұрдым:14075
▁танысты:14076
▁61:14077
91:14078
▁Әбу:14079
▁Кен:14080
▁du:14081
▁angle:14082
інді:14083
▁Ви:14084
▁тілдің:14085
▁тырысатын:14086
▁Тағдыр:14087
▁жоспарлары:14088
құр:14089
▁аудитория:14090
тур:14091
▁астық:14092
▁ruled:14093
▁жүргізді:14094
▁жайы:14095
RA:14096
▁моделі:14097
▁кезінен:14098
▁59:14099
▁Тапсырма:14100
▁рухы:14101
▁Кә:14102
▁қарасақ:14103
▁болатынмын:14104
▁платформа:14105
ied:14106
▁жалғастыруда:14107
▁тәлім:14108
▁сипаттайды:14109
▁арал:14110
ҒА:14111
▁hook:14112
▁Әділ:14113
▁жетер:14114
▁барыңыз:14115
▁тапшылығы:14116
▁fifteen:14117
▁imagination:14118
▁tight:14119
▁журналы:14120
гон:14121
▁цифрлық:14122
▁Ауғанстан:14123
▁Days:14124
▁Kenya:14125
▁көктемде:14126
▁кітаптарды:14127
▁бағаланады:14128
▁Johnson:14129
▁Angel:14130
▁managing:14131
▁900:14132
▁тұрсың:14133
▁қарасам:14134
▁1.5:14135
▁restaurants:14136
зат:14137
▁wealthy:14138
күн:14139
▁Комитет:14140
▁unemployment:14141
▁естіледі:14142
pping:14143
▁cultures:14144
▁Continue:14145
▁stations:14146
▁балаларым:14147
▁relax:14148
▁оппозиция:14149
▁hanging:14150
▁былтыр:14151
Ка:14152
▁тиді:14153
▁4-5:14154
▁locked:14155
▁білдір:14156
▁мүшелеріне:14157
▁narrative:14158
▁сағаттық:14159
▁ST:14160
▁суда:14161
▁шыр:14162
▁суретте:14163
▁specifications:14164
▁түсінесіз:14165
▁intervention:14166
▁SA:14167
▁Мәтін:14168
▁Cost:14169
▁Төле:14170
▁ханның:14171
▁бетінен:14172
▁y:14173
▁серіктестер:14174
ory:14175
▁62:14176
▁throne:14177
▁removing:14178
▁bow:14179
▁түсінбейді:14180
log:14181
▁поэзия:14182
▁аңыз:14183
▁етпей:14184
▁recognised:14185
▁cute:14186
▁реттік:14187
▁басқаратын:14188
тке:14189
av:14190
▁Bear:14191
▁Тест:14192
▁regulatory:14193
ән:14194
▁ауқымы:14195
мұ:14196
▁жатқандай:14197
▁Қарап:14198
▁халқымыз:14199
▁тәрбиесі:14200
ush:14201
▁тұрғаны:14202
▁Experience:14203
▁welfare:14204
▁Fi:14205
▁Техникалық:14206
93:14207
▁болыңдар:14208
▁анықтайтын:14209
▁қайталау:14210
▁Қап:14211
▁ішке:14212
▁марапат:14213
▁Ораза:14214
▁банктік:14215
генін:14216
▁hill:14217
▁сипатталған:14218
▁Tuesday:14219
▁islands:14220
▁Taking:14221
nal:14222
rant:14223
▁аталып:14224
стың:14225
▁зерттеушілер:14226
▁жариялап:14227
▁Жеңіл:14228
▁Апа:14229
цион:14230
▁secondary:14231
▁Алма:14232
▁жаратты:14233
▁Below:14234
▁Әйелі:14235
▁майы:14236
▁шығыны:14237
Ro:14238
▁жасақ:14239
▁examine:14240
▁circuit:14241
▁3000:14242
ib:14243
▁Аллаһқа:14244
▁боларсыз:14245
іле:14246
▁ойдамын:14247
лануы:14248
ілу:14249
▁штат:14250
Ba:14251
▁түсіндір:14252
▁танылды:14253
▁2008.:14254
▁танытты:14255
▁sudden:14256
▁Тәжікстан:14257
ju:14258
▁біркелкі:14259
▁gospel:14260
▁Website:14261
▁Prayer:14262
ION:14263
▁жерлерге:14264
▁Ға:14265
▁еден:14266
▁қолайсыз:14267
▁69:14268
▁көшкен:14269
▁таны:14270
▁атаңыз:14271
▁салты:14272
▁Mike:14273
▁tower:14274
▁сақталуы:14275
▁covenant:14276
▁universal:14277
▁worn:14278
▁swing:14279
▁дыбыстар:14280
▁компаниялары:14281
▁сезіндім:14282
▁acknowledged:14283
▁Бақытты:14284
ination:14285
▁loses:14286
lol:14287
▁Суреттер:14288
els:14289
▁guitar:14290
▁әрең:14291
ette:14292
▁команданың:14293
▁str:14294
▁туындайтын:14295
▁сыныбы:14296
▁arise:14297
рме:14298
▁Алты:14299
▁қау:14300
▁ашы:14301
▁шешімге:14302
▁тәртіпті:14303
▁www:14304
▁қолдауымен:14305
▁эксперимент:14306
▁prescribed:14307
▁таныса:14308
жөні:14309
▁санды:14310
▁келісе:14311
▁flights:14312
▁келушілер:14313
▁enjoyable:14314
▁Орман:14315
Мына:14316
Жыл:14317
▁үз:14318
▁agriculture:14319
▁legitimate:14320
▁stomach:14321
▁Daniel:14322
▁айтпақшы:14323
беген:14324
▁distinction:14325
▁қызметтік:14326
▁Қырғызстан:14327
▁көңілін:14328
▁поли:14329
ika:14330
▁білдіре:14331
▁JSC:14332
тү:14333
▁тани:14334
▁сар:14335
▁онсыз:14336
▁trusted:14337
▁қақтығыстар:14338
▁Whenever:14339
▁шо:14340
▁Француз:14341
▁кезеңдегі:14342
▁кәсібі:14343
▁ерекшеліктерін:14344
▁эфир:14345
▁Шо:14346
▁uncle:14347
пей:14348
▁stadium:14349
▁testimony:14350
▁entities:14351
▁телефонды:14352
▁expertise:14353
▁shoulders:14354
рак:14355
▁қарастырып:14356
▁істесе:14357
▁қазақстандықтар:14358
▁уәкілетті:14359
▁дар:14360
▁нарығында:14361
дырып:14362
lation:14363
рг:14364
▁2016,:14365
▁substance:14366
▁involving:14367
▁әрпі:14368
▁жапырақ:14369
Sa:14370
▁жетіспеушілігі:14371
▁партиялар:14372
▁Мария:14373
▁шешуші:14374
▁baseball:14375
▁cinema:14376
нар:14377
▁1920:14378
▁satisfy:14379
▁cookies:14380
▁қойма:14381
▁78:14382
▁қаралды:14383
▁TO:14384
▁dangers:14385
▁тапсыр:14386
▁сенімділік:14387
▁шер:14388
▁қария:14389
▁тізімде:14390
▁Сақ:14391
▁mining:14392
▁salvation:14393
▁mechanism:14394
▁Естеріңіз:14395
▁representing:14396
▁suggestion:14397
phone:14398
▁қағаздар:14399
▁білмедім:14400
▁5-6:14401
62:14402
айым:14403
Құдай:14404
▁заманның:14405
▁ұшын:14406
ue:14407
▁тілдік:14408
▁Che:14409
▁бағалай:14410
lam:14411
▁tragedy:14412
▁сүрді:14413
ағы:14414
▁білдіремін:14415
▁кешен:14416
▁қашықтықта:14417
▁әрқайсымыз:14418
▁сынау:14419
▁мезгілі:14420
▁intend:14421
▁жұқтырған:14422
▁кандидат:14423
▁ұстады:14424
▁шамасында:14425
▁төлейтін:14426
▁Балық:14427
▁қорғалған:14428
52:14429
▁қызығушылығы:14430
▁күресіп:14431
▁бәсекелес:14432
▁агент:14433
van:14434
▁жылында:14435
▁атауға:14436
▁оқулықтар:14437
▁Омар:14438
▁bo:14439
scale:14440
▁Austria:14441
▁2018.:14442
▁төле:14443
▁logic:14444
▁шамалы:14445
ically:14446
▁(10:14447
▁кетпей:14448
-18:14449
▁шала:14450
▁matches:14451
дарың:14452
▁қорын:14453
▁қалыптасуы:14454
ров:14455
▁supplied:14456
Жол:14457
▁қаржыны:14458
ctor:14459
▁Нәтиже:14460
ters:14461
ила:14462
▁адамгершілік:14463
▁hunt:14464
▁сөйледі:14465
▁кітабын:14466
▁Бен:14467
▁74:14468
▁relates:14469
▁rating:14470
▁өзгелерге:14471
▁string:14472
▁Блог:14473
▁алдап:14474
▁Дәрі:14475
▁орналасады:14476
▁neighboring:14477
рге:14478
▁бөлмесі:14479
▁еуро:14480
▁көрсетуі:14481
▁туыс:14482
▁әділдік:14483
▁жойылып:14484
▁ұрлап:14485
▁ренжі:14486
▁аймақтағы:14487
▁popularity:14488
▁Марк:14489
▁қина:14490
▁Fair:14491
▁enterprises:14492
▁Дыбыс:14493
▁110:14494
▁Cap:14495
еп:14496
▁дүйсенбі:14497
▁reception:14498
қатынасты:14499
▁сырттай:14500
дас:14501
600:14502
▁1500:14503
▁Әкімшілік:14504
▁қауіпсіздікті:14505
▁кезеңдері:14506
▁Bra:14507
▁кесе:14508
▁жұмды:14509
▁Конвенция:14510
▁ішімдік:14511
▁Конференция:14512
▁conversion:14513
▁Қағаз:14514
month:14515
run:14516
▁өткізуді:14517
▁temperatures:14518
▁lamp:14519
▁approaches:14520
▁Тар:14521
▁био:14522
▁zero:14523
including:14524
▁URL:14525
▁1979:14526
▁dealt:14527
▁Got:14528
▁сеніммен:14529
▁directors:14530
▁collective:14531
arian:14532
list:14533
жұрт:14534
▁арты:14535
▁бейімделу:14536
▁2019.:14537
▁enables:14538
53:14539
▁adventure:14540
▁liberal:14541
ville:14542
▁құжатты:14543
▁conversations:14544
▁lo:14545
▁cabinet:14546
▁сұрауға:14547
▁тастар:14548
▁assistant:14549
▁естелік:14550
▁командалар:14551
▁dont:14552
▁Арыс:14553
▁Training:14554
Po:14555
▁аю:14556
▁фа:14557
▁audit:14558
▁genre:14559
▁азайып:14560
▁Made:14561
▁boot:14562
Қол:14563
-15:14564
▁келесідей:14565
▁жеңуге:14566
▁necessity:14567
▁Computer:14568
син:14569
▁балаларына:14570
▁беделді:14571
▁кү:14572
▁қолдаймын:14573
дармен:14574
▁мойны:14575
▁Кан:14576
▁мағлұмат:14577
шісі:14578
▁өмірімде:14579
▁Chairman:14580
▁Аяз:14581
▁ауада:14582
▁босқындар:14583
▁Belarus:14584
▁flash:14585
▁2010.:14586
▁әндер:14587
ded:14588
▁ұжымы:14589
▁Gospel:14590
▁poems:14591
▁округ:14592
▁2012.:14593
▁жазалау:14594
▁жанынан:14595
itch:14596
▁cloth:14597
▁серігі:14598
▁Совет:14599
▁convey:14600
▁hesitate:14601
▁комиссиясының:14602
▁жіберіңіз:14603
▁жиналыс:14604
var:14605
▁әлеуетті:14606
▁lands:14607
меңіз:14608
▁үкіметтік:14609
▁Түрік:14610
▁болатындығы:14611
▁көрермендер:14612
▁Easy:14613
▁!!!:14614
▁equation:14615
▁күйге:14616
▁барлығының:14617
▁жұмған:14618
▁режим:14619
▁тоқтатқан:14620
▁Trans:14621
ati:14622
▁Taliban:14623
▁қомақты:14624
ным:14625
▁авторлық:14626
▁proposals:14627
▁Prior:14628
▁Об:14629
part:14630
▁25%:14631
▁сыйлайды:14632
▁ceased:14633
▁ерік:14634
▁шегу:14635
▁екенімізді:14636
▁ск:14637
▁ықтималдығы:14638
MO:14639
▁Күйеуі:14640
▁horror:14641
▁Daily:14642
▁Кол:14643
▁hosting:14644
▁quotes:14645
▁қатер:14646
▁ізде:14647
▁түзетулер:14648
▁Коронавирус:14649
eu:14650
▁ниетті:14651
▁bonus:14652
▁құралдарды:14653
▁Ирландия:14654
▁interface:14655
▁adhere:14656
анасының:14657
▁Калифорния:14658
▁жүруі:14659
▁аурулар:14660
▁көмектескен:14661
▁Ақпараттық:14662
▁breathe:14663
▁бостандығы:14664
▁Ph:14665
▁Әдебиет:14666
▁shell:14667
person:14668
▁бергені:14669
▁Kar:14670
▁жанға:14671
▁болмыс:14672
▁картасын:14673
▁Library:14674
▁аяқталуы:14675
▁кездесуі:14676
▁сонау:14677
▁Labor:14678
▁ны:14679
▁құтыл:14680
▁курстар:14681
▁демалу:14682
gue:14683
▁біріншіден:14684
▁түгелдей:14685
тұ:14686
verse:14687
▁40-:14688
▁үлгерді:14689
▁Тұрғын:14690
▁өн:14691
▁locals:14692
▁шаралардың:14693
▁ancestors:14694
text:14695
▁аппарат:14696
▁Сендерге:14697
▁actors:14698
▁саяхатқа:14699
▁ұқсайтын:14700
▁кемелер:14701
▁88:14702
▁Cha:14703
▁құралдарының:14704
▁таңдауы:14705
▁prohibited:14706
▁қабылдауды:14707
▁жасауда:14708
▁Ana:14709
▁тұрақтылық:14710
bin:14711
▁жүремін:14712
▁overwhelmed:14713
▁қорғаушылар:14714
скен:14715
▁өзіңнің:14716
▁тұрғыз:14717
▁көпшілікке:14718
▁Тор:14719
▁әлемінде:14720
▁bone:14721
▁findings:14722
▁gaming:14723
ella:14724
▁жоспарланып:14725
▁қатары:14726
▁Сезім:14727
▁ва:14728
top:14729
▁реформалар:14730
▁басқалардың:14731
▁Share:14732
▁чат:14733
▁кейбіреулер:14734
▁intentions:14735
▁ғалымдары:14736
▁бап:14737
▁иесіне:14738
▁эссе:14739
▁lake:14740
▁ұза:14741
▁asset:14742
iya:14743
▁философия:14744
▁Democrats:14745
▁venture:14746
▁құжаттардың:14747
▁талаптарды:14748
▁кетемін:14749
мдер:14750
▁Chicago:14751
▁Regardless:14752
▁fiscal:14753
▁ылғи:14754
▁такси:14755
▁астамы:14756
▁1984:14757
▁tenge:14758
▁ауылдар:14759
zh:14760
▁executed:14761
▁le:14762
Қар:14763
74:14764
▁talents:14765
▁Бірге:14766
▁consumer:14767
▁құрметпен:14768
▁аялдама:14769
▁ниеті:14770
▁cm:14771
гің:14772
ition:14773
▁laptop:14774
▁Labour:14775
▁William:14776
▁swear:14777
▁журналистика:14778
▁Өнім:14779
▁Келген:14780
▁Nobel:14781
▁Есен:14782
▁кәсіпорынның:14783
▁қасиеттер:14784
▁қалмаған:14785
▁зияны:14786
▁Yeah:14787
▁10,000:14788
▁болыңыздар:14789
шін:14790
▁Тер:14791
▁басқарудың:14792
ини:14793
▁қыздары:14794
жер:14795
▁kit:14796
▁sharp:14797
▁сыйы:14798
▁highlight:14799
▁сүйеді:14800
ино:14801
▁қадір:14802
aged:14803
шек:14804
▁еттім:14805
▁transformed:14806
▁облыста:14807
▁аталды:14808
▁stroke:14809
▁расында:14810
tur:14811
▁farming:14812
▁Тікелей:14813
▁көрсетілді:14814
▁nurse:14815
▁goodness:14816
▁Afghan:14817
▁санайтын:14818
▁базасы:14819
▁несі:14820
▁жүргізушісі:14821
▁саясатының:14822
рия:14823
▁Nu:14824
▁оқиғаларды:14825
▁financing:14826
▁испан:14827
▁Angeles:14828
▁elect:14829
▁segment:14830
▁тыңдауға:14831
әрекеттер:14832
▁Side:14833
▁берейік:14834
▁Case:14835
▁fingers:14836
▁Depending:14837
▁жаратылыс:14838
▁responses:14839
▁perceived:14840
▁танысуға:14841
▁қалыпқа:14842
▁Кітапхана:14843
?!":14844
▁2020,:14845
▁жиналды:14846
мп:14847
ылмайтын:14848
▁Пар:14849
▁құттықтаймын:14850
▁immune:14851
LO:14852
▁мақсаттарға:14853
▁ұқсамайды:14854
▁creature:14855
▁отан:14856
▁келетіні:14857
-11:14858
▁math:14859
▁engineer:14860
▁әңгімелесу:14861
▁Владимир:14862
▁ұқыпты:14863
▁сірә:14864
▁шыда:14865
рас:14866
▁орындалуын:14867
▁жерім:14868
▁Meaning:14869
▁билеп:14870
▁Қоршаған:14871
ЫЗ:14872
ening:14873
лерің:14874
ony:14875
▁бөлген:14876
▁шықпайды:14877
▁қысымы:14878
▁аударуға:14879
▁thick:14880
▁стадион:14881
▁алысқа:14882
лит:14883
▁жүргізе:14884
▁бәле:14885
▁жемісі:14886
ТА:14887
▁бұйымдар:14888
▁құралған:14889
▁мәзір:14890
▁Eve:14891
▁келіссөз:14892
ect:14893
;):14894
▁15%:14895
▁disagree:14896
▁әдістерін:14897
str:14898
▁Olympics:14899
▁Жұ:14900
hr:14901
▁эмоциялар:14902
▁құрам:14903
▁беріпті:14904
▁Construction:14905
most:14906
ушылар:14907
▁орындайтын:14908
:17:14909
▁assault:14910
▁embrace:14911
▁ажырата:14912
▁ғы:14913
▁crop:14914
▁seventh:14915
▁жазасына:14916
▁Намаз:14917
▁Smith:14918
▁төленеді:14919
▁сенетін:14920
нет:14921
▁drinks:14922
▁Шығарма:14923
▁indication:14924
▁сор:14925
▁қарасаңыз:14926
▁құрылымдар:14927
▁Таныс:14928
аттар:14929
Ме:14930
▁шыққанын:14931
▁Балаларды:14932
▁recommendation:14933
▁педагог:14934
▁2025:14935
▁сектор:14936
▁әркімнің:14937
▁шіркін:14938
▁Тәртіп:14939
▁adding:14940
ларынан:14941
дақ:14942
cut:14943
▁Тірі:14944
▁equally:14945
▁бұзған:14946
▁өзінше:14947
▁интернетте:14948
▁ағым:14949
▁атасы:14950
▁жұмысым:14951
any:14952
▁Баланы:14953
▁жеңісі:14954
▁stones:14955
▁наразы:14956
▁асық:14957
▁titled:14958
61:14959
▁Медициналық:14960
▁Жара:14961
▁77:14962
▁Колледж:14963
▁нәр:14964
▁уақытым:14965
83:14966
иктер:14967
▁ғалам:14968
▁алаңында:14969
▁насихат:14970
▁серпін:14971
▁кетсек:14972
▁Dark:14973
Ұлы:14974
▁Sin:14975
▁configuration:14976
▁km:14977
▁күтті:14978
▁беретінін:14979
▁мүдделерін:14980
▁бағамы:14981
▁violation:14982
▁retired:14983
▁bid:14984
▁небәрі:14985
▁бағам:14986
има:14987
▁жабдық:14988
▁fifty:14989
▁Explain:14990
▁қадағалап:14991
▁балаларының:14992
▁Джек:14993
▁exclusively:14994
▁өнерге:14995
▁Тараз:14996
фе:14997
eth:14998
▁forgiven:14999
біл:15000
▁loyal:15001
▁ХХ:15002
post:15003
▁етілмейді:15004
▁recovered:15005
▁Christianity:15006
▁Professional:15007
▁биіктігі:15008
▁түсірілім:15009
▁Fast:15010
DA:15011
▁бағдарламалары:15012
▁жалаңаш:15013
▁принципі:15014
▁routine:15015
▁Үздік:15016
▁realise:15017
ектілер:15018
раз:15019
▁lion:15020
▁Military:15021
▁removal:15022
▁Study:15023
▁энергияны:15024
▁warranty:15025
▁академиялық:15026
▁Islands:15027
▁мәселеде:15028
▁unexpected:15029
▁import:15030
▁емессіз:15031
▁құрылымын:15032
▁tackle:15033
▁орнатыңыз:15034
▁моральдық:15035
▁2015,:15036
▁орындалды:15037
ST:15038
▁химия:15039
▁процестер:15040
pan:15041
▁нұсқалары:15042
▁stake:15043
▁essentially:15044
▁науқастар:15045
▁attending:15046
▁females:15047
▁Buy:15048
▁ch:15049
▁рекорд:15050
▁талабына:15051
▁governing:15052
▁accord:15053
▁Сірә:15054
▁Valley:15055
▁айналайын:15056
▁accessible:15057
▁сө:15058
▁жинақтау:15059
▁ескер:15060
▁формула:15061
ғи:15062
▁shadow:15063
▁desires:15064
▁құрылуы:15065
▁Алғыс:15066
▁ілім:15067
▁pounds:15068
▁болатынбыз:15069
▁index:15070
▁Киім:15071
▁жаулап:15072
▁Адамзат:15073
▁Аймақ:15074
▁киіз:15075
▁тудыруы:15076
▁reporters:15077
▁проблеманы:15078
▁хабарлау:15079
▁Bal:15080
▁мұрағат:15081
▁алмаңыз:15082
▁discovery:15083
▁throat:15084
▁һәм:15085
▁түлектер:15086
▁жеткізілген:15087
▁Guide:15088
they:15089
ily:15090
▁layout:15091
sized:15092
lash:15093
▁салынатын:15094
▁клубтар:15095
▁Gas:15096
▁Solar:15097
▁уәж:15098
good:15099
▁жасымда:15100
▁poly:15101
▁ті:15102
▁Шарт:15103
▁кезеңіне:15104
▁аударады:15105
▁дай:15106
▁Жақсылық:15107
put:15108
▁Бауыржан:15109
▁әдеттегідей:15110
▁Needless:15111
▁featured:15112
▁болғыңыз:15113
лықтан:15114
▁Газ:15115
▁кәсіптік:15116
▁қалаймыз:15117
▁Knowledge:15118
▁Micro:15119
▁Қыркүйек:15120
▁(0):15121
▁тырыс:15122
▁instances:15123
▁Қараша:15124
▁өтінді:15125
▁жеткізіледі:15126
▁мүсін:15127
▁штаб:15128
▁жетсе:15129
▁ескеріңіз:15130
▁жылдамдық:15131
▁Vo:15132
▁Alex:15133
▁бересің:15134
▁түсіндіруге:15135
сыздық:15136
▁алғаны:15137
▁салыстыр:15138
▁оқытушы:15139
▁мүддесі:15140
▁admission:15141
▁Ancient:15142
RI:15143
▁2011.:15144
ene:15145
▁deeper:15146
▁keys:15147
▁outbreak:15148
▁somehow:15149
▁Express:15150
▁әріптестік:15151
▁саясаттың:15152
▁barriers:15153
▁алдыңыз:15154
▁отбасымен:15155
rie:15156
▁Ком:15157
▁Netflix:15158
▁anxiety:15159
▁widow:15160
▁құю:15161
▁білсе:15162
▁Қи:15163
▁sixth:15164
▁тыңдаған:15165
▁2050:15166
▁ұшы:15167
▁жүргендер:15168
▁Интернеттегі:15169
▁equality:15170
▁айналысу:15171
▁Сарапшылар:15172
мамандандырылған:15173
▁көздерін:15174
▁редакция:15175
▁хабарландыру:15176
▁Eurasian:15177
▁praying:15178
▁күтетін:15179
▁саланың:15180
▁Linux:15181
▁бұрылып:15182
йсың:15183
▁армандаған:15184
▁негіздері:15185
▁Сәкен:15186
▁кейіпкерлер:15187
▁басқара:15188
▁баптау:15189
▁odd:15190
▁сырқат:15191
▁алыпты:15192
▁Шынайы:15193
▁wa:15194
▁Val:15195
▁құндылық:15196
▁ауған:15197
▁жұртқа:15198
▁interact:15199
▁атқарылған:15200
▁ері:15201
▁genetic:15202
ata:15203
▁президенттің:15204
▁tens:15205
▁басындағы:15206
▁Қытайдағы:15207
▁мансап:15208
▁тарт:15209
▁Enter:15210
пат:15211
▁қатысушылары:15212
ландыру:15213
▁ене:15214
▁маза:15215
▁талантты:15216
rac:15217
▁байқауы:15218
ric:15219
сті:15220
тов:15221
▁келгендер:15222
▁көрсеңіз:15223
lit:15224
:16:15225
PC:15226
▁Өзіңізге:15227
▁Сүй:15228
▁заңмен:15229
▁әлеуеті:15230
tics:15231
▁сезінесіз:15232
гендер:15233
▁тін:15234
▁қояр:15235
▁Вашингтон:15236
▁conscience:15237
▁картоп:15238
▁Еркін:15239
▁Мектепте:15240
▁жерінен:15241
vol:15242
iti:15243
▁рейс:15244
аты:15245
▁көрмесі:15246
▁препараттар:15247
▁Іздеу:15248
RE:15249
▁сенімі:15250
▁Kosovo:15251
▁curriculum:15252
▁Армения:15253
▁билікті:15254
▁болам:15255
▁мәртебесі:15256
удан:15257
▁бейнелеу:15258
қу:15259
▁өткіздік:15260
▁полициясы:15261
▁шырша:15262
▁саз:15263
▁Example:15264
▁медаль:15265
▁Төлеген:15266
there:15267
▁Hill:15268
▁Sony:15269
▁Қызық:15270
▁Creator:15271
▁жабылды:15272
▁келіскен:15273
▁етін:15274
▁сұхбатында:15275
▁ұрпақтың:15276
▁қаласаңыз:15277
▁бюджеттен:15278
ked:15279
Аллаһ:15280
▁disorder:15281
кір:15282
▁Rule:15283
лақ:15284
▁қарқыны:15285
▁organizing:15286
райы:15287
шілігі:15288
▁бағдарламаларды:15289
variant:15290
▁ұқсап:15291
▁Review:15292
▁жасаса:15293
▁еніп:15294
▁жақтағы:15295
▁зымыран:15296
▁түсіндірме:15297
▁->:15298
:12:15299
▁бақылауды:15300
▁қалайсыз:15301
era:15302
▁Hopefully:15303
▁determination:15304
▁washing:15305
▁Айна:15306
▁rear:15307
▁блогы:15308
▁integrity:15309
▁жіп:15310
▁steam:15311
▁шаршап:15312
lot:15313
▁қоңыр:15314
▁travelling:15315
▁reflected:15316
▁Республикалық:15317
▁табиғаттың:15318
▁тұжырымдама:15319
▁attorney:15320
▁кезегі:15321
▁халқын:15322
▁identical:15323
шылары:15324
▁foremost:15325
▁көрнекті:15326
▁орындаушы:15327
▁raw:15328
ананың:15329
Бізге:15330
▁аудара:15331
▁әйелдерді:15332
қандай:15333
ратын:15334
▁5000:15335
▁Wood:15336
тыру:15337
▁шығармалары:15338
73:15339
▁актриса:15340
дия:15341
▁төмендеді:15342
▁көргісі:15343
ский:15344
tr:15345
▁сезіп:15346
▁бизнеске:15347
ттің:15348
▁employers:15349
lim:15350
▁dynamic:15351
▁hey:15352
VI:15353
▁емхана:15354
▁қаша:15355
▁діні:15356
▁сенбеймін:15357
▁Honor:15358
▁Қасиетті:15359
▁сағыныш:15360
yr:15361
lly:15362
кте:15363
▁бұйырған:15364
▁Okay:15365
▁designer:15366
Алтын:15367
▁үндеу:15368
▁tremendous:15369
▁religions:15370
▁аймақтар:15371
▁салтын:15372
▁80-:15373
▁tourist:15374
▁Жүсіп:15375
▁жасын:15376
▁Швеция:15377
Жер:15378
▁асқақ:15379
▁Бә:15380
ТЫ:15381
▁деректі:15382
тілді:15383
▁contracts:15384
▁ойынын:15385
pon:15386
▁Дала:15387
▁enormous:15388
▁кешіре:15389
кү:15390
▁knife:15391
▁талпыныс:15392
▁dawn:15393
▁urge:15394
▁депутаттар:15395
гіміз:15396
▁еңбекке:15397
▁бағытында:15398
▁түй:15399
:18:15400
400:15401
▁stepped:15402
▁жанның:15403
▁жуып:15404
▁денсаулығын:15405
▁қауымдастық:15406
ый:15407
▁бастайтын:15408
Ha:15409
▁нәрседен:15410
тыңыз:15411
▁кепілі:15412
▁қайнар:15413
▁бөлігінің:15414
▁тұтынушы:15415
Екі:15416
▁түрткі:15417
▁өткендей:15418
▁хадис:15419
▁spaces:15420
▁байланысқа:15421
▁forecast:15422
▁денесін:15423
▁жылжыту:15424
▁Ақтау:15425
press:15426
▁деседі:15427
▁келісімі:15428
▁el:15429
▁бағытты:15430
▁таспа:15431
▁proceed:15432
▁көтереді:15433
▁тоқтатып:15434
Every:15435
іңнен:15436
▁Тексеру:15437
▁үзінді:15438
▁элементі:15439
cc:15440
▁таралуы:15441
Un:15442
өмір:15443
▁Аль:15444
▁Galaxy:15445
▁Нұртас:15446
▁Download:15447
летін:15448
һар:15449
▁slavery:15450
▁әуежай:15451
▁мүддесін:15452
▁disappear:15453
▁сүйегі:15454
▁өмірімді:15455
▁қоғамды:15456
▁alert:15457
bed:15458
▁snake:15459
▁маңында:15460
▁User:15461
▁conservation:15462
▁pocket:15463
▁ванна:15464
▁Yourself:15465
▁құйып:15466
▁келешекте:15467
▁Алғашында:15468
lip:15469
▁tracks:15470
why:15471
▁жоспарлар:15472
▁бағы:15473
▁иелерінің:15474
▁petition:15475
▁muscle:15476
▁ұсынысты:15477
▁көрсең:15478
▁wasted:15479
▁Бразилия:15480
▁Шетелдік:15481
▁сенді:15482
ME:15483
▁varieties:15484
▁ұйымдастырылды:15485
▁позиция:15486
▁sha:15487
▁шықпаған:15488
ңізбен:15489
▁ауыратын:15490
▁доктор:15491
▁сезіне:15492
▁Fish:15493
▁сая:15494
▁Құс:15495
▁құрамын:15496
▁барлау:15497
рылған:15498
есің:15499
▁Trying:15500
▁идеяны:15501
cro:15502
▁foster:15503
▁palm:15504
▁blocks:15505
▁Season:15506
▁дипломатиялық:15507
▁1987:15508
▁Mrs:15509
▁knee:15510
▁й:15511
2-:15512
▁опция:15513
▁әуре:15514
▁айналысуға:15515
▁Қаланың:15516
▁reserve:15517
▁firms:15518
ender:15519
▁Жазушы:15520
деріңді:15521
▁Қаңтар:15522
▁mm:15523
▁Али:15524
++:15525
че:15526
▁Technical:15527
▁депрессия:15528
IS:15529
▁қайтара:15530
▁тудырды:15531
▁ұтыс:15532
▁diagnosed:15533
▁ағза:15534
Please:15535
▁шырқа:15536
▁соттың:15537
▁examined:15538
8):15539
▁тілегі:15540
▁түрлерінің:15541
▁кездерде:15542
▁Cut:15543
▁shake:15544
▁destiny:15545
▁масқара:15546
▁білгісі:15547
Кө:15548
▁күзде:15549
▁climb:15550
▁sphere:15551
▁облыстың:15552
порт:15553
▁Sex:15554
▁пре:15555
▁Ғимарат:15556
▁төтеп:15557
▁өткізілетін:15558
▁160:15559
▁poll:15560
Ха:15561
▁acquire:15562
▁waves:15563
▁pleasant:15564
▁махаббаты:15565
▁жетістіктер:15566
▁шарттарын:15567
▁қылды:15568
▁restoration:15569
▁бейтаныс:15570
▁porn:15571
▁суреттерін:15572
▁кеште:15573
▁істемей:15574
▁бөгет:15575
▁орындарына:15576
▁puts:15577
▁тізіміне:15578
▁іспен:15579
дом:15580
▁алыстан:15581
▁баруды:15582
▁physician:15583
▁Pan:15584
lock:15585
мауға:15586
▁жоспарлануда:15587
▁samples:15588
-8:15589
▁debut:15590
▁Кезінде:15591
▁жабылады:15592
▁жауынгер:15593
▁жұмыстарының:15594
▁constructed:15595
▁тағдырын:15596
▁сөмке:15597
▁Тәуекел:15598
▁ортаның:15599
its:15600
▁қадамға:15601
[...]
