#version: 0.2
Ġ Ð
Ð °
Ð µ
Ñ Ĥ
Ð ½
Ð ¾
Ñ Ģ
Ñ ģ
Ñ ĭ
Ð »
Ð ¸
Ð ´
Ñ ĸ
Ð ¼
Ñ ĥ
Ð º
Ð ²
Ò Ľ
Ð ·
Ð ¹
Ñģ ÑĤ
Ð° Ð½
Ð ³
Ðµ Ð½
Ñ ı
Ð ¿
Ð° ÑĢ
ĠÐ ¿
Ġ Ñģ
Ð ±
Ðµ ÑĢ
Ð° Ð»
ĠÐ ±
Ñ Ī
Ġ ÑĤ
ĠÐ º
Ò ĵ
ĠÐ ¾
Ñ Į
Ò £
ĠÐ ¶
ĠÐ ²
Ðµ ÑĤ
Ñĭ Ð½
Ñ ĩ
Ñ ħ
Ð° ÑĤ
ĠÐ °
ĠÐ ¼
ĠÐ ½
Ð¾ Ð²
Ð¾ Ð»
ĠÐ ´
Ð´ Ð°
Ð´ Ñĭ
Ġ ÒĽ
ÑĢ Ð°
Ðµ Ð»
Ñĸ Ð½
Ð ¶
ĠÐ ¸
Ð½ Ð¾
Ð¾ ÑĢ
ÑĢ Ðµ
Ò ±
Ñ Ĩ
Ó ©
Ó Ļ
Ð½ Ñĭ
Ð° Ñģ
Ð¸ Ñı
Ñĭ Ð»
Ò ¯
Ð¸ ÑĤ
Ð´ Ñĸ
Ñ İ
ÑĢ Ð¾
Ðµ Ðº
Ðµ Ð¼
Ð° Ð¼
Ðµ Ñģ
Ñĭ ÒĽ
Ð° Ð¹
ĠÐ¿ Ð¾
Ð° Ð·
Ð¾ Ð¼
Ð¸ Ð½
ĠÐ µ
Ð³ Ð¾
Ð´ Ðµ
ĠÐ½ Ð°
Ð¾ Ð½
ĠÐ ·
Ñ Ħ
Ð¸ Ðº
Ðµ Ð¹
Ð° ÒĽ
Ð¸ Ð»
ĠÐ ³
ÑĤ Ð¾
Ñĸ Ð»
Ñģ Ðº
Ġ Ñĥ
ÑĢ Ñĥ
ĠÐ Ĳ
ÑĤ Ñĭ
Ñ ī
Ð° Ðº
Ð¾ Ð¹
ĠÐ ļ
Ñ į
Ñĭ Ñģ
Ð¸ Ð¼
ÑĤ Ð°
Ð¸ Ðµ
ÑģÑĤ Ð²
Òĵ Ð°Ð½
ĠÐ ¡
Ð¾ Ð´
Ñĸ ÑĢ
Ñĭ Ð¼
Ġ Ñĩ
ÑĨ Ð¸
ÑģÑĤ Ð°Ð½
Ġ Ó©
Ñĸ Ðº
Ð½ Ðµ
Ñģ Ñı
Ñĸ Ð¼
Ò ļ
Òĵ Ñĭ
ĠÑģ Ð¾
Ðµ Ð´
Ġ Ñį
Ñĭ Ò£
Òĵ Ð°
Ġ ÑĪ
ĠÐ¾ Ð±
ĠÐ¿ ÑĢÐ¾
Ð´ Ð°ÑĢ
Ð³ Ñĸ
ĠÐ± Ð¾Ð»
Ġ ÑĢÐ°
Ġ -
ĠÐ½ Ðµ
Ð° Ñĥ
Ñĭ Ð·
â Ģ
Ð¾ ÑĤ
. .
ÑĢ Ð¸
Ġ 2
Ġ 1
ĠÐ ĳ
Ð¾ Ñģ
ĠÐ Ł
ĠÐ ľ
Ð» Ð°
Â »
Ñĸ Ò£
Ġ (
Â «
Ñĭ Ð¿
ÑĤ ÐµÑĢ
ÑĭÐ½ Ð´Ð°
Ð° Ð±
Ð³ Ðµ
ĠÐ ŀ
ĠÐ Ĵ
ĠÐ¾ ÑĤ
Ð Ĳ
Ġ âĢ
Ð¸ Ð²
Ġ Â«
ĠÐ ¢
Ð¾ Ð±
ÐµÐ» ÑĮ
Ð° Ð¿
Ñĥ ÑĢ
Ġ ÑģÑĤ
Ð° Ñı
ĠÐº Ó©
Ð¸ Ð¹
Ġ ÓĻ
Ñĭ ÑĢ
ĠÐ¶ ÓĻ
Ð¸ Ñħ
ÑĤ Ðµ
Ġ Òļ
Ðµ Ð²
Ð³ ÐµÐ½
Ð° Ñħ
ĠÐ¶ÓĻ Ð½Ðµ
Ð¸ Ð·
Ð¸ Ñĩ
ÑĤ Ð°ÑĢ
Ġ ÑĢÐµ
Ñĸ Ð·
ĠÐ Ŀ
ĠÐ »
Ð° Ð²
Ð¼ ÐµÐ½
Ðµ Ð·
Ð¾ Ð³
Ð¸ Ð¸
Ð´ Ð°Ð½
ĠÐ´ Ðµ
ÑģÑĤ Ð¸
Ð½Ñĭ Ñħ
ÑĢ Ð¾Ð²
ÑĭÐ½ ÑĭÒ£
ÐµÐ½ Ð¸Ñı
Ð´Ñĭ Ò£
ÑĤ Ñĸ
Ð» Ð°ÑĢ
Ð°Ð» ÑĭÒĽ
Ġ ÑĦ
ĠÐ ł
ĠÐ° Ð»
Ð» Ñı
Ò± ÑĢ
Ð¸ Ñģ
Ġ Ò¯
Ð° ÑģÑĤ
ĠÐ¾ ÑĢ
Ð°Ð» ÑĮ
ĠÐ¿ ÑĢÐµ
Ð´ ÐµÑĢ
Ð° Òĵ
Ð» Ð¸
Ð°ÑĤ ÑĮ
Ð½Ð¾ Ð¹
Ð´ ÐµÐ½
Ð° Ð´Ñĭ
ÑĢ Ð°Ð½
ĠÑĩ ÑĤÐ¾
Ð ļ
Ð ¡
ÑĸÐ½ Ð´Ðµ
Ò± Ð»
Ð½Ð¾ Ð³Ð¾
Ġ Ñħ
ÑĭÐ½ Ð°
Ñģ Ð¿
Ġ "
Ð¾ Ð¶
Ð¸ ÑģÑĤ
Ġ2 0
Ðº Ð¾
ĠÐ¼ ÐµÐ½
Ð° Ò£
Ñĥ Ð»
ĠÐ Ķ
ÑĪ Ð°
Ñģ Ñĭ
ĠâĢ ĵ
Ñĭ ÑģÑĤ
Ñģ Ðµ
ĠÐ¸ Ð·
ÑĨ Ð¸Ñı
ÑĤ Ñĥ
ĠÐ ĸ
i n
Ð¾ Ð·
Ðµ ÑģÑĤ
Ð¾ Ðº
Ñĥ ÑĤ
ĠÐ¿ ÑĢÐ¸
Ð½Ñĭ Ðµ
Ñİ ÑĤ
Ò¯ ÑĢ
ÑĸÐ½ ÑĸÒ£
Ð°Ð» Ð°ÑĢ
Ð ŀ
Ð» ÑĭÒĽ
ĠÐ¿ ÐµÑĢ
Ð¼ ÐµÑĤ
ĠÐ¸ Ð½
Ñĸ Ð¿
Ð¾ Ð³Ð¾
ĠÐ ķ
ĠÐ° ÑĢ
Ð°Ð» Ñĭ
ÑĢÐ° Ð²
Ð°Ð· Ð°ÒĽ
Ð½Ð¾ Ð¼
Ð½ Ð¸Ðº
Ñĥ ÑĪ
Ð¾Ð» ÑĮ
Ð» Ðµ
Ð´Ñĭ ÒĽ
ĠÐ± ÑĸÑĢ
e r
ÐµÐ½ Ð¸Ðµ
Ð ¢
Ġ t
ÑĨÐ¸ Ð¸
ĠÐ° Ð¹
Ð» ÐµÐº
Ð½Ñĭ Ò£
Ð° ÐµÑĤ
Ð¾ Ð¿
Ñĥ Ð±
ĠÐ¶ ÑĭÐ»
Ð°Ð· Ð°Ñħ
ÐµÑģ Ðº
Ð´Ñĸ Ò£
Ð½Ñĭ Ð¹
Ñı ÑĤ
ĠÐ¿ Ð¾Ð»
o n
Ðº ÑĤ
Ġ .
Ñĥ Ñİ
Ð¸ÑĤ ÑĮ
ÐµÐ½ ÑĤ
Ð´Ð° Ð¹
ÒĽ Ð°
ĠÑĤ Ðµ
ÑĪ Ðµ
ĠÐ· Ð°
Ġ Ò±
Ð¼ Ð°
ÑģÑĤ ÑĮ
ĠÐ¿Ð¾ Ð´
ĠÐ± Ð°Ñģ
Ñĸ Ñģ
Ð ľ
Ðº Ð°
Ð¶ Ðµ
Ñĥ Ð´
ĠÐ± ÐµÑĢ
Ð°Ð·Ð°Ñħ ÑģÑĤÐ°Ð½
ĠÐº Ð¾Ð¼
ÑĸÐ½ Ðµ
Ð½ Ð°
ĠÑĢÐ° Ð·
ĠÓ© Ð·
ĠÐ ĺ
Ð ł
Ð½Ñĭ Ð¼
ĠÒĽ Ð°ÑĢ
Ðº Ð¸
Ð Ŀ
ĠÒĽ Ð°Ð»
Ð°Ñģ Ñĭ
Ð¾ÑĢ Ñĭ
Ð½ Ð¸
ĠÒĽ Ò±
ĠÑģ Ð²
Ðº Ðµ
a n
Ð°ÑĤ ÑĭÐ½
ĠÐ± Ð°ÑĢ
.. ..
ĠÐ° Ñĥ
Ñĥ Ñĩ
Ð» Ð°Ð½
Ð°Ð½ Ð¸Ñı
Ð°ÑĤ Ñĭ
Ñī Ðµ
Ð ĳ
Ġ ÑĢ
ĠÐ² Ñĭ
Ð¸ÑĤ ÐµÐ»ÑĮ
Ñģ Ð»
ĠÐ¿ÑĢÐµ Ð´
Ðº ÐµÐ½
ÑĤ Ð°Ð½
ĠÐĲ Ð»
" ,
Ð» ÐµÐ½
Ñĭ ÑĤ
h e
0 0
Ð ķ
Ñĭ Òĵ
Ð°Ð» Ð¸
ĠÐº ÐµÐ»
Ð¾ Ð´Ð°
ĠÐº Ò¯
ĠÑģ Ð»
e n
ÑĤ ÑĸÐº
Ġ 3
Ð¾ Ñĩ
Ð³Ñĸ Ð·
Ð° Ð¶
Ð´ Ñĥ
Ð½ Ð°Ð»
Ò± Ð¼
ÑĤ Ð¸
ĠÑģ Ð¿
ĠÐ ĵ
Ð¸Ñĩ ÐµÑģÐº
s t
a t
Ó© Ð»
ÑĤ ÑĭÒĽ
ĠÑĤ Ð°Ðº
Ð Ł
Ð¸Ð» Ð¸
Ð°Ð·Ð°ÒĽ ÑģÑĤÐ°Ð½
Ð°Ð» Ð°
ĠÒ¯ ÑĪ
o r
Ð´ ÐµÐ»
ÑĤ Ð¾Ð¼
ĠÐº Ð¾Ð½
Ġ ,
Ðµ Ò£
ĠÒĽ ÑĭÐ·
ÑģÑĤÐ² ÐµÐ½
Ð¾ ÑģÑĤ
Ð´Ð° Ð¼
Ġ Ñı
Ñĥ Ð¶
ĠÑį ÑĤÐ¾
Ñħ Ð¾Ð´
ĠÐ± ÑĭÐ»
ĠÐº Ð¾ÑĤ
Ñģ Ð°
ÑģÑĤÐ² Ð°
Ð³ Ð°Ð½
ĠÐ¿ ÑĢ
Ðµ Ð´Ñĸ
Ġ Ó
ĠÐºÓ© ÑĢ
ĠÑĤ Ò¯
Ð» Ð¸Ðº
Ð¿ Ð°ÑĢ
ĠÐ± Ð¾Ð¹
ĠÐļ Ð°Ð·Ð°ÑħÑģÑĤÐ°Ð½
Ð°Ð¼ Ð¸
Ð¼ Ðµ
Ð ĺ
ĠÐ¶ Ò¯
Ð¸ ÑĨ
ÒĽ Ð°Ð½
Ð½Ð¾ ÑģÑĤÐ¸
ĠÐ¼ ÓĻ
ĠÐº ÐµÐ·
Ð¾Ð» Ð¾Ð³
ĠÐ¶ Ò±Ð¼
ÐµÑĢ Ñĸ
Ð Ķ
Ð´Ñĸ Ðº
Ð° ÑĪ
ĠÐ´ Ð°
Ġ20 1
ĠÐ¶ Ð°Ñģ
Ð¸ Ñİ
ĠÐ´ Ð»Ñı
ĠÒ¯ÑĪ ÑĸÐ½
ÐµÐº ÑĤ
Ñĭ Ð²
ĠâĢ Ķ
Ð¸ Ð´
ĠÐ¾ ÒĽ
ÑĭÐ½ ÑĪÐ°
ÑĥÐ± Ð»Ð¸Ðº
ÐµÑģ Ð¿
l e
ÑģÑĤ Ð°Ð²
ĠÐ¾ Ð¿
Ñĥ Ð¿
ÑģÐº Ð¾Ð¹
ÑĤ Ð°Ð»
ĠÐ´Ðµ Ð¿
ÐµÑĤ ÑĸÐ½
ÑĤÑĭ Ò£
Ġ ÑĨ
Ðµ Ð³
Ġ Ñĸ
ĠÐ £
Ð¸ ÑĢÐ¾Ð²
ĠÒĽ Ð¾Ð»
Ðº Ð°Ð·
ĠÐ ¨
a l
Ð° Ð´
ĠÐ¾ Ñģ
ĠÐ± ÑĸÐ»
r e
2 0
Ð Ĵ
ĠÐº Ð°Ðº
ĠÑģ Ð°Ð»
Ð½ Ð°Ñı
ĠÒĽ Ð°ÑĤ
Ð° ÐµÐ²
ÑĢÐµ Ð´
Ð· Ð¸
Ð½Ð¾ Ðµ
ĠÒļ Ð°Ð·Ð°ÒĽÑģÑĤÐ°Ð½
Ð» ÐµÐ¼
ÑĢÐ° Ð·
ÑĪ Ñĸ
ĠÑĤ ÑĥÑĢ
ÑĨÐ¸ Ð¾Ð½
ĠÐ´ Ð¾
Ð¸ ÑĢ
Ð°ÑĢ Ñĭ
ÐµÑĤ ÑģÑı
ÑĢÐ° Ð¼
Ñ Ĭ
Ðµ Ð±
Ġ o
Ð¾Ð² Ñĭ
Ðµ Ñĩ
Ð» Ñĸ
Ðº Ñĸ
i t
ÓĻ ÑĢ
ĠÒĽÑĭÐ· Ð¼ÐµÑĤ
Ð ĸ
ĠÐ² ÑģÐµ
Ð½Ð¾ ÑģÑĤÑĮ
Ð³ ÐµÑĢ
Ð¸Ð½ Ð°
ĠÐ±Ð¾Ð¹ ÑĭÐ½ÑĪÐ°
Ġ 4
ĠÑĥ Ñĩ
Ð°ÑĢ ÑĤ
Ġ 5
Ð» ÐµÑĢ
ĠÐ Ĺ
Ð½ Ð¾Ð²
ĠÐ´ ÐµÐ¹
Ð´ Ð°Ð»
Ð½ Ñı
Ð°Ð½ Ñĭ
Ġt he
Ð¾ Òĵ
Ġ T
Ð»ÐµÐº ÐµÑĤ
ĠÑĢÐ° Ð±
Ðµ Ð¶
ÐµÐ¼ Ð»ÐµÐºÐµÑĤ
ĠÐ Ń
ĠÑģ Ñĥ
Ñģ Ñģ
ĠÐ° Ð²
ĠÐ ¤
ĠÐ´ Ð¾Ð»
Ð° ÑİÑĤ
ÑĢ Ð°ÑĤ
ĠÐ± ÑĥÐ´
Ð¾ÑĢ Ð¼
Ðº ÑĸÐ½
ĠÓ© ÑĤ
ĠÐ¼ Ò¯
ĠÐ¾ Ð½
Ðµ Ðµ
Ñģ ÐµÑĤ
Ð Ľ
ĠÐ° ÒĽ
Ðµ ÑĪ
ĠÐ° Ð´Ð°Ð¼
ÑĭÑģ Ñĭ
a r
Ð¾ Ñı
Ġ c
ÑĭÐ½Ð´Ð° ÒĵÑĭ
ĠÒĽ Ò±ÑĢ
Ð¸Ð» ÑĮ
Ð¸ÑĤ ÐµÐ»
ÑĤÑĭ ÑĢ
ÑĭÐ» Ð°ÑĢ
Ð³ Ð¸
ĠÑĤ Ò¯ÑĢ
ÒĽ Ð°ÑĢ
Ð¸Ð½ Ð¸ÑģÑĤ
ĠÐ² Ð¾Ð·
ĠÑĤÑĥÑĢ Ð°Ð»Ñĭ
ÑĢÐ° ÒĽ
Ð± ÐµÐº
Ð¾ Ðµ
ĠÐ³ Ð¾Ð´Ð°
Ġ p
ĠÐ¶ Ð°Òĵ
Ð°ÑĤ ÐµÐ»ÑĮ
Ñĥ Ñĭ
ÑģÑĤÐ² Ð¾
ÐµÑĢ ÑĤ
ĠÐ° ÑĤ
ĠÐ¾Ð± Ð»Ð°
ÐµÑģ Ñĸ
Ð» ÑĸÐº
ÑĸÐ» ÑĸÐº
Ġ a
ÑĢÐµ Ðº
Ð» Ñĭ
Ð´Ð° ÒĵÑĭ
Ð¾Ð± Ñī
ÑĤ Ð°Ð¼
ÑĭÐ½ Ð°Ð½
Ġ Ò
i on
ĠÐ± Ó©Ð»
ĠÐ± Ð°Ð¹
) .
Ð³ ÑĸÐ½
ÑĭÐ» Ñĭ
Ð» Ñİ
ĠÐ¾ÑĢ Ð³Ð°Ð½
ĠÐºÐ¾ÑĤ Ð¾ÑĢÑĭ
ĠÑĤ Ð°ÑĢ
Ðº Ð¾Ð²
Ġ ÑĢÐ¾
ĠÐºÐ¾Ð¼ Ð¿
Ñĥ Ð½
ĠÐ± Ð°ÑģÑĤ
ÓĻ Ñģ
ĠÐ¿ Ð°Ð¹
Ó© Ð·
" :
ĠÐ¾ Ð´
ÑĭÑģÑĤ Ñĭ
ĠÐ¶ ÐµÑĤ
Ð¾ÑĢ ÑĤ
Ðµ Ð¿
i s
ÑĥÐ» ÑĮ
Ð ¨
ĠÑĤ Ð°Ð±
Ð°Ð¹ Ð´Ñĭ
Ġ Òĵ
ĠÐ Ľ
Ð¸Ðº Ð°
Ðº Ñĥ
ĠÑģÐ¾ Ð¾Ð±Ñī
Ð¸Ðº Ð°Ð»ÑĭÒĽ
ÐµÑģ Ðµ
.... ....
Ð°Ð½ Ð¸Ðµ
ÐµÐ½ ÑĮ
Ñĥ ÒĵÐ°
ĠÐĲÐ» Ð¼
ÑĤ ÑĭÐ½
ĠÓ ĺ
Â» ,
ÑĸÐ» Ñĸ
Ġo f
k z
ĠÐ´ Ð¸
Ð¼ Ð¸
ĠÐ¶ Ð°ÑĤ
ĠÓ© Ð½
ÑĤ Ð¾ÑĢ
Ñİ Ñī
ĠÐµ Ð¼
Ð¼ Ð°Ð½
Ð± Ñĭ
Ð¸Ñģ ÑĮ
ÐµÑĢ ÐµÐº
Ð¸Ñı Ð»ÑĭÒĽ
ÑĭÐ» ÑĭÒĽ
ĠÐ³ Ð¾Ð´
ĠÐºÒ¯ Ð½
Ð°ÑĢ Ð°
ÐµÐ» ÐµÑĢ
ĠÐ± ÐµÐ»
Ð°ÑĤ ÑĤÐ°ÑĢ
ĠÐºÓ©ÑĢ ÑģÐµÑĤ
Ñģ ÑĭÐ½
Ð «
ĠÑĤ Ò±
Ð¾ ÑĤÐ¾
Ð¸ ÑĢÑĥ
ÑĢÐµ Ð¼
ĠÐ½ ÐµÐ¼
Ġ s
ÑģÐº Ð¾Ð³Ð¾
Ð´ÐµÐ½ ÑĤ
ÐºÐ¾ Ð½Ð¾Ð¼
ĠÐ¶Ò±Ð¼ ÑĭÑģ
ĠÑĤ Ò±ÑĢ
Ð¾Ð² Ð°
ĠÐ´ Ð²
": "
Ð»Ð° Ð²
ÑĭÐ¼ ÐµÐ½
e s
ÐµÑģÐ¿ ÑĥÐ±Ð»Ð¸Ðº
ĠÑĤ Ó©
ĠÐµ Ð»
ĠÐ¿ ÑĢÐ°Ð²
Ñĭ ÑĪ
ĠÑģÑĤ ÑĢÐ°Ð½
Ð° ÑĨÐ¸Ñı
ĠÐ¶ Ò¯ÑĢ
ĠÑĪ ÑĭÒĵ
Ð°Ñģ ÑĭÐ½ÑĭÒ£
ÑĭÐ» ÒĵÐ°Ð½
", "
ĠÐŁ Ð¾
ĠÐ ¥
ĠÑį Ðº
ĠÓĻ ÑĢ
Ð°ÐµÑĤ ÑģÑı
ĠÐ¿ ÑĢÐ¾Ð²
ÑĭÐ» ÑĭÐ¼
Ð´ ÐµÑĤ
ĠÐ¼ ÐµÐ¼Ð»ÐµÐºÐµÑĤ
ĠÐ¶ ÐµÑĢ
ĠÐł ÐµÑģÐ¿ÑĥÐ±Ð»Ð¸Ðº
ĠÐ¾ ÑĤÑĭÑĢ
ĠÑĤ Ñĥ
ÑĢ Ñı
ĠÐ² Ð¾
ĠÐº Ð¾ÑĢ
i c
ĠÐ±Ð¾Ð» Ð°Ð´Ñĭ
Ð¿ ÑĢÐ°Ð²
Ð £
Ġ 6
Ġ1 9
Ð¾ ÒĽ
Ð½ ÑĥÑİ
Ð Ĩ
ĠÐ³ Ð¾Ñģ
ÑĪ ÐµÐ½
Ð´Ðµ Ð¹
ĠÐ±Ð¾Ð» ÑĭÐ¿
ÑĤÐ° Ñĥ
e d
ĠÐµ Ð³Ð¾
ĠÐ¼ Ð°ÑĤ
ĠÑĤ ÐµÑĢ
Ð± Ð°ÐµÐ²
ĠÐ· Ð°Ðº
ĠÑģÐ² Ð¾
ĠÑĢÐ° Ñģ
Ð¸ ÐµÐ¼
ĠÐ¶ Ð¾Ð»
) ,
Ġ ÑĢÑĥ
ĠÐ± Ð°Ð»
ĠÐ¶Ð°Òĵ Ð´Ð°Ð¹
ĠÑĤÐµ Ñħ
ĠÐĿ Ð°
en t
Â Ń
Ðµ Ð´Ð°
Ð° ÑĨÐ¸Ð¸
ĠÐ¾Ð± Ð»
ĠÐ¶ Ð°ÑĢ
Ð° ÒĵÑĭ
ĠÑģ Ð°Ð¼
Ð¾Ð»ÑĮ ÐºÐ¾
Ð± Ð¸
Ġ A
Ñħ Ð°Ð½
ĠÐ± Ð°Òĵ
ÑĢÑĥ Ð³
ĠÒĽ Ð°Ð¹
Ġ S
ĠÑĤ Ð¸
ĠÐĲÐ»Ð¼ Ð°ÑĤÑĭ
ÑĢ ÐµÑĤ
ÐµÑĢ Ð¸
Ð¹ ÑĭÐ¼
ĠÐ³ Ð¾ÑĢ
r o
ĠÐ¶ Ð°Ò£
Ð° Ð³
Ñĥ Ñģ
Ġ 7
ĠÒĽ Ð°Ð±
Ġ f
Ðº ÑĸÐ¼
ÑĢÐ° Ñģ
ĠÐ±Ð¾Ð» ÑĮ
ÑĭÐ» Ð°Ð´Ñĭ
a d
ĠÐ¾Ð± ÑĬ
ĠÐ± Ò±Ð»
Ð» Ð°Ð¼
ĠÐ½Ðµ Ð³ÑĸÐ·
ĠÐ° Ðº
ĠÐ §
Ð» Ð¾
ĠÐ¾ Ð»Ð°ÑĢ
ĠÑĤ ÐµÐ½
ĠÐ´ Ð°Ð¼
ĠÐ¾ Ð¹
ÑĢ ÐµÐ½
Ð» ÐµÐ½Ð¸Ñı
Ð² ÐµÑĤ
Ð¸Ð» Ð°
ÑĢÐ° Ð¶
Ġ in
ĠÐ¿Ð¾ Ñģ
ĠÐ¼ Ð¾Ð¶
ĠÐ¶ Ð°Ð·
ĠÐ¸Ð½ ÑĦ
Ġ C
ĠÐ´Ðµ Ð³ÐµÐ½
Ð´ Ð¸
ĠÑĢ ÐµÑĤ
ĠÐµ Ò£
ÑĤ ÑĸÒ£
Ġ w
Ð¿ ÐµÑĢ
Ð¸ Ð±
ĠÐ´ ÐµÐ»
ÑģÐ» ÐµÐ´
ĠÐ¼ ÐµÑģÑĤ
ĠÐ¶ Ð°Ð»
ĠÐ¼ Ð»
ĠÑĤÐ°Ðº Ð¶Ðµ
Ð¿Ð°ÑĢ Ð°ÑĤ
Ð¾Ð² Ð¾ÑĢ
Ñĥ Ð´Ð°ÑĢ
Ñĭ Ñħ
a m
Ð¼ ÐµÑĢ
Ġ I
ÐµÐº ÑĤÐµ
ĠÐĳ Ò±Ð»
Ð² ÐµÑĢ
Ð¸Ð¼ Ð¾
ĠÐ¾Ð±Ð»Ð° ÑģÑĤÐ¸
Ð ĵ
ĠÑĤ Ð°Ð»
ÒĽ Ñĭ
Ð¸ÑĤ ÑģÑı
ĠÒĽ Ð¾ÑĢ
ĠÐº ÐµÐ¹
Ġ 8
ĠÑģ Ð°Ð½
ÑĤÐ° Ð¿
Ñģ ÐµÑĢ
Ð½ Ð¸Ð¼
.. .
ÑģÐº Ð¸Ð¹
Ð» Ð°Ñģ
ÑĸÐ¼ ÐµÐ½
Ðº ÐµÑĢ
Ð¼ ÐºÑĸÐ½
Ġ d
ĠÐ° Ð·
ĠÒ¯ Ð¹
Ñģ ÑĸÐ·
ĠÑį ÐºÐ¾Ð½Ð¾Ð¼
ÑĢÐ¾ Ñģ
ĠÑĤÒ¯ Ñģ
a g
Ñĥ Ð³Ðµ
ĠÑģ ÓĻ
Ð´Ð°ÑĢ Ñĭ
ĠÑį ÑĤÐ¾Ð¼
ĠÐ¿ÑĢÐ¾ ÑĨ
ÐµÐ» Ð¾Ð²
ĠÐ±Ð°Ð¹ Ð»Ð°Ð½
ĠÐ½ÐµÐ¼ ÐµÑģÐµ
Ð· Ð°
ĠÒĽ Ð¾Ñģ
ĠÑģ Ð°Ð¹
Ġ b
Ð¿ ÑĢ
ÑĸÐ½ ÐµÐ½
ĠÐ½Ð° Ñĩ
Ð°Ð½ ÑĭÒ£
ÑĸÐ¼ Ð´Ñĸ
Ð¸ÑĤ ÐµÑĤ
ĠÐ¼ Ò±
ĠÐ¼Ò¯ Ð¼ÐºÑĸÐ½
ĠÑģ Ð¾Ð²
ĠÐ¾ Ð½ÑĭÒ£
Ð»Ðµ Ñĥ
ĠÒĽ Ð°Ð½
ĠÑĸ ÑĪ
ÑĸÐ» Ð³ÐµÐ½
Ð½ÑĭÐ¼ Ð¸
Ġ m
ĠÐ¿ÑĢ Ð¸Ð½
ĠÐ¸ Ð»Ð¸
Ð½ ÐµÐ½
Ð¾ Ð½Ñĭ
ĠÐļÐ°Ð·Ð°ÑħÑģÑĤÐ°Ð½ Ð°
an d
ĠÑĤÐµÐ½ Ð³Ðµ
Ð¸Ð½ Ð³
ÑĸÐ» ÐµÑĢ
Ð½Ð° Ñĩ
Ð°ÑĤ ÐµÐ»
Ġ1 0
ÑĨÐ¸ Ð°Ð»ÑĮ
Ð¾Ñģ ÑĮ
Ð» ÐµÑĤ
ĠÐ½ Ð°Ñģ
ÑģÑĤ Ñĭ
Ð½ ÐµÑĢ
ĠÑĤ ÑĭÑģ
ĠÐ³Ð¾Ñģ ÑĥÐ´Ð°ÑĢ
Ð¿ Ñĭ
ĠÐ¾ Ð»
ĠÐºÓ© Ð¿
Ð¿ ÐµÐ½
ĠÑĩ ÐµÐ»Ð¾Ð²
Ñģ Ð¸
ĠÑĤ ÑĸÐ»
ĠÐ± ÐµÐ·
Ð´Ð° Ñĥ
ĠÐ¼ Ð°ÒĽ
Ð¸Ðº Ð¸
ĠÐ±ÑĥÐ´ ÐµÑĤ
ĠÓ ¨
Ð°ÑĤ Ñĥ
u t
in g
ÑĢÑĥ Ð¿
ĠÐ¼ ÐµÑĢ
ĠÐ¿Ð¾Ð» ÑĥÑĩ
Ñĭ Ð¹
Ð»ÐµÐº ÑĤ
o m
ĠÐ´ Ð°Ð½
ĠÑĤ ÐµÐ¼
) ;
ÐµÐ» Ðµ
Ðº ÑĸÐ·
ÑĥÐ»ÑĮ ÑĤ
ĠÒĽÐ¾Ð» Ð´Ð°Ð½
Ð¼ ÑĸÑĢ
ĠÐ½ Ð¾
ĠÐ½ Ð°Ð·
ÑģÑĤ ÐµÑĢ
ĠÐ¸ ÑģÐ¿
ĠÐ°ÑĢ ÒĽ
ĠÐµ ÑģÐµ
2 2
ĠÐº ÐµÑĢÐµÐº
ĠÐ¿ÑĢÐ¾ Ð¸Ð·
Ð Ĺ
ĠÐ» Ñİ
ĠÐ½ Ð°ÑĢ
ĠÐº Ð¾Ð»
Ġ 9
Ð´Ñĸ ÑĢ
Ġ K
ĠÐ¶ Ð°ÒĽ
ÑģÑĤÐ°Ð½ Ð¾Ð²
ĠÑĪ Ð°ÑĢ
Ġ 0
ĠÐ±Ð¾Ð» ÒĵÐ°Ð½
ĠÑĢÐ°Ð· Ð²
Ð°Ð½ Ð¸Ð¸
c t
ĠÐ¿Ð¾ ÑģÑĤ
Ð° ÒĵÐ°Ð½
ĠÐ±ÑĸÐ» ÑĸÐ¼
o l
ĠÑĤ ÐµÐº
ÑĨÐ¸ Ñİ
ĠÐ¶Ò¯ Ð¹
ÑĪ Ñĭ
ĠÑĩÐµÐ»Ð¾Ð² ÐµÐº
i Ð½
Ð¾Ð½ Ð°
Ð² Ð¾Ð´
Ð°Ñģ ÑĭÐ½
ÑĮ Ñİ
Ð½Ñĭ ÒĽ
ĠÑģ ÑĢÐµÐ´
ĠÑĪÑĭÒĵ Ð°ÑĢ
Òĵ ÑĭÐ½
ĠÐ´ÐµÐ¹ ÑĸÐ½
ĠÐµÐ¼ ÐµÑģ
ĠÑĤ Ð¾Ð»
ÑĢÐµÐ¼ Ñı
ÑĸÐ½Ð´Ðµ Ð³Ñĸ
ĠÒĽ Ð°Ð¶
Ð¸ Ð³
ĠÑģ Ó©Ð·
ĠÑģÐ¾ Ð±
ÑĸÐ¼ ÑĸÐ·
a s
ĠÐ¼ ÐµÐ´
ĠÑĤ Ð¾
ĠÐ¿ Ð°ÑĢ
ĠÐ¿ÐµÑĢ Ð²
ÑĢ Ð¸ÑĤ
ĠÐ¾ ÑģÑĭ
_ _
ĠÐ¾ÑĢ ÑĭÐ½
Ð¶ Ð°Ð½
i l
Ñģ Ð°ÑĤ
ĠÐ³Ð¾Ð´ Ñĥ
i d
ÑĤ ÐµÐ½
ĠÐ¸ Ñħ
Ñĭ Ðµ
ĠÐ¾ Ñĩ
ĠÒ± Ð¹ÑĭÐ¼
u n
Ò£ Ð³
Ð¸Ð½Ð¸ÑģÑĤ ÑĢ
ĠÑĩ ÐµÐ¼
Â» .
Ð°Ð½ Ð´
ĠÐ¶ÑĭÐ» Ñĭ
ĠÐ· Ð°Ð¿
Ð¸ÑĤ Ñĥ
Ñı Ð²
ÑĤÐµÑĢ Ñĸ
ÑģÐº Ð¸Ñħ
Ðµ Ð³Ð¾
ĠÐºÐ¾ÑĤ Ð¾ÑĢ
ÑĭÑģÑĤ Ð°ÑĢ
Ð± Ð°Ð¹
Òĵ Ð°Ð»
Ð¿ Ð¸
ĠÒĽÐ°Ð¶ ÐµÑĤ
Ñı Ð·
ĠÒĽ Ð°Ð¼
ĠÐ¶ ÐµÐ»
Ġ Ò±Ð»
u r
ĠÑģÐ¾ ÑģÑĤÐ°Ð²
Ð± ÑĸÑĢ
ÐµÐ½ Ð¸Ð¸
ĠÐ¼ ÐµÑĤ
ĠÐ¶ Ð¾Òĵ
Ò¯ Ð¹
Ð± Ðµ
ÑĢÑĥ Ð´
Ð¼ Ð°ÒĽ
Ð»Ñİ Ñĩ
Ó© Ð½
e t
ĠÐ° Ð½ÑĭÒĽ
ĠÑģ Ðº
ĠÐ² ÑĢÐµÐ¼Ñı
Ð°Ð± Ð°ÑĢ
":" ","
u s
Ð°ÒĽ ÑĭÑĤ
Ð¾ ÑĪ
ÑĦ ÐµÑĢ
Ñĭ ÑĤÑĥ
Ð´Ðµ Ð³Ñĸ
Ð°Ð¼ Ð°Ð½
ÐµÐ¶ Ð´Ñĥ
ĠÐ· Ð°Ð²
Ð½ ÐµÐ¹
ÑĥÑĪ ÑĭÐ»Ð°ÑĢ
ĠÑģÐ¾ ÑĤ
Ñĥ Ñĸ
Ð°ÑĤÑĮ ÑģÑı
Ñĥ Ð¼
ĠÐ» Ð¸
Ð² Ð°ÑĢ
Ð¾Ð³ Ð´Ð°
ĠÐ´Ð¾Ð» Ð¶
Ġ1 5
ĠÐ´ ÓĻ
ĠÑģ Ð°ÒĽ
ĠÒ¯ Ð»
Ð¾Ð»ÑĮ Ð·
ÑĤ Ð¾Ð²
ĠÑģ ÐµÑĢ
ĠÐ°ÑĢÒĽ ÑĭÐ»Ñĭ
ĠÐ¼ÐµÐ¼Ð»ÐµÐºÐµÑĤ ÑĤÑĸÐº
Ð´Ð°Ð» Ð°Ð½
Ġ â
ĠÐµ Ð½
ÑĤ ÑĸÐ½
ÑıÑĤ ÑĮ
ĠÑģ ÐµÐ±
ĠÐ°Ñĥ Ð´Ð°Ð½
ĠÐ± Ð°Ð½
ĠÐ¾ Ðº
Ð¾ÑĢ Ð¼Ð°
ÑģÐº Ðµ
ĠÐ¶ Ð°Ð½
ÑĤ ÑĤÑĭÒĽ
Ð½ ÑĸÒ£
ĠÐ¿ Ð¾ÑĢ
Ð°Ñģ ÑĭÐ½Ð´Ð°
Ð¾Ð² Ð°Ð½Ð¸Ñı
Ġ B
ĠÑĤ ÓĻ
ĠÑĢÐ°Ð± Ð¾ÑĤ
ĠÑĢÐµ Ð·
ĠÐ±ÐµÑĢ Ñĥ
ÑģÑĤ Ñĸ
ĠÐ¸ Ð¼
Ð¸Ð¼ Ð¸
ĠÑĤÐµ Ò£
Ð² Ðµ
Ð ¤
Ñı Ñģ
ÐµÐ½ Ñĭ
ĠÑħ Ð°Ð»ÑĭÒĽ
ÑģÑĤÐ°Ð½ Ð°
Ñĩ Ð¸
Ñĥ ÑģÑĤ
Ð¸ Ð¿
ĠÐº ÐµÑĤ
ĠÐ· Ð°Ò£
ĠÐ´ ÑĢÑĥÐ³
ĠÐ±ÐµÐ» Ð³
Ġ P
ĠÐ° Ð»Ð°
Ð» Ð°Ñĥ
ĠÐ¼ Ñĭ
ÑģÑĤ ÑĸÐº
a k
Ð°Ñģ ÑĮ
ĠÐ» ÐµÑĤ
Ð´ÐµÑĢ Ñĸ
ĠÒ °
Ġ =
ÑĢÐµ Ð±
ĠÑģ Ð¼
Ñĥ Ñħ
ÐµÐº Ðµ
Ð´Ñĭ ÑĢ
ĠÐ¿Ð°Ð¹ Ð´Ð°Ð»Ð°Ð½
ĠÑĤ Ð¾Ð¼
ÑĢÐ° Ð±
ÑĢÐ° ÑĦ
ÑĢÐ° Ð´Ñĭ
ÑģÑĤ Ð¾Ñı
ĠÐ± Ò±
Ð´Ð°ÑĢ Ð´ÑĭÒ£
Ġ /
ĠÐ¾ÑĢ ÑĤ
Ð´ Ð¸Ð½
ĠÐµ ÐºÐµÐ½
ĠÐ¶Ò¯ÑĢ Ð³ÑĸÐ·
Ñ ĳ
Ð½ Ð°ÑĢ
Ðº Ð¾Ð¼
ĠÐ½Ð° ÑĪ
ĠÐ°Ð¹ ÑĤ
ĠÐµ ÑĤ
ĠÐ¿ ÐµÐ½
ÑĨ Ð°
e l
Ð¾Ñģ Ñģ
Ð¾Ð² Ð°Ð½
Ñģ ÑĭÑĢ
ĠÑģ Ð¾Ð»
ĠÑģ Ñĩ
Ð¾Ð»Ð¾Ð³ Ð¸Ñı
Ð°Ð» Ð¸Ð·
Ð´ ÐµÑģ
ĠÐ±ÑĭÐ» Ð¾
Ð´ÐµÑĢ Ð¶
ĠÐŀ Ð»
Ð ¥
ĠÑĤ ÓĻÑĢ
Ð½ Ð¸Ðµ
Ð° ÐµÐ¼
Ð½ ÐµÑģ
ĠÐ¿Ð¾ Ð¼
ÑĢÐ¾ Ð¿
Ð½Ð¸Ðº Ð¾Ð²
ÑİÑĤ ÑģÑı
ĠÒĽ Ð¾Ð¹
Ñĩ Ðµ
ĠÐºÐ¾ÑĤÐ¾ÑĢÑĭ Ðµ
Ð°ÑĤ Ð¸Ð²
ÑĸÑģ Ñĸ
ĠÐ½ Ð¾Ð²
Ð¾Òĵ Ð°Ð¼
ĠÐ¼Ð°ÑĤ ÐµÑĢÐ¸
ÓĻÑģ ÑĸÐ¿
ĠÑĥ Ð¶Ðµ
ĠÐ´ ÐµÑĤ
Ð°ÑĤ Ð°
Ð°Ñı Ð²
Ð¸Ð» Ð»Ð¸
Ð·Ð¸ Ð´ÐµÐ½ÑĤ
Ð½ Ð°Ð½
a c
ĠÑĢÐ°Ð± Ð¾
Ñģ Ð»Ð¸
ĠÐ¿ÐµÑĢ ÐµÐ´Ð°
ĠÐ¾ÑĢÐ³Ð°Ð½ Ð¸Ð·
Ġ20 0
ĠÑĤ Ð¾Ð¿
ĠÐºÐµÐ¹ ÑĸÐ½
Ñģ Ð¾Ð²
ĠÒĽ Ð°Ð·Ð°ÒĽ
Ġ }
ĠÑĤ Ð°Ð¿
ÑĢÐ° Ð¹
ĠÐ¢ Ð°Ðº
Ð· Ð²
Ñģ Ñĸ
ĠÐ ¯
ĠÐ±Ð¾Ð» ÐµÐµ
ĠÐ¸Ð½ ÑĤÐµÑĢ
Ð· Ñĭ
e x
ĠÑı Ð²
ĠÐ³ Ð»Ð°Ð²
Ð° Ð´Ð°
1 9
ĠÐµ ÑĢ
Ð½Ð¾ ÑģÑĤ
Ġ and
ĠÐ° ÑĪ
ÑĢ Ñĭ
ĠÐ² Ð¸
ĠÐ· Ð°ÑıÐ²
Ñģ ÐµÐ»
Ð± ÐµÑĢ
ÐµÑģ ÐºÐ¾
Ġ N
ĠÐº ÐµÒ£
ĠÐ±Ð°Ñģ ÒĽÐ°
ĠÐ¾Ð± ÑĢÐ°Ð·
ÐµÐ» Ð¸
ÑĥÑİ Ñī
ĠÐ¶ Ðµ
Ð¾Ð²Ñĭ Ñħ
ĠÐŁ ÑĢÐµ
ÑĤÐ°ÑĢ Ñĭ
Ð´Ðµ Ñĥ
" .
Ħ ĸ
Ġ M
ĠÐ¶Ð°Ò£ Ð°
ĠÐ¿ÑĢÐ¾ Ð³
ĠÑģÐ¾ Ð·
e w
ÐµÑĤ ÑĤÐµÑĢ
Ð Ń
ĠÐ° ÐºÑĤ
ÑĤÐµ Ñĥ
ÑĭÐ» Ð´Ñĭ
ĠÑĤ Ð¾Ð»ÑĮÐºÐ¾
ĠÐ¶ Ð¾ÒĽ
ĠÒĽ Ð°Ð·
ĠÐ°Ð» Ñĥ
Ð» ÐµÐ½Ð¸Ðµ
ÑģÐº Ð°Ð·
ĠÐ¶Ò¯ Ð·
Ð½ Ð°Ðº
Ð°Ò£ ÑĭÐ·
ĠÐ¼ ÑĸÐ½
ĠÐº Ð°Ð·Ð°ÑħÑģÑĤÐ°Ð½
ÑĢÐµ Ð¼ÐµÐ½
Ð° ÑİÑī
Ðº ÑĥÑĢ
ĠÐºÓ© Ð·
at ion
ĠÑĤÐµÑħ Ð½
Ð½ ÐµÐ¼
ĠÐµÑģÐµ Ð¿
ĠÐ¶ Ð°Ñĥ
ĠÐ· Ð°ÑĢ
a y
ĠÐ´ Ð¾Ð¼
Ðº Ð¾Ð¹
ÑĤ Ð¸Ð²
ĠÐ¶ Ó©Ð½
ĠÐ±Ð°Ð¹Ð»Ð°Ð½ ÑĭÑģÑĤÑĭ
o d
Ġ h
ĠÑĥ ÑģÐ»
ĠÑĥÑĩ Ð°ÑģÑĤ
ÑĢÐ¾ Ð¼
ĠÑĥ Ð°ÒĽÑĭÑĤ
ĠÑį Ð»ÐµÐºÑĤ
Ð°Ð» Ð´Ñĭ
Ð¾ ÑĢÐ°
Ġ n
ĠÑģÐ» ÑĥÑĩ
ÑĢÐ¾ Ð½
ĠÑħ Ð°Ð±Ð°ÑĢ
ĠÑĤ Ð°Ð½
Ð¾ Ð´Ðµ
ĠÐ² Ð¾Ð¿
ĠÐ¼ ÐµÐ¶Ð´Ñĥ
ÑĢÐµ ÐºÑĤ
Ñģ ÑĭÐ·
ÐµÐ» ÑĸÐº
ÑģÑĤÐ² Ñĥ
ÑĭÐ¼ ÑĭÐ·
Ð¶ ÐµÑĤ
ĠÐ±Ð¾Ð» Ð´Ñĭ
a z
ĠÐµ ÐºÑĸ
ÑĮ Ñı
Ð¸Ñı ÑĤ
ĠÐł Ð¾ÑģÑģ
........ ........
ĠÐ¿ÑĢÐµÐ´ ÑģÑĤÐ°Ð²
ĠÐ¼ Ð°ÑĢ
Ð´Ñĭ ÑĢÑĥ
Ġ ÑĸÑģ
ĠÑĩ Ð°ÑģÑĤ
ĠÐŁ ÑĢÐ¸
Ð± Ð¾ÑĢ
i m
ĠÑĢÐ°Ð·Ð² Ð¸ÑĤ
Ð¼ Ð¾ÑĤ
1 0
ĠÐ´ ÐµÐ½
ĠÐ± ÑĸÐ·
ĠÑĤ Ð°Ð¼
ĠÐ³ Ð°Ð·
ĠÑįÐº ÑģÐ¿
ĠÐ³ Ð¾Ð²Ð¾ÑĢ
ĠÐ¿Ð¾Ñģ Ð»Ðµ
ĠÐ¾Ñģ Ð½Ð¾Ð²
ÑģÐº Ð°Ñı
Ð¾ Ð´Ñĭ
ÑĢ Ð°Ð»
ÑĸÐ» Ð´Ñĸ
ÑģÐº Ð¾Ð¼
Ð¸Ð» ÑģÑı
ĠÐŀ Ð±
ĠÐł Ðļ
ĠÐ¼ Ð¸Ð½
ÑĨÐ¸ Ð¹
ĠÐ¼ Ð¸Ð»Ð»Ð¸
Ð¾Ð½ Ðµ
ÐºÐ°Ð· Ð°Ð»
ĠÒĵ ÑĭÐ»ÑĭÐ¼
Ð¸ÑģÑĤ ÐµÐ¼
ĠÐĲ ÒĽ
ĠÐ¼ ÐµÐºÑĤÐµ
Ð¼ Ñĥ
g r
ĠÑĦ Ð°Ðº
Ð½Ð°Ð» ÒĵÐ°Ð½
ĠÓ© Ð¼ÑĸÑĢ
ÑĥÑĪ Ñĭ
ĠÐ¼Ð¾Ð¶ ÐµÑĤ
Ð¸Ñĩ ÐµÑģÐºÐ¾
ĠÐ° Ð½
Ġt o
ĠÑģ ÑĭÐ½
ĠÒĽ Ð°Ñĥ
ÑĢÐµ Ð¶
ĠÐ±Ð°Ñģ ÒĽÐ°ÑĢ
Ð»ÐµÑĥ Ð¼ÐµÑĤ
ÑĢ Ð´
Ġâ Ħĸ
Ðº ÐµÑģ
ÑģÑĤÐ² Ðµ
ĠÐ¿ Ð¾Ð²
ĠÑģÐ¾ Ò£
ĠÑģ Ò±
Ñģ ÐµÐ½
Ð¼ Ð¾Ð¶
Ġ1 2
ĠÐ² ÑĭÐ¿
Ð¾ Ñī
ĠÑıÐ² Ð»Ñı
Ð°Ð± Ð°ÒĽ
Ð·Ð¸ Ð´ÐµÐ½
Ð½Ð¸Ðº Ð¸
Ñı Ñĩ
Ġ F
Ð¾Ð» Ð¾Ð²
Ġ {
ÑĦ Ð¸
Ð¾Ð» Ð½
ĠÐºÐ¾Ð½ ÑĤ
Ðµ Ð³Ðµ
ĠÐº Ð°ÑĢ
Ð¿ ÑĢÐ¾
ĠÑģÐ» ÐµÐ´
ĠÐ± Ð¸
ÑĪ ÑĸÐ»ÑĸÐº
Ñģ ÑĭÐ»
ĠÐ¼ Ð¾Ð»
ĠÐ¿ÑĢÐ¾ Ð´
ÑģÐº Ð¸Ðµ
ĠÑĪ ÐµÑĪ
ĠÒĽÒ± ÒĽ
ÑĪ Ð¸Ñħ
ĠÓĻ Ð´Ñĸ
Ð°ÒĽ ÑĭÑĢ
ĠÑĥ Ð²
ĠÐ¼ Ð°Ñģ
ĠÐŃ ÑĤÐ¾
ĠÑĩÑĤÐ¾ Ð±Ñĭ
ÑĭÒĽ ÑĤÑĭ
ĠÑĦ Ð¾ÑĢÐ¼
Ð» ÑĸÐ¼
ĠÒĽÐ°Ð± ÑĭÐ»
ĠÐ¾ÑĤ Ð½Ð¾
Ð°Ñģ ÑĭÐ·
Ð°ÑĤ Ð¾ÑĢ
ÑģÑĤÑĭ ÑĢÑĥ
ĠÐ± Ñĸ
ĠÐ°ÒĽ Ð¿Ð°ÑĢÐ°ÑĤ
ĠÐ¾ Ð½Ð¸
ĠÒĽ Ð¾ÒĵÐ°Ð¼
ÒĵÐ° ÑĪ
ÑĢÐµ Ð´ÐµÐ»
ĠÐº Ñĸ
ĠÒĽÐ°ÑĤ Ð°ÑĢ
Ġ )
ÒĵÐ°Ð½ Ð°
ÑĪ ÐµÐ½Ð¸Ñı
o o
ĠÐļ Ð°Ðº
ĠÐ¼ Ð¾Ð³
Ó ĺ
ÐµÐ½ ÑĤÐ°
Ñı Ð¼
ĠÐ°ÑĢ Ð½Ð°Ð»ÒĵÐ°Ð½
Ġ1 1
ÑĨ ÐµÐ²
Ñı Ð´
ĠÑģÐ¿ Ðµ
ÐµÑģ Ñģ
ÐµÐ» Ñĸ
ĠÑĤ Ð¾Ð³Ð¾
ÑĨÐ¸Ð¾Ð½ Ð°Ð»ÑĮ
ÑĭÑĤ ÑĮ
Ñħ ÑĢÐ°Ð½
ĠÒĽÐ°Ð» ÑĭÐ¿
ĠÐ±Ð°Òĵ Ð´Ð°ÑĢ
ĠÐ´ Ð¾ÑģÑĤ
ÑĢ ÑĤ
ĠÑĦ Ð¸Ð½
ĠÐ´Ð¾Ð» Ð»Ð°ÑĢ
ÒĽ ÑĤÑĭ
ĠÐ¿ Ð»Ð°Ð½
Ð¸ÑĩÐµÑģÐº Ð¸Ñħ
Ð¸ ÐµÑĤ
ĠÐ¼ Ð¸
ÐµÑĢ Ñģ
Ġ ÒĵÐ°Ð½Ð°
ĠÑģ Ð¸ÑģÑĤÐµÐ¼
ÑĭÑģÑĤ ÑĭÒĽ
Ð½ Ð°Ð¹
Ð°ÑĤ ÑĤÑĭ
Ð± Ð°
Ðº Ð°Ñħ
Ð»Ð° Ð´
ĠÐ¶Ð¾Òĵ Ð°ÑĢÑĭ
Ñĥ ÑīÐµ
ĠÐ¸ Ð³
ÑĸÐ» ÐµÐ´Ñĸ
ÑĤÑĸ Ð¿
Ð»ÐµÑĥÐ¼ÐµÑĤ ÑĤÑĸÐº
Ġ D
ĠÐ¿ÐµÑĢÐµÐ´Ð° ÐµÑĤ
ĠÐļÐ°Ð·Ð°ÑħÑģÑĤÐ°Ð½ Ðµ
Ð°Ð»Ð°ÑĢ Ñĭ
ĠÐ¾Ð¿ ÐµÑĢ
ÑĸÐ¼ Ð´ÐµÑĢ
ÑĤÐ°Ð» ÒĵÐ°Ð½
ĠÐ±ÑĭÐ» Ð¸
ÐµÐ½ Ð¸Ð¹
Ð¸Ñĩ Ðµ
Ð» Ð°ÑĤ
t er
ĠÐ ¦
ÑĭÐ½ Ð´Ñĭ
ĠÐ· Ð°Ð¼
ĠÓĻ ÐºÑĸÐ¼
ĠÐµ ÑģÑĤÑĮ
ĠÑģÐ» Ð¾Ð²
ĠÐ¿ÑĢÐ¾ Ð±
Ð°Ð» Ð´Ð°ÑĢ
ÐµÐ¹ Ð´Ñĸ
ĠÐ¼ Ð¸Ð½Ð¸ÑģÑĤÑĢ
ĠÐ¸Ð½ÑĦ Ð¾ÑĢÐ¼Ð°
ĠÑĢÐ° Ð¹
ĠÐ¼ÓĻ ÑģÐµÐ»
ÑĨ Ñĭ
ÐµÐ» ÐµÐ½
ĠÐ¼Ð» Ð½
Ð± Ð°Ñģ
ĠÑģ ÐµÐ¼
Ð°Ð¼ Ð°
o t
Ð² ÐµÑģÑĤ
Ð¾Ð½ Ð´Ð°Ð¹
Ġ1 8
ĠÐµ ÑīÐµ
ĠÐ· ÐµÑĢÑĤ
Ðº ÑĢÐ°
Ġ E
Ðµ Ñħ
ĠÐ¾Ð± ÑīÐµ
ĠÐ¾ÒĽ Ñĥ
ĠÐ± Ð°ÒĵÑĭ
ĠÑĤ ÑĢÐ°Ð½
Ð½ ÑĥÑĤ
Ð¶ Ð¸
Ð°Ð· Ð°ÑĢ
Ġ re
2 1
ĠÑĸ ÑģÑĤ
ÑģÐ» ÑĥÐ¶
ĠÐ°Ð» Ð¼
ÑĨ ÐµÐ½
o w
ew s
ĠÑģ Ð°Ñı
ĠÑĢÐ° ÑģÐ¿
20 1
ĠÐµ Ðµ
Ð°Ð» Ð¾
ĠÐ¾ÑĤ Ð¼ÐµÑĤ
ĠÐŀ Ð½
Ò °
Ð¢ ÐĲ
ĠÐ¿ÑĢ Ð¸Ð¼
ĠÑĤ Ð°Ò£
ĠÐ° Ð¿
ĠÐ½Ðµ Ð¾Ð±
Ġ ÑģÑĤÐ°Ð½
Ð¾Ð»Ð¾Ð³ Ð¸ÑıÐ»ÑĭÒĽ
ĠÐ° ÑĢÐ°Ñģ
ĠÐĺ Ð½
Ð¸Ðµ Ð²
ĠÐ½ ÐµÐ´
Ðº ÐµÐ»
Ð°Ð¹ ÑĤÑĭÐ½
Ð¸ÑĤÑĮ ÑģÑı
Ð¹ ÑĤ
ÑĥÐ½ Ðº
ĠÐº Ð»
ĠÑĤÒ¯Ñģ ÑĸÐ½
Ð°Ð½ ÑĤ
Ð¸ÑĤÐµÐ» ÐµÐ¹
Ð½Ð¸Ðº Ð°
ĠÐºÐ¾ÑĤÐ¾ÑĢÑĭ Ð¹
ĠÒĽÐ°ÑĤ ÑĭÑģ
ĠÐ±Ð°ÑĢ Ð»ÑĭÒĽ
Ð°Ð¼ Ð±
ĠÑĤÐ°ÑĢ Ð¸Ñħ
ĠÐ°Ð¹ Ð½Ð°Ð»
ĠÐ² ÑģÑĤ
ĠÐ±Ð°Ñģ ÑĪ
ĠÐ¾ÑĢ ÑĤÐ°
ĠÑģÓĻ Ð¹
ÐĲ Ð»
ĠÐ· Ð°Ð½
Ñģ ÐµÐ¼
Ð»Ð°ÑĢ Ð´ÑĭÒ£
ÐµÐ½ Ð°
Ġ3 0
ĠÑį ÑĤ
Ð½ ÐµÑĤ
Ð°Ð½ Ð°
ĠÒ± ÑģÑĭÐ½
ÒĵÑĭ Ð·
ĠÐľ Ò±
ĠÓ©ÑĤ ÐºÑĸÐ·
ĠÑĢÐ°Ñģ ÑģÐºÐ°Ð·
ÐµÑģ Ñı
Ð¿ Ð¸Ñģ
Ð¾Ð² Ð¾Ð¹
Ð± Ñĸ
Ð°ÑģÑĤ Ð°ÑĢ
Ð¸ÑĩÐµÑģÐº Ð¾Ð¹
ÐµÑģ ÑĸÐ½
i g
Ð´ Ð½Ñı
ĠÐ´Ð¸ ÑĢÐµÐºÑĤ
ĠÑĢÐµÐ· ÑĥÐ»ÑĮÑĤ
ĠÐĿ Ð¾
Ðº ÑĸÐ»
Ð½Ð¾Ð¼ Ñĥ
ĠÑģ ÐµÐ½
Ġ1 4
ĠÐĲ Ðº
Ñģ Ñĥ
ĠÐ¿ÑĢÐ¾Ð¸Ð· Ð²Ð¾Ð´
ĠÑĤ ÑĸÑĢ
Ñİ Ð´
ĠÐĿ ÑĥÑĢ
ĠÐ±Ð°ÒĵÐ´Ð°ÑĢ Ð»Ð°Ð¼
Ġ '
Ñĩ Ð°Ñģ
ĠÐ± Ò±ÑĢ
ÐµÐ³Ð¾ Ð´Ð½Ñı
ĠÑģÑĤ ÑĢÐ¾
ĠÐ² ÑĭÑģ
ÑıÑĤ ÐµÐ»ÑĮ
ĠÐ±Ð¾Ð» ÑģÐ°
ĠÑĥ Ð³
ĠÐ¿Ð¾Ð» Ð¸
ĠÐ´ Ð¾Ðº
ĠÑįÑĤÐ¾ Ð³Ð¾
ĠÐ¸ ÑģÑĤ
Ð°ÑİÑĤ ÑģÑı
ĠÐ¼ÑĸÐ½ Ð´ÐµÑĤ
Ð´ÑĭÒĽ ÑĤÐ°Ð½
ĠÐ¶ Ð¾Ð±
ĠÐº Ð°
ĠÑģÐ¿ Ð¾ÑĢÑĤ
Ð²Ðµ ÑģÑĤÐ¸
ĠÐµ ÑĤÑĥ
ĠÐ¿Ð¾ ÑģÐ»ÐµÐ´
ĠÐ· Ð°Ð±
ĠÑĩ Ð¸Ñģ
ĠÑĨ ÐµÐ½ÑĤ
ĠÐ² Ð·
ÑĤ Ò¯
ĠÐµ ÑĢÐµÐº
Ġ1 6
u l
ĠÐ±Ð¾Ð»ÑĮ ÑĪ
ĠÐ²Ð¾Ð· Ð¼Ð¾Ð¶
Ð¾ ÑģÑĤÐ¸
v e
ĠÑĢÐµ Ñģ
ĠÓ© ÑĤÐµ
ÐµÐ½ Ð¸Ñİ
ĠÐ¿ÑĢÐ¾ ÑĪ
Ð´ ÐµÐ¼
Ð½Ð¾ Ð³
Ð¾Ñģ Ð¿Ð°ÑĢ
ĠÐº ÓĻÑģÑĸÐ¿
Ġ1 3
Ð¼ ÐµÑģÑĤ
ÑĭÐ» Ð°Ñĥ
Ġ R
ĠÒ ®
ĠÐ¾ÑĤ Ðº
ĠÑģÐ¾Ð¾Ð±Ñī Ð°ÐµÑĤ
a b
o s
Ð± Ð¾Ð»
ĠÐ¿Ð¾ Ð¿
ÑĢÐ°Ð¶ Ð´Ð°Ð½
ÑĪ ÐµÐ½Ð¸Ðµ
ĠÐ² ÐµÐ´
ĠÐ¿ÑĢÐ¸ Ð²
Ð» Ð¸Ñĩ
ĠÐ´ ÐµÐ½ÑĮ
Ð¸ Òĵ
Ð½ Ð¸Ð¹
ÑĢÐ° Ñĥ
ĠÐ½ ÓĻ
Ð°Ð» Ð°Ñĥ
ĠÑĢÐµ Ð³Ð¸
Ġ g
ĠÐºÐµÐ» Ð³ÐµÐ½
Ð¨ ÐĲ
Ð°ÑĢ Ð°Ð»ÑĭÒĽ
Ðº Ð¾Ð»
ÑģÑĤ Ð¾
ĠÐ± Ð¸Ð·
ĠÐ¾Ð»Ð°ÑĢ Ð´ÑĭÒ£
ĠÒļ Ðł
ÑĤÐµÑĢ Ð´ÑĸÒ£
Ð°Ñģ ÑĭÐ½Ð°
Ð¸Ð½ Ðµ
ĠÐ¶ ÐµÐºÐµ
Ñĥ Ñī
ÐµÐ¹ ÑĩÐ°Ñģ
Ġ1 7
ĠÐ±ÑĥÐ´ ÑĥÑĤ
ÐµÑĤ Ð°
Ð°Ð² Ð»
ÑĭÑģ ÑĭÐ½Ð´Ð°
ĠÐĲ Ð½
ĠÐ¸ÑģÐ¿ Ð¾Ð»ÑĮÐ·
ÑĦ Ð¾ÑĢÐ¼
. ,
Ð»Ð°ÑĢ Ñĭ
ÑĢÐ° ÐºÑĤ
ĠÑĢÐµ ÑģÐ¿
ÑĸÐ½ ÑĪÑĸ
ĠÐ½Ð° ÑħÐ¾Ð´
ĠÐ°ÑĢ ÑĤ
Ð¿ Ð¾Ð»
ĠÐ± ÑĭÑĤÑĮ
u m
ĠÐ¼Ð» ÑĢÐ´
ĠÐ´ÐµÐ¹ ÑģÑĤÐ²
Ġ Ñİ
ĠÐ¼ ÑĭÒ£
ĠÑģ ÐµÐº
ĠÐĲ Ð·
ĠÐ¶Ð°Ñģ Ð°Ñĥ
ÑĮ ÐµÑĢ
ĠÐ¼ÐµÐºÑĤÐµ Ð¿
at e
Ð¾Ð²Ñĭ Ðµ
Ð°Ð» ÒĵÐ°Ð½
ÑĸÐ¼ Ñĸ
ĠÐ½ÐµÐ³ÑĸÐ· Ð³Ñĸ
Ġ i
Òļ Ð°Ð·Ð°ÒĽÑģÑĤÐ°Ð½
ĠÐ± Ò¯
ĠÐ½ÐµÐ¾Ð± ÑħÐ¾Ð´
ĠÑģÑĤÑĢÐ°Ð½ Ñĭ
ĠÐ±Ð¾Ð» Ð°ÑĤÑĭÐ½
ĠÐ°Ð² ÑĤÐ¾Ð¼
ĠÐ°ÐºÑĤ Ð¸Ð²
ĠÐ¼ Ð°Ò£ÑĭÐ·
ĠÑĸÑĪ ÑĸÐ½Ð´Ðµ
Ð¸ Ð¶
Ð½ÐµÑĢ Ð³
st an
Ð¸Ñģ Ñģ
ĠÐ´ Ð¾Ð±
ĠÐŀ ÑģÑĭ
ĠÐ» Ð¸ÑĨ
ĠÒĽÒ±ÒĽ ÑĭÒĽ
ÐµÑĤ Ñĸ
Ñı Ð±
ĠÐ¿ÑĢÐ¸ Ð·
Ò£Ð³ ÐµÐ¹
ĠÐ¿ Ð°ÑĢÑĤ
ĠÓĻ Ð»ÐµÑĥÐ¼ÐµÑĤÑĤÑĸÐº
ĠÐºÐµÐ· Ð´Ðµ
Ð½ Ð¸Ð²
ĠÑģÓĻÐ¹ ÐºÐµÑģ
Ġ e
ĠÒĽÒ±ÑĢ ÑĭÐ»
Ġ2 5
ĠÑģÐ¾ÑĤ ÑĢÑĥÐ´
Ð¸ÑĢÐ¾Ð² Ð°Ð½
Ġ +
Ð¸ÑĩÐµÑģÐºÐ¾ Ð³Ð¾
Ð´Ð° Ð²
ĠÐ°Ð² ÑĤÐ¾
ĠÐ¶Ð°Ñĥ Ð°Ð¿
ĠÐ¾ Ð½Ñĭ
ĠÐłÐµÑģÐ¿ÑĥÐ±Ð»Ð¸Ðº Ð°ÑģÑĭÐ½ÑĭÒ£
ĠÐ±Ð°ÒĵÑĭ ÑĤ
ĠÐ¶ Ð°Ð¹
ÑĭÒ£ ÑĭÐ·
ÑĭÐ½Ð´Ð° Ð¹
âĢ Ŀ
ĠÐ¶Ð°ÑĤ ÒĽÐ°Ð½
Ð¸Ð» Ð¸ÑģÑĮ
Ð¼ Ñĭ
ĠÑĢÐµÑĤ ÑĸÐ½Ð´Ðµ
ĠÐ¶ Ð¾ÑģÐ¿Ð°ÑĢ
ĠÐ³ ÑĢÐ°Ð¶Ð´Ð°Ð½
ĠÐ´Ðµ Ò£Ð³ÐµÐ¹
ĠÐ¶Ò¯Ð· ÐµÐ³Ðµ
ĠÐ² Ð¾Ð´
Ð¼ Ð°ÑĤ
ĠÑĩ ÐµÑĢ
Ġ l
ĠÐºÐµÐ· ÐµÒ£
ÑĪÐµ Ð³Ð¾
ĠÐ¿ÑĢÐ¾Ð± Ð»ÐµÐ¼
ĠÐ³Ð¾ÑģÑĥÐ´Ð°ÑĢ ÑģÑĤÐ²ÐµÐ½
Ñĥ Ð¼ÐµÐ½
ĠÐ¾ ÑģÑĤ
ĠÐ°Ñĥ ÑĭÐ»
ĠÐ±Ð°Ð» Ð°Ð»Ð°ÑĢ
ĠÐ²Ð¸ Ð´Ðµ
ĠÐ´ Ð°Ð¹
ÑĤÐ¾Ð¼ Ñĥ
ĠÐ¤ Ð¾ÑĤÐ¾
Ð¾Ð» Ð¶
ÑĤÑĭ Ð¿
ĠÐļ Ð¾Ð½
Ð¾ÑĢ Ð¸Ð¸
ÑĪ ÑĭÐ»ÑĭÒĽ
ĠÑĢÐµÑģÐ¿ ÑĥÐ±Ð»Ð¸Ðº
Ġ W
ĠÐº ÑĥÑĢ
Ġ V
Ð¾ÑĢ Ð¾Ð²
ĠÐµÐ½ Ð³ÑĸÐ·
ĠÑĥ ÑĢÐ¾Ð²
Ġ L
ĠÐĲ Ð¹
ĠÑĢ ÑĭÐ½
ĠÐ¼Ð¾Ð¶ Ð½Ð¾
ÐµÐ½ Ð½ÑĭÑħ
Ð» ÑĮ
ĠÐ¶Ð°Ð» Ð¿Ñĭ
Ð¾Ð½ Ð°Ð²
Ð´ i
ĠÒ±Ð¹ÑĭÐ¼ Ð´Ð°
ĠÐ¼ÐµÐ´ Ð¸ÑĨ
ĠÐ¼ ÐµÐº
Ð ¯
ĠÐ¶ Ð¸
Ð¿ Ð»
ÑİÐ´ Ð¶ÐµÑĤ
ĠÐºÐµÐ· ÑĸÐ½Ð´Ðµ
ĠÐ¾Ð¿ ÑĢÐµÐ´ÐµÐ»
Ð» ÐµÑĢÑĸ
ÒĽ ÑĭÐ½
ĠÑĤ ÐµÐ»
ĠÐ´Ð°Ð¼ Ñĥ
ĠÑĤ Ð°Ñĥ
ĠÓ© Ò£
Ð³ÐµÐ½ ÑĤ
ĠÐ³ ÑĢÑĥÐ¿
ĠÑĤ Ð¾ÑĢ
Ð¾Ð½ Ð¾Ð²
ĠÐ± Ð°ÒĽ
ĠÐ³ Ð´Ðµ
ĠÐ¾ Ð³
Ġ G
ÑĸÒ£ ÑĸÐ·
ĠÐ¡ Ð¨ÐĲ
ĠÐ°Ð» ÑĭÐ¿
ĠÐ¿ÑĢÐµÐ´ Ð¿ÑĢ
Ó ¨
ÑĤÐµÑĢ Ð´Ñĸ
Ð» Ð¾Ð¶
ĠÑģ Ð°Ñĥ
ĠÐ¿ÑĢÐ¾ ÑĤÐ¸Ð²
Ð°ÑģÑĤ Ñĭ
on t
ĠÑģ Ð°Ð¿
Ð¿ Ð°
ĠÐ¸ Ð¼Ðµ
ÐµÐ½ Ð¾
ÑĤÐ°Ð¼ Ð°ÑģÑĭÐ·
Ð³ ÑĸÐ½ÑĸÒ£
ĠÐ¾ÑĢ Ð½Ð°Ð»
ĠÑģÐ¾ Ð¾ÑĤ
ÑĸÑĢ Ð³Ñĸ
Ð¾ Ð½Ð¾
h t
ĠÐ²Ð¾Ð¿ ÑĢÐ¾Ñģ
ĠÑĩÐµÐ¼ Ð¿Ð¸
ÐµÑģÐ¿ ÐµÑĩ
ÑĤÐ¸ Ð¶
ĠÑĤÓ© Ð¼ÐµÐ½
ÑĤ Ð°Ñģ
ĠÐ² ÑĭÑģÑĤ
ÐºÐ¾Ð² Ð¾Ð´
ĠÐ°Ð· Ð°Ð¼
ĠÑĪÐ°ÑĢ Ñĥ
ĠÒļ Ð°Ð·
ĠÐŁ ÑĢÐ¾
0 4
Ġ is
Ñģ ÑĭÐ½ÑĭÒ£
Ð³ Ñĥ
ĠÑĤÑĭÑģ ÑıÑĩ
Ð¾Ð² Ð°Ð½Ð¸Ðµ
ĠÐ¶ÑĭÐ» ÒĵÑĭ
Ð°ÑĤ Ðµ
Ð¾Ð½Ð°Ð² Ð¸ÑĢÑĥ
ÑģÐº ÐµÑĢ
ÑĢÐ°Ð± Ð¾ÑĤ
ĠÑģ ÑĭÑĢ
ĠÐ¿ÑĢÐ¾Ð³ ÑĢÐ°Ð¼
Ð½Ð°ÑĢ Ð¾Ð´
ĠÐ± ÐµÐ¹
ĠÑģÑĤ Ð¾Ð»
ĠÐ¶ Ð¸Ð·
ĠÐ±Ð¾Ð» Ð¼
Ð¸ÑĤÐµÐ» Ð¸
ĠÐ° Ñı
ĠÑģ Ð°ÑĤ
ĠÐ° Ð´
Ð´ ÐµÐ½Ð¸Ñı
ĠÒĽÐ°Ð¼ ÑĤÐ°Ð¼Ð°ÑģÑĭÐ·
ĠÐ¿Ð¾ ÐºÐ°Ð·
ÑĤ Ð°Ð¹
ĠÐºÐ¾Ð¼Ð¿ Ð°Ð½Ð¸Ñı
ĠÐ² ÐµÑĢ
ĠÐķ ÑĢ
ĠÐ¡ Ð¾
Ð´ Ð¾Ð²
ĠÐ± ÐµÑĤ
ĠÐ½Ð° Ð¿ÑĢÐ°Ð²
ÑĪ ÑĭÐ»Ð°ÑĢ
Ð°Ñģ ÑĭÐ¼
Ð´Ñĸ ÑĢÑĥ
ĠÐłÐ¾ÑģÑģ Ð¸Ð¸
ĠÐ¶ Ð¸Ð½
ÑĥÑĢ ÐµÑĤ
ĠÐºÒ¯ ÑĪ
ÐµÐ¼ Ðµ
ĠÐº Ð¾Ð³Ð´Ð°
Ð¾Ñģ Ð¾Ð±
Ð¸ Ð½Ñĭ
Ñģ Ð°Ð½
ÐµÑĢ Ðº
ĠÐ½ Ð¸Ñħ
ĠÐ¿Ð¾ Ñĩ
Ñĥ Ð·
ĠÐ Ĩ
ÐµÐºÑĤ Ð¸Ð²
ÑĭÐ» Ð¼
ĠÐº Ð¸
Ġ H
ĠÐ² Ð¾Ñģ
Ð¸ÑĤÐµÐ» Ñı
ĠÐ¿ÑĢÐµ ÑģÑģ
ÑĭÐ» ÑĭÐ¿
Ð³ Ð°
Ð°Ð» ÑģÑı
ĠÐ° ÑĤÐ°
Ġt h
ÐµÐ» ÐµÑĢÑĸ
ÑĢÑĥ Ð·
ĠÓĻ Ð»ÐµÐ¼
ĠÐµ Ð´Ñĸ
ĠÐ¾ÑĤÑĭÑĢ ÑĭÐ¿
ĠÑıÐ²Ð»Ñı ÐµÑĤÑģÑı
Ð°Ð½ Ñģ
Ð¾Ð¼ Ñĥ
ĠÐ¿Ð°Ð¹ Ð´Ð°
ĠÐĲ ÑĢ
ÐµÐ» Ð¸Ñĩ
ĠÐ¿Ð¾Ð» Ð¸ÑĤ
ÑģÑĤ ÑĢÑĥ
ĠÐ±Ð¸Ð· Ð½ÐµÑģ
ÑģÑĤ Ð°
ĠÐ´Ð°Ð¼ ÑĭÑĤÑĥ
ĠÐ¼ÓĻ Ð»ÑĸÐ¼
ĠÑģ ÑĥÐ´
ĠÐ¿Ð¾Ð¼ Ð¾Ñī
ĠÑģÑĤ Ð¾ÑĢ
ĠÐ¸ Ñİ
Ð½ Ñĥ
ÑĭÒĵ ÑĭÐ½
ĠÐº Ð°Ð¶
ĠÐµÒ£ Ð±ÐµÐº
ĠÑģÐ¾ ÑģÑĤÐ¾Ñı
ĠÐ°Ð» Ð´
ĠÐºÐ¾Ð½ ÑĨ
ĠÑĥ Ð¿ÑĢÐ°Ð²
ĠÐ²ÑģÐµ Ñħ
ÑĭÑģ ÑĭÐ½ÑĭÒ£
ĠÑĤÐ°Ð» Ð°Ð¿
ÑĤ ÐµÐ»
Ñģ Ð¸Ñħ
Ð°Ð» Ð¸ÑģÑĮ
ĠÐ¾ÑĤ Ð²ÐµÑĤ
t h
ĠÐ¶ Ñĸ
Ð°Ð¼ ÐµÐ½
Ġ *
ÑĭÐ» Ð°ÑĤÑĭÐ½
Ð¼ ÐµÐº
ĠÐ° ÑģÑĭ
ĠÐ² ÑĤÐ¾ÑĢ
Ð½Ð¸Ð² ÐµÑĢÑģ
ĠÐ°Ð» ÒĵÐ°Ð½
ĠÐ³Ð¾ÑĢ Ð¾Ð´Ð°
Ð»Ð°ÑĢ Ð´Ñĭ
ĠÐ¾ Ð½Ð°
ĠÐŀ ÑĤ
Ð¾Ð² Ð°ÑĤÑĮ
ĠÐ¿ÑĢÐ¾ ÑĦ
ĠÐ¶ ÐµÐ½
ÐµÑĤ Ñĭ
ÓĻ Ð½
ÑĪ Ð¸Ð¹
c h
Ð°Ð·Ð°ÑĢ Ð±Ð°ÐµÐ²
ÑĤÐ°ÑĢ Ð´ÑĭÒ£
ĠÐ¾Ð± ÐµÑģÐ¿ÐµÑĩ
ĠÒĽÒ± ÑĢÐ°Ð¼
ÐµÐ½ Ð¸ÐµÐ¼
ÓĻÑĢ Ñĸ
Ġ ÑĢÐ°Ð½
ĠÐ· Ð½Ð°Ñĩ
ĠÐ±Ð°ÑģÑĤ Ð°Ð¿
ĠÑĥÑģÐ» Ð¾Ð²
Ð°Ð»ÑĮ Ð½Ð¾Ð¹
Ñģ Ð°Ñĥ
ĠÐ¾Ñĩ ÐµÐ½ÑĮ
ĠÐ¶ ÐµÒ£
ĠÐļ Ó©
ÑĢÐ° Ñī
ÑģÑĤ Ð°ÑĢ
ĠI n
ĠÐ½ Ð°Ð¼
Ð³ Ð¾Ð²
ĠÐ¼ Ð°Ð¼Ð°Ð½
ĠÐ¿ÑĢÐ¾ Ð´Ñĥ
ĠÑĤÒ±ÑĢ ÒĵÑĭÐ½
ĠÐ¾ÑĢ Ð½
ĠÐºÓ© ÑĪ
Ð± ÐµÐ½
ĠÐ± ÑİÐ´Ð¶ÐµÑĤ
Ð¿ Ðµ
ĠÑĢÐ¾ Ð´
ĠÒĽÐ°ÑĢ Ð¶
ÐµÑĢ Ð²
Ð¸ ÑĪ
ĠÐ½ ÐµÑģ
ÐµÐ» Ñı
ĠÐ±Ð¾Ð» ÑĥÑĭ
ĠÐºÐ¾ÑĢ Ð¾Ð½Ð°Ð²Ð¸ÑĢÑĥ
ĠÑĤ Ò±Ð»
ĠÐ¼ Ðµ
ÐµÐ¼ Ñĥ
ĠÐ· Ð°ÑĤ
Ð» ÐµÐ´
ĠÐ´ Ð¾Ð¿
1 1
ĠÐ¼Ð°ÒĽ ÑģÐ°ÑĤ
ÑĢÐ¾ Ð¹
Ð Ļ
ÑĥÑĢ Ñĭ
ĠÒĽÐ°ÑĤ ÑĭÑģÑĤÑĭ
Ð´Ð°ÑĢ Ð´Ñĭ
i r
ĠÐº Ð¾
Ġ2 4
ĠÑģÐ»Ð¾Ð² Ð°Ð¼
ĠÐ½Ð° Ð´
ĠâĢ ľ
Ð¸Ð» Ð¾
ĠÐ¸ Ñģ
Ð°Ð¼ ÑĭÐ·
Ñĸ ÑĪ
Ð´Ð°ÑĢ ÑĭÐ½ÑĭÒ£
ĠÑĤÐ°Ð± ÑĭÐ»Ð°Ð´Ñĭ
ĠÐ± Ð»
ÑģÑĤ ÑĥÐ¿
ĠÓ©ÑĤ ÐºÐµÐ½
ĠÐ°Ð»Ð° Ð´Ñĭ
ÑĥÐ» ÑĤÐ°Ð½
ĠÐŁ Ð¾Ð´
i k
ĠÐºÒ¯Ð½ Ñĸ
__ __
m ent
Ð»ÐµÐº Ñģ
ĠÐķ Ð²
ĠÐĲ Òļ
a p
ĠÐ± Ñĭ
ĠÐµ ÑģÐ»Ð¸
ĠÐ°Ðº Ð¸Ð¼
ÑĢÐµ Ñģ
Ñĥ ÑģÐº
Ð°Òĵ ÑĭÐ½
ak h
ĠÑĤÐ°Ð¿ ÑģÑĭÑĢ
ĠÐ° Òĵ
Ð¸Ð½ ÑģÐºÐ¾Ð¹
r u
ĠÐ½ ÑĥÐ¶
ĠÐ¶ÑĭÐ» Ð´ÑĭÒ£
Ð¸Ð» Ð°ÑģÑĮ
ĠÓ©Ð· Ð³ÐµÑĢ
ÑĦ ÑĦ
ĠK az
Ñĥ Ðº
ĠÑģÐ¾Ð¾ÑĤ Ð²ÐµÑĤ
Ð°ÒĽ ÑĤÑĭ
ĠÐ½ Ð¾ÑĢÐ¼
Ñĭ ÒĵÑĭ
Ðµ Ñĥ
ĠÐ¸ ÑģÐº
ÑĭÑģ ÒĽÐ°
Ð¸ÑĤÐµÐ»ÑĮ Ð½Ð¾
ĠÑĢÑĥ ÐºÐ¾Ð²Ð¾Ð´
ĠÐķ Ð»
ĠÒĽÐ°Ð½ Ð´Ð°Ð¹
ĠÐ±ÑĭÐ» Ð°
Ð¸Ð½ Ñĥ
ĠÐ ®
ĠÐ°Ñĥ ÑĢÑĥ
Ð² ÐµÐ´
ĠÐ¾Ð±Ð» ÑĭÑģÑĭ
ĠÑģ Ð´ÐµÐ»
ÑĸÑĢ Ñĸ
ĠÐ² ÑĢÐµÐ¼ÐµÐ½
Ð¾Ð´ ÐµÑĢ
ĠÒ¯Ð» ÐºÐµÐ½
ĠÐ¿ÑĢÐ¾Ð² ÐµÐ´
Ð½Ð¸Ð²ÐµÑĢÑģ Ð¸ÑĤÐµÑĤ
Ð°Ð»Ð°ÑĢ Ð´Ñĭ
Ð¸Ð· Ð¼
ÑĤÐµÑĢ ÑĸÐ½
ÑĢÐ° Ñı
ÑĭÐ»Ñĭ ÒĵÑĭ
ÐµÐ´Ð° Ð³Ð¾
ct ion
ĠÒ± ÑģÑĤ
ĠÑĢÐµ Ð¶
ĠÐ½ÓĻ ÑĤÐ¸Ð¶
Ð½Ð¾ÑģÑĤÑĮ Ñİ
ĠÐºÐµÐ» ÐµÐ´Ñĸ
ĠÐļ Ð¾Ð¼
ĠÐ½ Ð°Ð»
ĠÐ¶Ð°ÒĵÐ´Ð°Ð¹ Ð´Ð°
ĠÑģ Ð¸ÑĤÑĥ
Ð°Ð» Ðµ
ÑĸÐº ÑĤÑĸ
ĠÑģ ÐµÐ·
ĠÑģÐ¾ ÑĨÐ¸Ð°Ð»ÑĮ
Ð½Ð°Ðº Ð¾
ĠÓĻ ÑģÐµÑĢ
ĠÐ¶Ð°ÑĤ ÑĭÑĢ
Ð¸ÑĩÐµÑģÐº Ð¸Ðµ
Ð°Ð»Ð°ÑĢ Ð´ÑĭÒ£
Ñģ ÐµÐ´
ĠÐº Ð°ÑĤ
ĠÐ¶ÐµÑĤ ÐºÑĸÐ·
ĠÐ° ÑģÑĤ
Ð¾ÑĢ Ð¾Ð¶
ĠÐ¾Ð¹ ÑĭÐ½
ĠÐ¿Ð¾ Ð±
ÑĥÑĢ Ð½Ð°Ð»
ÑĢÐµÐ´ Ð¸ÑĤ
ĠÐºÐ° ÑĩÐµ
ĠÑį Ð½ÐµÑĢÐ³
' ,
ĠÑĥ ÑĤ
ĠÑĢÐ°Ð±Ð¾ ÑĤÐ°
ĠÐºÐ¾Ð¼ Ð°Ð½
ĠÐ¾Ð´ Ð¸Ð½
Ð¸ÑĤ Ðµ
ĠÒĽÒ± Ð¶
ĠÒĽÐ¾ÑĢ ÒĵÐ°
ĠÐ¿Ð¾Ð´ Ð´ÐµÑĢÐ¶
ÑĤ ÑĸÑĢ
ÑĢ ÑĭÐ²
ĠÐŁ Ð¾Ñģ
Ð»Ð° Ð³Ð¾
Ð¸Ðº Ð¾Ð²
ĠÑĪÐ°ÑĢÑĥ Ð°ÑĪ
Ð¾Ð» Ð¾
ĠÑĤÒ¯ÑĢ Ð»Ñĸ
Ð¾Ð½ Ð´ÑĭÒĽÑĤÐ°Ð½
Ġ st
ĠÐ°ÑĤ ÒĽÐ°ÑĢ
Ġ1 00
ĠÐ½ ÐµÑģÐº
ÑģÑĤÐ² Ð¾Ð¼
Ð¶ Ð°Ð¹
ĠÒļ Ð°Ð·Ð°ÒĽ
Ñĥ Ð´Ð°
ÑĭÐ¼ Ð´Ñĭ
ÑĤÐ°ÑĢ Ð´Ñĭ
ĠÐ½ ÐµÑĤ
ĠÐŁÑĢÐµ Ð·Ð¸Ð´ÐµÐ½ÑĤ
Ð»Ñĸ Ð³Ñĸ
Ð §
ÐµÐº Ñĸ
ĠÐ° Ñģ
ĠÐ¸Ð· Ð¼ÐµÐ½
/ /
Ð¾ÑĢ ÑĤÐ°
ĠÓ©Ð½ Ð´ÑĸÑĢ
ĠÒĽ Ñĥ
ĠÐ¶Ð°ÒĽ ÑģÑĭ
Ġ ...
ĠÑĦ ÑĥÐ½Ðº
ĠÐ´ Ò¯
ĠÒ±Ð» ÑĤÑĤÑĭÒĽ
ÑģÑĤ ÑĢÐ°Ð½
ĠÐ¿ÑĢÐµ Ð·Ð¸Ð´ÐµÐ½
ÑĢ Ð¾Ð»
ex t
ĠÐ¸Ð½ Ð²ÐµÑģÑĤÐ¸
Ġ20 20
c e
ĠÑģ ÐµÐ³Ð¾Ð´Ð½Ñı
Ð°ÒĽ Ñĭ
ĠÑĢÐ°Ð±Ð¾ ÑĤÑĭ
Ò± ÒĽ
ÑĸÐ» ÐµÑĤÑĸÐ½
ÑĢÐ° Ñħ
le t
Ġ20 22
ĠÐŀ Ð´
ĠÐ¼ Ð½Ð¾Ð³Ð¾
ĠÐĿ Ðµ
ÑĸÐ»ÑĸÐº ÑĤÑĸ
Ġ2 3
Ð½Ðµ Ð³Ð¾
Ġ v
Ð ¦
ĠÑģÐ¾ Ð³
ÑĢÐ° Òĵ
Ð¾ Ñİ
ĠÐĿ Ð°Ð¿
ĠÐ¼Ð¾Ð³ ÑĥÑĤ
ÐµÐº ÑĤÑĸ
ĠÐ¼ÓĻ Ð´ÐµÐ½
ÑĢÐµ Ð´Ñĸ
Ð´Ðµ Ð±Ð¸
ĠÓ© Ð»
Ð¾Ð¿ Ð°Ñģ
âĢ ¦
ĠÓ© Ñģ
ĠÐº ÐµÑĪ
ĠÐºÓ© Ð»ÐµÐ¼
ĠÐĳ ÑĸÐ·
Ð° ÒĵÐ°
ÐºÑĸÐ½ ÑĪÑĸ
ĠÑģÑĤ Ñĥ
ĠÒĽ Ð¾Ð·
ĠÑĤÐµÑĢ ÑĢÐ¸ÑĤ
o p
ĠÑĥ ÑģÑĤÐ°Ð½Ð¾Ð²
ĠÑģ Ð¸Ð¿
ĠÑģ Ð¾Ð½Ð´Ð°Ð¹
ĠÐ±Ð¾Ð»ÑĮ ÑĪÐµ
ĠÐ±ÑĸÑĢ Ñĸ
ĠÐ´ ÐµÐ²
ĠÐ¿ÑĢÐ¾Ð´ Ð¾Ð»Ð¶
ĠÐ¿ÐµÑĢ ÐµÐ´
ĠÐ´ ÐµÐ¼
ĠÑģÑĩ Ð¸ÑĤ
Ð°Ð» Ð°Ð´Ñĭ
ĠÑĢÐ° ÑģÑģ
. )
ĠÐ¿ÑĢÐ¾Ð² Ð¾Ð´
ĠÐ² Ð»Ð°
ĠÒĽÐ°ÑĢ ÑģÑĭ
ÑģÑĤ Ð¸ÑĤÑĥ
Ð¸ÑĤ Ð°Ð¹
ĠKaz akh
ÐµÐ½ÑĤ Ð¾Ð²
1 2
ĠÑģÑĤ Ð¾
ÑĤÐµ Ð´Ñĸ
Ð¶ ÐµÐ»
ĠÐ¼ÓĻ Ð½
ĠÒĽ Ð¾ÑĢÑĭ
ĠÐĳ ÑĸÑĢ
ĠÒĽÐ°Ñĥ ÑĸÐ¿
ÐµÑĢ ÐµÐ´
ĠÐĳ Ð°Ñģ
Ð° ÑģÑĤÐ¸
ĠÐ´ ÐµÑĢ
Ð¾ÑĢ Ð¸Ñı
Ð´Ñĸ Ð³Ñĸ
Ð°ÑĢ Ð¸
r i
ĠÐ¾ Ò£
Ġf or
Ó© Ð¹
ĠÐľ ÐµÐ¼Ð»ÐµÐºÐµÑĤ
ĠÑĢÐ°Ð·Ð²Ð¸ÑĤ Ð¸Ñı
Ñĭ Ñĩ
ĠÐ¢ ÑĥÑĢ
ĠÑĤ ÑĢÐµÐ±
1 5
ĠÐ´Ðµ ÑıÑĤÐµÐ»ÑĮ
Ð¾Ð²Ñĭ Ð¹
Ñĭ Ð±
ĠÐ±Ò±ÑĢ ÑĭÐ½
ĠÐ¿Ð¾ Ðº
ĠÐ²ÑģÐµ Ð³Ð¾
ĠÑĩÐµÑĢ ÐµÐ·
Ġ %
ÐµÐ´Ð°Ð³Ð¾ Ð³
ĠÒ± Ð·
ĠÑĤÐ¾Ð» ÑĭÒĽ
ĠÑįÑĤÐ¾ Ð¹
ĠÒĽ Ð°Ñģ
ĠÒĵÑĭÐ»ÑĭÐ¼ Ð¸
ĠÑģÐ² ÑıÐ·
ÑĤÐ° Ð´Ñĭ
ĠÐ°Ð» Ð´Ñĭ
ĠÑĤ Ð°ÒĽÑĭÑĢ
ĠÐ· Ð´
ÐµÐ½ ÑĸÒ£
ĠÐ±ÐµÑĢ ÐµÐ´Ñĸ
ÑĭÐ¼ Ð¸
ĠÐ»Ñİ Ð±
ĠÐ¼ ÐµÑģÑı
ĠÑĤ Ð°Òĵ
Ð¿Ð°ÑĢ ÑĤÐ°Ð¼
ĠÑĤÒ¯ÑĢ Ð´Ðµ
Ð½Ðµ Ðµ
ÐµÐ¹ ÑĤÑĸÐ½
Ġ [
ĠÐ¾ÑĢÑĤ Ð°Ð»Ñĭ
Ð» Ð°Ð¹
ÑĨÐ¸Ñı Ð»ÑĭÒĽ
ĠÐ±ÐµÐ»Ð³ ÑĸÐ»Ñĸ
Ðµ ÑĨ
ÑĥÐ» ÐµÑĢ
Ð¾ ÑģÐº
ÐµÑģ ÑĸÐ½ÑĸÒ£
Ð°Ð»ÑĮ Ð½ÑĭÑħ
Ġ O
ĠÐĲ Ð±
ĠÐ¼ ÑĥÐ¶
ĠÐĿ Ð°Ð·Ð°ÑĢÐ±Ð°ÐµÐ²
Ð°Ðº ÑĤÐµÑĢ
Ġ201 8
Òĵ Ð½Ð¸
Ð»Ñı ÐµÑĤ
ĠÐ±Ð°Ð½ Ðº
ĠÐ´ ÐµÐº
ĠÐ¾Ð± Ñī
3 0
ĠÐ¶Ò±Ð¼ ÑĭÑģÑĤÐ°ÑĢ
ÐµÐ´ ÐµÑĢ
Ð³ ÑĸÐ½Ðµ
ÑıÑĤ ÑģÑı
Ð» Ð¸Ð²
ĠÑĤ Ð¾Ð½
ĠÐ¼ÐµÐ´Ð¸ÑĨ Ð¸Ð½
ĠÐĶ Ð¶
1 6
ĠÑĢÐ¾ ÑģÑģ
ÑĤÐ°ÑĢ ÑĭÐ½
Ð½ Ð¸Ñħ
Ð¸Ð½ Ð¾Ð²
ĠÐºÐ¾Ð¼ Ð¸ÑĤÐµÑĤ
ĠÑģ ÑĥÐ±
Ð°Ð»ÑĮ Ð½Ð¾Ð³Ð¾
ĠÐ¾ÒĽ ÑĭÑĤÑĥ
ĠÐ¿ÐµÑĢ Ð¸
ĠÑĥÐ² ÐµÐ»Ð¸Ñĩ
ĠÐ² Ð½Ðµ
ĠÐĲ ÑģÑĤÐ°Ð½Ð°
ĠÐĴ ÑģÐµ
ÐµÐ´ Ð¸Ð½
Ð´Ð°ÑĢ ÒĵÐ°
ĠÐľ Ñĭ
Ð»Ñĭ ÒĵÑĭ
ĠÐ± Ð¸Ð»
ĠÐ¼Ò¯Ð¼ÐºÑĸÐ½ Ð´ÑĸÐº
? ?
Ð°ÑĢ Ð»ÑĭÒĽ
ÑĤ ÑĮ
ĠÒĽÐ°Ð¹ ÑĤÐ°
ÑĢÐµ Ð²
ĠÐ¶ Ð¸Ð²
ĠÐ² Ðº
ĠÑģÐ² Ñı
ĠÐ¡ ÐµÑĢ
Ðļ Ð°Ð·Ð°ÑħÑģÑĤÐ°Ð½
Ð¾ ÑģÑĤÐ°Ð½
ĠÑĤÐµÒ£ Ð³Ðµ
ĠÐ¿Ð¾ ÑĤ
ÐµÐ½ Ñĸ
Ð¸ÑĨ Ðµ
ĠÐłÐµÑģÐ¿ÑĥÐ±Ð»Ð¸Ðº Ð°ÑģÑĭ
ĠÐ¼ Ð¾Ð¼
ÐµÑģ ÑĸÐ½Ð´Ðµ
ĠÐ¾Ñģ Ð¾Ð±
ÑĤ i
ĠÑĤ ÐµÐ»Ðµ
ÑĤÐ° ÒĵÑĭ
Ġ2 6
ĠÐŀ ÑĢ
s e
ĠÐ¿ ÑģÐ¸Ñħ
ĠÐ¼ Ð°ÑĪ
o v
ÐºÐµÑĢ Ð»ÐµÑĢ
ĠÑģ Ð°Ð±Ð°ÒĽ
Ð¸Ðº Ð°Ð½
Ð°Ñģ ÑĭÐ½Ð´Ð°ÒĵÑĭ
ĠÐ¾ÑĢ ÑĭÐ½Ð´Ð°
Ð» Ð°Ð¹Ð´Ñĭ
ĠÐ¾ÑĢÐ½Ð°Ð» Ð°Ñģ
ĠÐ³ Ð¾Ð»
Ð°Ð» Ð´ÑĭÒĽ
ĠÐ° Ð½Ð°Ð»
ĠÒļ Ð°ÑĢ
ÐµÐ½ ÐµÑĢ
Ð³Ð¾ ÑĤÐ¾Ð²
ĠÐ½Ð° Ð¿
o c
Ð°Òĵ Ð°ÑĤ
Ð¼ Ð¸Ð½Ð¸ÑģÑĤ
or t
ĠÐ¼Ð°Ò£ÑĭÐ· Ð´Ñĭ
Ð¸Ð¼Ð¾ ÑģÑĤÐ¸
Ò¯ Ð»
ĠÑĤ Ð¾ÒĽ
ĠÑĥ Ð½Ð¸Ð²ÐµÑĢÑģÐ¸ÑĤÐµÑĤ
ÐµÑĤ ÐµÑĢ
Ġ201 7
ÑĢÐ¾ Ðº
t p
ĠÑĢÐµ Ð°Ð»Ð¸Ð·
in d
- -
ÑĤÑĭ ÑĢÑĥ
Ñĥ ÑĭÐ½
ĠÓĻ ÑĢÐµÐº
ĠÒĽÐ°ÑĢ Ð°Ð¹
ĠÐ½Ðµ ÑĦ
Ð´Ð°ÑĢ ÑĭÐ½
ĠÑģ ÐºÐ°Ð·Ð°Ð»
Ġ x
ĠÑģÑĥ Ð¼
ĠÐ± Ð°Ð·
ÑĢÐ¸ Ð·
ĠÐ³Ð¾ÑĢ Ð¾Ð´
ÑģÑĤÐ² Ð¸Ñı
ĠÐ±ÐµÐ»Ð³ ÑĸÐ»
Ñı Ñħ
ĠÐ½ Ð¸Ðº
ÑĢÐµÑĤ ÑĮ
ĠÐĳ Ð°Ð¹
ĠÐ¿Ð¾ Ð·Ð²
Ð° Ðµ
ĠÐ¼ Ð°Ð»
ÑĭÐ· ÑĭÐ»
ĠT he
ĠÑı Ð½
ĠÐ²ÑģÑĤ ÑĢÐµ
ĠÐ½ ÐµÐº
ĠÐºÓ© ÑĤÐµÑĢ
Ð´Ð° Ð¿
Ġ19 9
ĠÐ¸Ð½ÑĤÐµÑĢ ÐµÑģ
ĠÐºÐ¾Ð½ ÐºÑĥÑĢ
ĠÐ¶ Ð°Ð±
ad s
Ð¸Ð½Ð¸ÑģÑĤ ÐµÑĢ
Ð½Ðµ Ð²
ĠÐ°Ð» ÒĵÐ°ÑĪ
ĠÐ±Ó©Ð» ÑĸÐ¼
Ð³ i
ÑĢÐ¾ Ð¼Ðµ
ĠÓĻÑĢ Ñĸ
ĠÑģÐ¿ Ð¾ÑģÐ¾Ð±
Ð°ÑĤ Ð¾Ð²
ĠÐĶ Ð»Ñı
Ð¾Ð½Ñĭ Ð¼ÐµÐ½
Ð¼ Ð°Òĵ
e m
ĠÐĹ Ð°
ĠÑģ Ð¸Ð»
Ð± Ð°ÑģÑĭ
ĠÐ¶ ÑĥÑĢÐ½Ð°Ð»
ĠÐ±Ð°ÒĽ ÑĭÐ»Ð°Ñĥ
Ð² Ð¾ÑĢ
ĠÐ² Ð¸Ð´
ÑģÑĤ Ðµ
Ð° Ñİ
ÑĢ Ð¸Ð¼
ĠÐ¡ Ð¾Ð»
ÑĤÒ¯ ÑģÑĤÑĸÐº
ĠÐ¿ ÑĢÐ°ÐºÑĤ
ĠÐ¼ÐµÐ¶Ð´Ñĥ Ð½Ð°ÑĢÐ¾Ð´
ĠÑģÑĤ Ð°ÑĤÑĮ
Ġ5 0
ĠÐ² Ð°Ð¶
ĠÑħ Ð°Ð»
oo g
ÑıÐ± ÑĢÑı
ÑĸÐ»Ñĸ Ð³Ñĸ
Ġ2 2
1 3
ĠÐ° Ð³ÐµÐ½ÑĤ
ĠÑģ ÑĸÐ·
ÑĢÑĥ Ð¶
: //
ÑīÐµ Ð³Ð¾
Ð¸Ð» Ð¾ÑģÑĮ
ÑĢÐ°Ð½ Ð¸Ñĩ
ÑĪ Ð¸Ðµ
Ð°Ð» Ð¸ÑģÑĤ
ĠÒĽÐ°Ð» Ð°Ð¹
Ð¼ ÑĭÐ·
ĠÑģ ÐµÐ¹ÑĩÐ°Ñģ
Ñį ÑĤÐ¾Ð¼Ñĥ
Ð³ Ð¾ÑĢ
ĠÑĩÐµÐ¼Ð¿Ð¸ Ð¾Ð½
Ñģ Ð°ÒĽ
Ð± Ñĥ
Ðº Ð°Ð½
ÑıÑģ Ð½
ÐĲ Ðł
ĠÐµ ÑĪ
ĠÐ±ÐµÐ· Ð¾Ð¿Ð°Ñģ
ĠÐ¼ÐµÑĢ Ð·
ĠÑĤ ÑĢÐ¸
ĠÐ·Ð° Ñī
ĠÐ¼ Ñĥ
ĠÐ½ Ð¸
Ñĥ ÐµÐ»
ĠÒ° Ð»
Ð¼Ð° ÒĵÐ°Ð½
Ð½Ð°Ð¹ Ñĭ
ĠÐĲ ÑģÑĤÐ°Ð½
Ñı Ð½
ÑģÐ¸ Ð¾Ð½
ÑģÑĤ ÑĭÑĢ
u d
ĠÐ°Ð» ÑĭÐ½
Ð¿ Ð°Ð½
ĠÐ¸ Ð¼ÐµÐ½
ÐºÑĸ ÑĪ
ÑĤÐµ Ð³ÐµÐ½
ĠÐ´Ð² ÑĥÑħ
Ñĸ ÑĢÐ°ÒĽ
ĠÐºÐ¾Ð» Ð¸ÑĩÐµ
Ò±ÑĢ ÑĭÑģ
Ñĥ ÑĭÐ½Ð°
ĠÐ¶Ð°ÑĢ Ð¸Ñı
ÐµÑĢ Ð°
Ðº Ð¾Ð½
ĠÐ´Ð² Ð°
al l
ĠÑģÐ» ÑĥÐ¶
ĠÑĨ ÐµÐ½
ĠÐĺ Ð·
e le
ĠÑħ Ð¾ÑĤ
Ġ20 21
Ð¾Ð» ÐµÐ²
Ġ2 1
Ð´ÐµÑĢ Ð´ÑĸÒ£
Ð°Ð»Ð°ÑĢ ÑĭÐ½
ĠÐ³Ð¾ÑģÑĥÐ´Ð°ÑĢ ÑģÑĤÐ²Ð°
ĠÑĨ ÐµÐ»
ĠÑıÐ½ Ð²Ð°ÑĢ
Ó©Ð» ÑĪ
ĠÐ±ÑĸÑĢ ÑĸÐ½ÑĪÑĸ
ĠÐľ Ð°ÑĢ
u b
ĠÐºÐ¾ÑĤÐ¾ÑĢÑĭ Ñħ
ĠÐŀ Ð½ÑĭÒ£
ĠÑģÐ²Ñı Ð·Ð¸
ĠÐ¿ Ð»Ð¾
Ð°Ð»ÑĭÒĽ ÑĤÐ°ÑĢ
Ð¶ ÑĸÑĢ
ĠÐ´ÐµÑĤ ÐµÐ¹
ÑĨÐ¸ ÐµÐ¹
ĠÑĤÑĢÐ°Ð½ ÑģÐ¿
p e
ÑĢÐ¾Ð² Ð°Ð½
c l
Ġ U
ÐµÐ² ÐµÑĢ
ĠÓĻ Ð¹
ÑĸÐº ÑĸÑĢ
Ð¼Ðµ Ñĩ
Ò Ĵ
ĠÑģ Ð°ÑĢ
ĠÐ¶ÐµÐ½ Ñī
Ðº ÐµÐ½ÑĤ
ĠÑĤÐ°Ð± Ð¸Òĵ
ÑĦ Ð¾Ð½
ĠÑĦ Ð¸Ð·
ÑĦÐµÑĢ ÐµÐ½
20 22
ĠÑģ Ð°Ð½Ñĭ
ĠKazakh stan
ĠÐ¼ Ð¾Ð´
ÐµÐ½ Ð½Ð¾
ĠÓ©ÑĤ ÑĤÑĸ
ĠÐ¸Ð· Ð²ÐµÑģÑĤ
ĠÑģÐ°ÒĽ ÑĤÐ°Ñĥ
ĠÐ´Ðµ Ð´Ñĸ
ĠÐºÐ¾Ð¼Ð¿ Ð°Ð½Ð¸Ð¸
Ð½ Ð´Ð°Ð¹
ĠÑĪ ÐºÐ¾Ð»
ĠÐ°Ð²ÑĤÐ¾Ð¼ Ð¾Ð±
ÑĥÑĪ Ñĸ
ĠÐ±Ò± Ð·
Ð°Ð»ÑĮ Ð½Ð¾
ĠÐ¿ Ð»
ĠÐ²ÑĭÑģÑĤ ÑĥÐ¿
Ð° ÑĨÐ¸Ñİ
ĠÑĢÐµÐ¶ Ð¸Ð¼
ĠÐ´Ð° Ð¶Ðµ
ÐµÐ¼ ÐµÐ½
Ð°ÑĤÐµÐ» ÐµÐ¹
ĠÓĻ Ð´ÐµÐ±Ð¸
ĠÑĥ Ð±
ĠÑģ Ð¸Ñı
Ð½Ð¸Ðº Ð°Ð»ÑĭÒĽ
ĠÑįÑĤÐ¾ ÑĤ
Ð½Ð¸ ÑĨ
Ñĩ Ð°
Ñĥ Ð»Ñı
ĠÐº Ð¾ÑĤÐ¾
e st
ĠÐ³ Ð»
Ð¸Ðº Ðµ
o st
ÐµÑģ ÐµÐ¹
ĠÐºÐ» ÑĥÐ±
ÐµÑģ ÑĮ
Ð¾Ð· Ñı
Ð¶ÑĸÑĢ Ð¸Ð±
Ñĥ Ð¼Ð°
Ñĸ ÑģÑĤÑĸ
Ð½Ðµ ÑĪÐµ
Ð°Ð²Ð» Ð¾Ð´
Ð± Ð°Ð½
ĠÐĿ Ò±ÑĢ
Ð¼ Ò±
ĠÐ°ÑģÑĭ ÑĢÑĥ
ĠÐ´Ð¾Ð»Ð»Ð°ÑĢ Ð¾Ð²
Ġ ÑĸÐ·
ÑīÐµ Ðµ
ĠÐºÐ¾ÑĤÐ¾ ÑĢÐ°Ñı
Ñĥ Ð³
ĠÐ· Ð°Ñģ
Ð°Ðº Ñģ
a in
5 0
ĠÐ¾Ð± ÑıÐ·
Ðµ Ñī
ĠÒĽ ÑĭÑĢ
ĠÐ¶Ó©Ð½ ÑĸÐ½Ð´ÐµÐ³Ñĸ
Ñĩ ÐµÑĤ
ÑĤÑĭ ÑĢÐ°Ñĥ
ĠÑĤÐµÑħÐ½ Ð¾Ð»Ð¾Ð³Ð¸Ñı
ĠÑģÑĩ ÐµÑĤ
ĠÐ½Ðµ Ð·
Ð°Ð»ÑĮ Ð½ÑĭÐ¹
Ġ2 8
Ð½ ÑĥÐ»
ĠÐŀ Ñģ
ĠÑģÐ¾Ð· Ð´Ð°Ð½
ÑĢÐµ ÑģÐ¿
ĠÐ¿ÑĢÐ¸Ð½ Ñı
ĠÓĻ Ð»
ĠÐ³ Ð¾ÑĤ
Ñı Ñī
Ð° Ñī
Ġ Â»
Ġ Ò±ÑĢ
ĠÐºÐµÐ» ÑĸÑģ
ĠÐºÐ¾Ð¼ Ð¸ÑģÑģ
ĠÐºÓ©ÑĢÑģÐµÑĤ Ñĥ
ĠÐ¿ÑĢÐµ Ð·Ð¸Ð´ÐµÐ½ÑĤ
Ġ y
ĠÑĤÐ¸ ÑĸÑģ
Ð°ÑĤÑĥ ÑĢÐ°
Ð°Ñģ Ð°
ĠÐĸ Ð°Ò£
ĠÐķ ÑģÐ»Ð¸
Ð¼ Ð¸Ð½
ĠÐ± Ð¾ÑĢ
ĠÑĤÒ± ÑĢÐ°ÒĽ
Ð¸Ñı ÑģÑĭ
Ð°Ð¹ Ð´Ð°
ĠÐ´Ð¸ÑĢÐµÐºÑĤ Ð¾ÑĢÑĭ
ĠÐ³ ÑĢÐ°Ð½
ĠÑĢÐ° Ð¼
ÑĭÑģÑĤ ÑĭÑĢ
ĠÐ·Ð°Ð½ Ð¸Ð¼
ĠÐº ÐµÐ¼
ĠÐºÐµÐ· Ð´ÐµÑģ
ĠÐ¢Ð°Ðº Ð¶Ðµ
ĠÐ² Ð½ÑĥÑĤ
Ð°ÑĤ ÑĤÑĭÒĽ
ĠÐ°ÑĢÐ°Ñģ ÑĭÐ½Ð´Ð°
Ġ201 6
ĠÐĲ Ð²
ĠÐ¿ÑĢÐ°Ð² Ð¸ÑĤÐµÐ»ÑĮ
ĠÐ´Ð¾Ðº ÑĥÐ¼ÐµÐ½
ĠÐ¾ÑĤÐ¼ÐµÑĤ Ð¸Ð»
ĠÐµÑĢÐµÐº ÑĪ
ĠÐ± ÐµÐºÑĸ
ĠÐ¿ÑĢÐ¾Ð¸Ð· Ð¾ÑĪ
Ġ $
ĠÑģÐ¸Ð¿ Ð°ÑĤ
ĠÐ¸ ÑĤÐ¾
Ð²ÐµÑĢ Ð¶
ÒĽ Ð¾ÑĢ
ĠÐ±Ð°Ð¹ ÒĽ
ÑĤÐ°Ð» Ð°Ð´Ñĭ
ĠÑĪ Ð°ÑĢÑĤ
Ð°Ñģ Ñģ
ÐµÐ½ Ð½ÑĭÐµ
Ñĸ Ð³Ñĸ
ĠÐ±ÑĸÑĢ Ð³Ðµ
ĠÑģÑĤÑĢÐ¾ Ð¸ÑĤÐµÐ»ÑĮ
Ð´Ð° ÐµÑĤÑģÑı
Ð² Ñĭ
ĠÑĤÐµÐ¼ Ð¿ÐµÑĢ
ĠÐº Ð°Ð¿
ĠÐ½Ð° ÑĨÐ¸Ð¾Ð½Ð°Ð»ÑĮ
ĠÐłÐµÑģÐ¿ÑĥÐ±Ð»Ð¸Ðº Ð¸
ĠÒĽ Ð°Òĵ
Ð°Ñģ ÑĭÑĢ
ĠÑģÐµÐ± Ñı
ĠÓ¨ Ð·
ĠÐº ÑĢÑĥÐ¿
ĠÐ± Ð°ÑĤ
ĠÒĽ Ð¸
ĠÐ°Ñı ÒĽ
ĠÒĽ Ð°ÑĤÑĭÐ½
ĠÑĦ ÑĥÑĤ
ĠÑģÐ¸Ñı ÒĽÑĤÑĭ
ĠÐ¾ÒĽ ÑĥÑĪÑĭÐ»Ð°ÑĢ
ĠÑĸ ÑģÐºÐµ
ÐµÐ² Ð°
Ò±Ð» Ñĭ
ÑģÑĸÐ· Ð´ÑĸÐº
ĠÐ¿Ð¾ ÑıÐ²
Ð³ ÐµÑĢÑĸ
ĠÐ¼ Ó©Ð»ÑĪ
ĠÐ´ÐµÐ¹ Ð´Ñĸ
Ñĥ Ð´Ðµ
ĠÑģ Ò¯Ð¹
ĠÐļ Ð°ÑĢ
ÑĸÐ» ÑĸÐ¼
Ñĸ ÑģÑĤÑĸÐº
Ġp ro
Ð¸Ð¼Ð¾ ÑģÑĤÑĮ
Ð¾ ÑħÑĢÐ°Ð½
ĠÐµ Ñģ
Ð°Ð¹ ÑĤ
ĠÑģÐ² Ð¾Ðµ
ĠÐ°Ð¹ ÑĤÑĥ
ĠÑĢÐ¾ÑģÑģ Ð¸Ð¹
ÑħÐ¾Ð´ Ð¸ÑĤ
ĠÑģÐ¾Ð² ÐµÑĢ
ÑĦÐ¸ ÑĨÐ¸Ð°Ð»ÑĮ
ĠÐ¾ÑĤÐ½Ð¾ ÑĪÐµÐ½
Ġ2 7
ĠÑģÑĤÑĥ Ð´ÐµÐ½ÑĤ
Ñĥ Ð´Ñĭ
Ñģ Ð°ÑĤÑĭ
ĠÐ´Ð°Ð½ Ð½ÑĭÐ¼
Ð¾Ð½ Ñĩ
i a
ĠÑģÐ¿Ðµ ÑĨÐ¸
er s
ĠÑĤ Ð¾Ð²
ĠÐ¿Ð¾Ð·Ð² Ð¾Ð»
Ġ ÑĨÐ¸
ĠÐ¼Ð¸ ÑĢÐ°
he ad
ĠÑħ Ð¾ÑĢ
ĠÐľ ÓĻ
es s
ĠÐ½ÐµÑģÐº Ð¾Ð»ÑĮÐºÐ¾
Ðµ ÑģÑĤÐ¸
Ð° ÑĨÐ¸Ð¾Ð½
2 5
ÑĢÐµÑģÐ¿ Ð¾Ð½
ÐµÐº Ñģ
ĠÐĳ ÑĸÑĢÐ°ÒĽ
ĠÑħÐ°Ð»ÑĭÒĽ Ð°ÑĢÐ°Ð»ÑĭÒĽ
ĠÑĤ ÑĸÐ·
ÑĭÒĽ ÑĤÑĭÒĽ
Ð°Ð» Ð¾ÑģÑĮ
ĠÐ¾Ð±ÑīÐµ ÑģÑĤÐ²ÐµÐ½
Ð¸ÑĩÐµÑģÐº Ð¸
ĠÑģ Ò¯
ĠÐ²Ñĭ Ð±
Ġ201 9
ĠÑģÐ²Ð¾ Ñİ
Ð¸ÑĩÐµÑģÐº Ð¸Ð¹
ĠÐ°Ñĥ Ð´Ð°ÑĢ
Ð± Ð°ÑĤ
ĠÓ© ÑĢ
ĠÑģ ÑģÑĭÐ»
âĢ ĵ
1 8
Ð´ÐµÐ½ Ð¸Ðµ
Ð»ÐµÐ½ Ð¸Ð¸
Ò¯ÑĢ Ð»Ñĸ
Ð³Ð¸ Ð±
ÑĭÐ² Ð°ÐµÑĤ
ĠÐ¾ ÑĨÐµÐ½
Ð´ÐµÑĢ ÑĸÐ½
Ð°Ð²Ð»Ð¾Ð´ Ð°ÑĢ
ĠÐ² ÑĭÐ·
ĠÑĤ Ñĭ
ĠÑģÐ¾Ð¾ÑĤÐ²ÐµÑĤ ÑģÑĤÐ²
ag e
Ġ} );
Ð¿ Ð°Ñģ
Ġ ÑĢÐ¸
ĠÐºÒ¯ Ð¹
ĠÐ± Ð°Ð»Ð°
i ÑĢ
ĠÑĤÐ¸ ÑĸÐ¼Ð´Ñĸ
ĠÐ»Ñİ Ð´ÐµÐ¹
Ò± Ñģ
Ð· ÑĸÑĢ
Ð¾Ð³ ÑĢÐ°ÑĦ
Ñĩ Ð¸Ð²
ĠÑĢÐµÑģ ÑĥÑĢ
ĠÐ°ÑĤ ÑĭÐ½Ð´Ð°ÒĵÑĭ
ĠÐĳ Ð°Ð»
ÑĢÐµ Ð¿
ĠÐ¿ Ð°
ĠÐº Ð»Ð°Ñģ
Ð¾ÑģÑĤ Ð°Ð²
f or
Ð´ÐµÑģ ÑĮ
ĠÐ°ÑĢ Ð½Ð°Ð¹Ñĭ
ÑĭÑģ Ð°Ð»Ñĭ
ĠÐ¿ÑĢÐ¾ ÐµÐº
Ð°Ð»ÑĮ Ð½ÑĭÐµ
ĠÐ¿ÑĢÐµÐ´ Ð»Ð¾Ð¶
Ð¾ Ñħ
ĠÐ² ÑģÐµÐ¼
Ð»ÐµÐ½ Ñĭ
ĠÒĽÐ°Ð» Ð°ÑģÑĭ
Ð°ÑĤÐµÐ» Ñı
ĠÑįÐ»ÐµÐºÑĤ ÑĢÐ¾Ð½
Ġ2 9
Ñĥ ÐµÑĤ
ĠÑĦ Ð¾Ð½
i v
ĠÐ¶Ñĸ Ð±ÐµÑĢ
ĠÐ² Ð°Ð»
ĠÐĲ Ñĥ
ĠÐ¿Ð¾ Ð¶
ĠÐ·Ð°ÑıÐ² Ð¸Ð»
Ð»Ð°ÑĢ ÑĭÐ½
o x
ÑĢÐµ Ñħ
ÑĢÐ¸ ÑģÑĤ
Ġ :
ĠÑģÒ± ÑĢÐ°ÒĽ
Ð² Ð¸Ð½
ĠÒ Ĵ
Ð¾ ÑĦ
Ð°Ð» Ð»
ĠÐ´ÑĢÑĥÐ³ Ð¸Ñħ
ĠÐ¼ Ð°Ð³
ĠÐ¨ ÑĭÐ¼
ĠÑĩÐµÐ»Ð¾Ð²ÐµÐº Ð°
Ð» Ð¸Ñı
ĠÑĥÑģÐ»Ð¾Ð² Ð¸Ñı
ĠÑĢÐ° ÑģÑĤ
ĠÐ´ÐµÐ¿ ÑĥÑĤ
ĠÐ± Ð»Ð°Ð³Ð¾
Òĵ Ð°Ð¹
ĠÑħÐ°Ð±Ð°ÑĢ Ð»Ð°Ð¹Ð´Ñĭ
ĠÐ¾Ðº Ð¾Ð»Ð¾
ĠÑĢÐ°Ð¼ ÐºÐ°Ñħ
ĠÐ¸ Ð´Ðµ
ĠÐ· ÐµÐ¼
ĠÓ©Ð· ÑĸÐ½ÑĸÒ£
V I
ÐĲ ÐĿ
e b
Ð¸ÑĨ ÐµÐ¹
ĠÑĢÐµ ÑĪ
ÐºÑĸÐ¼ ÐµÑĤ
Ð¾Ð¼ Ð½Ð¸Ð¼
ĠÐºÑĸ ÑĤÐ°Ð¿
Ð½Ð¸ Ð¶
Ð»Ð° Ð´Ñĭ
Ò ®
ÑĢÐ¾ Ð±
ĠÐ´ÓĻ Ð»
c om
ĠÐ¾ Ð¶Ð¸
ĠÑģ Ó©Ð¹
ĠÐ¿ÑĢÐ¾Ð´Ñĥ Ðº
ĠÐ£ ÐºÑĢÐ°
Ð¸ ÑĦ
Ġ #
Ð¾Ñĩ Ð½Ð¾
Ð» i
Ñģ ÑĸÐ½
ĠÐ¼ Ð¾ÑĢ
Ð´Ñĭ ÒĵÑĭ
Ð½ Ð°Ð¼
Ñĥ Ð²
ĠÐ¿ ÓĻÐ½
ÐĲ ÐĽ
ĠÐ¼ Ð¸Ðº
ĠÐ±ÑĸÑĢ Ð½ÐµÑĪÐµ
ĠÐ´Ðµ Ð¿Ð°ÑĢÑĤÐ°Ð¼
ĠÑĪ ÐµÑĤ
ĠÐ¿ÑĢÐ¾ ÐµÐºÑĤ
ÑĪ ÐµÐ¹
Ġ201 5
gr am
ÐĲ ÒĽ
ĠÒ±Ð¹ÑĭÐ¼Ð´Ð° ÑģÑĤÑĭÑĢÑĥ
Ð¾ÑĢ ÑĭÐ½
ĠÑĥ ÑģÑĤ
ĠÐº Ð°Ð½
ĠÐµ ÑĤÐµÐ´Ñĸ
ĠÐ´Ð¾Ð»Ð¶ Ð½Ñĭ
ĠÐŁ Ð¾Ð»
Ð°Ð½ Ð¸Ð¹
Ñģ Ð¸Ð»
Ð° ÑĪÐ°
ĠÒĽÐ¾ÑĢÒĵÐ° Ñĥ
Ð¸Ð½ Ð¸Ð¼
ĠÑĪ ÑĭÐ½
Ġ on
Ð´ ÐµÐ»ÑĮ
Ð¾Ð´ÐµÑĢ Ð¶
................ ................
ÑĪ ÑĸÑģÑĸ
ĠÐ¿ÑĢÐ¾ Ð¸Ñģ
ĠÑģ ÐµÑĤ
ĠÐ² Ð°Ðº
ĠÐ¢ Ð¾Ðº
ĠÐ¼ÐµÑģÑĤ Ð¾
ĠÑį Ð»ÐµÐ¼
Ð¸ Ñī
Ð± ÑĭÐ»
ĠÐ½Ð° Ð±
ĠÓ©Ð· ÑĸÐ½
ÑĤÐ°ÑĢ ÒĵÐ°
ĠÐ¾Ð± Ð¾ÑĢ
Ðķ Ðł
ĠÐºÐ¾ÑĢ ÑĢÐµÑģÐ¿Ð¾Ð½
ĠÐº Ð²
Ðļ Ðŀ
ĠÐ¿ÑĢÐ¾ÑĨ ÐµÑģ
ÑģÐº Ð¸Ð¼
Ð´Ñĸ Ð³ÑĸÐ½
ĠÑĪ ÑĤ
ÑĤÐ°Ð½ Ð´ÑĭÑĢÑĥ
ĠÐŀ ÒĽ
ÑĨÐ¸Ñı ÑģÑĭ
ĠÑĩÐ¸Ñģ Ð»Ðµ
ĠÐ¸Ð½ÑĦÐ¾ÑĢÐ¼Ð° ÑĨÐ¸Ð¸
ĠÐ¼ÐµÐ½ Ñı
ĠÑįÐºÐ¾Ð½Ð¾Ð¼ Ð¸ÐºÐ°Ð»ÑĭÒĽ
ĠÐ´ Ò±ÑĢÑĭÑģ
ĠÐ» ÑĥÑĩ
ĠÒĽÐ¾Ð· ÒĵÐ°Ð»
ÑĢÐ¸ Ð²
ÑĸÐ» ÑĤ
ĠÐ¿ ÐµÐ´Ð°Ð³Ð¾Ð³
ĠÐ¿ Ð°ÑĤ
ĠÐ·Ð°Ðº Ð»ÑİÑĩ
ĠÐŀÐ´ Ð½Ð°ÐºÐ¾
ÐµÑĤ Ð¾Ð²
ĠÐ¿Ð¾Ð»Ð¸ ÑĨÐ¸Ð¸
Ð¾ ÑĤÐ°
ĠÐ¾Ñĩ ÐµÑĢÐµÐ´
ÑģÐº ÐµÐ½
ĠÐ° ÑģÑĭÑĢ
00 0
ÑĢÐ°ÑĤ ÐµÐ³
ĠÐº ÑĢÐµÐ´Ð¸ÑĤ
ĠÐ¿Ð¾ Ð·
Ð°Ð· Ð°
ĠÐ¾Ð±ÑĬ ÐµÐºÑĤ
ĠÑģÐ°ÑĤ ÑĭÐ¿
Ð¼ Ð¾Ð½
ĠÑģÑĢÐµÐ´ ÑģÑĤÐ²
ĠÐ¿Ð¾ÑĤ ÑĢÐµÐ±
Ð°ÑģÑĤ ÑĭÑĢ
ĠÐµ ÐºÑĸÐ½ÑĪÑĸ
ĠÐ¿ÐµÑĢÐ¸ Ð¾Ð´
ÑģÑĤ ÑĭÒĽ
Ðķ ÐĿ
ÐµÑĤ ÑĤÑĸ
ÑĤÐµ Ð³Ñĸ
ĠÐļ Ð¾ÑĢ
ĠÑĦ Ð¸Ð»ÑĮ
ĠÐ¼ Ð½Ð¾Ð³
Ñĥ ÑĸÑĢ
Òĵ ÑĭÑģ
ĠÐ±Ð°ÑģÑĪ ÑĭÑģÑĭ
ÒĵÑĭ ÑĪ
ĠÑģÑĤ Ð°Ð»
Ð³ ÑĸÐ½Ð´Ðµ
ĠÑĦ Ð¾ÑĤÐ¾
re s
Ð¿ Ð°ÒĽ
ĠÐ¿ Ð¾Ð²Ñĭ
ĠÑģÑĤÑĢÐ°Ð½ Ðµ
ĠÑģÑĭÐ½ ÑĭÐ¿
ĠÐ¿Ð¾ Ð³Ð¸Ð±
ĠÐ¡ ÑĤ
ĠÑĤÐµÐº ÑģÐµÑĢ
ĠÐ¼ Ð¾Ð½
Ð´ÐµÑĢ Ð´Ñĸ
ĠÐ¾Ð½ Ð´Ð°
Ġ r
ĠÐ·Ð°Ð² ÐµÑĢ
ĠÐ½Ð°Ñģ ÐµÐ»
Ñĭ ÑĢÐ°ÒĽ
ÑģÑĤÐ²ÐµÐ½ Ð½Ð¾
ĠÑĪ ÑĭÒĽ
Ð» Ð¸Ð½
ĠÑģÐ¾Ð¾Ð±Ñī Ð¸Ð»
ĠÐĵ Ð»Ð°Ð²
ĠÑģ Ð±Ð¾ÑĢ
ĠÐ¸Ñģ ÑģÐ»ÐµÐ´
Ð°Ð» Ð°ÑģÑĮ
ĠÑĥ Ð¿
ĠÐ¡ Ð¾Ð½Ð´ÑĭÒĽÑĤÐ°Ð½
ĠÐ±Ð°ÑģÒĽÐ°ÑĢ Ñĥ
ĠÐ½Ð°ÑĢ ÑĥÑĪ
Ð¼ ÑĭÐ½
ĠÐ¿ ÑĥÑĤ
ĠÐļ ÑĢÐ¾Ð¼Ðµ
ĠÒ°Ð» ÑĤÑĤÑĭÒĽ
ĠÐ¿Ð°Ð¹Ð´Ð°Ð»Ð°Ð½ Ñĥ
Ð¾ ÑģÑĤÑĮ
ĠÐ¿ÑĢÐ¾ÑĪ Ð»
ĠS p
ĠÐµÐºÐµÐ½ ÑĸÐ½
Ð¾ Ð¾ÑħÑĢÐ°Ð½
Ò »
ĠÑģÑĤ Ð°ÑĢ
ĠÐ¡ Ð¾Ð½ÑĭÐ¼ÐµÐ½
ĠÐº ÑĤÐ¾
ĠÑģÐ²Ð¾ ÐµÐ¹
Ñģ ÑĥÑĤ
ĠÒĽÐ°Ð»ÑĭÐ¿ ÑĤÐ°
ĠÐ¼Ò¯ ÑĪ
ĠÐ· Ð°ÑĤÑĤÐ°ÑĢ
1 4
q u
un d
ÑĤÑĭÐ½ Ð´Ñĭ
Ð°ÑĢ Ð°ÐºÑĤÐµÑĢ
ĠÐ¾ÑĤÑĭÑĢ ÒĵÐ°Ð½
ĠÐ¢ ÐµÐ¼
en gr
ĠÐ¾ Ð·
ĠÐ² Ñģ
ĠÐ¿ÐµÑĢ ÐµÐ²
Ð¼ÐµÑĢ Ð¸ÐºÐ°Ð½
ĠÐ¾Ð±Ð»Ð° ÑģÑĤ
ĠÐ¶Ð¸Ð· Ð½Ð¸
ĠÐ´ Ð¾ÑĢ
ĠÐ¾ÑĤ Ð¼ÐµÑĩ
Ð°Ð» ÑĭÐ¼
ĠÒĽÐ°Ð» ÒĵÐ°Ð½
ĠÒĽÐ¾ÒĵÐ°Ð¼ Ð´ÑĭÒĽ
ĠÓ©Ð½ ÐµÑĢ
ĠÐł ÐµÑģÐµÐ¹
ĠÑĤ ÑĢÐµÐ½
ĠÐ¿ÑĢÐ¸ Ñĩ
ĠÑĤÓĻ Ð¶ÑĸÑĢÐ¸Ð±
p h
ÑĤÐµÑĢ Ð³Ðµ
ÑĤÐ¾ ÑĢÐ°
ĠÐŀ Ð»Ð°ÑĢ
Ð¸ÑĨ Ñĭ
ÑĥÐ» Ñĭ
ĠÐ¿Ð¾Ð» Ð¾Ð¶
ĠÐ¿Ð¾ÑĢ ÑıÐ´
Ðµ ÑĪÐµ
Ġb e
ĠÑģÐº Ð¾ÑĢ
ĠÐĿ Ð¾Ð²
ĠÑģÑĭÑĢ ÑĤ
ĠÐĲ Ð»ÐµÐºÑģ
ÐµÐ» ÐµÐ¹
Ð¸ Ð½Ð¾
ĠÐ±Ð°ÑĢ ÑĭÑģÑĭÐ½Ð´Ð°
ĠÐķ Ð³ÐµÑĢ
ĠÐ¾ ÐºÐ°Ð·
ĠÐ¿ Ð»Ð°ÑĤ
ĠÒĽÒ±ÑĢ ÑĭÐ»ÑĭÐ¼
ĠÐ» Ð¸Ñĩ
ĠÑĥ ÑģÐ¿
en d
ĠÐ°Ð¹ Ð¼Ð°ÒĽ
ĠÑģÐ² Ð¾Ð¹
ĠÑı ÒĵÐ½Ð¸
ĠÐĿÐ°Ð¿ Ð¾Ð¼Ð½Ð¸Ð¼
ÑĤÐ¾ Ñĩ
ĠÓ©Ð· Ñĸ
ĠÑį ÑĤÐ¸
ÑĪ ÑĭÐ»
head er
ĠÓ© ÐºÑĸÐ»
ÑĪ ÐµÐ¼
ĠÑĤÓĻÑĢ Ð±Ð¸
ĠÐ±ÑĸÐ· Ð´ÑĸÒ£
2 3
ĠÑģÑĤÐ°Ð½ Ð´Ð°ÑĢ
ĠÐ¿ ÑĸÐºÑĸÑĢ
ĠÒ¯ ÑģÑĤ
i p
ĠÑį ÑĦÑĦ
ĠÐ³ Ðµ
Ð»Ð¸ ÑĨ
ĠÐ²ÑĭÑģ Ð¾Ðº
ĠÐ´Ð°Ð¹ ÑĭÐ½
ÐµÐ½ Ð½Ð¾Ð³Ð¾
ĠÐ±ÐµÐ·Ð¾Ð¿Ð°Ñģ Ð½Ð¾ÑģÑĤÐ¸
Ñĩ ÐµÑģÐº
tp s
ĠÐ½Ð° ÑģÑĤÐ¾Ñı
ĠÓĻÐ¹ ÐµÐ»
Ð¼ Ð¾Ð»
ĠÐ½ ÑĭÑģ
ĠÑģÐ» Ð¾Ð¶
ĠÑģ ÑĦÐµÑĢ
Ð°Ð½ Ð¾Ð²
ÐºÐµÐ½ Ñĸ
ĠÐ¾ ÑĦÐ¸ÑĨÐ¸Ð°Ð»ÑĮ
ĠÐĳ Ò¯
ĠÐĲ ÑĤÑĭÑĢÐ°Ñĥ
ĠÐ¸Ð· Ð±
ĠÐ· Ð²
( '
ÐµÐ´ ÐµÐ½
ĠÐ´Ð¾ ÑģÑĤÐ¸
Ðº ÐµÑĤ
Ġ* *
ĠÐº ÑĸÑĢ
ĠÑĤ Ð°ÒĵÑĭ
ĠÐ°ÑĥÐ´Ð°Ð½ Ñĭ
Ðº Ò¯Ð¹
ĠÐŁ Ð°ÑĢ
ĠÐ° Ð±
ĠÐ± Ð¾Ðº
Ġ ÑĭÒĽ
ĠÐ´ ÐµÑĢÐµÐº
Ð´ Ð°ÑĤÑĮ
Ġ k
ĠÑħ Ð¾Ð´Ðµ
ĠÐ· Ð°Ð¼Ð°Ð½
ĠÑĢÑĥ Ð±
ĠÐ¿ÑĢÐµ Ð¼
ĠÐ½ÑĥÐ¶ Ð½Ð¾
Ð½ Ð´Ð°
ĠÐľ ÐµÐ½
Ð°ÑĢÐ° Ð³Ð°Ð½
ÑĥÑīÐµ ÑģÑĤÐ²
ĠÒĽ ÑĭÑģ
ĠÐ±ÐµÐ» ÑģÐµÐ½
ĠÐ¿ÑĢÐ¸Ð¼ ÐµÐ½
ĠÑģÐ¾Ð³ Ð»Ð°Ñģ
ĠÑĪ Ð°Ð¼
ÑĤÐ¸ ÑĢÐ¾Ð²
ele gram
Ð¾Ð·Ñı Ð¹
ÑģÑĤÐ² Ð¸Ðµ
w w
ĠÑĢÐµÐ·ÑĥÐ»ÑĮÑĤ Ð°ÑĤÐµ
ĠÑģÑģÑĭÐ» ÐºÐ¾Ð¹
Ð³ ÑĸÐ»ÑĸÐºÑĤÑĸ
Ð»Ð°Ð½ ÒĵÐ°Ð½
ĠÑģÐ¿Ðµ ÑĨÐ¸Ð°Ð»ÑĮ
Ġ4 0
ĠÐ¾ ÒĵÐ°Ð½
c ol
Ð¸ÑĢÐ¾Ð² Ð°ÑĤÑĮ
ĠÒĵ Ð°ÑģÑĭÑĢ
ĠÐ´ Ð°Ð²
ÐµÐ½ Ð½ÑĭÐ¹
ÐµÐ· Ð´
ĠÐ´ ÐµÑģ
ĠÐ°Ð¹ÑĤ ÒĽÐ°Ð½
Ð°ÑĤÐµÐ» Ð¸
Ð½ Ð´Ñĭ
Ð½ ÑĮ
ĠÑĤ ÑĢÐ°
ÑĤÐ¾ ÒĽ
Ð³ ÑĢÐ°
Ð°ÑĢ Ð¾Ð²
Ð¾ÑĢ Ð´Ð°
ĠÐ»Ð¸ ÑĪ
Ðº ÐµÐ¼
i Ò£
ĠÒ¯ Ð·
Ð½ Ð¸Ð·
Ó© ÑĢ
ĠÐ°Ð² ÑĤÐ¾ÑĢ
ĠÐĳ ÐµÐ»
ÑĢÐµ ÑģÑģ
ĠÑĢÐ°Ð· Ð»Ð¸Ñĩ
ÑĸÐ½Ðµ Ð´Ñĸ
ĠÑĩ Ð°ÑģÑĤÐ¸
ÐµÑģ ÑĸÐ½Ðµ
ÑĢ ÑĭÑĤ
ÐµÐ» Ð°
Ð´ÐµÑĢ ÑĸÐ½ÑĸÒ£
Ð¸ÑĤ Ð°
ĠÑĢÐ°ÑģÑģÐºÐ°Ð· Ð°Ð»
ĠÐ°Ð´Ð°Ð¼ Ð½ÑĭÒ£
in ews
ÑĭÑģÑĤ ÑĭÒ£
ĠÐ¼Ð°ÑĤÐµÑĢÐ¸ Ð°Ð»
ĠÐ½Ð° ÒĽÑĤÑĭ
ĠÐ¼ÓĻÐ´ÐµÐ½ Ð¸ÐµÑĤ
ĠÐ° Ð¿ÑĢ
Ð°Ð½ ÑģÐ¾Ð²
i st
ÐµÑĤ ÑĢ
ĠÐ±Ñĸ ÑĢÐ°ÒĽ
engr inews
ĠÐ¼Ð¾Ð¼ ÐµÐ½ÑĤ
ÐĲ Ð¢
ĠÐ¿Ð¾ ÑģÑĤÐ°Ð²
Ð¾Ñı Ð½
ĠÐºÐ¾ÑĢÐ¾Ð½Ð°Ð²Ð¸ÑĢÑĥ Ñģ
ÑĭÑģ ÑĭÐ½
ĠÑĤÒ¯ Ð·
ĠÒļ Ò±
1 7
ĠÐ·Ð°Ðº Ð¾Ð½Ð¾
ĠÑģ Ð¾Ð´ÐµÑĢÐ¶
ĠÑĩ ÐµÑĤ
ĠÑĤ Ñı
Ð°Ð½ Ð´Ñĭ
it h
ĠÐ¾ÑĢÐ½Ð°Ð»Ð°Ñģ ÒĽÐ°Ð½
% ,
ĠÐ·ÐµÑĢÑĤ ÑĤÐµÑĥ
ĠÐµÑĢÐµÐº ÑĪÐµ
ÑĭÐ¼ ÑĪÐ°
ÑĸÐ» ÑĸÐ¿
Ð¡ ÑĥÐ»ÑĤÐ°Ð½
Ð¸ÑĤ Ð¾ÑĢ
ĠÐ± Ð¾Ñģ
ĠÓĻ Ð½
ĠÐ¼Ðµ ÑħÐ°Ð½
ĠÐ´ÐµÐº Ð°Ð±
Ðµ Ð³ÐµÐ½
r am
ĠÐ¿Ð¾ ÐºÐ°
ĠÐ°ÑĢÐ°Ñģ ÑĭÐ½Ð´Ð°ÒĵÑĭ
2 6
od ay
Ñĩ Ð¸ÑĤ
Ð¢ÐĲ ÐĿ
ĠÐ¿Ð¾Ð± ÐµÐ´
ĠÑĦÑĥÑĤ Ð±Ð¾Ð»
ĠÑħ Ð°ÑĢÐ°ÐºÑĤÐµÑĢ
ĠÐ²Ð¸Ð´Ðµ Ð¾
Ò¯ Ð½
ĠÐŁ Ð°Ð²Ð»Ð¾Ð´Ð°ÑĢ
Ò ¢
ĠÐ½Ð°Ð· Ð²
ĠÐĳ Ò±
ĠÐ½Ð°Ð· Ð½Ð°Ñĩ
ĠÑģ ÐºÐ°Ð·
ÒĽ ÑĭÐ»
Ðº Ð¸Ñħ
ĠÐ¼ Ð°Ð¹
ĠÐ¼ÓĻÑģÐµÐ» ÐµÐ»ÐµÑĢ
Ð¾Ð² ÐµÑĢ
ÑĢÐ° Ñĩ
ÑģÑĤÐ²Ñĥ ÐµÑĤ
Ñī Ð°Ð´
ĠÐ¶ÑĥÑĢÐ½Ð°Ð» Ð¸ÑģÑĤ
ĠÐ±Ð°ÑģÑĤ Ñĭ
ĠÐ¸ Ðµ
ÑĮ Ðµ
Ð³Ð¾ Ð´
ĠÐ¿ÑĢÐµÐ´ ÑģÐµÐ´
ĠÐ°ÑĤ ÑĤÑĭ
Ð¾Ð»Ð½ Ð¸ÑĤÐµÐ»ÑĮ
ĠÐ¼ Ð°
ÑĢ Ð¸ÑıÑĤ
ÑĤÐ° Ð±
ĠÑģÐµÐ± ÐµÐ¿
un ction
ĠÐ¼ Ð°Ð·
ÒĵÐ°Ð½ Ð´Ð°
ĠÐ° ÑģÐ¿
ĠÓ©Ð· Ð³Ðµ
ÑĤÐ¾ÒĽ ÑģÐ°Ð½
Ð¾ Ò£
ĠÐ¾Ð± ÑĢÐ°ÑĤ
ĠÐ°Ð»ÒĵÐ°ÑĪ ÒĽÑĭ
ĠÐ¾Ð»Ð°ÑĢ Ð´Ñĭ
ĠÑĤ Ó©Ð»
Ð¿ Ð¸ÑĤ
Ð¿ Ð°Ð»
ÐµÑģÑĤ ÐµÑĢ
ĠÐºÓ© Ð¼ÐµÐº
Ð°Ñĥ Ñĭ
Ð±Ð°ÐµÐ² Ð°
Ð´ Ð°ÑĤÐµÐ»ÑĮ
ÐĲ Ð¡
ĠÐ¿ Ð¾Ð»ÑĮÐ·
Ð½ÐµÐ½ Ð¸Ñİ
8 0
Ð°Ðº ÑĤ
ĠÑĤ ÑĢÑĥÐ´
ĠÐ·Ð°Ð± Ð¾Ð»ÐµÐ²
i f
ĠÐ¿Ð¾ÑģÑĤ ÑĥÐ¿
ĠÐ± Ó©
Ð¾Ð¶ Ðµ
ĠÐ¾Ð³ ÑĢÐ°Ð½Ð¸Ñĩ
e p
ĠÐ¢ Ò¯ÑĢ
Ð½ Ð¸ÑĩÐµ
ĠÐ½ÐµÐº Ð¾ÑĤ
Ð² Ð°
% .
ĠÑı Ð·Ñĭ
ĠÑĤÒ±Ð» Òĵ
ĠÑģ ÑĭÐ¹
ĠÑĤÐ¾ÑĢ Ð³Ð¾Ð²
ĠÐŁÑĢÐµ Ð·Ð¸Ð´ÐµÐ½
ÑĢÐµ Ð¹
ĠÑĤÓ© ÑĢÐ°Òĵ
Ð¼ Ð°Ð¹
ĠÐ¿ÑĢÐµ ÑģÑĤÑĥÐ¿
Ð°Ð½ Ð¾
ĠÐº ÐµÑĢ
Ð¼Ðµ Ñī
ĠÓĺ ÑĢ
ÑĪ ÑĸÐ»ÐµÑĢ
ĠÐ²Ðº Ð»ÑİÑĩ
ÑĪ ÑĭÒĽ
ĠÑģ ÑĥÑĢÐµÑĤ
Ð¸Ð² Ð°ÑĤÑĮ
ĠÓ©Ð½ ÑĸÐ¼
Ðº ÑĨÐ¸Ñı
ÐĲ ÑģÑĤÐ°Ð½Ð°
ÑĢÐ¾ ÑģÑĭ
ĠÑģ Ð¸Ð»ÑĮ
Ðº Ð¾ÑĢ
ĠÑģÐ»ÑĥÑĩ Ð°Ðµ
ĠÑģÐ² Ð¾Ð±
ĠÐµÐ» ÑĸÐ¼ÑĸÐ·
ÐµÐ½ Ð·
ĠÑģÑĤÐ¾ÑĢ Ð¾Ð½Ñĭ
ÑĪ Ð°ÑĢ
ĠÑģÐ»ÐµÐ´ ÑĥÑİÑī
ĠÐ¶Ò¯ÑĢÐ³ÑĸÐ· Ñĥ
ĠÐ¿ÑĢÐ¾Ð² ÐµÑĢ
ĠÐ° Ð¼
ĠÐ¼Ò± ÒĵÐ°Ð»
ĠÑĥ ÑģÐ¸Ð»
Ð¾Ð¿ ÑĢÐ¸ÑıÑĤ
Ð¿ Ð°Ð¹
ĠÐº Ð²Ð°ÑĢ
ĠÐ±Ò¯ Ð³ÑĸÐ½
ĠÑĥ ÐºÐ°Ð·
ĠÐ° ÑĤÐ°Ð¿
ĠÐ°Ñĥ ÑĭÑĢ
ĠÐ½Ð° Ñĥ
Ð½Ð¾ Ð·
ĠÐ¼ ÑĭÐ½Ð°
ĠÐ¿ÑĢÐµÐ´Ð¿ÑĢ Ð¸ÑıÑĤ
ĠÐ§ ÑĤÐ¾
Ð¸Ðº Ñĥ
ĠÐ°Ð¹ ÑĭÑĢ
Ðŀ ÐĿ
ÑĭÐ» Ñĥ
ĠÑģ ÐµÐ½ÑĤ
ÑģÐ°Ñĥ Ð»ÑĭÒĽ
ĠÒĽÐ°Ð· ÑĸÑĢÐ³Ñĸ
Ð»Ðµ Ñĩ
ĠÑĢÐµÐ³Ð¸ Ð¾Ð½
Ðº Ð¸Ð½
ĠÑĸÑĪ ÐºÑĸ
ĠÑħÐ¾ÑĢ Ð¾ÑĪ
p l
ÐµÐºÑĤ Ð¾ÑĢ
Ñģ ÑĭÐ¼
Ð»Ð° Ð¿
Ð¼ ÑĭÑĪ
ĠÐ¿Ð°Ð¹ ÑĭÐ·
ĠT elegram
ĠÐ¶ ÐµÐ¼
ĠÒĽÑĭÐ·Ð¼ÐµÑĤ Ñĸ
ĠÑıÐ½Ð²Ð°ÑĢ Ñı
Ò±Ð» ÑĤÐ°Ð½
Ð¿ Ð¾ÑĢÑĤ
ĠÐºÐ¾ÑĢÑĢÐµÑģÐ¿Ð¾Ð½ Ð´ÐµÐ½ÑĤ
ĠÑģÑĥ ÑīÐµ
ÐµÐ± Ñĸ
ÐŁ Ð¾ÑģÑĤ
ĠÐ½Ð°ÑģÐµÐ» ÐµÐ½Ð¸Ñı
ĠÑĢÐ° Ð´Ð¸
ĠÑĦ Ð¾ÑĢ
ĠÐ¾ Ð´Ð°Ð½
ĠÐ» ÐµÐ³
ĠÐºÐ°Ð¿ Ð¸ÑĤ
Ð» Ñĥ
Ñģ ÑĮ
ĠÐ´ ÑĸÐ½
Ð¾ ÐºÐ¾
ĠÐ´ Ð°Ð»ÑĮ
ĠÑĤÐµÑĢÑĢÐ¸ÑĤ Ð¾ÑĢÐ¸Ð¸
ĠÐ¾Ð±ÑĬ ÐµÐ¼
ĠÑĢÐµ Ð±ÐµÐ½
ÒĽ Ð°ÑĤ
ĠÐºÓ© Ð±
ĠÐ· Ð½
ĠT oday
ÑģÐº Ð°
Ð»Ñı ÑĤÑĮ
ĠÒĽÒ±Ð¶ Ð°ÑĤÑĤÐ°ÑĢ
Ð°Ð¼Ð± ÑĭÐ»
ĠÐ¡ Ð°Ð¼
Ð¸Ñģ Ð°
ÐĲ Òļ
ĠÐ²ÑĢÐµÐ¼ÐµÐ½ Ð¸
Ð°Ð½ ÐµÐµ
ĠÑĢÐ°Ð± Ð¾Ñĩ
ĠÐ± ÐµÑģÐ¿
ĠÑģ ÐµÐ»ÑĮ
Ð² Ð°ÑĤ
ÑģÑĤÐ²ÐµÐ½ Ð½ÑĭÑħ
Ð³ Ð¸ÑģÑĤ
Ð¸ÑĢÐ¾Ð² Ð°Ð½Ð¸Ñı
ĠÐ·Ð° Ð´Ð°
ĠÐŁÐ¾Ñģ Ð»Ðµ
ĠÐ¿Ð¾Ð´ Ñĩ
Ġ ..
ÑĭÐ» ÑĥÑĭ
ĠÐ°Ð´Ð°Ð¼ Ð´Ð°ÑĢ
ĠÐ´ Ð°Ð»
ÑĤÐµÑĢ ÑĸÐ½ÑĸÒ£
ĠÑģÐ²Ð¾ Ð¸
ĠÑģÑĤ Ð°ÑĤ
ĠÐ¾Ñģ ÑĥÑīÐµÑģÑĤÐ²
Òĵ ÑĭÐ½ÑĭÒ£
ÓĻÑģ Ñĸ
ÑĤ Ó©
Ð¸Ñı Ð½ÑĭÒ£
Ð³ ÑĥÑģÑĤ
ĠÐ¢ Ð°ÑĢ
ĠÐ¿Ð»Ð°Ð½ Ð¸ÑĢÑĥ
ĠÐ¿ÑĢÐ¾ÑĨ ÐµÑģÑģ
n ik
ĠÐºÓ© Ò£
ÐµÐ½ Ð½Ð¾Ð¹
ĠÐ¶Ò¯ÑĢ Ð³ÐµÐ½
ĠÐĸ Ð°Ð½
ĠÒĽÒ± ÑĢÑĥ
ÑĥÐ¶ Ð´ÐµÐ½
ĠÑĢÐ°Ð±Ð¾ÑĤ Ñĥ
ĠÒļÐ°Ð·Ð°ÒĽÑģÑĤÐ°Ð½ Ð½ÑĭÒ£
ÑĸÐ¿ ÑĤÑĸ
ĠÐ¸Ð½ÑĦ ÐµÐº
Ð½Ð¾ÑģÑĤ ÑĢÐ°Ð½
Ð´Ðµ Ð¿
ĠÐºÐ°Ð¶ Ð´
ĠÐ² Ð½Ð¸Ð¼
ÑĭÐ½ Ñĭ
ĠÐĸ Ð°ÑĢ
ĠÑģÐ¸ÑģÑĤÐµÐ¼ Ñĭ
Ñģ ÐµÐº
ĠÐ¿Ð¾Ð´ Ð¿Ð¸Ñģ
Ð¾ÑģÑĤÐ°Ð½ Ð°Ð¹
ĠÐ´Ð¾Ð¼ Ð°
e v
ĠÐº Ð¾Ð´
ĠÑģÐ¾Ð¾Ð±Ñī Ð¸Ð»Ð¸
ĠÐ´ÐµÑıÑĤÐµÐ»ÑĮ Ð½Ð¾ÑģÑĤÐ¸
ĠÐľÐµÐ¼Ð»ÐµÐºÐµÑĤ ÑĤÑĸÐº
ĠÑģ Ñĭ
ĠÒĽÐ¾ÑĢÑĭ ÑĤÑĭÐ½Ð´Ñĭ
ĠÑĤ ÑĢ
i ve
ĠÑĥ Ð´
ĠÐºÓ©ÑĢ ÑĸÐ½
ÑĦÐ¸ ÑĨÐ¸
ĠÐ·Ð°Ò£ Ð´Ñĭ
ĠÐ´ Ð°Ñĥ
oo k
ÑģÐº ÐµÑĢÐ¸
ĠÐ´Ð¾Ð± Ð°Ð²
ĠÐ¸Ð½ Ð´
ÑĭÑģÑĤ Ð°ÑĢÑĭ
Ðĳ Ò±Ð»
ĠÑĤÐ°Ñĥ Ð°ÑĢ
ĠÐ¾ ÐºÑĤ
ĠÐ¼ Ð°Ð¼
ĠÑģ Ð°ÒĵÐ°ÑĤ
it y
ÑĪ Ð¸Ð¼
ĠÐ¿ÑĢÐ¾ ÐºÑĥÑĢ
ĠÐ¼Ð°ÑĢ ÑĤÐ°
ĠÐ½Ðµ Ð³Ð¾
Ġ Y
ĠÐ½ Ð¾Ð¼
ĠÑĤ ÑĸÐº
ĠÐĳ Ð¾Ð»
ĠÐ° Ð¼ÐµÑĢÐ¸ÐºÐ°Ð½
ĠÐ´ Ð¾Ð³
ĠÐ¾Ð±Ð» ÑĭÑģÑĤÑĭÒĽ
ĠÑĥÐ³ Ð¾Ð»Ð¾Ð²
for m
Ð»Ð° Ð³
u p
Ġ201 4
ĠÐ¼ÐµÑĢ Ð¾Ð¿ÑĢÐ¸ÑıÑĤ
Òĵ ÑĭÐ¼
a il
ĠÐ² Ð¾Ð»
ĠÒĽÐ°Ð± ÑĸÐ»
Ð¾Ð»Ð¾Ð³ Ð¸Ð¸
Ð¾Ñı Ð±
ĠÐ¼Ð¸Ð»Ð»Ð¸ Ð°ÑĢ
Ð»Ðµ Ò£
ÑİÑī Ð¸Ñħ
ĠÐ¢Ð¾Ðº Ð°ÐµÐ²
Ð¸Ð¼ Ð¿
ĠÑĢÐ°Ð· Ð¼ÐµÑĢ
ĠÐ±ÐµÐ»ÑģÐµÐ½ Ð´Ñĸ
ĠÑģÑĤ ÑĢÐ°ÑĤÐµÐ³
ĠÒĽÐ°Ð¶ÐµÑĤ ÑĤÑĸ
Ð¸ÑĤ Ð°ÑĢ
i Ð¼
ĠÐ´Ð¸ÑĢÐµÐºÑĤ Ð¾ÑĢ
ĠÐ²ÐµÐ´ Ð¾Ð¼
ĠÑĤÒ±ÑĢ ÒĵÐ°Ð½
ÑĸÐ¼ Ð´ÑĸÐº
ĠÐµ Ð´Ð¸Ð½
ĠK A
Ðº Ð°Ð¼Ð¸
ĠÐ¿ÑĢÐ¸Ð½ ÑĨÐ¸
ĠÓ©Ò£ ÑĸÑĢ
ĠÑģÐ°Ð¹ ÑĤ
Ð± Ð¸Ðµ
ĠÐ´Ò¯ Ð½Ð¸Ðµ
ĠÐ¿ÑĢÐµÐ´Ð¿ÑĢ Ð¸Ð½Ð¸Ð¼
Ð¼ÐµÑģÑĤ Ðµ
ÑģÐº ÑĥÑİ
ĠÑĦÐ¸Ð½ Ð°Ð½ÑģÐ¾Ð²
Òļ Ð°Ð·
Ð¸ÑĩÐµÑģÐº Ð°Ñı
ĠÑĦ ÐµÐ²
ĠÑĥÐ°ÒĽÑĭÑĤ ÑĤÐ°
ĠÑģÑĤ Ð°Ð²
ĠÒĽ Ð¾Ð½
Ð°ÑİÑī Ð¸Ñħ
ÑĤ Ð¾ÑĢÑĭ
ĠÐļ Ð°ÑĢÐ°Ð³Ð°Ð½
Ð»ÐµÐ½ Ð¾
ĠÐ¿ÑĢÐ¸Ð¼ ÐµÑĢ
ĠÑĦÐ°Ðº ÑĤÐ¾ÑĢ
ĠÐºÓ©Ð¿ ÑĤÐµÐ³ÐµÐ½
ĠÑĥÐ¿ÑĢÐ°Ð² Ð»ÐµÐ½Ð¸Ñı
ÒĽ ÑĭÑĪ
ĠÑģÐ°Ð¹ ÑĭÐ½
Ġ X
ÑģÑĤ ÐµÐ¼
ĠÓĻ Ð·ÑĸÑĢ
ÑĤÐµ Ñħ
ar t
ĠÐĲÐ»Ð¼ Ð°ÑĤ
on e
ut nik
ÑĢ Ð°ÑĤÑĮ
Ġw ith
ĠÐĴ Ð¾
Ð¸Ð² Ð°ÐµÑĤ
ÑĢÑĥ Ð³Ð¾
ÑĤÐµ Ð¿
ĠÐ±Ð¾Ð» Ñĥ
ĠÐ´ÐµÐ¹ÑĸÐ½ Ð³Ñĸ
Ð½ Ð´Ñĸ
ĠÐµÐ¼ Ñĥ
ĠÑħ Ð¸Ð¼
ĠÑĤ ÑĸÐ»Ñĸ
ĠÐ¼ ÐµÒ£
ĠÐ¸ Ð½Ð¾ÑģÑĤÑĢÐ°Ð½
A N
2 7
ĠÐ¿Ð»Ð¾ ÑīÐ°Ð´
ĠÑĤ ÓĻÑģ
ĠÑĨÐ¸ ÑĦ
ĠÒ± ÑĪ
ĠÒĽÐ°Ð»ÑĭÐ¿ ÑĤÐ°Ñģ
ĠÐº ÑĥÐ»ÑĮÑĤ
ĠÑĪÐµÑĪ ÑĸÐ¼
ĠÑĤÐµ Ñĩ
ĠÐ¿ÑĢÐµÐ·Ð¸Ð´ÐµÐ½ ÑĤÐ°
ĠÐ°Ð·Ð°Ð¼ Ð°ÑĤÑĤÐ°ÑĢ
ÐµÐ½ÑĤ ÑĢ
Ð°Ð» ÑĭÐ¿
ÑĭÑĢ Ð³
Ð¾ ÐµÐ²
ĠÐ¼ÐµÐº ÐµÐ¼
ĠÑģÐ¾ ÑħÑĢÐ°Ð½
Ð»Ð°Ð¹ Ð½
ĠÐĹ Ð°Ò£
ig ht
ĠÒĽ ÑĭÐ»Ð¼
ĠÐ¿Ð¾Ð´ Ð³Ð¾ÑĤÐ¾Ð²
ĠÑģ Ð½Ð¸Ð¶
ĠÑĢÐ°ÑģÐ¿ ÑĢÐ¾
ĠÑģÐ¾Ò£ ÒĵÑĭ
ĠÑĢÐµ ÑĪÐµÐ½Ð¸Ðµ
Ñį ÐºÐ¾Ð½Ð¾Ð¼
ĠÐ¶ Ð°ÑģÑĤÐ°ÑĢ
ĠÐľ Ð¾ÑģÐº
ĠÐ¶Ð°ÒĵÐ´Ð°Ð¹ Ð»Ð°ÑĢ
ĠÒĽÐ°Ð» Ð°
ĠÑĢÐ°Ð· ÑĢÐ°Ð±Ð¾ÑĤ
ÑĢÐ¾ Ð·
ĠÐºÓ© Ð»ÑĸÐº
ÐµÐ¼ Ð°ÑĤ
ĠÐ¢ Ó©
ĠÐ²Ð½ÑĥÑĤ ÑĢÐµÐ½
ÐºÐ° Ð´ÐµÐ¼
ĠÐ¾Ð± ÑĥÑĩ
ÒĽ ÑĭÐ·
ĠT engrinews
l y
ĠÒĽÐ°ÑĢ Ð°Ð¿
s c
ĠÑĤ ÑĢÑĥ
ĠÑĢÐ°Ð½ ÐµÐµ
ĠÐ¶ÐµÑĢ Ð´Ðµ
Ð» Ð¾Ð²
ind ow
Ñģ Ð°ÑĢ
ĠÐ° Ð³
ĠÐ°Ð² Ð¸
ĠÐºÐ¾Ð½ÑĤ ÑĢÐ¾Ð»
ĠÐºÐ°ÑĤ ÐµÐ³
ĠÑģÐ¾ Ð½Ñĭ
ĠÐ´Ð² Ð¸Ð¶
2 4
Ġ/ /
ag ram
Ð¹ÑĤ ÐºÐµÐ½Ñĸ
Ð¾Ð» ÐµÑĤ
Òĵ ÑĭÐ½Ð´Ð°
p ort
ĠÐ±ÐµÑĢ ÑĸÐ»Ð³ÐµÐ½
ĠÐ°ÑĢÑĤ ÑĤÑĭÑĢÑĥ
Ð¾Ð² Ð°Ð»Ð¸
ĠÐ¾ÑĤ Ð´ÐµÐ»
ÑĭÑĢÐ³ ÑĭÐ·
Ġ Â
ĠÐ¾ÑĢÑĤÐ°Ð»Ñĭ ÒĵÑĭ
ĠÐ¼ÑĸÐ½Ð´ÐµÑĤ ÑĤÑĸ
ĠÐµ Ð²
ĠÐ¼Ñĥ Ð·Ñĭ
ĠÐ¾ÑĢÑĤ Ð°Ð»ÑĭÒĽ
Ð°ÐºÑģ Ð¸Ð¼
ĠÑĪÑĭÒĵÐ°ÑĢ Ð¼Ð°
ĠÐ½Ðµ Ð¿
ĠÑĦÐ¸Ð½ Ð°Ð½Ñģ
ĠÑĢÐµ Ð³Ñĥ
ĠÐº Ò¯ÑĢ
ĠÐŀ Ð½Ð¸
ĠÑģÐ²Ð¾ Ð¸Ñħ
ĠÐ°Ð´ Ð¼Ð¸Ð½Ð¸ÑģÑĤ
ĠÐĲ Ðŀ
ĠÑĪ ÐµÐº
ak on
ĠÐ³Ð¾ÑĤ Ð¾Ð²
i z
Ðĸ Ð¾Ð¼
ĠÐ¿ÑĢÐµÐ´ Ð¾ÑģÑĤÐ°Ð²
ĠÐ¾ÑĢÐ³Ð°Ð½Ð¸Ð· Ð°ÑĨÐ¸Ð¸
ĠÑĤ Ð¾Ñĩ
ĠÐĸ Ð°Ð»
ĠÐ· Ð´ÐµÑģÑĮ
ĠÐ±Ð°ÑģÒĽÐ°ÑĢ Ð¼
ÑĤ ÑĸÐ»ÑĸÐº
ĠÑį Ð¿
Ð¸Ð½ Ð°ÑĢ
ÑĢÐ¾ Ñĩ
st agram
ÑĢÐ°Ð· Ð´
ÑĭÐ² Ð°ÑİÑĤ
ĠÐ½ Ð¾ÑıÐ±
ĠÐ¿Ð¾ÑģÑĤ ÑĢÐ°
Ðľ Ðĺ
ÑĭÐ» Ð°Ð¹
t y
ĠÐ½ÐµÐ¾Ð±ÑħÐ¾Ð´ Ð¸Ð¼Ð¾
ĠÓĻÑĢÐµÐº ÐµÑĤ
ĠÐ±Ð°Òĵ Ð°Ð»Ð°Ñĥ
ĠÐ±ÐµÑĢ Ð´Ñĸ
ĠÐŁ ÑĢÐµÐ´
ĠÐ°ÒĽÐ¿Ð°ÑĢÐ°ÑĤ ÑĤÑĭÒĽ
ÑĤÐ°Ð» Ð´Ñĭ
ĠÐ¿ÐµÑĢ Ðµ
ĠÑģÐ°Ñı ÑģÐ°ÑĤ
ÑĤÐµ Ò£
Ð°Ñĥ ÒĵÐ°
ĠÐ¶ Ñĥ
Ġ _
ÑģÑĤ Ð¸ÑĤ
ĠÐ°ÑģÑĤ Ð°Ð¼
Ð¾Ð² Ð°Ð»
Ð°ÑĤ ÑĤÑĭÒ£
ĠÑĢÐµ Ð°Ðº
ĠÐµ ÑģÐºÐµÑĢ
Òļ Ð°Ð·Ð°ÒĽ
ĠÐ²Ñĭ ÑıÐ²
ĠÐ¿Ð¾Ð» Ð¸ÑĨÐµÐ¹
ĠÐºÐ¾ÑĤÐ¾ÑĢ Ð¾Ð¹
ĠÐ¿ÑĢ ÑıÐ¼
ĠÑĢÐ°ÑģÐ¿ÑĢÐ¾ ÑģÑĤÑĢÐ°Ð½
2 8
Ð½ Ð¸Ñĩ
ĠÐ±Ó©Ð» ÑĸÐ½
Ð² Ð¸
ĠÐ°Ð» ÑĥÒĵÐ°
ĠÓ©Ð· Ð³ÐµÑĢÑĸ
S T
ĠÐ·Ð°Ð¼ ÐµÑģÑĤ
ĠÑģÐ°Ñı ÑģÐ¸
ĠÒĽÐ¸ ÑĭÐ½
Ð¼Ð°ÑĤ ÑĢÐ¸Ð²
ĠÐĴ Ð»Ð°Ð´
Ð°Ñĥ ÑģÑĭÐ¼
Ð» ÑĭÒĵ
ĠÒļ Ò±ÑĢ
Ð¿ Ð¾ÑĢ
ĠÐ¾Ð± Ñģ
i al
ĠÑĪÑĭÒĽ ÒĽÐ°Ð½
Ð°Ð¹ ÑĭÐ½
ĠÐ¼Ð¸Ð½ ÑĥÑĤ
ĠÑĤ Ð¾Ð±
Ð° ÑĨÐ¸Ð¹
ĠÐ°Ð² Ð³ÑĥÑģÑĤ
ÑĢÐ¾ Ð´
Ð¾Ð± ÑĢÐ°Ð·
ĠÐ¾Ð±ÑĢÐ°Ð· Ð¾Ð¼
ĠÒĽÐ¾Ð» Ð´Ð°Ñĥ
Ð¸Ð½ Ð°Ð¼
ĠÐ² Ð¾Ð¹
ĠÐ´ ÓĻÑĢÑĸ
ĠÐ¼ÐµÒ£ Ð³ÐµÑĢ
ĠSp utnik
ĠÐ¾Ð±Ð» ÑĭÑģÑĭÐ½ÑĭÒ£
Ð»Ð°Ð¼ ÐµÐ½ÑĤ
ĠÐ°Ð½ÑĭÒĽ ÑĤÐ°Ñĥ
Ò±Ñģ ÒĽ
ĠÑĢÐ°Ñģ ÑģÐ»ÐµÐ´
ĠÐ±ÐµÑĢ Ð³ÐµÐ½
ĠÐ¼ÑĥÐ¶ Ñĩ
ĠÑĤÒ± ÑĢÐ°Ð´Ñĭ
ÑĭÑĤ Ð°Ð¹
as s
ĠÐ¸Ð½ÑĤÐµÑĢ Ð½ÐµÑĤ
ĠÐĵ ÐµÑĢ
Ð» Ð¾Ð½
ĠÑĨÐµÐ½ÑĤ ÑĢ
ÑģÑĤÐ²ÐµÐ½ Ð½Ð¾Ð¹
ĠÐ±Ð°Ð¹Ð»Ð°Ð½ ÑĭÑģ
ac k
ĠÑģ Ð¾Ð¼
ĠÐºÐµÐ» ÑĸÐ¿
p t
ĠÐ¾Ð±ÑĢÐ°Ð· Ð¾Ð²Ð°Ð½Ð¸Ñı
ĠÒĽ Ð°ÑĪ
ĠÐ½ÑĭÑģ Ð°Ð½
ĠÐºÐ¾Ð¼ Ð¼Ñĥ
I d
ĠÐ¼ Ð¸ÑĢÐ¾Ð²
ĠÐº Ð°Ð¼
ĠÐº Ð¸Ð»
ĠÐ¢ Ð¾
Ð¼ ÐµÐ¹
Òĵ ÑĭÐ½Ð°
ĠÐ¶ÐµÑĢ Ð³ÑĸÐ»ÑĸÐºÑĤÑĸ
ĠÐ¼Ó©Ð»ÑĪ ÐµÑĢ
Ð¶ ÑĭÑĢ
Ð°Ð»Ð°ÑĢ ÒĵÐ°
Ð¾Ð² Ð°ÑĤÐµÐ»ÑĮ
ĠÑģÐ°Ð» ÑĭÐ½
ĠÑĦÐµÐ² ÑĢÐ°Ð»
ĠÐ»Ñİ Ð´Ð¸
ĠÐ¿ÑĢÐ¾ ÑģÑĤÐ¾
K Z
Ð³ Ð°Ð»
cl ud
Ð°Ð»Ð°ÑĢ ÑĭÐ½ÑĭÒ£
ĠÐ¾ÑĤÐ²ÐµÑĤ ÑģÑĤÐ²ÐµÐ½
ĠÐ±ÑĸÑĢ Ð»
ĠÐ¿Ð¾ ÑĤÐµÑĢ
ĠÐ¾Ð±ÑĬ ÑıÐ²
Ñı ÐµÑĤ
ĠÐĸ Ð°Ð¼Ð±ÑĭÐ»
Ñĥ Ð°ÑĢ
ĠÐ½ Ð¾Ð²ÑĭÑħ
ĠÐ·Ð°Ñģ ÐµÐ´
ĠÐĲ Ð±Ð°Ð¹
ĠÑĩ ÐµÑĤÑĭ
I I
Ġa re
ĠÐ²Ñĭ Ð´ÐµÐ»
4 0
ĠÐº Ñĥ
ĠÐ¾ ÐºÐ°Ð·Ð°Ð»
âĢ Ķ
ĠÐ¿ ÑıÑĤ
ĠÐ¼Ð°ÑĤÐµÑĢÐ¸ Ð°Ð»Ð´Ð°ÑĢ
Ðŀ Ðŀ
Ð¸Ð· Ð°ÑĨÐ¸Ð¸
ÑĦ Ð¸Ðº
ĠÑģÐ¼ Ð¾Ð³
ĠÐºÐµÐ» Ðµ
Ġ ÑĭÐ½
Ð² Ð¾Ð»
ĠÐ· Ð°Ð»
ĠÐ³Ð¾Ð²Ð¾ÑĢ Ð¸ÑĤ
ĠÑģÐ¿ÐµÑĨÐ¸ Ð°Ð»Ð¸ÑģÑĤ
Ð¾Ð² Ð¾Ð³Ð¾
ĠÐĳ ÐµÑĢ
Ð°ÒĵÐ°Ð½ Ð´Ð°
ĠÑĩÐ°ÑģÑĤ ÑĮ
ĠÑħÐ°Ð» ÒĽ
ÑģÐº Ð¾Ðµ
ĠÐ² Ð·Ð°
ĠÑįÑĤ Ð¸Ñħ
ÑĤÐ°ÑĢ ÑĭÐ½ÑĭÒ£
ĠÐ½Ð°Ð± Ð»Ñİ
ÑĢ ÑĭÐ»
ĠÑĤÓĻ ÑĥÐµÐ»
ĠÑĤÑĥÑĢ Ð½Ð¸
Ð¸ÑĤ Ñĭ
ÑĤ Ð¸Ð¼
ĠÐ´ÑĢÑĥÐ³ Ð¸Ðµ
ĠÑĥÑĩÐ°ÑģÑĤ Ð¸Ðµ
ÑĥÑĪ ÑĭÐ»ÑĭÒĽ
ÐµÐ¼ ÑĸÐ·
ĠÐ°Ð»Ð´ ÑĭÐ½
ÑģÑĤÐ¸ÑĤ ÑĥÑĤ
Ñĥ Ð´ÑĭÒ£
ĠÐ¶Ò¯Ð¹ ÐµÑģÑĸ
Ð¼ ÑĥÐ½
ĠÐ¥ Ð°Ð»ÑĭÒĽ
ĠÐ¿Ð¾Ð´ ÑĤ
Ðļ Ð°Ð·
ĠÐ´ Ð½Ñı
ÐĴ ÐĶ
ĠÐ½ÐµÐ³ÑĸÐ· ÑĸÐ½Ð´Ðµ
ĠÑĤÒ¯ÑĢ Ñĸ
ĠÐµ ÑĢÐµÐ¶
ĠÐ¤ ÑĢÐ°Ð½
ÒĽ Ð°ÑĤÑĭÐ½
Ð½ Ñİ
ĠÐ½ Ð¾Ñĩ
ĠÒĽÒ±ÑĢ Ð°Ð»
ÐµÐ» Ð¾
ĠÑĪ Ñĭ
Ġh t
ĠÐ¶Ð°ÑĤ Ð°Ð´Ñĭ
Ð°ÑĨÐ¸Ñı Ð»ÑĭÒĽ
ĠÐ¶Ð°Ñģ Ð°Ð¿
Ð½ Ð´
ĠÓ©Ð· Ð°ÑĢÐ°
Ð´ ÑĥÑĤ
ĠÑįÐºÑģÐ¿ ÐµÑĢÑĤ
ĠÐ³ÑĢÑĥÐ¿ Ð¿
ĠÑĤÒ±ÑĢÐ°ÒĽ ÑĤÑĭ
ĠÑĢÐ¾ ÑģÑĤ
Ð½Ñı Ñı
ĠÑĥ Ð·
ĠÐ°Ð¹ ÑĤÑĭÐ¿
ĠÐ¿ÑĢÐ¸ ÑĪ
Ð³ Ð¾Ð²Ð¾ÑĢ
ĠÐ¼Ð¸Ðº ÑĢÐ¾
ĠÐ± ÐµÑģ
É Ļ
ĠÑĤ Ð°
ÐµÐ¹ ÑĤ
ĠÐ¼Ð°Ð· Ð¼Ò±
ĠÑģÑĢÐµÐ´ Ð¸
ĠÐ¿Ð¾Ð´Ñĩ ÐµÑĢÐº
ĠÐŃ Ðº
Ð½Ð¾ Ðº
Ð¸Ð¼ Ð¿Ð¸
ĠÐ¶ÑĭÐ» Ð´Ð°Ð½
ĠÐł Ð°Ð½ÐµÐµ
ĠÐ¿ÑĢÐ¸Ð½ Ð¸Ð¼
ĠÐ´Ð¾ÑĢ Ð¾Ð³
ĠÐ¼ Ð¾
ÑĪ ÐµÐº
ĠÒĽ Ð°Ò£
Ð¼ÐµÐ½ ÑĤ
Ð»ÐµÐ½ Ð°
ĠÐ¾Ð± ÑĢÐ°Ñī
ĠÐºÐµÑĤ ÐºÐµÐ½
Ñģ ÑĭÐ½Ð°
ĠÑĥ Ð´Ð°Ð»
Ñģ Ð¾Ð½
ĠÒĽÐ°ÑĢÐ¶ Ñĭ
ĠÐºÐµÐ» ÐµÑģÑĸ
ÑģÑĤ ÑĸÒ£
Ð°ÑĤÑĭ Ð²
____ ____
ĠÑĤÑĸÑĢ ÐºÐµÐ»
ĠÒĽÐ°ÑĢ ÑĭÐ¼
ĠÒĽÐ°Ð±ÑĭÐ» Ð´Ð°Ñĥ
ĠÐĴ Ñĭ
ĠÐ·Ð° Ð´ÐµÑĢÐ¶
ĠÑĤÐ°Ð¿ÑģÑĭÑĢ Ð¼
Ñħ Ð¼ÐµÑĤ
Ð¼ ÐµÐ¹Ð´Ñĸ
ĠÑĤÐµÐ»Ðµ ÑĦÐ¾Ð½
ĠÐ¼ Ð°Ñı
Ð« ÐĿ
ĠÐºÐ¾Ð»Ð¸ÑĩÐµ ÑģÑĤÐ²Ð¾
ĠÐ¿ÑĢÐµÐ¼ ÑĮÐµÑĢ
ĠÑĩ Ð°Ñģ
ĠÑĤ Ð°ÑģÑĤ
Ð°Ð» Ñĥ
Ð³ ÑĸÐ¼ÐµÐ½
ĠÐºÓ©ÑĢÑģÐµÑĤ ÐºÑĸÑĪ
Ð°Ð± Ð¾ÑĤ
ĠÑģÐ°Ñĥ Ð´Ð°
ÑĦ Ð¸ÐºÐ°
ĠÐ°ÑĢ Ñħ
ĠÐ¶Ð¾Òĵ Ð°ÑĢ
ĠÐ° ÑıÑģ
ĠÐŁ ÐµÑĢÐ²
Ð±ÐµÐº Ð¾Ð²
ĠÐºÐ¾ÑĤÐ¾ÑĢ Ð¾Ð³Ð¾
ĠÐ¾Ð±ÑıÐ· Ð°ÑĤÐµÐ»ÑĮ
ĠÐº Ð°Ð·Ð°Ñħ
Ðº Ð¸Ð¹
ĠÓ©ÑĤ ÑĸÐ½
ÑĥÑĪ ÑĸÐ»ÐµÑĢ
Ġ6 0
ĠÑĢÐ° Ð²
ĠÑģÑĥ Ð´Ðµ
ĠÐ¶ Ò±
s h
( )
ĠÐľ Ð¸Ð½Ð¸ÑģÑĤÐµÑĢ
2 00
Ò£ ÑĭÐ·
ÑĢÐ¸ Ð¹
ĠÑĢÐµ Ð´Ð°
ĠÐ¾Ð´ Ð½Ð¾Ð¹
ÐĲÐ» Ð¼
Ñħ Ð¾Ð¶
Ġ an
Ð°Ð½Ð´ Ð¸Ð´
ĠÐŁ ÑĢÐ°Ð²
Ġc ont
ĠÐĲÐ»ÐµÐºÑģ Ð°Ð½Ð´
ĠÑĢ ÑıÐ´
ĠÑħ Ð¾Ð·ÑıÐ¹
ĠÐ¼Ð°ÒĽÑģÐ°ÑĤ ÑĭÐ½Ð´Ð°
Ð¾Ðº Ð°
Ð¸ ÑģÐº
ĠÐ½ÐµÐ¾Ð±ÑħÐ¾Ð´ Ð¸Ð¼
ÐµÐ´ ÐµÐ»
ĠÒĽÒ±ÑĢ Ð°Ð»Ð´Ð°ÑĢ
Ð¾Ð»ÑĮ ÑĪ
ĠÐ·ÐµÑĢÑĤ ÑĤÐµ
Ð¼ Ð¾
il l
ĠÐļ Ð°Ð·
ĠÐº Ð¼
ĠÑĥ Ð»
Ð´ÐµÐ» Ð³ÐµÐ½
Ð½Ð¾ÑģÑĤ ÐµÐ¹
ĠÐĳ Ð°Ð½
ĠÐ¡ Ð¾Ð²
ÑħÐ°Ð½ Ð¸
ĠÑģ Ð¸Ð½
Ð´ÐµÐ» Ñĸ
ĠÑģÐ¾Ð² Ð¼ÐµÑģÑĤ
ÐµÐ½ ÐºÐ¾
Ð»Ðµ Ð¶
ĠÐ´Ð¾Ð»Ð¶ ÐµÐ½
ĠÒļ Ð°ÑĢÐ°
ĠÐº Ð°ÑĢÑĤ
Ð» ÐµÐ¹
ĠÐķ Ò£
ÑĢÐ°Ð¹ Ð´Ñĭ
ĠÐ¾Ð± Ð²Ð¸Ð½
ÑĢÑĥ Ð³Ðµ
ĠÐŁÐ¾ ÑįÑĤÐ¾Ð¼Ñĥ
ÐµÐ½ Ðµ
ĠÐ°Ð»ÑĭÐ½ ÒĵÐ°Ð½
ĠÑĪÐµÑĤ ÐµÐ»
ĠÐ¿Ð° ÑĨÐ¸
ĠÐ¼ÐµÐº ÐµÐ½
ĠÐ°Ð¿ÑĢ ÐµÐ»Ñı
ĠÐ¾Ð´ Ð½Ð¾Ð³Ð¾
ĠÐºÓĻÑģÑĸÐ¿ Ð¾ÑĢÑĭÐ½
ĠÑģÑĥÐ± ÑĬ
ĠÐ¶ÑĭÐ» ÒĵÐ°
ĠÐ¢ ÓĻ
ĠÐ´ÐµÐºÐ°Ð± ÑĢÑı
ĠÐ²Ð°Ðº ÑĨ
Ñı Ð»
ÑģÐ» Ð°Ð¼
ÑĢÐ° Ð¿
ĠÐºÓ©Ò£ ÑĸÐ»
ĠÐºÐµÐ»ÑĸÑģ ÑĸÐ¼
o g
ÑĨÐ¸Ñı Ð»Ð°ÑĢ
Ð¾Ð½ Ð´Ð°
Ġc on
ĠÐº Ð»Ð¸
it ion
Ð½Ð°ÑĢ ÑĥÐ¶
Ñİ Ð±
m e
Ð½ÑĥÑĤ ÑĮ
Ð´Ð° ÐµÑĤ
ĠC O
ĠÑĢÐµÑģ Ð¼Ð¸
ĠÑģ Ð¾ÑĢ
ĠÒĽÐ°Ð»ÑĭÐ¿ÑĤÐ° ÑģÑĤÑĭÑĢÑĥ
ĠÑĤÐ°Ð» Ð´Ð°Ñĥ
ĠÐ¼Ð°Ñģ Ñģ
ÑĮ ÑĪÐµ
ĠÑģÑĤ Ð°Ð»Ð¸
ÑĭÐ¼ Ð´Ð°
ĠÑĤÐ°Ò£ Ð´Ð°
Ġa s
b er
ĠÐ²Ð¾Ð· ÑĢÐ°
ĠÓ©Ð·Ð³ÐµÑĢÑĸ ÑģÑĤÐµÑĢ
ĠÐ»Ð¸ÑĪ ÑĮ
ĠÐ±Ð¾Ð¹ Ñĭ
ĠÐ¾ÑĤ Ð¿ÑĢÐ°Ð²
ÐµÐ´ Ð¸
Ò£Ð³ ÑĸÐ¼
ĠÐ°Ð¹ÑĤ ÑĤÑĭ
ĠÐ½ÐµÐºÐ¾ÑĤ Ð¾ÑĢÑĭ
ĠÐ¾ ÑģÑĤÐ°Ð²
ĠÑĥÑĩ ÐµÐ±
ÐµÑĢ Ñħ
ĠÑĤÐµÑĩ ÐµÐ½Ð¸Ðµ
ĠÐ¼Ð°ÒĽ ÑģÐ°ÑĤÑĭ
ĠÑħ Ð°ÑĤ
ĠÐ½Ð°Ð» Ð¾Ð³
ÑģÑĤ ÑĢ
ĠÑĪ Ð°ÒĽÑĭÑĢ
Ð°Ð¹ ÑĭÐ¼
c re
Ġc om
ÑĭÐ² Ð°ÑĤÑĮ
ĠÐľ Ð¸Ð½
ÐµÐ»Ðµ Ñĥ
ĠÐ³ Ð¾Ð´Ñĭ
ÑĸÐ½ ÑĪÐµ
ĠIn stagram
ĠÐ·Ð°Ð² Ð¸Ñģ
Ð¡ Ð¢
Ð¿Ð°Ñģ Ó©Ð·
ĠÑĤ ÑĢÐµÑħ
ĠÐ¡ ÑĸÐ·
ĠÐ²Ð¾Ð¿ ÑĢÐ¾ÑģÑĭ
ÑģÑĤÐ²ÐµÐ½ Ð½Ð¾Ð³Ð¾
Ñı ÐµÑĤÑģÑı
ĠÐ¿Ð¾Ñĩ ÑĤÐ¸
Ġ ÑĸÑĢÑĸ
ÑĪ ÑĭÑģÑĭ
Ð»ÐµÐ½ Ð¸Ð¹
Ðº Ð¾Ð»ÑĮ
Ð³ Ð´Ð°
D A
a v
f unction
id th
Ð°ÑĤ ÑĢ
ĠÐ¶Ð¸Ð² Ð¾ÑĤ
ĠÐ° ÑģÐ°
ĠÐ¡ ÐµÐ¹ÑĩÐ°Ñģ
ĠÑĢÐ°Ð¹ Ð¾Ð½
ĠÑĤÐ°ÒĽÑĭÑĢ ÑĭÐ¿
Ð¸Ð² Ð°ÑİÑĤ
Z A
ĠÑĤ Ð°ÑĢÑĤ
Ð°ÑĪ Ð°ÒĽ
ĠÐ²Ð»Ð° ÑģÑĤÐ¸
Ð°Ñı Ð½
Ð¸ ÑĨÐ¸
ĠÐĳ Ð°ÑĤ
ĠÐ¶ Ð°ÑģÑĤ
Ġ J
Ð´Ð°ÑĢ ÑĭÐ½Ð°
ÐĲÐ»Ð¼ Ð°ÑĤÑĭ
ĠÑįÑĦÑĦ ÐµÐºÑĤÐ¸Ð²
ĠÐ¿Ð¾Ð´ Ð¾Ð·
ÑĤÐ¾ Ðº
ĠÐ³Ð»Ð°Ð² Ð°
Ġ( )
ĠÑĤ Ð¾ÑĤ
Ð°ÑģÑģ Ð°Ð¶
ĠÐ½Ð°Ñĩ Ð°Ð»Ð°
ĠÓĻ ÑģÐºÐµÑĢÐ¸
ĠÐ´ÐµÐ» Ð¾
ÑĢ Ð¾ÑĢ
ĠÐ¾ÑĤÐ½Ð¾ÑĪÐµÐ½ Ð¸Ð¸
ĠÒĽÐ¾Ñģ ÑĭÐ¼ÑĪÐ°
ĠÐ¾ÑĢÑĭÐ½ Ð´Ð°Ð»
ĠÐµ ÑĤÑĸÐ¿
ĠÑģÐ¾Ð½Ñĭ Ð¼ÐµÐ½
ĠÒĽ Ð°Ð·Ð°ÒĽÑģÑĤÐ°Ð½
us h
ĠÐ¶Ð°Ñģ Ð°Ð»ÒĵÐ°Ð½
ĠÐµ ÑģÐº
ĠÐ¾Ð±Ð» ÑĭÑģ
ÑģÑĤ ÑĢÐ¸
Ð°Ð¹ ÑĢÐ°ÑĤ
ĠÒĽ Ð°
ĠÐ¼ÐµÐ´Ð¸ÑĨÐ¸Ð½ Ð°Ð»ÑĭÒĽ
ĠÐ½Ð°ÑħÐ¾Ð´ Ð¸ÑĤÑģÑı
ÑĭÐ½Ð´Ð° Ñĥ
ÒĵÑĭ ÑĢ
ÑĭÐ» Ð°ÑĢÑĭ
ĠÐµÐ½Ð³ÑĸÐ· Ñĥ
ĠÐµÑĤ ÐµÑĤÑĸÐ½
d u
ĠÐ±ÐµÑĢ ÐµÑĤÑĸÐ½
ĠÐ»Ð¸ Ð´ÐµÑĢ
ĠÐ³Ð¾Ð²Ð¾ÑĢ Ð¸ÑĤÑģÑı
ĠÐ² ÐµÑģ
ĠÑĤÑĥ ÒĵÐ°Ð½
in e
ut o
Ð² Ð¾Ð·
ÑĪ ÑĸÐº
ĠÐ¶ ÐµÐº
Ð°Ñĥ ÑĭÑĢ
ĠÐ¼Ð¸Ð»Ð»Ð¸ Ð¾Ð½Ð¾Ð²
ĠÐºÐµÐ¹ Ð±ÑĸÑĢ
ĠÐĲÒļ Ð¨
ĠÐ¶ÐµÐ» ÑĤÐ¾ÒĽÑģÐ°Ð½
Ð¸ÑĩÐµÑģÐºÐ¾ Ðµ
Ð³ Ð°Ð¼
ĠÑĤÐ°ÑĢÐ¸Ñħ Ð¸
ĠÐºÑĥÑĢ Ñģ
ĠÐ´ ÑĢÑĥÐ³Ð¾
ĠÐ¸Ð¼Ðµ ÐµÑĤ
ÑĢÐ° Ðº
ĠÐ°Ð»Ð° Ò£
ÒĽ Ò±
Ð³ ÐµÐ¹
ĠÐ¿ Ð¾ÑĢÑĤ
u re
ĠÑĢÐ°Ð¹ Ð¾Ð½Ð°
ĠÐ¸Ñİ Ð½Ñı
ĠÑĤÐµÑħ Ð½Ð¸ÐºÐ°Ð»ÑĭÒĽ
ĠÑį ÑĤÑĥ
ĠÐ¿ÑĢÐ¾ Ð¹
ÐĸÐ¾Ð¼ Ð°ÑĢÑĤ
ĠÒĵ Ð°Ð»ÑĭÐ¼
ĠÐ¡ Ð°Ð½
ÐµÐ» Ð¸Ðº
ĠÐ·Ð´ ÑĢÐ°Ð²
ÑĢÐ° ÑĨÐ¸Ð¸
ĠÐļ Ð¸ÑĤ
Ð¸Ð² Ð°ÐµÑĤÑģÑı
Ð´Ð°Ð½ Ð¸Ñı
ĠÐ¡ Ð¾Ð½Ð´Ð°Ð¹
Ġ7 0
ĠÐ¾ ÑĢÐ°Ð¹
ĠÐ·Ð°ÐºÐ¾Ð½Ð¾ Ð´Ð°ÑĤÐµÐ»ÑĮ
Ð»Ñĸ Ð³ÑĸÐ½
Ġ3 1
i es
or d
ĠÑģÑĤÐ°Ð½Ð´Ð°ÑĢ ÑĤ
Ð´Ñĭ Ð¹
ĠÐ¾Ð± Ð½Ð°ÑĢÑĥÐ¶
ÑĢÐ°Ð· Ñĥ
clud e
ĠÐ²Ñĭ ÑħÐ¾Ð´
ĠÑģÑĤ Ð°Ð»Ð¾
Ð½Ð°Ðº Ð¾Ð¼
ÑĤ Ò¯ÑĢÐ»Ñĸ
ĠÑĢÐ°ÑģÐ¿ Ð¾Ð»
ĠÐ¾Ð½ Ð»Ð°Ð¹Ð½
ĠÐ´Ð¸ Ð°Ð³
ĠÑģÐ¾ÑĤÑĢÑĥÐ´ Ð½Ð¸ÑĩÐµ
ÑĭÐ¼ Ð´ÑĭÒĽ
ĠÑĤ ÑĭÒ£
ĠÑįÐºÐ¾Ð½Ð¾Ð¼ Ð¸ÐºÐ¸
ÑĤÐ°Ð¼ Ð°
Ð»ÐµÐ½ Ð¸ÐµÐ¼
ĠÐ°Ð» Ð°ÑĤÑĭÐ½
Ġg oog
o ur
ĠÐ°ÑĢ Ð°Ð»
ĠÐ½Ð° ÑĥÑĩ
i Ð·
Ð°Ñģ Ð¿
Ġ Z
ÒĵÐ°Ð½ Ð´Ñĭ
Ñĸ ÑĤ
ĠÑĪ ÑĭÒĵÑĭ
ĠÐ´ Ð¸Ñģ
ĠÑģ ÑĢÐ°Ð²
p ost
Ñħ Ð¾Ð´Ð°
ĠÑĤÐ¸ Ð¿
Ġ201 3
let ag
Ġgoog letag
ÑĮÑİ ÑĤÐµÑĢ
ÐĲ ÐĹ
ĠÑĢÐ°Ð· ÑĢÐµ
ĠÑĤÒ¯ Ð¹
ĠÑģÐµÐ½ÑĤ ÑıÐ±ÑĢÑı
ĠÑįÐ»ÐµÐ¼ ÐµÐ½ÑĤ
ĠÐ·Ð´ Ð¾ÑĢÐ¾Ð²
ĠÐ· Ð¾ÑĢ
ÑĢÐµ ÑģÑĤ
od e
ĠÐķ Ñĥ
ÑĥÑĪÑĭÐ»Ð°ÑĢ Ð´ÑĭÒ£
Ñı Ð¼Ð¸
ĠÐ¼Ð¸Ð»Ð»Ð¸ Ð¾Ð½
ĠÑģ Ð°Ð»ÑĭÒĽ
ĠÐ´ Ð¾Ñģ
Ð°Ð»ÑĮ Ð½Ð°Ñı
ĠÐ¨ÑĭÐ¼ ÐºÐµÐ½ÑĤ
ÒĽ Ð°Ð¹
ĠÑģÑĤ ÑĢÑĥ
ÑĢ ÑĮ
ĠÑģÐ¾ÑģÑĤÐ°Ð² Ð»ÑıÐµÑĤ
ĠÐ°ÑĪ ÑĭÒĽ
ĠÒĽÐ°Ñģ Ð¸ÐµÑĤ
ĠÐĿÐ° ÑĨÐ¸Ð¾Ð½Ð°Ð»ÑĮ
Ð¼ Ð°ÑĢ
er t
Ġ |
ÐµÑĤ ÑĮ
ĠÐľ ÑĭÑģÐ°Ð»Ñĭ
ÑĢÐ°ÑĤ Ð¸Ð²
ĠÐº Ð°Ð½Ð´Ð¸Ð´
Ñĭ Ð±Ñĭ
ÑĤÑĭ Ñģ
ĠÐ¾Ð¿ Ð°Ñģ
ÑĤÐ° Ð¶
ĠÐ¾ÑĢÑĭÐ½ Ð±Ð°Ñģ
ÑĪÐµ Ðµ
ĠÐ¼ Ð°ÑĥÑģÑĭÐ¼
ĠÑģ ÑĢÐµ
ĠÐ¿ÑĢÐµÐ´ ÑĥÑģ
ĠÐ°ÑıÑģ ÑĭÐ½Ð´Ð°
ÑĢÐ¸ Ð´
ĠÐ²Ð¾Ð·Ð¼Ð¾Ð¶ Ð½Ð¾ÑģÑĤÑĮ
ĠÐ¿ Ð¸ÑĪ
ĠÒĽÐ¾Ð»Ð´Ð°Ð½ Ñĥ
ĠÑģÐ¾Ð± ÑĭÑĤ
ĠÑĤÓ©ÑĢÐ°Òĵ Ð°ÑģÑĭ
ĠÐ¡ ÐµÐ¼
ĠÐºÐ²Ð°ÑĢ ÑĤÐ¸
ĠÐ° Ñį
ĠÑģ Ð¸
ĠÐ¸Ñİ Ð»Ñı
ĠÐ´Ð¾ÑģÑĤ ÑĥÐ¿
Ð² Ð¾
ÐµÑģ ÑģÐ¸Ð¾Ð½
ĠÑģ ÑĥÑĤ
Ð´ÐµÑĢ Ð³Ðµ
ĠÑģÐ¾ÑģÑĤÐ¾Ñı Ð½
ĠÑĤÐ¾Ð½ Ð½
ÑĥÑĢ Ð³
ĠÑģÑĥ Ð´Ð°
Ñı ÑİÑĤ
ĠÐ¾Ñģ ÑĭÐ½Ð´Ð°Ð¹
iÐ½ Ð´Ðµ
Ð°Ðº Ð¾Ð½
% -
Ð´Ð° ÑİÑĤ
Ð¸Ñı ÑģÑĭÐ½ÑĭÒ£
ÑĤÐ°ÑĢ ÑĭÐ½Ð°
ĠÑį ÑĤÐ°Ð¿
ĠÑĤÑĢÐ°Ð½ Ñģ
Ð¼ Ð¸ÑĤ
ĠÐºÐ¾Ð¼Ð°Ð½ Ð´Ð°
ĠÑĤÓĻÑģ ÑĸÐ»
ĠÐľ Ð°Ð½
t ext
ĠÑħ Ð°Ð½
col or
Ð¼ Ð¸Ð½Ð¸ÑģÑĤÑĢ
ĠÑĤ ÐµÑģÑĤ
o ut
Ñĥ ÐµÑĤÑģÑı
Ð»ÐµÐ½ Ð¸Ñİ
* *
Ð¸ ÐµÐ¹
ÑĭÐ¼ Ñĭ
ĠÑģ ÑĸÐ»ÑĤ
Ð¨ Ð¡
ĠÓĻ ÐºÐµÐ»
Ò¯ Ð·
ĠÑĪÑĭÒĵ ÑĭÐ½
VI D
ĠÐº Ð°Ð´
Ðķ Ðļ
ĠÐ·Ð´ÑĢÐ°Ð² Ð¾Ð¾ÑħÑĢÐ°Ð½
ĠÒĽÐ°Ð±ÑĭÐ» Ð´Ð°Ð½
ĠÐ¶ÐµÒ£ ÑĸÐ»
Ð¡ Ðł
an s
ÑĢÐ°Ð¼ Ð¸
Ðķ Ð¢
ĠÐļ Ð°ÑģÑĭÐ¼
ÓĻ ÑĢÐµÐº
ĠÐ¾Ð±Ð»Ð° ÑģÑĤÑĮ
3 5
ĠÑĥ Ðº
ĠÐ¸Ð¼ÐµÐ½ Ð½Ð¾
ĠÑĤÐµÑĢ ÐµÒ£
ĠÐ¼ Ð¾Ð¹
ĠÐ¼ Ð½Ðµ
Ġ it
ĠÐ¿Ð¾Ð¼Ð¾Ñī Ð¸
ĠÑģ ÐµÐ²ÐµÑĢ
ÑħÐ¾Ð´ Ð¾Ð²
ĠÐ± Ð»Ð¸
Ð¾Ð· Ð¸
ĠÐ°ÒĽ ÑĪÐ°
Ð² Ð¸Ð¶
ÑĤ Ñı
ĠÑĤÓ©Ð» ÐµÐ¼
ĠÑĤ Ð¾Ð¶Ðµ
ĠÐ¿ÑĢÐµ Ð²
, "
Ð¼ÑĭÑĪ Ð»ÐµÐ½
ĠÒĽÐ°Ð·Ð°ÒĽÑģÑĤÐ°Ð½ Ð´ÑĭÒĽ
ĠÐ°Ð½Ð°Ð» Ð¸Ð·
ĠÓ©Ð½ ÑĸÐ¼Ð´ÐµÑĢ
ÑĤÓ© Ð±Ðµ
Ð¾Ð´ Ð°Ð½
ĠÐ½ Ò±ÑģÒĽ
Ġ j
Ġ201 2
ÐµÑģÑĤ ÑĮ
ĠÐ¸Ð½ ÑģÑĤÐ¸ÑĤÑĥÑĤ
ÐºÐµÑĢ Ð»ÑĸÐº
Ñĥ Ð»Ð¸
ĠÑģÐ¾Ð²ÐµÑĢ ÑĪÐµÐ½
ĠÑĪÐ°ÑĢÑĥÐ°ÑĪ ÑĭÐ»ÑĭÒĵÑĭ
ĠÐµÑĢÐµÐºÑĪ ÐµÐ»ÑĸÐº
ĠÐ°ÑĢ ÑĤÑĭÒĽ
f ox
d is
Ð¾Ð± Ð¸Ð»ÑĮ
o un
ĠÐ´ÐµÐ½ÑĮ Ð³Ð¸
oog le
ÑĭÑĢ ÑĤ
ĠÐ½Ð°Ð· Ð°ÑĢ
ĠÑįÐ½ÐµÑĢÐ³ ÐµÑĤ
Ð»Ñı ÑİÑĤ
ĠÐ·Ð°Ðº Ð¾Ð½
ĠÐ°ÑĥÐ´Ð°Ð½ Ð´ÑĭÒĽ
ĠÐ³Ð¾ÑĢ Ð¾Ð´Ðµ
ĠÐ¿ÐµÑĢÐ² ÑĭÐ¹
ĠÐ´ Ð½ÐµÐ¹
Ð± Ð°Ð¿
ĠÓĻÑĢ Ð±ÑĸÑĢ
ĠÐ½Ðµ Ð±
ĠÐ± ÑĭÑģÑĤ
p ush
ĠÑģ Ð±
ĠÐĳ Ð°ÑĢ
ĠÑģÑĭÑĢÑĤ ÒĽÑĭ
ĠÐ¶ÑĭÐ» Ð´Ð°Ð¼
ĠÐ» ÐµÑĩ
ĠÒļÐ°Ð·Ð°ÒĽÑģÑĤÐ°Ð½ Ð´Ð°
ĠÐ¼ÓĻÐ»ÑĸÐ¼ ÐµÑĤÑĤÐµÑĢ
Ðĺ ÐĲ
ĠÐ¶Ò¯ Ðº
Ð« Òļ
ad fox
ĠÐ¸ÑģÐº Ð»ÑİÑĩ
Ðº ÐµÑģÑĤ
Ð»Ñı ÐµÑĤÑģÑı
ĠÐ´Ð¾ÑģÑĤÐ¸ Ð³
ĠÐºÐµÐ» Ð´Ñĸ
ĠÐ¼Ð¸ ÑĢÐµ
ĠÐ¾ÐºÑĤ ÑıÐ±ÑĢÑı
ĠÐ± Ð°
ĠÐľ ÐµÐ¶Ð´Ñĥ
Ð¼ ÑĸÐ½
Ð´Ðµ Ð¶
ĠÐ½Ð°ÑĢ Ð¾Ð´
ĠÑĤÐ°ÑĢ Ð°Ð¿
ĠÐ¿Ð¾ÑĢ ÑĥÑĩ
am e
ĠÐ°ÒĽ ÑĭÐ½
Ð¸ÑģÑĤ ÑĢÐ¸
Ð¾Ð½ Ð´
Ð´Ð¸Ð½ ÑģÐºÐ¾Ð¹
ĠÑĦÐµÐ²ÑĢÐ°Ð» Ñı
ĠÐ¼ÐµÐ½ ÐµÐµ
ĠÐ¼ÐµÑĢ Ñĭ
ĠÐ±Ð¾ÑĢ ÑĮ
ĠÑģÐ²Ð¾Ðµ Ð³Ð¾
ĠÐĸ Ð¨Ð¡
ĠÑĥ Ð»Ð¸ÑĨ
Ð» Ð¾ÑĢ
Ġ Q
ĠÑĪ Ð¸
ĠÒĽÑĭÐ·Ð¼ÐµÑĤ ÐºÐµÑĢÐ»ÐµÑĢ
ĠÑĢÐµ ÑĪÐµÐ½
Ðŀ ÐĴ
ĠÐ² ÐµÑĤÐµÑĢ
ĠÑĤÑĢÐ°Ð½ÑģÐ¿ Ð¾ÑĢÑĤ
ĠÐ¶Ð¸ ÑĭÐ½
ĠÐļ ÑĭÑĢÐ³ÑĭÐ·
ÑĢÐµ ÑģÐµ
ĠÓ©Ð½ Ð´ÑĸÑĢÑĥ
ĠÐ¶Ð°Òĵ ÑĭÐ½Ð°Ð½
Ð½Ð¸ ÑĨÐ°
Ð°Ð´ Ð¸
Ð¾ÑĢ Ð¾Ð½
ul t
ĠÐ° ÑĥÐ´
ĠÐ¶Ð°Ð± Ð´ÑĭÒĽ
ĠÐ´ Ð°Òĵ
ĠÐ¶ Ð°Ð¿
ĠÐ±Ð°Ñģ Ð¿Ð°ÑģÓ©Ð·
ĠÑĤÐ°Ð±Ð¸Òĵ Ð¸
ĠÐº ÑĢÐ°Ñģ
Ð°Ð· Ñĭ
ÑĪ ÐµÐ²
Ò±ÑĢ ÑĤ
ĠÐ¶Ð°Ð» ÒĵÐ°
ĠÑĸ ÑģÑĤÐµÑĢ
Ðº ÐµÐ¹
ĠÐ¿ÑĢÐ¾ÐµÐº ÑĤÐ°
ĠÐ¾ÑĤ Ð»Ð¸Ñĩ
ĠÐļ ÐµÐ¹
ĠÐ¼ÐµÑĤ Ð¾Ð´
. -
ĠÑĤÒ¯ÑĢ Ð»ÐµÑĢ
ĠÐºÐ¸ Ð½Ð¾
ÐºÐµ Ñĥ
ĠÐ½Ð¾ÑıÐ± ÑĢÑı
ĠÐĹ Ð°Ð¿
ð Ł
ĠÐ±ÐµÐ»Ð³ÑĸÐ» ÐµÐ½
Ð°Ð» Ð¾Ð²
ĠÐº Ð°Ñģ
ĠÐ¼Ð°ÑĤ Ñĩ
ĠÑģÐ°ÑĢ Ð°Ð¿
ĠÐĲÒĽ Ð¿Ð°ÑĢÐ°ÑĤ
ĠÐ²Ð¾Ð· Ð½Ð¸Ðº
ĠÐ²ÑģÐµ Ð³Ð´Ð°
Ð¿ÐµÑĢ Ð²
ÑĪ ÑĭÐ½
Ð¼Ð¾ÑĤ ÑĢÐµÐ½
er Id
Ð¸ÑĩÐµÑģÐº Ð¸Ð¼
ĠÐ¿ÑĢÐ¾ Ñģ
Ð³ÐµÑĢ Ð»ÐµÑĢ
ĠÒĽÐ°ÑĢ Ð°ÑģÑĤÑĭÑĢ
ĠÓ© Ð»ÐµÒ£
ĠÐ¾ÑĩÐµÑĢÐµÐ´ ÑĮ
ĠÓĻ Ñĥ
ÐµÐ½ ÑĤÑĸ
ĠÐ³ÑĢÑĥÐ¿ Ð¿Ñĭ
ĠÐ¼ÐµÑģÑĤ Ðµ
ĠÐ°Ð³ÐµÐ½ÑĤ ÑĤÑĸ
ĠÑĥÑĩ ÐµÐ½
ĠÐ¿Ð¾ÑģÑĤ Ð¾ÑıÐ½
ĠÒĽÐ°Ð» Ð´Ñĭ
ĠÑģÓĻ ÑĤ
Ð»Ð° ÑģÑĤ
ĠÐ½ ÓĻÑĢ
Ġ z
ĠÐ³ ÐµÐ½ÐµÑĢ
ĠÐ¼ ÑĭÑģ
ÑĪ Ð¸ÑĢ
ĠÐŁ ÐµÑĢ
ĠÐ´ÐµÐ¹ÑģÑĤÐ² Ð¸Ñı
Ġ ex
ĠÑĢÐµ Ð¹ÑĤ
Ð¾Ð¼ ÐµÑĤ
ĠÒĽÒ± ÑĢÐ°
ĠT O
K H
ĠÐ±Ó©Ð» Ñĸ
ĠÐºÐµÑĪ ÐµÐ½
ĠÐ¿Ð¾Ðº ÑĥÐ¿
eb ook
ĠÑĤÐ°Ðº Ð¸Ñħ
ĠÑģÐ¸ÑĤÑĥ Ð°ÑĨÐ¸Ð¸
ĠCO VID
ĠÑģÐµÐ¼ ÑĮ
Ð»Ð°ÑĢ ÑĭÐ½ÑĭÒ£
Ð½ ÐµÐ½Ð¸Ñı
ĠÐ¿Ð¾ ÑĤÐ¾Ð¼Ñĥ
ĠÐ±ÐµÐºÑĸ ÑĤ
Ñĥ ÑĢÐ°
ĠÐºÐ¾Ð¼ Ð°Ð½Ð´
ÑĥÐ»Ñı ÑĢ
ĠÐĲ Ð´Ð°Ð¼
Ñħ Ð°
ST AN
Ġth at
0 1
ÑĸÐ»Ñĸ Ð³ÑĸÐ½
ĠÐ±ÐµÐ» Ð³Ñĸ
ĠÐ°Ð²Ð³ÑĥÑģÑĤ Ð°
ĠÐ°ÑĢ Ð°Ð»Ñĭ
Ð¼Ð° ÒĵÑĭ
ĠÑįÑĤ Ð¸Ð¼
Ð¸Ð± Ð¾
Ġw h
ĠÐ¶ÑĭÐ» Ð´Ð°ÑĢÑĭ
ÐµÐ»ÐµÑĢ ÑĸÐ½
ÑĭÑģ ÑĭÐ½Ð°
ÑģÑĤÐ²ÐµÐ½ Ð½ÑĭÐµ
= =
ÑĸÐ» ÐµÑĢÑĸ
ĠÐ½Ð°ÑĪ ÐµÐ¹
ĠÑģÐ¾ ÑģÑĤÐ¾
ÐºÑĢÐ° Ñī
ÑĸÐ» Ð´Ðµ
ĠÑĤÒ¯ ÑģÐºÐµÐ½
e f
Ðº ÑĸÑĢ
ZA KH
ĠÑģ Ð°Ð»Ð°
ÒĽÐ¾ÑĢ Ð»ÑĭÒĽ
ĠÐµÐ½ Ð´Ñĸ
ĠÐ´ÓĻ ÑģÑĤ
ĠÐ½Ð°ÑģÑĤÐ¾Ñı ÑīÐµÐµ
ic al
ĠÐºÓ© Ð¼
ĠÐĸ ÐµÑĢ
ÑĦ Ð¾ÑĢÐ¼Ð°
ĠÒĽÐ°Ð» Ð°ÑģÑĭÐ½Ð´Ð°
Ðµ Ñı
ĠÐ¿ Ð°ÑģÑģÐ°Ð¶
ĠÐ¾Ð¿ÐµÑĢ Ð°ÑĨÐ¸Ñı
ĠÑĥÑĤ Ð²ÐµÑĢÐ¶
Ð°Ð² Ð¸Ñģ
ĠÐ¸ÑģÑĤ Ð¾Ñĩ
U R
ac ebook
ĠÐ° ÐºÐ°Ð´ÐµÐ¼
Ð³ Ð»Ñı
ĠÐ¿Ð¾ Ð½
ĠÒĽ Ò±Ð»
ĠÑģÐ°Ð» Ð°ÑģÑĭÐ½Ð´Ð°ÒĵÑĭ
ĠÑıÐ²Ð»Ñı ÑİÑĤÑģÑı
ĠÐ½Ð¾Ð² Ð¾Ð³Ð¾
Ð¶ Ð°Ð»
ĠÑĤÒ¯ÑĢ Ð»ÐµÑĢÑĸ
ĠÒ±Ð» ÑĤ
ÑĦ Ð¸Ð½
ĠÑģ Ò±ÑĢ
ĠÐĸ Ð¾Ð»
ĠÑĤÐ°Ðº Ð¾Ð¹
ĠÐ¿Ð¾ Ð·Ð¸
Ġb y
ĠÐĸ Ò±Ð¼
ĠÓĻÑĢ ÑĤÒ¯ÑĢÐ»Ñĸ
ĠÐ¶Ð¾Ð» Ñĭ
Ð»ÐµÑĤ Ð½Ð¸Ð¹
ĠÐº ÑĢÐ¾Ð²
ĠÐ·Ð´ÑĢÐ°Ð²Ð¾Ð¾ÑħÑĢÐ°Ð½ ÐµÐ½Ð¸Ñı
ĠÑģÑĤ ÐµÐ¿
ĠÓĻ Ò£Ð³ÑĸÐ¼
ĠÐ½Ð°Ð· Ð°Ð´
ĠÐĿ Ð¸Ðº
ĠÑĢÐµÐ·ÑĥÐ»ÑĮÑĤ Ð°ÑĤ
ĠÐº Ð¾Ñģ
ĠÐ°Ð¿ Ð¿Ð°ÑĢÐ°ÑĤ
ĠÐ³ ÑĢÐ°
ĠÐº Ð°Ð±
ÑĪ Ð°ÒĽ
ÑĭÒĵ ÑĭÑģ
ÑĤÐ° ÑĥÒĵÐ°
ÑģÐ° Ð´
ĠÐ´ÐµÐ² ÑĥÑĪ
ĠKA ZAKH
Ð°Ð» Ð¾Ð³
ĠÐ» Ð°Ñĥ
ĠÐ¶Ð¸Ð½ Ð°ÒĽ
Ð¸Ñı Ð½
ĠÓ©Ò£ Ð´ÐµÑĥ
ĠÑģÐ¾Ð² ÐµÑĤ
Ñĥ Ð´Ñĸ
ĠÐ² Ð»Ð¸Ñı
ĠÐºÐ°ÑĢ Ð°Ð½ÑĤ
ÑĤÐ¾ Ð¹
ĠÑĦÐ¸Ð»ÑĮ Ð¼
ĠÐ¿ Ð°Ð»
ÐµÐ´ Ð¶
Ð°Ð½ Ð´ÑĭÒĽ
ĠÐĶ ÐµÐ½
Ñģ Ð¼ÐµÐ½
ĠÐ¿ÑĢ Ð¸Ð»
ĠÐ± ÑĭÐ²
ÐļÐ°Ð·Ð°ÑħÑģÑĤÐ°Ð½ ÑģÐºÐ¾Ð¹
ĠÐ¿ÑĢÐ¾ Ð¼ÑĭÑĪÐ»ÐµÐ½
ĠÒ±Ð¹ÑĭÐ¼Ð´Ð° ÑģÑĤÑĭÑĢ
ÑģÐµ Ð´Ñĸ
ĠÐļ ÐµÒ£
ÑĤÑĭ Ð¼
ĠÐ°Ð²ÑĤÐ¾Ð¼Ð¾Ð± Ð¸Ð»ÑĮ
Ñĥ Ð´ÑĸÒ£
ÑĭÒĽÑĤÑĭ ÑĢÑĥ
ĠÓĻÐºÑĸÐ¼ Ñĸ
a st
ĠÐ½ Ð°Ð¹
ĠÐºÓ©ÑĢÑģÐµÑĤ ÑĸÐ»Ð³ÐµÐ½
Ð½Ð¸Ðº Ð¾Ð¼
ĠÑĥÑģÐ» ÑĥÐ³
Ð¶ Ð°ÑĢ
ĠÐºÐ°ÑĩÐµ ÑģÑĤÐ²Ðµ
ĠÐ±Ñĸ ÑĢÐµ
ĠÑģ ÑĭÐ·
ĠÐ¶Ð°ÑĢ ÑĭÒĽ
ÑĪ Ð°Ñı
ĠÐº Ð³
ĠÐ¿ÑĢÐ¾Ð³ÑĢÐ°Ð¼ Ð¼Ñĭ
ĠÐ· ÑĢ
ĠÐ²ÑģÑĤÑĢÐµ Ñĩ
ĠÐ¿ÑĢÐ¾ Ð´Ð°
ĠÑĤ Ð¾Ð¹
ĠÐ¸ÑģÑĤ Ð¾ÑĢ
ĠÐ°Ð½ ÑĤ
Ð£ Ðł
ĠÒĽÒ± Ð½Ð´Ñĭ
ĠÐ¾ÒĽ Ð¸
Ð³Ñĸ ÑĪ
ĠÐºÐµÐ» ÑĤÑĸÑĢ
ĠKAZAKH STAN
Ð» ÑĭÒĵÑĭÐ½
ĠÑĤÑı Ð¶ÐµÐ»
ĠÒĽÐ°Ð±ÑĭÐ» Ð´Ð°
Ð¿ Ð¾Ð½
ĠÑįÐ»ÐµÐºÑĤ ÑĢÐ¾
ÐµÐ½ Ð¸
Ð¾Ð± ÑīÐµ
ĠÐ¼Ò± Ð½Ð°Ð¹
ÑĭÐ² Ð°ÐµÑĤÑģÑı
ĠÐ» Ð¸Ð½
ĠÑģ ÑĢÐ°Ð·Ñĥ
an t
Ð¶ Ñĭ
Ñĥ ÑİÑĤ
Ð¸ÑĤÐ°Ð¹ ÑĤÐµ
ĠÐ²Ñĭ ÑĪ
Ð´ÐµÐ¹ ÑģÑĤÐ²
ĠÐ¼Ð¸Ð½ Ð¸Ð¼
ĠÐ²Ð½Ð¸Ð¼ Ð°Ð½Ð¸Ðµ
Ġ201 1
ĠÐ² ÑĭÐ½
ÑĤÐ°ÑĢ Ð´Ð°
er e
ĠÐ¿Ð¾ Ð½Ð¸Ð¼
Ð¸ÑĤÐµÐ»ÑĮ Ð½ÑĭÑħ
Ð´ Ð°Ð»Ð¸
ÑĸÐ¼ Ð½ÑĸÒ£
ÐµÑĩ Ð½Ð¾
ĠÐº ÐµÐ¿
ro m
ĠÐ¿ ÑĥÐ±Ð»Ð¸Ðº
ĠÐľ Ð°ÑĤ
ĠÑĢÐµÐ°Ð»Ð¸Ð· Ð°ÑĨÐ¸Ð¸
ĠÐºÐ¾Ð½ Ñģ
Ġ8 0
ÑħÐ°Ð½ Ð°
Ġ or
ĠÑģÐµÐ± Ðµ
ĠÑĤÐ¸ ÑĸÑģÑĤÑĸ
Ġ3 5
ĠÐ³ Ð¸
ĠÐ±Ð°ÑģÑĤ Ð°Ð´Ñĭ
ĠÐ¾ ÑĤÑĭ
Ð² Ð°Ð½
ĠÐ¡ ÐµÐ³Ð¾Ð´Ð½Ñı
ÑĥÐ½ ÐºÑĤ
Ð»Ð°ÑĢ ÒĵÐ°
> >
ÐµÐ³ Ð¸ÑģÑĤÑĢÐ¸
DA Y
ĠÐ¿ ÑĢÐ°Ð·Ð´
ĠÐ¿ÑĢÐ¸Ð½ÑĨÐ¸ Ð¿
ĠÑĤÐµÑħÐ½ Ð¾Ð»Ð¾Ð³
ĠÐĳ Ð¸
Ð¸ÑĢÐ¾Ð² Ð°Ð½Ð¸Ðµ
ĠÐµÐ» Ð´ÐµÑĢ
ĠÐ¸ÑĤÐ¾ Ð³Ð°Ð¼
Ð°Ð»ÑĮ Ð½Ð¾Ðµ
ĠÐ¸Ð½ Ð´Ñĥ
ĠÒĽÐ°ÑĤ ÑĤÑĭ
ÑĥÐ» ÑĭÒĽ
ĠÐ² Ð¼ÐµÑģÑĤÐµ
ĠTO DAY
ĠÒĽÐ¾Ð»Ð´Ð°Ð½ ÑĭÐ»Ð°Ð´Ñĭ
Ð½Ð¾ Ñģ
ÑģÐ»ÑĥÐ¶ Ð±Ð°
Ð¿Ð» Ð¾Ð¼
ĠÐ¸Ð· ÑĥÑĩ
ÒĵÐ° Ð´Ñĭ
Ð´Ð°ÑĢ ÑĭÐ½Ð´Ð°
ĠÐĲÑģÑĤÐ°Ð½ Ðµ
ÐµÐºÑĤÐµ Ð¿
ĠÐ² Ð¾ÑĤ
ĠÑĢÐ°Ð¹ Ð¾Ð½Ðµ
ĠS t
ĠÐĵ Ð¾Ð»Ð¾Ð²
ĠÐŀ ÑĤÐ°Ð½
ĠÐ¿Ð¾Ð¼ Ð¾Ð³
Ð°Ð½ Ð´Ð°
ĠÐ±ÑĸÐ» Ð´ÑĸÑĢ
ĠÑĤÑĸÐº ÐµÐ»ÐµÐ¹
ĠÑĤ Ñĸ
ĠÒĵ Ð¾Ð¹
ĠÒļÐ°Ð· ÑĸÑĢÐ³Ñĸ
ĠÑģÐ°Ð¹ Ð»Ð°Ñĥ
ĠÒĽÐ°Ð» Ð°ÑģÑĭÐ½ÑĭÒ£
Ð¾Ðº ÑĢÐ°ÑĤ
ÑĭÑģÑĤ Ð°
ĠÐºÐ¾ÑĢÐ¾Ð½Ð°Ð²Ð¸ÑĢÑĥ ÑģÐ°
ĠÑĦ Ð¸Ð»
ĠÑĤÐ°Ðº Ð¸Ðµ
ĠÑįÐ»ÐµÐºÑĤ ÑĢ
ÑĢÐµÐ¼ ÑĮÐµÑĢ
Ð²ÐµÑĢ Ð´
ĠÐ¶ÐµÑĤ ÐµÐº
ĠÐ¶ Ð¸Ð»ÑĮ
ĠÐ¶ÐµÑĢ Ð»ÐµÑĢ
ĠÑĥÑĢÐ¾Ð² Ð½Ðµ
Ñģ ÑĭÐ½Ð´Ð°
ĠÐ´Ð°Ð»ÑĮ Ð½ÐµÐ¹
ĠÐ¿Ð¾ ÑĤÐµÐ½
ĠÐº ÑĢÐ¸ÑĤ
ĠÑģÐ¾Ð² ÑĢÐµÐ¼ÐµÐ½
Ð°ÑģÑĤÑĭ ÑĢÑĥ
Ġ ;
ĠÐ¼ Ð¸Ð½Ð¸ÑģÑĤÐµÑĢ
ĠÐŀ Ð½Ð°
201 7
ĠÐ¾ÑĤ ÑģÑĥÑĤ
ÓĻ Ð»
ĠÐ¡ ÐµÐ½
ĠÐ¾ÑĢ ÑĭÑģ
ĠÑĦÐ°Ðº ÑĤ
4 5
ĠÐ¿ÑĢÐ¾Ð¸Ð·Ð²Ð¾Ð´ ÑģÑĤÐ²Ð°
Ð´Ð°Ð½ Ð¸Ðµ
ĠÐ²ÑĤÐ¾ÑĢ Ð¾Ð¹
ĠÐºÓ©Ð»ÐµÐ¼ Ñĸ
ĠÑĩ Ð»ÐµÐ½
o b
Ð¾Ð» ÐµÐµ
Ð°Ð» Ð°Ð¹
Ð´ÐµÑĢ Ð¶Ð°Ð½
ĠÒ±Ð· Ð°ÒĽ
ab le
ĠÑĤÒ¯ ÑģÑĤÑĸ
ĠÑĢÐµ ÑĪÐµÐ½Ð¸Ñı
ĠÐ£ Ð·
ĠÐŀ Ð»Ð°ÑĢÐ´ÑĭÒ£
Ð°Ðº Ð¸
ĠÐļÐ¾Ð½ ÑģÑĤÐ¸ÑĤÑĥ
im age
Ð½Ð¸Ðº Ð°Ð¼Ð¸
ĠÐ²Ð¾ Ð´Ñĭ
ÑĸÐ½ Ñĸ
ĠÐ¿ÑĢÐ¸ Ð±
ĠÑĢÐµÑģÐ¿ÑĥÐ±Ð»Ð¸Ðº Ð°Ð»ÑĭÒĽ
ĠÑĤ Ð°ÑģÑĭÐ¼
ĠÐ²Ð½Ðµ ÑĪ
ĠÐ±Ð¾Ð»Ð¼ Ð°Ð¹Ð´Ñĭ
ĠÑģÐ¿ Ð°Ñģ
ĠÐ½Ð° Ð¿Ð¸Ñģ
ĠÐ¿Ð¾ ÑĪ
ÑĢ Ð¸Ð½
ĠÐ°Ð¹ÑĤÑĥ ÑĭÐ½ÑĪÐ°
ĠÑħ Ð¾Ð»
ĠÑĩÐµÑĤ Ð²ÐµÑĢ
ĠÐ¿Ð¾ ÑįÑĤÐ¾Ð¼Ñĥ
ĠÐ¾ÑĢÑĭÐ½Ð±Ð°Ñģ Ð°ÑĢÑĭ
Ð¶ ÐµÐ½Ð¸Ñı
ĠÑģ Ñħ
ĠÐº ÐµÑģÑĤ
ĠÐ² Ðµ
ĠÐ°Ð»Ð´ ÑĭÐ½Ð´Ð°
ĠÐ¼ ÐµÑĢÐµÐº
ĠÑĤÐµÐ¼Ð¿ÐµÑĢ Ð°ÑĤÑĥÑĢÐ°
ĠÑĤÓĻÑĢ ÑĤÑĸ
Ðº Ð¸Ðµ
ÑĥÑĪ ÑĭÐ½ÑĭÒ£
Ġ5 00
ĠÐ°ÑĢ Ð½
ÑģÑĤÑĢÑĥ ÐºÑĤ
ĠÑĥÑĢÐ¾Ð² Ð½Ñı
Ð¸Ð½Ð³ Ð°
Ðº Ð°Ð¼
l l
ĠÑģ ÑĥÐ¿
ĠÑĤ ÐµÐ·
ĠÐ¼ Ð°ÐºÑģÐ¸Ð¼
ĠÐ¿Ð¾ Ð³
e ct
ÑĢÐ¾ ÑĦ
ÑĤÐ° Ñħ
ĠÑĤÐ°ÑĢ ÑĤÑĥ
ĠÐ¾ÑĤ Ð´ÐµÐ»ÑĮ
ĠÐ³ Ð¸Ð´
ĠÑįÐºÐ¾Ð½Ð¾Ð¼ Ð¸ÐºÐ°
ĠÐ±ÐµÑĢ Ñĸ
ÑĤÐ¾ Ð¿
ĠÑĪÐ°ÑĢÑĥÐ°ÑĪ ÑĭÐ»ÑĭÒĽ
ĠÐºÐ¾ÑĢ Ð¿
Ð½ Ð¸ÑĤ
ĠÑģÑĢÐµÐ´ ÑģÑĤÐ²Ð°
Ð´ Ð°ÑĤ
ĠÐ¿ÑĢÐ¾ ÑħÐ¾Ð´
Ð¾Ð²Ð°Ð½ Ð¸Ð¹
ĠÐ¸Ð½ Ð½Ð¾Ð²
ĠÐ½ ÐµÐ¹
ĠÐ¡ ÑĢÐµÐ´
ÑĤ Ð°Ð¹Ð´Ñĭ
ĠÑģÓ©Ð· Ð´ÐµÑĢ
ĠÒĽ ÑĭÑĪ
Ð¡ ÐŁ
ÑģÑĤÐµÐ¼ ÐµÐ»ÑĸÐº
i Ð»
Ðº ÑĤÑĥ
ĠÐ³ ÐµÐ½
ĠÐĸÐ°Ò£ Ð°
Ð½Ð° Ð´
ÑĭÑģ Ñĥ
ĠÑĤ ÑĢÐµÑĤÑĮ
ĠÑĤÐ°ÑĢÐ¸Ñħ Ñĭ
ĠÒĽÐ°Ð· ÑĸÑĢ
ĠÐ² Ð¸ÑĢÑĥ
ĠÐ¿Ð¾Ð»Ð¸ ÑĨÐ¸Ñı
ÐºÑĸ ÑģÑĤÐ°Ð½
ĠÐ¿ÑĢÐ¾Ð³ÑĢÐ°Ð¼ Ð¼
ĠÒĽ Ð¾Ñİ
ĠÐ¿ÑĢÐ¾ÑĦ ÐµÑģÑģÐ¸Ð¾Ð½
o u
ĠÐĲ Ñģ
ĠÐ¡ Ð°Ñĥ
ĠÐ½Ð° Ð³
ĠÐº ÑĢ
Ð¸Ð¼ ÐµÑĢ
Ð¼Ð¾ÑĤ ÑĢÐµÑĤÑĮ
ÐµÑĤ Ðµ
ĠÐ¿ÑĢÐ¾ Ð¿
ĠÒ® ÐºÑĸÐ¼ÐµÑĤ
ĠÓĻ Ð»Ñĸ
Ð´ ÑĢÐ°Ð²
Ðŀ Ðł
ĠÐĸÐ°Ð» Ð¿Ñĭ
ÐµÑĩ Ðµ
ĠÐĿ Ð°Ñĥ
ĠÐĳ ÑĸÐ»ÑĸÐ¼
ĠÐĺÐ½ ÑĤÐµÑĢ
ĠÐ¿ÑĢÐ°Ð²Ð¸ÑĤÐµÐ»ÑĮ ÑģÑĤÐ²Ð°
ĠÐ°Ð²ÑĤÐ¾Ð¼Ð¾Ð± Ð¸Ð»
ĠÐ±ÐµÐ¹ Ð½
ĠÐ¶Ð°ÒĽ ÑĭÐ½
Ñĳ ÑĤ
ĠÑįÐºÐ¾Ð½Ð¾Ð¼ Ð¸Ðº
e c
Ð¸ ÐµÑģÑı
ĠÒĽÒ±ÒĽÑĭÒĽ ÑĤÑĭÒĽ
ĠÐ¶Ð°Ñģ Ð°ÒĵÐ°Ð½
Ġ at
Ðº ÑĢÐ°ÑĤ
Ð¸ÑĤÐµÐ»ÑĮ Ð½ÑĭÐµ
ĠÐ´Ð¾Ð³ Ð¾Ð²Ð¾ÑĢ
a ct
ĠÐł Ð°Ñģ
Ñģ ÑĥÐ»ÑĤÐ°Ð½
ĠÐĲÐ» Ð°Ð¹Ð´Ð°
ĠÑįÐº ÑģÑĤ
Ð¼Ð°ÒĽ ÑĤÐ°
ÑĤ Ð¾Ð½
Òĵ Ñĥ
Ð½Ð¸ÑĨ Ñĥ
ĠÒĽÐ°ÑĢ Ð°Ð¶
Ġ 000
ÑĢ Ð¾Ð»ÑĮ
ĠÐĲÐ» ÑĮ
ĠÐ³ Ð°ÑĢ
Ñģ ÐµÐ»Ðµ
ÒĽÐ° ÑĪ
ĠÑįÐºÑģÐ¿ ÐµÑĢ
ĠÐł Ð°Ð·
ĠÐµÑģÐµ Ð±
ĠÐ¿ÑĢÐ¾Ð´Ñĥ ÐºÑĤ
ÐµÐ¹ Ð½ÐµÑĤ
ĠÐ¦ ÐµÐ½ÑĤÑĢ
ÑĭÑģÑĤÑĭ ÑĢÑĥ
ÑĢÑĤ Ð°Ð»ÑĭÒĽ
ÑĢÐ°Ð¼ Ð¼
ÐµÐ½ ÑĤÑĭ
ht tps
Ġ ÑĸÑĢ
ÑİÑī Ð¸Ð¹
ĠÐ¸Ð½ Ð²ÐµÑģÑĤ
ar y
ĠÒļ ÑĭÐ·ÑĭÐ»
Ġw indow
ĠÐºÐ»Ð°Ñģ Ñģ
ĠÐ¢ Ð°Ð¼
ĠÐ¾Ð±Ð» ÑĭÑģÑĭÐ½Ð´Ð°
Ð°Ðº Ð¾Ð²
ĠÑĤ ÑĢÐ°Ð²
ĠÑģÐ»ÑĥÑĩ Ð°ÐµÐ²
ÓĻ Ð¼
ĠÐ² Ð²ÐµÐ´
ĠÑĥ ÓĻ
ĠÐ±Ð¾Ð» Ð°
Ð¸ Ð´Ð°
Ðĺ Ð½
ĠÒĽÐ°ÑĢ Ð°
ÑģÑı ÑĤ
ĠÐ¼ÐµÑĢÐ· ÑĸÐ¼
ÑģÑĤÐ²Ñĥ ÑİÑĤ
ĠÐ¿ÑĢÐ¸ ÑħÐ¾Ð´
ĠÐºÐµÐ» ÑĤÑĸ
ĠÐ¡ Ð°ÑĢ
ĠÒ± ÒĽ
ĠÑĥÑģÐ»Ð¾Ð²Ð¸Ñı Ñħ
ĠÐ¾ÑĢÐ³Ð°Ð½ Ð¾Ð²
Ð¾Ð² Ð¾Ð»ÑĮ
iÐ½ iÒ£
Ġ @
ĠÓ© ÑĤÑĥ
ĠÐŁ ÑĥÑĤ
le ment
ĠÑĤ ÑĭÐ½
ĠÑĤÒ±ÑĢ Ð°ÑĤÑĭÐ½
or y
ĠÐ½Ð° Ð¸Ð±
ĠÑģÑĤÐ¾ÑĢ Ð¾Ð½
Ð³ ÑĢÐ°ÑĦ
Ð°Ð»ÑĮ Ð½ÑĭÐ¼
ĠÑģÑĦÐµÑĢ Ðµ
ĠÐ´ÓĻÐ» ÐµÐ»
ÑĤÐµÑĢ ÑĸÐ½Ðµ
4 9
Ð¼ Ð¾Ñģ
ĠÐ´Ð¸ Ð¿Ð»Ð¾Ð¼
Ð¼Ðµ Ð³ÐµÐ½
ic k
Ñĩ Ð¸Ðº
ĠÐ°Ð»Ð¼ Ð°Ð¹
ĠÐ½Ð°Ð´ Ð¾
ĠÑĨ ÐµÐ»ÑĮ
ĠÐ¼Ð°Ò£ÑĭÐ· Ñĭ
?? ??
ÑİÑī Ð¸Ðµ
Ñĥ ÑĸÐ½Ðµ
Ð°Ð½ Ð¸Ñİ
ĠÐ´ÐµÐ½ ÑģÐ°ÑĥÐ»ÑĭÒĽ
ÑĤ Ð°ÑĤ
ĠÐ½ Ð¾Ð²ÑĭÐµ
ĠÐ±Ð°Ð½ ÐºÐ¾Ð²
Ðĳ Ð°ÑĢ
ÐĨ ÐĨ
ÑĥÐ» Ñĸ
ĠÑĤ Ð¾Ð³Ð´Ð°
ĠÐ¿ÑĢÐ¸ Ð¾Ð±
ĠÐº ÐµÑģ
ĠÑħÐ°Ð»ÑĭÒĽ ÑĤÑĭÒ£
ÓĻÑģÑĸ Ð±Ð¸
ÒĽ ÑĭÑĢ
ĠÑģÐ°Ð» ÑĭÑģÑĤÑĭÑĢ
ĠÐºÐ¾Ð½ ÑĦ
0 7
Ġ201 0
ĠÑĤÓ© ÑĢÑĤ
ÑĥÑİÑī Ð¸Ñħ
ĠÐºÐ¾Ð¼Ð¿ ÑĮÑİÑĤÐµÑĢ
ĠÐ¼Ò± Ð½Ð´Ð°Ð¹
ĠÐ½ Ð°Ð½
i Ð¿
ĠÒĽÑĭÐ·Ð¼ÐµÑĤ ÑĸÐ½
ÑĭÒĵ ÑĭÐ½ÑĭÒ£
Ð»Ðµ Ð³
ĠÑģÐ¾Ð± ÑģÑĤÐ²ÐµÐ½
Ð± ÐµÑĤ
ĠÐ·Ð°ÑĢ ÐµÐ³Ð¸ÑģÑĤÑĢÐ¸
ÑĥÑīÐµ Ð³Ð¾
ĠÐ±Ó©Ð» ÑĸÐ³Ñĸ
Ð¾ÑĢ ÑĥÐ¶
ĠÐĶ Ð°
ĠÑģÑĤÐ°ÑĤ Ð¸ÑģÑĤ
Ð± Ð°ÑĢ
Òĵ Ð°ÑĢ
ÑĨÐ¸Ð¾Ð½ Ð½ÑĭÑħ
ĠÐ½ Ð¸Ñĩ
ĠÑħ Ð¾Ð´
ĠÐ¾Ð¿ ÑĥÐ±Ð»Ð¸Ðº
ÑĢ ÐµÐ»
Ð°Ð» Ð°Ð½
ĠÑģ ÑĢÐ¾
ĠÐ¼ÓĻÐ´ÐµÐ½ Ð¸
ÑĤi Ðº
ÑĸÐº ÑĤ
Ġc h
ĠÑĥÑĢÐ¾Ð² ÐµÐ½ÑĮ
ĠÐ´Ð¾ÑģÑĤ Ð°ÑĤ
ĠÐ¼ÓĻ ÑģÐµÐ»Ðµ
ĠÒĽÑĭÐ·Ð¼ÐµÑĤ ÐºÐµÑĢ
ĠÐ²Ðµ ÑīÐµ
ĠÑĪ Ð°ÒĵÑĭÐ½
ĠÑģÑĩÐ¸ÑĤ Ð°ÐµÑĤ
Ð£ ÐĽ
ĠÐ· Ð°ÑģÑĤ
ĠÑģÑĤ Ð°Ð»Ð°
Ð¸ÐµÐ² Ð°
f f
Ð°ÑĤÐ¸Ð² ÑĤÑĸÐº
2 9
ĠÐ¼ÐµÑĤ ÑĢÐ¾Ð²
ÑĭÒ£ ÒĵÐ°Ð¹
ĠÐº Ð»ÐµÑĤ
ĠÐ¿ ÑĥÐ½ÐºÑĤ
ĠÑĤÐµ Ð¿ÐµÑĢ
ĠÐ¿ÑĢÐ¾ÑĦ ÐµÑģÑģ
ĠÒ¯Ð· Ð´ÑĸÐº
ĠÐ¼Ð°ÒĽ Ð°Ð»
Ð² Ð¾Ð±
ĠÑĤÓĻÑĢ ÑĤÑĸÐ¿
ÑģÑĤ ÐµÑĢÑĸ
ĠÐĿÐ¾Ð² Ð¾ÑģÑĤÐ¸
ĠÐºÐ¾Ð¼ Ð¼ÐµÐ½
ĠÐ¿ Ð¸ÑĤ
ĠÐ¿ÐµÑĢ ÐµÐ³
ĠÐ¶Ð°Ð¹ Ð»Ñĭ
7 7
Ð± Ð¾
ĠÐµ Ð³ÐµÑĢ
Ġt r
Ð± ÑĭÑĢ
Ðľ Ò±
w it
ĠÑĩ ÐµÐ³Ð¾
est i
ĠÐ¿Ð¾ÑĢÑıÐ´ ÐºÐ°
ĠÐ¢ ÐŀÐŀ
ĠÐ¿Ð¸ÑĪ ÐµÑĤ
ĠÐºÐµÐ» ÐµÑĤÑĸÐ½
ĠÐĲÐ»Ð¼Ð°ÑĤ Ð¸Ð½ÑģÐºÐ¾Ð¹
Ġ3 6
ĠÓĻÐ´ÐµÐ±Ð¸ ÐµÑĤ
ĠÐ¿Ð¾Ð´Ð¾Ð· ÑĢÐµÐ²
Ð³ Ð°ÑĢ
ÑĬ ÐµÐ¼
Ð¢ Ðķ
ĠÐ½ÓĻÑĤÐ¸Ð¶ ÐµÑģÑĸÐ½Ð´Ðµ
ÐĶ ÐĲ
ĠÑĢÐ°Ð±Ð¾ÑĤ Ðµ
ĠÑĤÐµÑĢ ÑĢÐ¾ÑĢ
ĠÐµÐ» Ð´ÑĸÒ£
ĠÐ¼ÐµÑģÑı ÑĨÐµÐ²
0 5
ÐŃ Ð¡
0 9
ÑĨ ÐµÐ½ÑĤ
ĠÐĳÒ¯ Ð³ÑĸÐ½
ĠÐ¿ÑĢÐ¸Ð· Ð½
Ð¸Ð² Ð°Ð»
Ð¾ ÑĨÐ¸
ĠÐ³ ÑĢÐ°ÑĦ
Ð³ Ð»
ĠÐ¡ ÐľÐĺ
Ð°Ð¹ Ñĭ
ĠÐºÐ» Ð¸Ð½
g e
ÑĦ Ð¾ÑĢ
ĠÐ¤ ÐµÐ´ÐµÑĢ
ĠÐºÐ¾ÑĤÐ¾ÑĢ Ð¾Ðµ
ĠÐ¿Ð°ÑĢÑĤ Ð¸Ð¸
ĠÐºÐµÒ£ ÐµÑģ
ĠÑĢÐ°Ð±Ð¾ÑĤ Ð°ÑĤÑĮ
ĠÐ¿ÐµÑĢ ÐµÑģ
ÒĽ Ò±Ð»
ĠÐ¢ Ð°Ð»
ĠÐĲÐ» Ð»Ð°
ĠÑĦ ÐµÑĢ
ÐµÐ² Ð¾Ð¹
ĠÐ¿ÑĢÐ¾Ð´ÑĥÐº ÑĨÐ¸Ð¸
ĠÒļ ÑĭÑĤÐ°Ð¹
-- --
ĠÐºÐ¾Ð½ ÑĦÐµÑĢÐµÐ½
ĠÑĢÐ¾ Ð¶
Ð»Ñĸ Ð³ÑĸÐ½ÑĸÒ£
ÐµÑĢ Ð¾Ð²
ĠÐ¿Ð¾ÑģÐ»ÐµÐ´ Ð½Ð¸Ðµ
ĠÐ¡ Ð¾Ð³
ĠÒĽÐ°Òĵ Ð°Ð·
ĠÑĢ Ò±ÒĽ
ĠÑĢÐ°ÑģÐ¿Ð¾Ð» Ð¾Ð¶
ÐµÐ»ÐµÑĢ ÑĸÐ½ÑĸÒ£
ĠÑĥ Ð²ÐµÑĢ
ĠÑĢÐµÐ±ÐµÐ½ ÐºÐ°
ĠÐ² Ð¸Ð·
ĠÐ¼Ð°ÑĪ Ð¸Ð½
ĠÑģÐ°Ð» Ñĥ
ÐµÐ½ Ð½Ð¾ÑģÑĤÐ¸
ĠÑģÐ¾Ð± Ð¾Ð¹
ĠÐ±Ò¯ ÐºÑĸÐ»
y a
ĠÑĤÓĻÑĢ Ð±Ð¸Ðµ
ĠÐ½Ð°Ð» Ð¸Ñĩ
ÐĿ Ð°
ĠÐ¾ÑĢ Ð½Ñĭ
ĠÑĤÐµÐ¿ÐµÑĢ ÑĮ
ĠÐ±Ð°ÑĤ ÑĭÑĢ
ÑĢÐ¸Ð¼ ÐµÑĢ
ĠÑĤÐ°ÑģÑĭÐ¼ Ð°Ð»
ĠÒĽÐ°ÑĢ Ð°ÒĵÐ°Ð½Ð´Ð°
ÒĵÐ°Ð½ Ñĭ
ÑĤÐµ Ð³
ĠÓ©Ñģ ÑĸÐ¼Ð´ÑĸÐº
3 6
ĠÐ¡ ÓĻ
ĠÑĪ ÐµÐºÑĤÐµ
ĠÐ½ Ð¾Ð²ÑĭÐ¹
ĠÐ² ÑĢÐ°Ñĩ
ĠÐºÐ¾ÑĤÐ¾ÑĢ Ð¾Ð¼
Ð°Ð½Ð´ ÐµÐ¼
ĠÐ¼ Ð¼
n ews
ĠÑĭÒĽ Ð¿Ð°Ð»
Ð¾ÑĢ Ð³Ð°Ð½
ĠÐĶ Ð¸
ĠÑĨÐµÐ» Ð¾Ð¼
ĠV esti
Ñı ÑĩÐ¸
ĠÑĪÑĭÒĵÐ°ÑĢ Ñĥ
ĠÐ¿Ð¾ÑģÑĤ ÑĢÐ¾
Ð°ÑĤ ÑĭÐ½ÑĭÒ£
ĠÑĪ ÑĭÒĽÑĤÑĭ
Ð² ÑĢÐ°Ñī
Ġi f
oun t
Ð¸Ð¼ ÑĭÐ»
ĠÐ½ Ð¸Ð·
ĠÐ² Ð¸ÑĨÐµ
ÐµÐºÑĤ ÑĸÒ£
ĠÒĽÒ± ÑĢÐ°Ð¹Ð´Ñĭ
Ð¸ÑĢÐ¾Ð² Ð°Ð»Ð¸
ĠÐĲÐ· Ð¸Ñı
ÑĮ ÐµÐ·
Ð°ÑĤÑĤÐ°ÑĢ Ñĭ
ĠÐĲÐ½ Ð´
ĠÐĴ Ð¾ÑģÑĤ
ÑģÐ¿ ÐµÐºÑĤÐ¸Ð²
Ð ¬
ĠÑģÐ¿ ÑĢÐ°Ð²
ĠÑģÐ²Ð¾ ÐµÐ¼
Ñģ Ð¾Ð¼
ĠÐ¿Ð¾Ð¼Ð¾Ñī ÑĮ
ÑģÑĸ ÑĢÐµÑģÐµ
ĠÐ· ÐµÑĢ
ĠÐ´ÐµÑģ ÑıÑĤ
ĠÑĤ Ð°Ñģ
Ġ he
Ð°ÑĤ Ð¸
Ð ®
ĠÐ° ÑĢÐ°
ĠÐ¿ÑĢÐµÐ´ Ð»Ð°Ð³
ĠÐ¼ÐµÑĤ Ð°Ð»Ð»
ĠÐŁ ÐµÑĤ
ĠÐ¾Ð¶Ð¸ Ð´Ð°ÐµÑĤÑģÑı
ÑĥÑĢ ÑĭÐ·
ĠÓ© Ðº
i o
Ð°Ñģ ÑĭÐ½Ð°Ð½
ĠÐ½Ð° ÑĥÑĢÑĭÐ·
wit ter
ĠÐĲ ÐºÑĤ
ĠÐ¿ÑĢ Ð¸Ðµ
Òĵ ÑĭÐ»
ÐµÐºÑĤ ÐµÑģ
ÐºÑĤ ÑĸÒ£
ĠÐ¶ Ð¸ÑĤÐµÐ»ÐµÐ¹
ĠÓ©ÑĤÐºÑĸÐ· Ñĥ
ĠÑģÑĤ Ð°Ð±
ĠÐ±ÐµÑĢ ÑĸÐ»ÐµÐ´Ñĸ
Ð¼Ð¾ÑĤ ÑĢÑı
ĠÐ±Ð»Ð°Ð³Ð¾ Ð´Ð°ÑĢ
ĠÐ´Ð¾Ð¿ Ð¾Ð»Ð½Ð¸ÑĤÐµÐ»ÑĮ
ĠÐ¸Ð·Ð²ÐµÑģÑĤ Ð½Ð¾
i b
ĠÐ´Ð°Ð½ Ð½ÑĭÐµ
ÒĽ ÑĭÐ¼
Ð¸Ð´ ÐµÐ¼
ĠÑĢÐ°Ð·Ð²Ð¸ÑĤ Ð¸Ðµ
0 3
p p
ĠÐ±Ð»Ð¸ Ð¶Ð°Ð¹
Ñĸ ÑĢÑĥ
ÑĭÐ¼ÑĭÐ· Ð´ÑĭÒ£
Ð¸Ð¼ Ð°ÑĢ
ĠÐºÓ©ÑĢÑģÐµÑĤ ÐµÐ´Ñĸ
ĠÐ± ÓĻÑĢÑĸ
Ð¿ Ð°Ð½Ð¸Ñı
ĠÐ± Ð¸ÑĢ
Ð± Ð°ÑģÑĤ
ĠÑĤ Ð°Ð¹
Ð½ Ð°Ð¼Ð°
ĠÐļ Ð¾Ð»
ÑĪÐ° ÒĵÐ°Ð½
Ð°Ð± Ñĭ
ĠÓ©Ð½ ÐµÑĢÐº
ĠÐ·Ð°Ò£ Ð½Ð°Ð¼
ĠÐ´Ð°Ð½ Ð½ÑĭÑħ
ĠÐ±Ð» Ð¸Ð·
ĠÑĢÐ°Ñģ ÑĪÐ¸ÑĢ
ĠÑĤÒ± ÑĤÑĭÐ½
ÐµÑģÑĤ ÑĸÐº
ĠÐ²ÑĭÐ¿ ÑĥÑģÐº
ĠÐ±Ð¾Ð» ÑģÑĭÐ½
ÐĲ Ðļ
Ð°ÑĤ ÑĥÑĢÑĭ
ĠÐ¢ Ð¾Ð»
ĠÐ¸ Ð´ÐµÑĤ
Ð¾Ð» Ð½ÐµÐ½
Ð¿ Ð¾Ð´
c ont
ĠÐ¿ÑĢÐµÐ´ Ð¿Ð¾Ð»
ĠÓ©ÑĤÐµ Ð´Ñĸ
ĠÐ±Ò¯Ð³ÑĸÐ½ Ð³Ñĸ
ĠÒĽÒ±ÑĢÑĭÐ» ÑĭÑģ
ÑĢÑı Ð´
Ñĩ ÐµÐ¼
ĠÐ¿ÑĢÐ¸Ð² Ð»ÐµÑĩ
ar d
ÑĤ ÐµÐº
ĠÐ¼Ð¾Ð½ Ð¸ÑĤÐ¾ÑĢ
Ð»ÐµÐ´ Ð¶
ĠÐ¿ÑĢÐ¾Ð±Ð»ÐµÐ¼ Ñĭ
ĠÐ¾Ð± ÑĭÑĩ
ĠÐĿÑĥÑĢ ÑģÑĥÐ»ÑĤÐ°Ð½
ĠÑģÐ¸ÑĤÑĥ Ð°ÑĨÐ¸Ñı
ĠÐ¼ Ð¸Ð½Ð¸ÑģÑĤ
ĠÐ¿ ÑıÑĤÑĮ
ĠÐ¸Ð·Ð¼ÐµÐ½ ÐµÐ½Ð¸Ñı
ĠÐºÐ°Ð¶ Ð´ÑĭÐ¹
ĠÐ±ÑĸÐ» Ð´Ñĸ
ÑĢ Ð°Ð»Ð¸
Ġ9 0
ĠÐºÑĥ ÓĻ
ÑģÐºÐ¾Ð¼ Ñĥ
ĠÑĢÐµ Ð¹
ĠÐ¼ÓĻÑģÐµÐ» ÐµÐ»ÐµÑĢÑĸ
ĠÑģÐ´ÐµÐ» Ð°ÑĤÑĮ
Ð¸ÑĤÐµÐ» ÐµÐ¼
ĠÐ¿ÐµÐ½ ÑģÐ¸Ð¾Ð½
ÐĲ Ð¹
ĠÐ¶Ð¸Ð· Ð½ÑĮ
ĠÐ¼ÐµÑģÑĤ Ð°
ĠÑĦÑĥÐ½Ðº ÑĨÐ¸Ñı
Ð³ ÐµÐ´
ÑĤÐ°Ð½ Ñĥ
ĠÐļ Ñĥ
Ñħ Ð°ÑĤ
Ð¾ Ñĥ
ÑĪ ÑĸÐ»ÑĸÐ³Ñĸ
ĠÐĲ ÑħÐ¼ÐµÑĤ
Ð² Ð°Ð»Ð¸
am s
Ð¸Ð¼ Ð¸ÑĢ
ĠÐ¿Ð¾Ð» Ñĥ
ĠÐ¼ Ð½ÐµÐ½Ð¸Ñİ
Ð´Ðµ Ð³ÐµÐ½
Ð±Ð¸ ÑĢÐ°
ĠÐ´Ð² Ðµ
ĠÑĢÐ°Ð· Ð°
ĠÒ± ÒĵÑĭÐ¼
Ò£ ÑĤÒ¯ÑģÑĤÑĸÐº
ĠÐ° ÑĤÐ°Ð»
ĠÐ²Ð¾Ð· Ð´Ñĥ
ÑĤ ÐºÐµÐ½
Ð´Ñĥ Ð¼
ĠÐ²Ñĭ ÑĪÐµ
ĠÐ³Ð¾Ð» Ð¾Ñģ
ĠÐĿ Ð°ÑĢ
Ð½Ð¸ ÑĨÑĭ
ĠÑģÐ¾ÑģÑĤÐ°Ð² Ð¸Ð»
ÐµÐ»ÐµÑĢ Ð´Ñĸ
Ð´Ñĭ Ð¼
ĠÑĢÐµ ÑĦÐ¾ÑĢÐ¼
Ð°ÑĤ Ð¾Ð¼
Ñĩ Ð°ÑģÑĤ
ĠÐ½ Ð¸Ð¼
ĠÑĦ Ð¸Ð»Ð¸
ĠÐ» Ð¾Ð³
ĠÒ¯Ð¹ ÑĢÐµÐ½
ĠÑģÐ²ÑıÐ· Ð°Ð½
ĠÒ¯Ð» Ð³Ñĸ
ĠÑĥÑĩ Ð°
ÐºÐ¾ Ð³Ð¾
ĠÑĤÑĭÑģ ÑıÑĩÐ¸
ĠÒĽÒ±Ð¶ Ð°ÑĤ
Ð¸ÑĢÑĥ ÐµÑĤ
ÑıÑĤ Ð¸Ñı
ĠÐ¶ÐµÐ» ÐµÐ·
ĠÐ±Ð¸Ð·Ð½ÐµÑģ Ð°
ĠÐ±Ð°ÒĵÑĭÑĤ ÑĤÐ°Ð»ÒĵÐ°Ð½
ĠÐ± ÓĻÑĢ
ĠÑħ Ð¾Ñĩ
ĠÐķÐ² ÑĢÐ¾Ð¿
Ñģ Ð¾Ð»
ĠÑĨ Ð²ÐµÑĤ
ÐºÐ¾ Ð¿
Ð»Ð° ÒĵÐ°Ð½
ĠÑģÑĥÐ´Ðµ Ð±
Ð¶ Ñĥ
Ġ3 3
ĠÐ²Ñĭ Ð±Ð¾ÑĢ
ĠÐ» Ð¸ÑĤ
ĠÐ¿Ð¾ÑģÑĤÑĢÐ° Ð´Ð°Ð²
ĠÒĽÑĭÑĢ ÐºÒ¯Ð¹
ÑĸÐ¼ÑĸÐ· Ð´ÑĸÒ£
ĠÐ¿ ÑĥÐ½Ðº
Ð¾ ÑıÑĤ
Ð´Ð°ÑĢ Ð´Ð°
ĠÑĥ ÐºÑĢÐ°
ĠÐ¼Ð¸Ð½Ð¸ÑģÑĤÑĢ Ð»ÑĸÐ³Ñĸ
Ðº ÑĨÐ¸Ð¸
ĠÐ½Ð° ÐºÐ°Ð·
ÐµÐº ÐµÐ»
ÐµÐ¹ ÑĤÑĥ
ĠÐ¸ÑģÐ¿ Ð¾Ð»Ð½
Ð¹ ÑĢ
ĠÐĶ Ð°Ð½
ÑģÐº Ð¾ÑĢ
ĠÐ¾ÑĤÐ½Ð¾ Ñģ
Ð°Ð½ Ð¸ÐµÐ¼
ĠÐ¼Ð°Ð¼ ÑĭÑĢ
el l
ĠÐ½Ð¸Ðº Ð°Ðº
ĠÐ¾ÑĢÑĭÐ½Ð´Ð° Ñĥ
ĠÐ¾Ð´ Ð½Ð°ÐºÐ¾
Ð³Ñĸ ÑĤ
( "
ĠÐľ Ð°Ð¹
ĠÐ¾ÑĤÐº ÑĢÑĭ
Ð½Ð¸Ðº Ð°Ð¼
ĠÑģÑĥÐ±ÑĬ ÐµÐºÑĤ
ĠÐº ÑĸÐ¼
ĠÒĽÐ¾Ð½ Ð°ÒĽ
ĠÐºÒ¯ÑĢ Ð´ÐµÐ»Ñĸ
5 8
0 6
i an
ĠÑĢÐ¸ ÑģÐº
ĠÐº ÑĥÐ¿
Ð±ÐµÐº Ð¸
ĠÑĤÐµÑĢ Ð¼Ð¸Ð½
ĠÐ¸Ð½ÑĤÐµÑĢ Ð²
ĠÐ± Ð¾Ñı
ĠÐ° ÑĤÑĭ
Ð¼ ÑĭÑģ
ĠÐ¾ÑĤ ÐºÐ°Ð·
ty pe
Ó© Ð¿
Ð¶ Ð°ÑĤ
ĠÐ¡ ÐµÐ²ÐµÑĢ
ĠÑģÐ»ÑĥÐ¶ Ð±Ñĭ
Ġp ar
ĠÐ±Ð°ÒĵÐ´Ð°ÑĢÐ»Ð°Ð¼ Ð°ÑģÑĭ
ĠÐ¿Ð¾Ð» Ð½Ð¾ÑģÑĤÑĮÑİ
ĠÐ°Ð´Ð°Ð¼ Ð´Ð°ÑĢÐ´ÑĭÒ£
it le
ĠÐ° ÑĤÐ°Ð»ÒĵÐ°Ð½
ĠÐ¿Ð¾Ð¼Ð¾Ñī ÑĮÑİ
ĠÑĢÑĭÐ½ ÐºÐ°
ĠÐ¾ Ñħ
Ð½ Ð°ÑĤ
Ð¼Ð°Òĵ ÑĭÐ½Ð´Ð°
ĠÑģÑĥÐ¼ Ð¼Ñĥ
ĠÐ½Ð°Ñĩ Ð°Ð»ÑĮ
Ð½ ÐµÐº
ĠÐ¼ÐµÐ½ ÑĸÒ£
ĠÐ «
ĠÐ²Ð°Ð» ÑİÑĤ
ĠÐĽ Ð¸
ÑĢ ÑĭÐ·
ĠÑĩÐ°Ñģ Ð¾Ð²
ĠÐ³ Ð¾Ð»Ð¾Ð²
ĠÐºÐ° ÑĦ
ĠÐ¾ÑĤÐ½Ð¾ ÑĪÐµÐ½Ð¸Ñı
ĠÒĽÐ°Ð½ Ð°
Ð»ÐµÐ½ Ð½ÑĭÑħ
ĠÑĪ ÐµÐ±
Ð° Ð´Ðµ
ĠÑĤÐµÐºÑģÐµÑĢ Ñĥ
ĠÐ¾Ð´ Ð½Ð¾
ĠÐ¿ÑĢÐ°Ð² Ð°
ĠÐ³Ð¾ÑģÑĥÐ´Ð°ÑĢÑģÑĤÐ²ÐµÐ½ Ð½ÑĭÑħ
Ð¸Ðº Ð»
ĠÐº ÐµÐ½
ĠÑĢÑĭÐ½ ÐºÐµ
ÐµÑĢÑĤ Ð²
ĠÐ¶Ð¸ Ñĸ
ĠÒĽÐ¾Ñģ Ð°
Ð¾Ñģ Ð¾ÑĦ
ĠÐ¼ÐµÑĤ ÑĢ
ÑģÑĤÐ²ÐµÐ½ Ð½ÑĭÐ¹
Ð¸ÑĩÐµÑģÐº ÑĥÑİ
ĠÐ¶Ð°Ò£ Ð°Ð»ÑĭÒĽ
ĠÐ¸Ð½ ÑģÑĤÐ¸ÑĤÑĥ
ĠÐ±Ð°Ð½ ÐºÐ°
ĠÐºÐµÑĤ ÑĤÑĸ
ĠÐ² ÐµÑĩ
ĠÐ±ÑĸÐ» Ñĥ
Ð»Ð°Ñģ Ð½Ð¾
ÑĤÐµ ÑģÑĤ
Ñĭ ÒĵÐ°Ð½
Ð¸ÑģÑĤ Ð¾Ð²
ĠÐĲÐ»ÐµÐºÑģÐ°Ð½Ð´ ÑĢ
ĠÐ°Ð´Ð¼Ð¸Ð½Ð¸ÑģÑĤ ÑĢÐ°ÑĤÐ¸Ð²
Ð´Ð° ÒĽ
ĠÑĨÐµÐ½ÑĤ ÑĢÐ°
ĠÐ¶Ñĥ ÑĭÒĽ
Ð°ÑĤ ÑĥÑĢ
Ð¶ ÑĭÐ»
ĠÐ» Ð¸Ð±Ð¾
ĠÑĥÐ´Ð°Ð» Ð¾ÑģÑĮ
Ð°Ð» Ð°Ð¼
ĠÐ¶Ò±Ð¼ ÑĭÑģÑĤÐ°ÑĢÑĭ
Ð¾Ð½ ÑĤ
ĠÑĤÐµ Ð¿
Ð¾ Ð½Ð¾Ð¼
Ñį ÑĦ
ÑĤ ÐµÐ¼
ĠÑĢÑĥ ÑħÐ°Ð½Ð¸
Ġ le
ĠÐĵÐ»Ð°Ð² Ð°
Ð»Ðµ Ð¿
ĠÑģÐ¾Ð³ Ð»Ð°
ĠÑĤÓĻ Ð½
ĠÐ´ÐµÐ» Ð°
ĠÐ²Ð°Ð» Ñİ
ĠÐ³ ÐµÑĢ
i Ð»i
ĠÒļ Ð¾ÑĢ
ĠÐĳ ÐµÐ¹
ĠÑģÑĤÐ¾ Ð¸ÑĤ
ĠÐ¸Ð´Ðµ Ñı
ĠÑģÐ±Ð¾ÑĢ Ð½Ð¾Ð¹
ĠÐ¾Ð¿ ÑĭÑĤ
ĠÐ¶Ð°Ð½ ÑĥÐ°ÑĢ
ĠÐ· ÐµÐ¹Ð½ÐµÑĤ
Ð´Ñĭ ÒĵÑĭÐ½
ĠÐ³ Ð¾ÑģÑĤ
ĠF acebook
ĠÐºÐ¾Ð¼Ð¿ Ð»ÐµÐº
ĠÐºÐ¾Ð¼Ð¸ÑģÑģ Ð¸Ñı
ÐĲ ÑĢ
Ð¸Ð· Ð°ÑĨÐ¸Ñı
Ñĸ ÑģÐ¿
ĠÐ¿Ð¾Ð´ Ð¾Ð±
ĠÐ¾ ÑĪ
ĠÐļ ÐµÐ»
Ð¾Ð¿ ÐµÑĢ
ĠÒĽÐ°Ò£ ÑĤÐ°ÑĢ
ĠÑĢÐµ ÐºÐ¾Ð¼
Ð°Ò£ ÒĵÑĭ
Ðŀ ÐĽ
ĠÐ¶Ð°ÑĤ ÑĤÑĭ
ÑĭÒĵ ÑĭÐ½Ð°
ĠÐ´ Ð¾ÑĢÐ¾Ð¶
r y
ÑĨÐ¸Ð¾Ð½ Ð½Ð¾Ð¹
ĠÐ» ÐµÐº
ĠÑĪ ÐºÐ¾Ð»ÑĮ
ĠÒ¯ ÑĢ
Ġ200 9
ĠÒĽÐ°ÑĥÑĸÐ¿ ÑģÑĸÐ·Ð´ÑĸÐº
ĠÑĪÑĭÒĵÐ°ÑĢÐ¼Ð° ÑĪÑĭÐ»ÑĭÒĽ
ĠÓ©ÑĤÑĸÐ½ ÑĸÑĪ
ĠÐĲÑģÑĤÐ°Ð½ Ñĭ
ĠÑĤÐµÑħ Ð½Ð¸Ðº
ĠÑĤÒ¯Ñģ ÑĸÑĢ
ĠÐ´ ÓĻÑĢ
Ðĺ Ð¯
p er
ĠÐ°Ñĥ ÑĭÐ·
ĠÐ½Ð°Ð¼ ÐµÑĢ
ĠÐ¿Ð°ÑĢÑĤ Ð½ÐµÑĢ
Ð± ÐµÐ³
ÐµÐ½ Ð½ÑĭÐ¼
ĠÐ¿ÑĢÐ¾Ð²ÐµÐ´ ÐµÐ½Ð¸Ñı
ĠÐ·Ð°Ð²ÐµÑĢ ÑĪ
ÑģÐ»ÑĥÐ¶ Ð±Ðµ
ĠÐŀ ÑĢÑĤÐ°Ð»ÑĭÒĽ
ĠÐ³ ÑĢÑĥÐ·
ĠÐ¼Ò¯ Ð´
ĠÑĤÐµÐ» ÐµÐº
ĠÐ±Ð¸Ð» ÑĸÐº
ĠN UR
Ð½Ð¾Ð¼ Ð¾Ñĩ
ĠÐ¶Ó©Ð½ ÑĸÐ½Ð´Ðµ
ĠÐł Ð¤
ĠÐ§ Ð¸ÑĤÐ°Ð¹ÑĤÐµ
ĠÓ©Ð½Ð´ÑĸÑĢ ÑĸÑģ
ĠÐļ ÐµÑĪÐµ
ĠÐ¾Ð´ Ð½Ð°
201 8
Ð¸Ð² Ð°Ð½Ð¸Ñı
ĠÐºÓ© Ð¼Ðµ
Ð¸ Ð´Ðµ
ĠÐ±Ð°ÑĢ Ð»ÑĭÒĵÑĭ
Ð´ÑĭÑĢ ÑĭÐ»ÒĵÐ°Ð½
ĠÑĩÐ¸Ñģ Ð»Ð¾
Ðĺ ÐĶ
ĠÐ¿ÐµÑĢ ÑģÐ¿ÐµÐºÑĤÐ¸Ð²
ĠÐļ Ð°Ð½
ĠÑĤ ÑĭÑĢ
Ð°Ð¹ ÑĭÒĽ
u st
ĠÐ°Ð» ÑĮ
Ðļ Ð¾Ð¼
ĠÑĢÑĥ Ñģ
ĠÒĽÐ°ÑĥÑĸÐ¿ ÑģÑĸÐ·
ĠÐĸ Ð¾Òĵ
ĠÐºÐ¾Ð¼Ð°Ð½ Ð´Ñĭ
ĠÑĤÐ°Ð½ ÑĭÐ¼
ĠÐ¶Ð°ÑĥÐ°Ð¿ ÐºÐµÑĢ
il ter
Ð¶ ÑĭÐ¼
ĠÑģÐ¿Ð¾ÑĢÑĤ ÑģÐ¼ÐµÐ½
ĠÐķ Ñģ
ĠÒĽÐ°Òĵ Ð¸Ð´
ĠÐ² Ð°
ĠÐ´Ð¾Ð»Ð¶ Ð½Ð°
ÑĢÐµ Ð·
Ð°Ð¼ ÑĭÐ½
Ðŀ ÑģÑĭ
ĠÑĩÐ°ÑģÑĤ Ð½Ð¾ÑģÑĤÐ¸
Ð´Ð°ÑĢ ÑĭÐ½Ð°Ð½
Ð´ ÑĢ
ĠÐ¼ÐµÑģÑı ÑĨ
ĠÐ¼ÑĭÐ½Ð° Ð´Ð°Ð¹
ĠÒĽÐ°ÑĢ Ð°Ð¼Ð°
( {
ĠÒĽÐ°Ð» Ð°Ð»ÑĭÒĽ
ĠÐľ Ð°Ðº
0 2
ĠÑĭÐ½ ÑĤÑĭ
Ñģ Ð°Ð»
Ġ( .)
ÑĤÑĸÐ½ Ð´Ñĸ
ÓĻ Ð¹
ĠÐ´ÐµÐ½ Ðµ
an k
Ðĳ Ð°Ð»
ĠÓĻ Ð´ÐµÑĤ
ĠÐ¿ÑĢÐ¾ÑĨ ÐµÐ½ÑĤÐ¾Ð²
ĠÑĥÐ» ÑĥÑĩ
ĠÐº ÓĻÑģÑĸÐ±Ð¸
Ñħ Ð¾Ð´Ñĭ
Ð¾Ð» Ð½Ñı
ĠÐĵ Ð¾Ñģ
ĠÑģÐµÐº ÑĥÐ½
g oogle
Ð¸ÑĤÐµÐ»ÑĮ Ð½Ð¾Ð¹
ĠÑĢÐµÐ³Ð¸ Ð¾Ð½Ð°
W idth
ĠÐ¿Ð¾ ÑĤÐ¾Ð¼
ĠÒļÐ°ÑĢÐ° ÒĵÐ°Ð½Ð´Ñĭ
Ð°Ð¹ ÑĤÑĥ
en ce
ĠÐ°Ð² Ð°ÑĢ
p ag
Ðĳ ÑĸÑĢ
ĠÐ°Ð¹ ÑĤÐ°Ð´Ñĭ
ÑĸÐ» ÑĥÑĸ
ÐµÑĢ Ð¾Ð¼
ĠÒ±ÑĢ Ð¿Ð°ÒĽ
ĠÑįÐºÑģÐ¿ Ð¾ÑĢÑĤ
Ð³Ð¾ Ð½
ĠÑĪÑĭÒĵÐ°ÑĢ Ð¼
Ð°Ð»ÑĮ Ð½ÑĥÑİ
ĠÑĢÒ±ÒĽ ÑģÐ°ÑĤ
Ñĥ ÑĭÐ»
ĠÐºÐ°Ð·Ð°ÑħÑģÑĤÐ°Ð½ ÑĨÐµÐ²
ĠÐ² Ð¾ÑģÑĤ
ĠÒ¯ Ð½ÐµÐ¼
Ðķ Ð»
Ó©Ð· Ñĸ
ĠÒĽÒ±ÑĢ Ð¼ÐµÑĤ
ĠÐ½Ð°ÑĨÐ¸Ð¾Ð½Ð°Ð»ÑĮ Ð½Ð¾Ð¹
ĠÑģÐ²Ð¾Ð± Ð¾Ð´
ĠÑĥÑĩ ÐµÑĤ
Ġ} ,
ĠÑĢÐµÐºÐ¾Ð¼ ÐµÐ½
Ð² Ð¾Ðº
Ñĭ ÑĤÐ°
ĠÐ± iÑĢ
ĠÐĳ ÐµÐº
ĠÐ¼ ÐµÐ¹
ĠÑģÐµÐ± ÐµÐ±Ñĸ
ĠÓ©Ð· ÑĸÐ½Ðµ
ĠÑĤÑĢÐ° Ð´Ð¸
ĠÐ¿Ð¾Ð»ÑĥÑĩ Ð¸Ð»Ð¸
ĠÑĤÑĢÐµÐ± Ð¾Ð²Ð°Ð½Ð¸Ñı
ĠÐ°ÒĽ ÑĪ
ĠÐ°Ð¹ ÑĭÐ¿
Ġ Ñĭ
ĠÐ¾ÑĤ Ð²
Ð»Ð° ÑĪ
ĠÐ¿ÑĢÐ¾Ð¸Ð·Ð¾ÑĪ Ð»Ð¾
ĠÐ¼ ÐµÐ¶
ĠÐĳÑĸÐ· Ð´ÑĸÒ£
ĠÐĵ ÐµÐ½
Ð¸ÑĤÐµÐ» ÑıÐ¼
ĠÒĽÐ°ÑĤÑĭÐ½ Ð°ÑģÑĤÐ°ÑĢ
ĠÐ¾ÑĢÑĤÐ° ÑĪÐ°
ÑĸÐ½ Ð´Ñĸ
ĠÐľ Ð°ÒĽ
ĠÐ´ÓĻ ÑĢÐµÐ¶
Ð»ÐµÑĢ Ð´ÑĸÒ£
Ð°Ñģ ÑĭÐ¼ÐµÐ½
Ġ19 8
ĠÐ»Ð°Ñĥ Ð°Ð·
ĠÑģ Ð¸Ð¼
Ġth is
ĠÐ¼ Ð¾Ð±Ð¸Ð»ÑĮ
ĠÐ£Ð· Ð±ÐµÐºÐ¸
ĠÐ¢ÑĥÑĢ ÐºÐµ
ĠÐ¿ Ð°Ð½Ð´ÐµÐ¼
Ð± Ð»
ÐĶ Ð«
Ñģ Ð¸Ð´
ĠÐ½ Ò¯
ÐµÐ½ Ð½Ð¾ÑģÑĤÑĮ
Ġ3 00
ĠÑĪÑĭÒĵÑĭ Ð¿
Ðĳ ÑĸÐ·
Ð°Ðº Ñĥ
ÑĢÐ¾ ÑģÑĤ
ĠÐ´ Ð¾Ñĩ
ĠÐ½Ð¾Ð² Ð¾ÑģÑĤÐ¸
ĠÐ±ÐµÑĢ ÑĸÐ¿
ĠÑĤÐ¾Ð¿ ÑĭÑĢÐ°ÒĽ
ĠÑģÐ»ÑĥÑĩ Ð°Ð¹
Ġ ÑģÑĤÐ°Ð½Ð¾Ð²
ĠÐ¶ ÐµÐ´ÐµÐ»
ĠÐĲ ÑĦ
Ġ3 7
Ð°ÑĢ ÑĮ
ĠÐºÓ©Ð· ÒĽÐ°ÑĢ
ĠÐ¿ÑĢÐµÐ´ÑģÐµÐ´ Ð°ÑĤÐµÐ»ÑĮ
ÑĭÐ» ÑĭÒĵÑĭÐ½
ĠÐ° ÑģÑģ
ĠÑģÐ¾Ð¾ÑĤÐ²ÐµÑĤÑģÑĤÐ² Ð¸Ð¸
ĠÑĢ Ð¾Ð»ÑĮ
ĠÒĽÐ°Ñģ Ð¸
ĠÐºÑĥÐ»ÑĮÑĤ ÑĥÑĢÑĭ
Ð¡ Ðļ
ĠÐ¾ÑĤ Ð±
Ð¼Ð° Ð³
t itle
ĠÐļ ÑĥÑĢ
ĠÑģÑĤÐ¾ Ð¸Ð¼Ð¾ÑģÑĤÑĮ
ĠÐ¼ÐµÑħÐ°Ð½ Ð¸Ð·Ð¼
ĠÑģÑĤ ÑĢÐ°Ñħ
ĠÐ²ÑĭÐ¿ Ð¾Ð»Ð½
ĠÑįÐ½ÐµÑĢÐ³ Ð¸Ñı
ÐµÑĢ Ñĭ
ĠÐ³Ð¾ÑģÑĥÐ´Ð°ÑĢ ÑģÑĤÐ²
ĠÐ¸Ð½ÑĦÐ¾ÑĢÐ¼Ð° ÑĨÐ¸Ñİ
i Ðº
ĠÐ±Ð¾Ð» Ð¶
ĠÐĲÐº Ð¼Ð¾Ð»
ĠÐŁ Ð¾ÑĤ
Ð¿ÐµÑĢÐ² ÑĭÐµ
ĠÐ´ Ð¸Ð·
ĠÐļÐ¾Ð¼ Ð¸ÑĤÐµÑĤ
ĠÐ·Ð°Ð¼ÐµÑģÑĤ Ð¸ÑĤÐµÐ»ÑĮ
ĠÐļ ÑĭÐ·ÑĭÐ»
ĠÐ¿Ð¾Ð¶ Ð°ÑĢ
ĠÑĢ Ð¾Ð»
ĠÐ² ÐµÑĤ
ÑĢ Ð°Ð»ÑĮ
ĠÐ²Ð¾Ñģ ÑģÑĤÐ°Ð½Ð¾Ð²
ĠÐºÐ¾ÑĢ ÑĢÑĥÐ¿
ĠÐ´Ð¾ÑģÑĤ Ð°Ð²
Ð»Ð° Ð±
ĠÒĵ Ð¸Ð¼Ð°ÑĢ
ĠÒ° Ð»Ñĭ
ÑĭÒĵ ÑĭÐ¼ÐµÐ½
Ð°ÑİÑī Ð¸Ðµ
Ð» ÐµÑģ
ĠÐ½ÐµÑĦ ÑĤÐ¸
ĠÐ¶ÑĭÐ» Ð´ÑĭÒĽ
ĠÐ²Ð·Ð° Ð¸Ð¼Ð¾
ĠÐ¾Ðº ÑĢÑĥÐ³
ÐµÐ» ÐµÐº
ÑįÑĦ ÑĦÐ¸ÑĨÐ¸
ĠÑĤÑĭ ÒĵÑĭÐ·
ĠÑĤÐ°Ð¼ Ð°ÒĽ
ĠÐ¿ÐµÑĢ ÐµÑĢ
ĠÓ¨ Ð¹ÑĤÐºÐµÐ½Ñĸ
ĠÐºÐ¾Ð¼Ð¿ Ð¾Ð½
' );
ĠÑĢÐµ Ð³Ð¸ÑģÑĤ
Ð¸Ð² Ð¸
Ð¸ÑģÑĤ Ñĭ
Ò±Ð» Ð´Ñĭ
ĠÒ¯Ð¹ ÑĢÐµÑĤ
3 7
ĠÑģÓĻ ÑĥÑĸÑĢ
ĠÒĽÐ°Ð¹ ÑĤÐ°ÑĢ
ĠÐľÒ± Ð½Ð´Ð°Ð¹
ĠÐ¿ÑĢÐ¸ Ð±ÑĭÐ»
ÐµÐ´ ÐµÐ½Ð¸Ñı
ĠÑģÐ¾ÑģÑĤÐ¾ÑıÐ½ Ð¸Ð¸
ĠÑĢ Ó©Ð»
ÑĤ ÑĭÐ»ÑĭÒĽ
Ðº Ó©Ð»
Ġht tps
ĠÐ¿Ð¾Ð´ÑĩÐµÑĢÐº Ð½ÑĥÐ»
ĠÐ² Ð°ÑĢÐ¸
ĠÐ¼ Ð¾Ñī
Òļ Ðŀ
ÑĨ ÐµÐ¿
ĠÐºÐ¾Ð¼Ð¿ Ð°Ð½Ð¸Ð¹
ĠÐºÓ© Ðº
Ðĺ Ðļ
ĠÑĩÐµÑĤÑĭ ÑĢÐµ
Ð°Ð½ Ð´ÑĭÑĢÑĥ
ĠÐŁÐ¾Ð´ Ð¿Ð¸Ñģ
ĠÐ¿Ð¾Ð»ÑĥÑĩ Ð¸ÑĤÑĮ
Ð¾Ð»ÑĮ ÐºÑĥ
ĠÐ± Ð°ÒĵÐ°
Ð¸Ð´ ÐµÑĤ
ĠÒĽÐ°Ð» Ð¿
' ).
ĠÑĢÐ¾ ÑģÑĤÐ°
ĠÒļÐ°Ð· ÑĸÑĢ
5 5
Ð¸ÑĢÐ¾Ð² Ð°Ð»
ĠÓĻÑĢ ÑĸÐ¿
ĠÑĤÐµÐ¼ ÑĸÑĢ
ĠÒĽÒ± Ð±ÑĭÐ»
ĠÐ¼ Ð¸ÑĢ
Ð°ÑĤÐµÐ»ÑĮ Ð½Ð¾
in ation
ĠÐ¾Ð¿ÐµÑĢ Ð°ÑĤÐ¸Ð²
ÑĢÐ¾Ð² Ð°Ð½Ð¸Ñı
ĠÐ¸ÑģÑĤ Ð¾ÑĢÐ¸Ð¸
ĠÐļ Ð¾Ð³Ð´Ð°
ĠÐ¶ÐµÐ¼ ÒĽÐ¾ÑĢÐ»ÑĭÒĽ
ĠÐ¾ÑģÐ½Ð¾Ð² Ðµ
ĠÒĽÐ°ÑĢ Ð°ÑĪÐ°
Ð¾Ð² Ð°Ñı
ĠÐ¿ÑĢÐµÐ´Ð¿ÑĢÐ¸ÑıÑĤ Ð¸Ñı
ĠÑĪ Ð°Ð¹
ĠÐ·Ð° Ð³
ĠÐ° ÑĤÐ°Ñĥ
ĠÐ¾Ð±ÑĬ ÐµÐ´Ð¸Ð½
Ð¸ÑĨ Ð°
ĠÐ· Ð½Ð°
ĠÐ¾Ð±Ð¾ÑĢ ÑĥÐ´
Ñĥ ÐµÐ¼
ĠÑį ÑĤÐ°
ĠÂ ©
ĠÐ¾ÑĤ Ð±Ð°Ñģ
Ð¾ ÑĤÑĭ
Ðķ ÐĽ
ÐµÑģÐº ÐµÐ½
ÐµÑĢ Ð»ÑĸÐº
ĠÒ¯ ÐºÑĸÐ¼ÐµÑĤ
is h
Ð°Ð¼ ÐµÑĤ
Ð°ÐµÐ¼ ÑĭÑħ
Ð¸ÑĤÐµÐ»Ñı Ð¼Ð¸
ĠÑģ Ð°Ñħ
ĠÐµÑĤ ÑĤÑĸ
ĠÑģ Ð½Ð¸Ð·
Ð°Ñī Ð¸Ñħ
ĠÐ¡ ÐµÐ±
ÑĩÐ¸ Ð½Ñĭ
ĠÐ°Ð¹Ð½Ð°Ð» ÑĭÑģ
ĠÐ¼ÑĥÐ·Ñĭ Ðº
ĠÐ¼Ð°ÒĽ Ñģ
in ess
ĠÐºÐ¾Ð» Ð»ÐµÐ´Ð¶
Ġ3 8
ĠÐ¾ÒĽ Ð¸Òĵ
Ð°Ð¹ ÑĤÐµ
ĠÑĸÑģÑĤ ÐµÑĥ
ĠÑģÐ¾ Ñİ
0 8
ĠÐĺ ÑĢÐ°Ð½
Ð» Ð¾ÑģÑĮ
Ð´ÐµÐ½ Ð¸Ð¸
ÑĢÐµ Ñī
ĠÐ³Ð»Ð°Ð² Ñĭ
Ð°ÑĤ Ð¸Ð½
ĠÐ¿Ð¾Ð»ÑĥÑĩ Ð¸Ð»
ĠÑĩ ÑĥÐ²
ĠÑģÐµÑĢ ÑĮÐµÐ·
ĠÐ±ÐµÐºÑĸ ÑĤÑĥ
ĠÐ¿Ð¾Ð´ ÑĢÐ¾Ð±
Ð¾Ñĩ Ð½Ð¾Ð¹
Ñģ ÑĥÑĢÐµÑĤ
ĠÐ¿Ð°ÑĢÑĤ Ð¸Ñı
Ð½ ÐµÐ½Ð¸Ðµ
ĠÑĤÒ±Ð» ÒĵÐ°
Ð´Ð°Ð» ÒĵÐ°Ð½
ÑĢÐ¸ Ð¿
ĠÐŁÑĢÐµÐ·Ð¸Ð´ÐµÐ½ ÑĤÑĸ
ĠÐ² ÑģÐ¿
ĠÒ±ÒĽ Ñģ
ĠÐ¶ Ð¸Ð»
Ð°ÑİÑī ÐµÐ¹
ĠÐ°Ñį ÑĢÐ¾Ð¿
ĠÐĲÒĽ ÑĤÓ©Ð±Ðµ
ÑıÑĤÑĮ ÑģÑı
ĠÑģÑĥÑĤ ÐºÐ¸
ĠÐ¾Ð± Ð¼ÐµÐ½
Ð¶ ÐµÐ½ÐµÑĢ
ĠÐ¿Ð¾Ð» Ð¾Ð²
ĠÐ±Ð» Ð¾Ðº
ĠÑĤ ÑĸÐ¿ÑĤÑĸ
ĠÓĻÐ´Ñĸ ÑģÑĤÐµÑĢ
Ðķ Ðľ
ĠÑģÐ¾Ð± Ð»Ñİ
Ð» Ð¾Ð¼
Ñĥ Ð¼Ð°Ð½
ĠÑĤÑĢÑĥ Ð´Ð°
ĠÓĻÐºÑĸÐ¼ ÑĪÑĸÐ»ÑĸÐº
ÑĸÐ· Ð´Ñĸ
4 8
Òĵ ÑĭÐ»Ð°ÑĢ
- ,
a uto
ĠÐ¸ÑģÐº ÑĥÑģ
Ð¾Ð² Ð°Ð½Ð¸Ð¸
ĠÐ¾ÑĤÐº ÑĢÑĭÑĤ
ĠÐ±Ð°ÑģÑĤ Ð°Ñĥ
ĠÐĺ Ñģ
ĠÐ¶Ð°Ò£ Ð°Ð»ÑĭÒĽÑĤÐ°ÑĢ
c on
ĠÐ¢ ÐµÐº
ĠÑģ ÐµÐºÑĤÐ¾ÑĢ
ÐĿ Ò±ÑĢ
Ð° ÑĦ
ĠÑģÐ°Ð¼ ÑĭÑħ
ÒĽÐ°ÑĤ Ð°ÑĢ
ĠÐ¿ÑĢÐ¾ÑĪÐ» Ð¾Ð³Ð¾
ĠÐĺ ÑģÐ¿
Ġn ot
ĠÐ°Ð»Ð´Ñĭ Ð¼ÐµÐ½
9 9
ĠÓĻÐ´Ñĸ Ñģ
ĠÑĢÐµÐ³Ñĥ Ð»Ð¸
cre ate
ĠÐ¢ Ð°Ð±
ĠÑĢÐµÑĤ ÑĤÐµÑĥ
Ð´ Ð¾
Ġ4 5
ĠÐ¾ ÑĦ
ĠÒĽÐ°Ð· Ð°Ð½
ÑģÐº Ð¾Ð»ÑĮÐºÑĥ
ĠÐ¿ÑĢÐ¾ Ð¶
ĠÐ·Ð° Ð´ÐµÑĢÐ¶Ð°Ð½
ĠÐ± ÓĻÑģ
Ġv ar
ĠÐ°ÑĥÐ´Ð°Ð½ ÑĭÐ½ÑĭÒ£
Ð°Ð¶ Ð¸Ð»
ĠÑģÐ¾Ð¾Ð±Ñī ÐµÐ½Ð¸Ð¸
Ġ al
ÐµÐ»ÐµÑĢ Ð´ÑĸÒ£
ĠÐ±Ò±ÑĢÑĭÐ½ ÒĵÑĭ
ĠÐ¶Ð°Ð» Òĵ
ÑģÐº Ð¸Ð¼Ð¸
ĠÐ¾Ð±ÑĬ ÐµÐº
Ð¸ÑĤÐµÐ»ÑĮ Ð½ÑĭÐ¹
ÐµÐ¼ ÑĸÐ½
Ð°Ð±Ð°ÒĽ ÑĤÑĭÒ£
ĠÐ½Ð°Ñĩ Ð¸Ð½
Ð¶ Ð¾Ð»
ÑĥÑİÑī Ð¸Ðµ
ĠÒĽÐ°ÑĤÑĭÑģ Ñĥ
ĠÐ° Ò£
ĠÒĽ ÑĭÑģÒĽÐ°
ĠÐ°Ðº ÑĤÑĥ
ĠÑģÐ°ÒĽ ÑĤÐ°Ð½Ð´ÑĭÑĢÑĥ
Ñį ÑĤ
ĠÑĤÑĥ ÑĢÐ¸ÑģÑĤ
ĠÐ°Ð¹ ÑĭÐ½Ð´Ð°
ĠÒļ Ð°Ð¹
ĠÐ¿Ð¾ Ñħ
ĠÑĪ Ð°Ð±
ĠÐ¼ Ð°ÒĵÑĭÐ½
Ð°Ð± Ð¸
s s
ĠÑģÐ¾ÑĤÑĢÑĥÐ´ Ð½Ð¸ÐºÐ¾Ð²
ĠÐľ Ð¾Ð»
ĠÐ°Ñĥ Ð°
ĠÐ¼Ð½Ð¾Ð³ Ð¸Ðµ
ĠÐĴÐ»Ð°Ð´ Ð¸Ð¼Ð¸ÑĢ
ĠÐ¶ÑĭÐ» Ð´Ð°ÑĢ
ÐµÑĢ ÑĮ
Ð´Ð°Ð¹ Ð´Ñĭ
ĠÑģÐ°Ð¹ ÑĤÐµ
Ð°Ð»ÑĮ Ð½Ð¾Ð¼
ĠÒĽÑĭÐ»Ð¼ ÑĭÑģÑĤÑĭÒĽ
ĠÐ½ÐµÐ· Ð°Ð²Ð¸Ñģ
ĠÑģ ÑĢÐ¾Ðº
ĠÐ¡ Ð¸
ĠÐºÐ¾Ð¼Ð¿ Ð»ÐµÐºÑģ
ĠÐķ ÐºÑĸ
ĠÐ´ÑĢÑĥÐ³Ð¾ Ð¹
Ð¹ ÑĭÒĽ
ab let
ĠÑģ ÑĸÒ£
ĠÐŁ ÑĢÐµÐ¼ÑĮÐµÑĢ
ÑģÑĤÐ² Ð¾Ð²Ð°ÑĤÑĮ
ĠÑĪ ÐµÒ£
Ðº Ð¸Ð¼
ĠÐķÑĥ ÑĢÐ¾Ð¿
ĠÐºÐµÐ¹ÑĸÐ½ Ð³Ñĸ
c c
ĠÐ¾Ð»Ð°ÑĢ ÒĵÐ°
Ñģ Ð¾
ÑĢÐ° ÑĪ
Ð± Ð°ÒĽ
ĠÐŀÑģ Ð½Ð¾Ð²
ÑģÑĤÐ°Ð½ Ðµ
ĠÒ± Ð¼
ĠÑģÐµÐ¼ ÐµÐ¹
ĠÐ¶Ð°ÒĵÐ´Ð°Ð¹ Ñĭ
ĠÐ´Ð°Òĵ Ð´Ñĭ
ĠÐ´Ð²Ð¸Ð¶ ÐµÐ½Ð¸Ñı
Ġ ÑĸÐ»
us iness
Ð¾Ð¶ ÐµÑĤ
ĠÐ·ÐµÑĢÑĤÑĤÐµ ÑĥÐ»ÐµÑĢ
ĠÐ² ÐµÑģÑĮ
ĠÐ±Ð°Ñģ ÑĭÐ¼
Ð°Ñģ Ðº
ve st
ĠÐ²Ñĭ ÑĢÐ¾Ñģ
ĠÐ¼Ð¸Ð»Ð»Ð¸ Ð¾Ð½Ð°
ĠÐ±Ð¾Ð» Ð°ÑĪÐ°ÒĽ
Ñĩ Ð¸Ñģ
ĠÑģÓĻ ÑĥÐ»
ĠÑģÐ¾ Ð½ÑĭÒ£
ĠÐ°ÑĢÐ°Ð»Ñĭ ÒĵÑĭÐ½Ð´Ð°
ĠÐ²Ñĭ Ð¸Ð³
. :
ĠÒĽÑĭÐ·Ð¼ÐµÑĤ ÑĸÐ½ÑĸÒ£
ĠÒļ ÑĭÑĢ
ĠÐ¢ Ò±
ÐµÑģ ÑĸÐ·
Ðĺ ÐĿ
ÑģÐ» Ð¾Ð²
ĠÐºÐ¾Ð¼Ð¼ÐµÐ½ ÑĤÐ°ÑĢ
ÑĢÐ¾Ð² Ð°ÑĤÑĮ
ĠÐ¶Ò¯Ð¹ ÐµÑģÑĸÐ½
ĠÐ²Ð¾Ð·Ð¼Ð¾Ð¶ Ð½Ð¾ÑģÑĤÐ¸
Ð¸Ð½ ÑĤÐµÑĢ
ĠÑĥÑĩ ÑĢÐµÐ¶
3 4
ÑĢÐ° ÑĨÐ¸Ñı
ĠÒ±Ð» Ñĭ
ĠÐ¿ Ð°Ð¼
ÑĢ Ð¸Ðº
ĠÐľ Ðļ
Ð°Ð½Ñĭ ÑĪ
ÐµÐ¹ ÑĸÐº
Ð´ÐµÐ¹ Ð´Ñĸ
Ðº ÐµÑĢÑĸ
ĠÑĤÐµ Ð¾ÑĢ
Ð± ÑĥÑģ
Ðº Ñģ
Ñĥ ÑĸÐ½
at er
Ð¢ ÐŁ
ÑĢÐ° Ð³
ĠÐ¸Ð½ÑĦ ÑĢÐ°
ÑĤÐ¾ Ð±Ðµ
ĠÑįÑĤÐ¾Ð¼ Ñĥ
ĠÐ¼ÑĸÐ½ ÐµÐ·
ĠÐ²Ð¾Ñģ Ð¿Ð¸ÑĤ
ĠÑĤÒ±ÑĢ ÒĵÑĭ
ĠÑĢÐµ Ðº
ĠÐ¢Ò¯ÑĢ ÐºÑĸÑģÑĤÐ°Ð½
ĠÐ± ÑĢÐ¸
ĠÓĺ Ð»
ĠÐ½Ð° ÑģÑĤ
ĠÑģÐ¾ ÑĨ
ĠÐ½Ð°ÑĪ Ð¸Ñħ
ĠÑĤÐµ Ð³ÑĸÐ½
ĠÑħÐ¾ÑĢÐ¾ÑĪ Ð¾
Ð¾ÑģÑĤ Ð°ÑĤ
ĠÐ¶ÐµÑĤ Ðº
ĠÐ¿ÑĢ Ð¸Ðº
ÐĨ ÐĿ
ĠÐ¶Ð°ÑģÑĤ Ð°ÒĵÑĭ
ĠÑĤ Ð°ÒĽ
" );
ĠÐ¿ÑĢÐ¾ÑĪÐ» Ð¾Ð¼
or g
] .
ĠÑģÐ»ÐµÐ´ ÑĥÐµÑĤ
ĠÐ¶Ð°Ñģ Ð°Ð¹Ð´Ñĭ
ÑĨÐ¸Ð¾Ð½ Ð½Ð¾Ð³Ð¾
ĠÑĢÐ°ÑģÑģ Ð¼Ð°ÑĤÑĢÐ¸Ð²
ĠÐ¾Ð´ Ð½Ð¸Ð¼
ĠÐµ Ð´Ð¸
ĠÐ´ÐµÐ¿Ð°ÑĢÑĤÐ°Ð¼ ÐµÐ½ÑĤ
ĠÐ±Ð¾Ð» ÐµÐ·
ÑĢ ÑĤÐµ
ĠÐ¸Ð¼ÐµÐ½ Ð¸
ĠÑĢÐ°Ð·Ð²Ð¸ÑĤ Ð¸Ñİ
ĠÐ²ÑĭÑģÑĤ Ð°Ð²
Ð¾Ð· Ð°
ĠÑģÐµÐ³Ð¾Ð´Ð½Ñı ÑĪ
Ġcont ain
ĠÐ¸Ð½ ÑģÑĤÑĢÑĥ
ÐµÐºÑĤ ÐµÐ½
ĠÐ¶Ð¾ÒĵÐ°ÑĢ ÒĵÑĭ
ĠT h
ĠÐ¿Ð¾Ð»ÑĮÐ· Ð¾Ð²
ĠÐ²Ñĭ ÑĢÐ°Ð¶
ĠÐº Ð¸ÑĤÐ°Ð¹
ĠÑĪÐ°ÑĢ Ð°Ð»Ð°ÑĢ
ĠÑģÐ¾ Ð¿
ĠÐ¼Ð¾Ð» Ð¾Ð´Ðµ
ĠÐ¿ÐµÑĢÐ² Ð¾Ð³Ð¾
ĠÑĪÑĤ ÑĢÐ°ÑĦ
ÑĪ ÑĭÐ»ÑĭÒĵÑĭ
ĠÐ½ÐµÐ· Ð°ÐºÐ¾Ð½
Ðľ ÐµÐ¼Ð»ÐµÐºÐµÑĤ
ĠÐ² Ð¾Ðº
ĠÐ±ÑĸÑĢ Ð´ÐµÐ¹
ĠÑģÐ°Ð½ Ð¸ÑĤÐ°ÑĢ
ÑĪ ÑĢÑĥ
Ð¾Ð» Ñı
ÑĸÐ» ÑĸÑģ
ĠÐ±ÐµÐ»Ð³ÑĸÐ»ÐµÐ½ Ð³ÐµÐ½
ĠÐķÐ² ÑĢÐ¾
ĠÐº Ð¸Ñģ
ĠÐ² Ð½ÐµÑģ
ĠÐ¢ Ñĥ
ĠÑĨ ÐµÐ½Ñĭ
ĠÐ¼ ÑĥÐ·
id e
ĠÐºÓ©ÑĢ ÐºÐµÐ¼
ĠÐ¸Ð¼Ðµ ÑİÑĤ
ÑĪ ÐµÑĤ
Ðµ Ð³Ñĸ
Ġf rom
ĠÒĽÑĭÐ·Ð¼ÐµÑĤ ÑĤÑĸ
ÑĸÐ¼Ð´Ñĸ Ð»ÑĸÐº
ĠÐ¡Ð¾Ð³ Ð»Ð°ÑģÐ½Ð¾
ĠÓ©ÐºÑĸÐ» Ð´ÐµÑĢÑĸ
Ð¾ÑģÑĤ Ð¾
ĠÐ°Ð¹ ÒĽÑĭÐ½
Ñģ Ò±Ð»ÑĤÐ°Ð½
Ð¾Ð¼ Ð¸Ð½
Ð¾Ðº Ðµ
ĠÐºÐ¾Ð¼ Ð¼ÐµÑĢ
ĠÐ½Ðµ Ð¸Ð·
Ð½ Ð¸Ñı
ĠÑĥÐ± Ð¸Ð¹
ĠÐ½Ð°ÑħÐ¾Ð´ ÑıÑĤÑģÑı
Ð² Ð°Ð»
ĠÐ¿ÑĢÐ¾ÐµÐºÑĤ Ð¾Ð²
ĠÒĽÐ°ÑĢ Ð°Ñĥ
ÑĢÐµ Ð·Ð²
ĠÐ¾ ÑħÑĢÐ°Ð½
Ðº Ð°ÑĤ
ĠÑģÑĸÐ»ÑĤ ÐµÐ¼Ðµ
ĠÒļ Ð°Ð½
Ð¸Ñħ Ð°ÑĤ
ĠÐ¼Ð°ÑĤ ÐµÐ¼Ð°ÑĤ
ĠÐºÓ©ÑĢÑģÐµÑĤ ÑĸÐ»ÐµÑĤÑĸÐ½
ĠÐļ Ð¾ÑģÑĤÐ°Ð½Ð°Ð¹
ĠÑĥ Ð¼ÐµÐ½
ĠÐ¸Ð½ Ð¸ÑĨÐ¸
ĠÑĤÐ°Ð¼ ÑĭÐ·
Ġ3 4
ĠÐķ Ð³Ð¾
Ð¼ ÐµÐ´
ĠÐ² Ð°ÑĪ
ĠÐ¼ ÐµÐ¼
ĠÑģ ÑĥÑĢ
Ð¿ÑĢ Ð¸Ð¼ÐµÑĢ
ĠÑĤÑĥ ÑĢÐ°
ÑĸÐº ÑĤÐµ
Ó© Ð¼ÑĸÑĢ
ĠÐ³Ð°Ð· ÐµÑĤ
ĠÐ´ÐµÑıÑĤÐµÐ»ÑĮ Ð½Ð¾ÑģÑĤÑĮ
Ñĥ ÑİÑĤÑģÑı
20 20
ÐµÐ½ Ð½Ð°Ñı
ĠÐ°Ð½ ÑĤÐ¸
Ðŀ ÒĽ
ĠÐ¶ÐµÑĤ ÑĸÐ»Ð´Ñĸ
ĠÐ¾ ÑĢÑĥÐ¶
ĠÐ¿Ð¾ ÑģÐµÑĤ
ĠÑĤÐµ Ð¾ÑĢÐ¸Ñı
Ðľ ÐµÐ½
Ð°Ð¹ Ð»
ÐĲ Ðľ
ĠÐ¾Ðº Ð¾Ð½Ñĩ
f ilter
Ð§ Ð¡
ĠÑģÐµÑĢ ÑĤÐ¸
ĠÑĢÐ° ÑģÐº
ĠÐ²Ð°ÐºÑĨ Ð¸Ð½Ð°
ĠÐļ ÐĿ
ĠÐ¶ Ð¸ÑĤÐµÐ»ÑĮ
Ð¶Ð°Ð½ Ð¾Ð²
ĠÐ¶ ÑĭÑĢ
ĠÑĤ Ð¾Ðº
ĠÐ¿ÑĢÐ¸ ÐµÐ¼
ĠÐ°Ð¹ÑĤÒĽÐ°Ð½ Ð´Ð°
ĠÐ¾Ð±ÑĬÐµÐºÑĤ Ð¾Ð²
Ġ( -
ĠÐ± Ð°Ñı
ĠÑĢÐµÑģÑĥÑĢ ÑģÑĤÐ°ÑĢ
Ð»ÐµÐ½ Ð½ÑĭÐµ
Ð¸ÑĤÐµÐ»ÑĮ Ð½Ð¾Ð³Ð¾
ĠÐĴ ÐµÐ»Ð¸Ðº
ĠÐ² ÐµÑĢÑģ
ĠÐ´Ò¯ Ð½Ð¸
ĠÐ¶Ñĸ Ð³ÑĸÑĤ
ĠÐµÑĤ ÐºÐµÐ½
ĠÐ¨ÑĭÐ¼ ÐºÐµÐ½
ĠÓ©Ð·ÑĸÐ½ Ð´ÑĸÐº
Ð´ÑĭÒĽ ÑĤÐ°ÑĢ
ĠÐĸÐ°Ò£ Ð°Ð»ÑĭÒĽÑĤÐ°ÑĢ
ĠÐ¶Ð°ÒĽ ÑģÐ°ÑĢ
ĠÑĦÐ¾Ð½ Ð´
Ð¶ Ð°Ñģ
ĠÐµÑĢ ÐºÑĸÐ½
ĠÐ´Ð¾Ð» Ð³Ð¾
ĠÑĤÑĸÐ» ÑĸÐ½Ð´Ðµ
ĠÐ´ÐµÐ¿Ð°ÑĢÑĤÐ°Ð¼ ÐµÐ½ÑĤÐ°
ĠÐ°Ð» ÑĤÑĭÐ½
ĠÐ±Ð¾Ð»ÑĮÑĪ Ð¸Ð½
ĠÐ¿ÑĢÐµÐ´ÑģÑĤÐ°Ð² Ð¸ÑĤÐµÐ»ÑĮ
i Ð½Ðµ
Ð¸Ð¹ ÑģÐºÐ¾Ð³Ð¾
ĠâĢ ¢
ĠÐ½Ð°Ð¸Ð± Ð¾Ð»ÐµÐµ
ĠÐ´ÐµÐ² Ð¾Ñĩ
ĠÐŀÐ» Ð¸Ð¼Ð¿Ð¸
ÑĥÑĤ ÑĮ
ĠÐµÑĢ Ñĸ
ĠA l
Ð»Ð°Ð½ Ð´ÑĭÑĢÑĥ
ĠÐ´Ð°Ð½ Ð½ÑĭÐ¹
ĠÐ¾ ÑģÑĤÐ°Ð½Ð¾Ð²
ÑĭÐ» ÑĭÑģ
ĠÐ£ÐºÑĢÐ° Ð¸Ð½Ñĭ
Ð´Ð° ÑİÑĤÑģÑı
Ñĸ ÑģÑĤÐµÑĢ
Ð¡ Ð¢ÐĲÐĿ
ĠÐ¶Ð°Ð· Ñĥ
ĠÑģÐ¿ Ð¾ÑĢÑĤÐ°
Ð± ÐµÐ»
ĠÐ²Ð· ÑĢÑĭÐ²
ĠÐµÑģÐº ÐµÑĢÑĤ
ĠÐ¾ÑĢÐ½ Ð°ÑĤ
ÐĨ Ðľ
Ð°Ð½ Ñĥ
Ñı ÑĤÐ¾
ĠÓ©Ð» ÑĪÐµÐ¼
Òĵ Ð°ÒĽ
ĠÓĺ Ð±
Ð´Ðµ Ð´Ñĸ
ic h
ĠÐ°Ð¹ ÒĽ
ĠÐĲÐ· Ð¸Ð¸
ĠÐĲ Ð´
Ñı ÐµÐ¼
ĠÐ¢Ð°Ðº Ð¸Ð¼
ĠÐºÐ¾ ÑįÑĦÑĦÐ¸ÑĨÐ¸
ĠÑĤÑĥ ÑĢÐ¸Ð·
Ġ us
Ð´ ÓĻ
ĠÐ·Ð°Ð¿ ÑĢÐµÑĤ
ĠÐºÐ¾Ð½ÑĨ Ðµ
y n
ĠÐ¿ÐµÑĢÐ² Ð¾Ð¹
ĠÐŁÐ¾Ð´Ð¿Ð¸Ñģ ÑĭÐ²
3 8
ĠÐľ ÐµÐ´
ĠÐºÐ°ÑĤÐµÐ³ Ð¾ÑĢÐ¸Ð¸
ĠÑģÐ¾Ð¾Ð±Ñī Ð¸Ð»Ð°
ĠÐ¿ÐµÑĢ ÑģÐ¾Ð½
ĠÐµ ÑģÑĤÐµ
ĠÐ½Ð°ÑĪ Ð¸
ĠÐ¿Ð¾ ÑıÑģÐ½
Ð· Ð°Ð¿
ĠÐºÐ¾Ð½ÑĤ ÑĢÐ¾Ð»ÑĮ
ĠÑĢÐµÐ· ÐµÑĢÐ²
Ġs h
Ð¼Ð¾ÑĤ ÑĢ
ĠÐĶ Ðµ
res s
Ð¼ Ð°Ð¹Ð´Ñĭ
Ó¨ Ð·
Ð¶ Ð°ÒĽÑĤÑĭ
ĠÐļÓ© Ð¿
ÐµÑĤÑĤÐµÑĢ ÑĸÐ½
e g
ÑĪ Ð¸ÑģÑĮ
ĠÑĥ Ð´Ð°ÑĢ
ĠÐ¿ÑĢÐ¸ Ð²Ð¾Ð´
ĠÐ²ÑģÑĤ ÑĢÐµÑĤ
ĠÑģÐ»ÑĥÑĩ Ð°Ñı
ÑĢÐ°Ð± Ð°ÑĤÑĭÐ²
Ð³ÐµÐ½ Ñĸ
f er
Ð°Ð» Ð°ÑĤÑĭÐ½
w n
ĠÑĤÐµÑĢÑĢÐ¸ÑĤ Ð¾ÑĢ
ĠÐ¼Ð°Ð·Ð¼Ò± Ð½
ĠÐ¸Ð½Ð¾ÑģÑĤÑĢÐ°Ð½ Ð½ÑĭÑħ
ĠÐ¿ÑĢÐ¾ ÑģÑĤ
ĠÐľ ÐĴÐĶ
ĠÐ¿ÑĢÐ¾ÑĨ ÐµÐ´
ĠÒĽÐ°ÑĢÐ¶ ÑĭÐ»ÑĭÒĽ
Ð¸ Ð¾Ð½
ĠÐ´ ÑĭÐ±
ĠÐ¿Ð¾ ÑģÑĤÐ°Ð½Ð¾Ð²
Ð· Ð°ÑĤ
Òļ Ð°ÑĢ
Ð´Ñĸ Ð³ÑĸÐ½ÑĸÒ£
Ð°Òĵ ÑĭÐ¼
ĠÑģÐ¼ ÐµÑĢÑĤ
3 1
Ð¾ Ð³ÐµÐ½
ĠÐ¼ÐµÑĢÐ¾Ð¿ÑĢÐ¸ÑıÑĤ Ð¸Ñı
Ð¾Ð¼ Ð½
Ð¾ÑĢ Ð´
Ð³ÑĸÐ· Ð³Ñĸ
ĠÐ¿ÑĢÐ¾ ÑıÐ²
ĠÐ¾Ð±Ñģ ÑĥÐ¶
ĠÐľ Ð°Ð¼
ĠÐ°Ð´Ð°Ð¼ ÒĵÐ°
ĠÑĤÒ¯ÑĢ ÑĸÐ½Ð´Ðµ
ĠÒ¯ÑĢ Ð´Ñĸ
ĠÑĥÑģÐ» Ñĥ
ĠÐ¨ ÑĭÒĵÑĭÑģ
ĠÒļ ÑĭÐ·
ÓĻ Ð½Ðµ
ĠÐ¿ÑĢÐµÐ´ ÑĥÐ¿
ĠÐ¿Ð°Ð¹Ð´Ð°Ð»Ð°Ð½ ÑĥÒĵÐ°
ÐµÐ· Ð´Ð°
ĠÐ²ÑģÑĤÑĢÐµ ÑĩÐ¸
ĠÐ½Ð°Ñĩ Ð°Ð»Ðµ
ĠÓ© ÑĤÑĸÐ¿
ĠÐ·Ð°Ð´Ð° Ñĩ
ĠÐ¶Ò±Ð¼ÑĭÑģ ÑĭÐ½
Ð»Ð°Ð½ Ð´
ĠÐ´Ð°Ð¼ ÑĥÑĭ
ĠÑģÐ²Ð¾ Ð¸Ð¼
ĠÑħÐ°Ð»ÒĽ ÑĭÐ½ÑĭÒ£
ĠÐľ Ð¸Ð½Ð¸ÑģÑĤÑĢ
ÑĢÐ¾ Ð¶
Ð¸ÑĩÐµÑģÐº Ð¾Ð¼
ĠÐ¼ÐµÐ´ Ð¸
ĠÐ´ Ð½ÐµÐ¼
6 0
ĠÐ¶ Ò±ÑĢÑĤ
Ð« ÐĽ
ĠÐ¼ÓĻÐ½ Ñĸ
ĠÑģÐ²Ð¾Ð± Ð¾Ð´Ñĭ
ĠÑĥ ÑĤÐ¾Ñĩ
Ð½ Ð°Ð·
ĠÐł ÐĺÐĲ
ĠÑįÐº Ñģ
ĠÐ½Ð¸Ñĩ ÐµÐ³Ð¾
ĠÑĢ Ñı
Ð´ ÑĥÑĪ
ĠÑĪÐºÐ¾Ð» Ñĭ
f ter
Ð°ÑĢ ÑĤÑĥ
ĠÐµÐ»ÑĸÐ¼ÑĸÐ· Ð´ÑĸÒ£
ĠÐ· Ð°Ñħ
ĠÐ¼Ð¾Ð´ ÐµÐ»ÑĮ
ĠÐ¾Ñģ Ð²Ð¾Ð±
ÑĤÑĭ Ñħ
ĠÑĪÐµÒ£ Ð±ÐµÑĢ
ĠÑĤ Ð°Ð·
Ð³ ÐµÐ»
ĠÐ¾ÒĽ ÑĭÐ¿
ĠÑĤÐ¾ÑĢ Ð³
ĠÑĤÐµÐº ÑĥÑī
ÑĸÐ¼ ÑĸÐ½
ol d
ĠÐ±Ð¾Ð»ÑĮÑĪ Ð¾Ð¹
ĠÐľ Ð¸Ñħ
ÑĸÑģ ÑĸÐ½
Ð°Ð¼ ÐµÑĤÑĢ
ĠÐ¼ÑĥÐ¶Ñĩ Ð¸Ð½Ð°
ĠÐ½Ð° Ð¿ÑĢÐ¸Ð¼ÐµÑĢ
ĠÐµ ÑģÑĤ
ĠÑģÐµÑĢ Ð²
Ð°Ñģ Ñĥ
os ition
ĠÐºÓ©ÑĢ Ð³ÐµÐ½
ĠÑĤÐ°Ð± ÑĭÑģ
ÑģÑĤÐ°Ð½ Ð°Ð²Ð»
Ð½Ð¾Ð² Ð°
ĠÐµ Ð¹
Ð± ÐµÑģ
Ġst ick
ĠÐ² ÐµÐ»
Ð¾Ð² Ð°Ð½Ñĭ
Ò£ ÒĵÑĭ
o k
ĠÐ¿ÑĢÐ¾Ð³ Ð½Ð¾Ð·
ĠÐķ Ð½Ð´Ñĸ
Ð¼ ÑĸÐ·
ĠÐ°Ð²ÑĤÐ¾Ð¼ Ð°ÑĤ
ĠÑĢÐµ Ð¼Ð¾Ð½
ÐµÐº Ð°
ĠÑĢÐ°Ð·Ð¼ÐµÑĢ Ðµ
ĠÑģ Ð¾Ð½Ð´ÑĭÒĽÑĤÐ°Ð½
Ñĥ ÑĤÐµ
ĠÐ±ÑĭÐ» Ð°Ð¹
ĠÐ¶Ð°ÑģÐ°Ñĥ ÒĵÐ°
Ò±Ð»Ð´Ñĭ Ð·
Ñı Ð»Ð¸
ÒĽ Ð°Ð·
ĠÐ²Ñģ ÐµÐ¹
ĠÐĴ Ð¾Ð·
ĠÑĢÐ°Ð· Ð´ÐµÐ»
Ġa d
ĠÐ±Ð°Ð» Ð°Ð½ÑĭÒ£
4 7
ĠÐ¡ Ð»ÐµÐ´
Ðº ÑĢÐµÑĤ
ĠÐº Ð°Ð·
ĠÑģÑĤÐ¾Ð» Ð¸ÑĨÑĭ
ĠÐ´ Ð°ÑĢ
ĠÒ¯ Ð¼
ĠÑģ Ð¸Ð³
Ðº Ð¾ÑĤ
ĠÐ± Ñĥ
ĠÐ² Ð°Ñģ
ĠÑģ ÐµÑģÑģ
ĠÑģ Ò¯ÑĢ
Ð¼Ð¾Ñģ ÑĦÐµÑĢ
ĠÐºÐ¾Ð½ÑĨ ÐµÐ½ÑĤ
ĠÐĲ Ð¼ÐµÑĢ
ĠÐ¿Ð°ÑĢ Ð°ÒĽ
ww w
ĠÑģÐ¾ ÐºÑĢÐ°Ñī
ĠÐ¶Ò¯ÑĢ ÑĸÐ¿
ĠÑĭÐ½ÑĤÑĭ Ð¼Ð°ÒĽÑĤÐ°
ĠÐ´Ð¸ ÑģÐº
ĠÐ´ ÑĢ
Ð´Ð°ÑĢ Ð¼ÐµÐ½
ĠÐ±Ó©Ð» ÑĸÐ½ÐµÐ´Ñĸ
ĠÑĢÐ°Ð·Ð»Ð¸Ñĩ Ð½ÑĭÑħ
ĠÐºÐ¾Ð½ÑĤÑĢÐ¾Ð» Ñı
ĠÐ¾ÑĤ Ð±Ð°ÑģÑĭ
ÑĢÐµ Ð¶Ðµ
ĠÐ·Ð°ÑĤ ÐµÐ¼
ĠÐ±Ð¸ ÑĭÐ»
ĠÐ¼ÐµÐ½ ÑĮÑĪÐµ
ĠÐ¿ÑĢÐ¸ ÑĢÐ¾Ð´
ĠÐ¼ÐµÑģÑı ÑĨÐ°
ĠÐºÐ°ÑĢÐ°Ð½ÑĤ Ð¸Ð½
e ar
] ,
ĠÓ©Ð· ÐµÐ½
ĠÐ¿Ð¾ÑĤÐµÐ½ ÑĨÐ¸
ĠÐľÐµÐ¶Ð´Ñĥ Ð½Ð°ÑĢÐ¾Ð´
ĠÐĸ ÐµÐ»
Ð¾ÑĤ Ð¸Ð²
ÑĭÐ½Ð´Ð°Ð¹ Ð´Ñĭ
N ews
ĠÐ´ Ð¸Ð½Ð°Ð¼
ĠÐ°ÒĽ Ð¿Ð°Ð½
ĠÑģÐ² Ð¸Ð´ÐµÑĤ
ĠÐ´ ÑĢÑĥÐ·
ĠÐºÐ¾ÑĤÐ¾ÑĢ ÑĥÑİ
ĠÐ¶Ð°Ð· ÑĭÐ»ÒĵÐ°Ð½
ĠÐłÐ¾ÑģÑģ Ð¸Ñı
Ð°Ðº ÑĤÐ¸Ð²
ĠÐ°Ð½Ð°Ð» Ð¾Ð³
ĠÐºÐ¾Ð½ÑĦ Ð»Ð¸Ðº
ĠÐ¿ÑĢÐ°Ð² Ð¾
ĠÑģÐ¾ÑĨÐ¸Ð°Ð»ÑĮ Ð½ÑĭÑħ
ĠÑĥÑĩÐ°ÑģÑĤ Ð½Ð¸ÐºÐ¾Ð²
Ð»Ð°Ð¼ ÐµÐ½ÑĤÐ°
ĠÐļÐ°ÑĢÐ°Ð³Ð°Ð½ Ð´Ð¸Ð½ÑģÐºÐ¾Ð¹
ĠÐ° Ð½Ð°
Ð´Ð° ÒĵÐ°Ð½
Ð¸Ð¼ Ð¾Ð²
ĠÐ± ÐµÑĤÑĸÐ½
ĠÑĦÐ¸Ð» Ð¾ÑģÐ¾ÑĦ
or e
ĠÑĤÒ¯ÑģÑĸÐ½ ÑĸÐº
ĠÐŃ ÐºÐ¾Ð½Ð¾Ð¼
ĠÐ°ÐºÐ¸Ð¼ Ð°
b ack
ĠÐ¿ÐµÑĢÐ² ÑĥÑİ
Ð°ÑĢ Ð¼Ð°
Ð°ÑĢ ÑĥÑģ
ĠÐ±Ó©Ð» ÑĸÐ¼Ñĸ
Ġcom p
ĠÒļ Ð¾ÒĵÐ°Ð¼
ĠÑĥÐº ÑĢÐµÐ¿
ĠÐ±Ð°ÑĢ ÑĭÐ¿
ĠÑģÐµÑĤ Ð¸
ĠÐ¢ ÐµÑĢ
ĠÐ¾Ðº ÑĢÑĥÐ¶
ĠÐ´Ð¾ÑģÑĤÐ°ÑĤ Ð¾ÑĩÐ½Ð¾
ĠÐĶ ÐµÐ¼
ĠÑĪ ÑĸÐ»Ð´Ðµ
ĠÐĶ Ð¾
ĠÐ²ÑĭÑģ Ð¾ÐºÐ¾
. ).
or k
ĠÐļ ÐµÐ½
ĠÑĨÐ¸ÑĦ ÑĢÐ¾Ð²
ĠÑĨÐµÐ½ÑĤ ÑĢÐµ
Ð³Ð¸ÑģÑĤ Ð°Ñĥ
ĠÑĤÐ°Ò£ Ð´Ð°Ñĥ
i le
Ð¿Ð°ÑĢ Ð°ÑĤÑĤÐ°ÑĢ
ĠÐ¾ÑĤÐ²ÐµÑĤÑģÑĤÐ²ÐµÐ½ Ð½Ð¾ÑģÑĤÐ¸
Ð±Ð°Ð¹ Ð»Ð°Ñģ
ation al
ĠÐ°Ð´Ð°Ð¼ Ð´Ñĭ
Ð»Ð°Ð½ Ð´Ñĭ
Ñį Ð½
ĠÐºÓ©Ð¼ ÐµÐºÑĤÐµÑģ
Ð¸ÑĤ Ð°ÑĢÐ»ÑĭÒĽ
ĠÑĤÒ¯ÑģÑĸÐ½ Ð´ÑĸÑĢ
Ġ- -
ĠÑģÑĤÑĢÐ¾Ð¸ÑĤÐµÐ»ÑĮ ÑģÑĤÐ²Ð¾
ÐµÐ½ Ð½Ð¾Ðµ
ĠÐ¿ÑĢÐ¸ Ð³
ĠÐ¢ÑĥÑĢÐºÐµ ÑģÑĤÐ°Ð½
ĠÑĢÐ°ÑģÑģÐºÐ°Ð· Ð°Ð»Ð¸
Ñį Ðº
ĠÑĤÐ¾Ð² Ð°ÑĢÐ¾Ð²
ĠÑģÐ¿Ð¾ÑĢÑĤ Ð¸Ð²
ĠÐ¼Ð°ÑĢ ÑĪÑĢÑĥ
ĠÐ¼Ó©Ð»ÑĪ ÐµÑĢÑĸ
Òĵ ÑĭÑģÑĭ
Ð¸ÑĤ Ð¾Ð²
ĠÑĥÑģÐ¿ ÐµÑĪ
3 3
ĠÐ° ÑĤÐ°Ð»Ð°Ð´Ñĭ
ÑĤ ÐµÐ¹
Ðµ Ð´Ðµ
ĠÐ½ÐµÑģÐº Ð¾Ð»ÑĮ
ĠÐ± Ð°Ð¿
ĠÐ® Ð¶
ĠÐĿÐ° ÑĨ
ÑĢÐ°Ð· Ð¸Ð»
ÑĭÐ½Ð´Ñĭ ÒĵÑĭ
ĠÐºÐ°Ðº Ð¸Ðµ
Ð± Ð°Ð±
ĠÐ¶ Ð°
ĠÐ¾ÒĽÑĥÑĪÑĭÐ»Ð°ÑĢ Ð´ÑĭÒ£
ĠÒ¯ÑĪÑĸÐ½ ÑĪÑĸ
ĠÐ°ÑĢ Ð¼
Ð°Ð± Ð¾ÑĢ
ĠÑĤÐ°ÑĢ Ð¸ÑĦ
ĠÐ¿Ð¾Ð´ÑĤ Ð²ÐµÑĢÐ¶
ĠÐ¿Ð¾ Ð¹
ĠÐ´ÐµÐ» Ð°ÑĤÑĮ
ĠÐľÒ± Ñħ
ĠÐ¡ÐµÐ± ÐµÐ±Ñĸ
ĠÐº ÑĸÑĢÑĸ
ĠÐ·Ð°Ñī Ð¸ÑĤÑĭ
ÑĨ Ðµ
Ð»Ñı ÑĢ
ĠÐºÐ°Ðº Ð¾Ð¹
ÑĨÐ¸Ñı Ð½ÑĭÒ£
ĠÐºÐ°Ð·Ð°ÑħÑģÑĤÐ°Ð½ ÑģÐºÐ¸Ñħ
ÐĲ Ð·
ĠÐ¿Ð¾Ð»Ð¸ÑĤ Ð¸ÐºÐ¸
Ðº i
ĠÐ¾Ð´ Ð½Ð¾Ð¼
ĠÐ¡ Ñĥ
ĠÑģÐ°Ð» ÑĭÐ¿
ĠÒĽÐ°Ð¹ ÑĤÐ°Ð»
Ð¸Ñħ Ð°Ð½
Ð¾ÑĢÐ° Ñħ
ĠÐ¼ ÐµÐ·
ĠÐ³Ð» ÑĥÐ±
ĠÐ¸Ð½ ÑģÐ¿
ĠÐ»Ñİ Ð´
ĠÒĽÒ± ÑĤ
Ð¶ Ò¯Ð·
Ñĳ Ð½
ĠÐ¶Ò¯ ÐºÑĤ
ÑĪÐ° ÐµÑĤ
ĠÒĽÑĭÐ·Ð¼ÐµÑĤ ÑĤÐµÑĢ
ĠÐ¶ Ð¾Ð¹
ĠÐºÐ¾Ð½ ÑĨÐ°
ĠÐŀ Ò£ÑĤÒ¯ÑģÑĤÑĸÐº
ĠÐ°Ð·Ð°Ð¼ Ð°ÑĤÑĤÑĭÒĽ
ĠÐ¼Ò¯ Ð»
Ð´ÑĭÒ£ ÒĵÑĭ
ĠÑģ Ð°Ð±
ĠÐ¾Ð¹ Ð»Ð°Ñĥ
ĠÐ¾ÑĢÐ½ ÑĭÐ½Ð°
ĠÐ¼Ò¯ Ð»ÑĸÐº
ĠÑģ ÑĨÐµÐ½
ÒĽÐ° ÐµÐ²
ĠÑĢÐµÑģÐ¿ÑĥÐ±Ð»Ð¸Ðº Ð°Ð½
ÑģÑĤ Ð°Ñĥ
Ðŀ Ð»
Ð¿ Ð°Ð·
Ð· Ñı
ĠÐķÐ» Ð±Ð°ÑģÑĭ
Ð°ÑĤ Ð¾ÑĢÑĭ
ĠÒ±ÑģÑĤ Ð°Ð·
Ð°ÑĢ Ð´ÑĭÒ£
Ð°ÐµÐ² Ð°
ĠÐ¼ Ð°Ò£
ĠÐ¿ÑĢÐ¾Ð¸Ñģ ÑħÐ¾Ð´Ð¸ÑĤ
Ð¾Ñĩ Ð½ÑĭÑħ
ÑĤÐ° ÒĵÐ°Ð½
Ð¼ ÓĻ
ĠÐ¶ÐµÑĢ Ð³Ðµ
ÐĿ Ðµ
Ð°Ñı ÑĢ
ĠÐ¥Ð°Ð»ÑĭÒĽ Ð°ÑĢÐ°Ð»ÑĭÒĽ
ĠÐ¿ÐµÐ´Ð°Ð³Ð¾Ð³ Ð¸ÐºÐ°Ð»ÑĭÒĽ
ĠÐ¿ÑĢÐµ Ð¶
ĠÑģÐ°Ð» Ð°ÑģÑĭÐ½Ð´Ð°
ĠÐºÒ¯ ÑĤ
ĠÑģÐ¾ Ð¿ÐµÑĢ
âĢ Ļ
Ñī Ð¸Ðº
ĠÑĦ ÐµÐ´ÐµÑĢ
ĠÐµÐ² ÑĢÐ¾
ĠÐ±Ð°ÑģÑĤ Ð°ÒĵÐ°Ð½
ĠÐ¿ ÐµÑĩ
ĠÑĢÑĭÐ½ Ð¾Ðº
ÑĢÐ¾ ÑģÐ»
ĠÑĤÐµÒ£ ÑĸÐ·
ÑĸÐ½ Ð³ÐµÐ½
ĠÓĻÐ»ÐµÐ¼ Ð´ÑĸÐº
ri pt
ĠÐĹ Ð°Ðº
ĠÐ¿Ð¾Ð²Ñĭ ÑĪÐµÐ½
ĠÐ³Ð¾Ð²Ð¾ÑĢ ÑıÑĤ
Ð¾ÑĢ Ð¾ÑĤ
ĠÐ³ÑĢÐ° Ð´Ñĥ
ĠÐ²ÑģÑĤ ÑĥÐ¿
ro und
ĠÐ±ÑĥÐ´ ÑĥÑī
ĠÐ¶ÐµÐ½Ñī Ð¸Ð½
ĠÐ°ÒĽ ÑĭÐ»
ĠÐ°ÑĥÑĭÐ» Ð´ÑĭÒĽ
ĠÐ¡ Ð¾ÑĤ
ÑĢÐ¾ ÑģÐ°
Ð¡ÑĥÐ»ÑĤÐ°Ð½ Ðµ
ĠÐ´Ð¾Ð»Ð¶ Ð½Ð¾
ĠÑĤ Ñİ
ĠÒĽ Ð¾Ñı
ĠÐ´Ð¾Ðº Ð°Ð·
Ð¸Ð½ ÑĦÐ¾ÑĢÐ¼
ĠÑĢ ÓĻÑģ
ĠÐ½ÐµÐºÐ¾ÑĤÐ¾ÑĢÑĭ Ðµ
ĠÒĽÐ°Ð¼ ÑĤÑĥ
ĠÒĽÐ°ÑĢÐ°Ð¿ Ð°Ð¹ÑĭÐ¼
ĠÐºÐ°ÑĩÐµ ÑģÑĤÐ²Ð°
Ð³i Ð·
ÐµÑĢ Ð»ÐµÑĢ
ĠÐ½Ðµ Ðµ
ĠÒĽÐ¾ÑĢ ÑĪÐ°ÒĵÐ°Ð½
ĠÐ¶Ò±Ð¼ÑĭÑģÑĤÐ°ÑĢ ÑĭÐ½
ĠÐºÐ¸Ð» Ð¾Ð¼ÐµÑĤ
ĠÐ° ÑĤÐ¾Ð¼
ĠÐ¡ ÐĿ
ĠÐ´ÐµÐ½ ÐµÐ³
Ð¥ Ð°Ð±Ð°ÑĢ
Ð¾Ð¹ ÑĩÐ¸Ð²
ĠÑĢÐ°Ð· Ð±
ÑĸÑģ Ñĥ
ĠÑħ ÑĢÐ°Ð½
ĠÑģÑĤÐ°Ð½ ÐµÑĤ
ĠÐ»Ð¸ÑĨ ÐµÐ½Ð·
ĠÐº ÐµÐ´ÐµÑĢ
ÒĵÐ°Ð½ ÑĭÒ£
ĠÐ¶ Ð¾Ñİ
ĠÐ¼Ð¸Ð½Ð¸ÑģÑĤÑĢ Ñĸ
ĠÐ¿Ð¾Ñĩ ÐµÐ¼Ñĥ
ÐĲ ÐĻ
ed ia
ĠÐ½ ÐµÑĢ
ĠÐļÐ¸ÑĤ Ð°Ñı
Ðķ Ð¡
im e
ĠÑĦ ÑĢÐ°Ð½
Ð°Ð»Ð°ÑĢ ÑĭÐ½Ð´Ð°
ĠÐĸ ÑĭÐ»
ĠÑģÐ¾ÑĤÑĢÑĥÐ´Ð½Ð¸ÑĩÐµ ÑģÑĤÐ²Ð°
ĠÐ½Ð°Ñĥ ÒĽ
! Â»
ĠÐ¾ÑĤ Ð¼ÐµÐ½
ĠÐ¿ÑĢÐµÐ´ Ð¼ÐµÑĤ
ĠÑĤÐ¾Ð¼ Ñĥ
ĠÐĺÐ½ Ð´
ĠÐ´ Ð»
ĠÐ½Ð°ÑĢ ÑĭÒĽ
ĠÐ¡ÐµÑĢ Ð³ÐµÐ¹
ĠÐ° ÒĵÐ°ÑĪ
Ð¾Ð²Ð°Ð½ Ð¸ÐµÐ¼
ĠÐļÑĭÐ·ÑĭÐ» Ð¾ÑĢ
ĠÑĤ Ð²Ð¾ÑĢ
Ð¿ Ð¾ÑĤ
ĠÐ¿Ð»Ð°Ð½Ð¸ÑĢÑĥ ÐµÑĤÑģÑı
Ð³ Ð»Ð°Ð²
ÑģÐº Ð¾
ĠÐ¾ÑĢÐ³Ð°Ð½ Ñĭ
ĠÐ·Ð°ÑĢ Ð°Ð¶
ĠÐ´Ð¾Ð±Ð°Ð² Ð¸Ð»
ĠÐ¸Ð¼ ÑĥÑīÐµ
Ð°Ð»Ð°ÑĢ ÑĭÐ½Ð°
ĠÑĤÐ°ÒĽÑĭÑĢ ÑĭÐ±
ĠÐ¼Ð¾Ð» ÐµÐº
ĠÐ¢ ÐµÐ¿
ĠÑģÑĤÑĢÐ°Ð½ Ð°Ñħ
ÑĨ Ð¾Ð²
ĠÐ² Ð¿ÐµÑĢÐ²ÑĭÐµ
ĠÐ¸Ð½ÑĦ Ð»Ñı
ĠÐ¼ÓĻ Ð¶
ĠÐ¿ ÓĻ
ĠÐ¶Ð¾ÑģÐ¿Ð°ÑĢ Ñĭ
ĠÐ¶Ò¯Ð¹ ÐµÑģÑĸÐ½ÑĸÒ£
Ð´ÐµÐ¹ ÑģÑĤÐ²Ð¸Ñı
ĠÐºÐ°Ð± Ð¸Ð½
Ð¼Ðµ ÑĪ
ĠÑģÒ¯ ÑĤ
ĠÒļÑĭÐ·ÑĭÐ» Ð¾ÑĢÐ´Ð°
i re
ĠÑįÐ»ÐµÐºÑĤÑĢÐ¾Ð½ Ð´ÑĭÒĽ
ĠÐ¶ ÐµÑģÑĤ
6 4
ĠÒĽÒ±ÑĢÑĭÐ» ÑĭÑģÑĭ
Ð´ÐµÑĢ ÑĸÐ½Ðµ
ĠÐļ Ðŀ
P O
ÑĪÑĭÐ»Ð°ÑĢ Ð´ÑĭÒ£
ĠÐ°Ð»Ð¼ Ð°Ð¹Ð´Ñĭ
ĠÐ¼ÓĻ ÑĢÑĤÐµ
ÑĤÐµÑĢ Ð´Ðµ
Ð°ÑĤÐµÐ» ÐµÐ¼
ĠÐ¶Ò±Ð¼ ÑĭÑģÑĭ
ĠÐºÒ¯ ÑĢÐµÑģ
ĠÐ¨ Ð°ÑĢ
ĠÐºÐ¾Ð½ ÐºÑĢÐµÑĤ
ĠÐµÐ» Ð´Ñĸ
Ð¶ Ð°
ĠÐ·Ð°ÑĢÐµÐ³Ð¸ÑģÑĤÑĢÐ¸ ÑĢÐ¾Ð²Ð°Ð½
ĠÐ´ÐµÐ¼ Ð¾ÐºÑĢÐ°ÑĤ
ĠÐ¿ÑĢÐµÐ´ Ð²Ð°ÑĢ
ĠÐ·Ð°Ñī Ð¸ÑĤ
ĠÑĤÒ¯ ÑģÐµÐ´Ñĸ
ĠÑĢÐ°ÑģÑģÐ»ÐµÐ´ Ð¾Ð²Ð°Ð½Ð¸Ðµ
ac e
at ed
ĠÑĪ ÐµÐ³
ĠÐ±Ð°ÑģÑĤ Ð°Ð¼
ĠÐ²Ð¾Ð¿ÑĢÐ¾Ñģ Ð°Ð¼
ĠÑĤÐ°Ð±Ð¸Òĵ Ð°ÑĤ
ĠÐ¼Ð°Ð³ Ð°Ð·
ĠÐ¾ÑĢÑĤ Ð°ÒĽ
ĠÐķ ÑīÐµ
ĠÐĶ Ð¼Ð¸ÑĤ
ÑĢÐ¸ ÑĨ
ÒĵÐ°ÑĪ ÒĽÑĭ
Ð°Ð»Ð°ÑĢ Ð´Ð°
ÑĤÐµÑĢ Ð¼ÐµÐ½
ĠÐ¸Ð½Ð¸ÑĨÐ¸ Ð°ÑĤÐ¸Ð²
ĠÐ¿ÐµÑĢÐµÐ² Ð¾Ð·
ĠÐ¾Ð±ÐµÑģÐ¿ÐµÑĩ ÐµÐ½Ð¸Ñı
ĠÐ¼ÐµÐ½ ÐµÐ´Ð¶
ĠÐ¿Ð¾Ð² ÐµÑĢÑħ
ĠÑģÐ¸ÑģÑĤÐµÐ¼ Ð°
ĠÐľÐ°Ð½ Ð³Ð¸ÑģÑĤÐ°Ñĥ
ĠÐ¿ÑĢÐ°Ð² Ð¸Ð»
ĠÐł Ð°Ñħ
Ð¿ÑĢ Ð¸ÑıÑĤ
Ð´ Ð°Ð»Ñĭ
ĠÐ´ÐµÒ£Ð³ÐµÐ¹ Ñĸ
ĠÒ± ÑĪÑĭ
Ð°Ñĥ ÑĭÑĤ
Ð¸Ð» Ð°ÐºÑĤ
ĠÐ¿ÑĢÐ°ÐºÑĤ Ð¸ÑĩÐµÑģÐºÐ¸
ĠÐ¾ÑĢÐ³Ð°Ð½Ð¸Ð· Ð°ÑĨÐ¸Ñı
l d
ĠÑĢÐ°Ð±Ð¾ÑĤÐ° ÐµÑĤ
ĠÐ¿ÐµÑĢÐ² Ð¾Ð¼
ĠÐ±Ð°ÑģÒĽÐ°ÑĢÐ¼ Ð°ÑģÑĭÐ½ÑĭÒ£
ĠÐ±ÑĸÑĢ ÒĽÐ°ÑĤÐ°ÑĢ
Ñĭ ÑĢÐ°Ñĥ
ĠÒĽÑĭÐ· ÑĭÒĵ
ĠÐ³ ÑĢÑĥ
ĠÑĪ Ð°ÑĪ
Ð´Ð° Ñģ
ĠÑĢÐµÑģÐ¿ÑĥÐ±Ð»Ð¸Ðº Ð¸
ĠÐ¾Ð±ÑīÐµÑģÑĤÐ²ÐµÐ½ Ð½Ð¾Ð³Ð¾
ĠÐ·Ð°ÑĢ Ð°Ð±Ð¾ÑĤ
pl ay
ĠÐ³Ð¾ÑģÑĥÐ´Ð°ÑĢÑģÑĤÐ²ÐµÐ½ Ð½Ð¾Ð¹
ÑĭÑĩ Ð°Ð¹
Ð¸Ð» Ð¾Ð²
ĠÐĹÐ°Ð¿ Ð°Ð´
ĠÐ´ÐµÑĤ Ð¸
ÑĢÐ¸ Ð¸
cont ent
Ð¼ ÐµÐ¹ÑĤÑĸÐ½
Ðľ Ñĭ
ĠÐ³Ð¾ÑģÑĥÐ´Ð°ÑĢÑģÑĤÐ²ÐµÐ½ Ð½Ð¾Ð³Ð¾
3 9
v er
ÑįÐºÐ¾Ð½Ð¾Ð¼ Ð¸ÐºÐ°Ð»ÑĭÒĽ
ĠC h
ĠÐ´ÐµÐ³ÐµÐ½ ÑĸÐ¼ÑĸÐ·
ÑĭÐ» Ð°
ĠÐ»Ð¸ÑĨ Ð°
ĠÐĳ Ð°ÑĢÐ»ÑĭÒĽ
ĠÑĤÐµ Ð°ÑĤÑĢ
ĠÑĤÒ± Ð¶ÑĭÑĢ
ĠÑĤÑĸÑĢ ÐºÐµÑĥ
ĠÐ´ Ð°ÑıÑĢ
ĠÐ¾ÒĽ ÑĥÑĪÑĭ
in clude
I n
ĠÐ¿Ð¾ÑĢ ÑĤÐ°Ð»
ĠÑĢÐ°ÑģÑģÐºÐ°Ð· Ð°Ð»Ð°
Ġ19 7
pag ination
ĠÐł Ðµ
Ðĸ Ð°Ò£
ĠÐºÐ¾Ð¼Ð¸ÑĤÐµÑĤ Ñĸ
Ð³Ð»Ñı Ð´
ÐĶ ÐĨ
Ðŀ ÑĢ
ĠÐ² Ð°Ð¼
ĠÐ²Ñĭ ÑģÐºÐ°Ð·
ĠÑģÑĤÑĢÐ¾Ð¸ÑĤÐµÐ»ÑĮ ÑģÑĤÐ²Ð°
m l
Ðĳ Ò¯
ĠÐ¿ÑĢÐ¸Ð¾Ð± ÑĢÐµÑĤ
Ñı Ð³
ĠÐ ¹
ĠÐ¶ÐµÑĤ ÑĸÑģÑĤÑĸÐº
ĠÐ¾ÑĢÐ³Ð°Ð½Ð¸Ð· Ð°ÑĨÐ¸Ð¹
ĠÐ°ÒĽÐ¿Ð°ÑĢÐ°ÑĤ ÑĤÑĭ
ĠÑĤÐµÐº ÑĥÑīÐµÐ³Ð¾
ĠÐº Ðµ
ĠÐ¿Ð¾Ð¿ ÑĥÐ»ÑıÑĢ
ĠÒĽ Ð°Ð´Ð°
ĠÐ² ÑĢÐ°
ĠÐ°Ð· ÑĭÒĽ
ĠÐ¸Ð½ Ð¶ÐµÐ½ÐµÑĢ
ĠÐ» Ð°
ĠÐ½Ð°Ð· ÑĭÐ²
ĠÐº ÑĢÑĥÐ³
ĠÐ§ ÐµÑĢ
ĠÐŀ Ð¹
ĠÐ´ÑĸÐ½ Ð¸
ĠÒĽÐ°Ð¼ ÑĤ
ĠÐ¸ÑģÑģÐ»ÐµÐ´ Ð¾Ð²Ð°Ð½Ð¸Ñı
ĠÐ±Ó© Ð»ÐµÐº
ĠÐĲ Ð¼Ð°Ð½
ĠÐļ Ò¯Ð½
ÐĴ Ðĺ
ĠÒĽÐ°Ð± ÑĭÑĢ
ĠÐĳÐ°ÑĤ ÑĭÑģ
Ð² ÐµÐ¹
as e
Ð½ ÑĤ
Ġ200 8
ĠÐĶ Ð¢ÐŁ
ĠÐ¸ Ð³ÐµÑĢ
Ð´Ñĸ Ð¼
ÑĢ Ð³
Ð¢ Ðŀ
ĠÐºÐ¾Ð¼Ð¸ÑĤÐµÑĤ ÑĸÐ½ÑĸÒ£
ĠÑģÐ¾Ð³Ð»Ð°Ñģ Ð½Ð¾
Ġ3 2
ĠÑģ Ð½Ðµ
ĠÐ¿ÑĢÐµÐ´ÑĥÑģ Ð¼Ð¾ÑĤÑĢÐµÐ½
Ð¾ÑĢ Ð°Ð½
ĠÐ² ÑħÐ¾Ð´
ĠÐ½Ð°Ð¿ ÑĢÑı
ate g
ĠÐĳÐ°Ñģ ÒĽÐ°ÑĢ
Ð½ Ð°Ñĥ
ĠÑĤÐ°Ð¼ ÑĭÑĢ
ÑĸÑģ ÑĸÐ½Ð´Ðµ
ÐµÐº ÐµÐ½
ĠÑģÑĢÐµÐ´ Ð½ÐµÐ¼
Ð± Ð°Ð»
ĠÒļ Ð°ÑģÑĭÐ¼
ĠÑģÒ±ÑĢ Ð°Ð½
ĠÐ¼Ð°Ñģ ÑĪ
3 2
ĠÑĪÑĭ ÒĵÐ°Ð´Ñĭ
s ert
ĠÐ¾ÑĢÐ³Ð°Ð½Ð¸Ð· Ð¼
Ð¸Ñı Ð´Ð°
ĠÐĲÐºÐ¼Ð¾Ð» Ð¸Ð½ÑģÐºÐ¾Ð¹
a q
Ðľ Ðļ
ĠÐ´Ð°Ð¼Ñĥ ÑĭÐ½Ð°
ĠÑĩÐ°ÑģÑĤ Ð¾
Ð½ Ð´Ðµ
ĠÐŀ ÐŀÐĿ
ĠÐ· Ð°Ð¹
ĠÐ¿ÑĢÑıÐ¼ Ð¾
6 5
ĠÐļ ÑĥÐ±
a re
ĠÐ·Ð°Ð¼ ÐµÑĤ
ĠÐ½Ð°Ñģ ÐµÐ»ÐµÐ½
ĠÐ½Ò¯ ÐºÑĤ
ĠÐ± Ð°Ð±
ĠÐºÐ°ÑĢ ÑĮÐµÑĢ
Ð² ÐµÐ½
Ð¸ÑĨ Ñĥ
ĠÐĿ ÐµÑģ
ĠÐĸ Ð°ÒĽ
ĠÑĤ Ð°Ð·Ð°
ĠÐĴÑģÐµ Ð³Ð¾
ĠÐĲ ÑģÑģ
Ð¸Ð½ ÑģÐºÐ¾Ð³Ð¾
ĠÐļ Ð¸ÑĤÐ°Ð¹
ÑĢÐµÐ·Ð² ÑĭÑĩÐ°Ð¹
Ġp h
Ð» Ð¾ÑĤ
ÑĥÐ¼Ð° Ñİ
ĠÐ¿ÑĢÐ¸Ñĩ Ð¸Ð½
ĠÐ±ÐµÑĢ ÑĥÐ³Ðµ
ĠÑģÐ² ÐµÑĤ
ÑģÑĭÐ» Ð°Ð¹
ĠÑĦ Ð¸ÑĢ
Ð»Ñı ÐµÐ¼
ÐµÐ» Ñİ
ĠÐºÓĻÑģÑĸÐ¿ ÐºÐµÑĢÐ»ÑĸÐº
Ð³ ÑĸÐ»
ĠÐ¿ ÐµÑģ
ĠÐ¿ÑĢÐ¸Ð² Ð»ÐµÐº
Ð¸ Ð¾
ĠÐ°Ðº ÑĤÐµÑĢ
Ð°ÑİÑī Ð¸Ð¹
ĠÐ±ÑĭÑģÑĤ ÑĢÐ¾
ĠÑħÐ¾Ð·ÑıÐ¹ ÑģÑĤÐ²Ð°
a ve
ĠÒĽÐ°ÑĢ Ð°ÑģÑĤÑĭ
ĠÐ±Ð°Ð¹ÒĽ Ð°Ñĥ
Ġo wn
ÑĢÐ¸ÑĤ Ð°Ð½
Ð³ ÑĸÐ»Ñĸ
ÑĢÐ° Ð´
ĠÐĳÐµÐ» Ð°ÑĢÑĥÑģ
ĠÐ¢ ÑĢÐ°Ð¼
ĠÐ¶ ÑĭÐ½
ĠÐŁ Ð¾Ñĩ
ĠÒĽÐ°Ð±ÑĸÐ» ÐµÑĤ
ĠÐ²Ð¾Ð· Ð²ÑĢÐ°Ñī
ĠÐĲÐºÑĤ ÑİÐ±
ĠÐ¾ÑĤ ÐµÑĩÐµ
ÐºÐ¾Ð¼ Ð¼ÐµÐ½
ĠÑįÐºÑģÐ¿ Ð»Ñĥ
ÐµÐ½Ð¸Ñı Ñħ
Ð°Ð¹ÑĤ ÐµÑģÑĮ
ÓĻÑĢÐµÐº ÐµÑĤ
ĠÒĽÐ¾ÑĢ ÒĵÐ°Ð½
ĠÐ¢ Ò±ÑĢ
ĠÑĤÐ¾Ð½ Ð½Ð°
u e
ĠÑĤÐ¸ Ð³ÑĸÐ·
ĠÐ¼Ð¾Ð» Ð¾Ð´
ĠÑĢÑĥÐºÐ¾Ð²Ð¾Ð´ Ð¸ÑĤÐµÐ»ÑĮ
Ð²Ð¾Ð» Ñİ
ĠÐ¡ Ð°Ð»
Ð¼ Ð±
ĠÐĳÑĸÑĢ ÑĸÐ½ÑĪÑĸ
ÐŁ Ð¾
ÑĤÐ°Ð» ÑĭÐ¿
Ġpar ams
ĠÑĤÐ°ÒĽÑĭÑĢ ÑĭÐ±Ñĭ
Ð¾Ð»ÑĮ ÑĪÐµ
ĠÐ°ÑĢ ÐµÐ½
ĠÐ¿Ð¾ ÑĢÐ°Ð¶
ĠÒĽÐ°Ð»Ð¿ ÑĭÐ½Ð°
ĠÑģÐ» Ð¾Ð²Ð°
Ð¾Ð² ÑĭÐ¼
ĠÑĤÐ°Òĵ Ð°Ð¹ÑĭÐ½
ĠÑģÐµÐº ÑĸÐ»Ð´Ñĸ
ĠÐ¿Ð¾ ÑģÐºÐ¾Ð»ÑĮÐºÑĥ
ĠÑĤÐ¾Ð² Ð°ÑĢ
ĠÐ¸Ð½ÑĤÐµÑĢÐ² ÑĮÑİ
ĠÐ¾Ð³ ÑĢÐ¾Ð¼
ĠÐ¢ ÐµÑħ
ĠÓ© ÑģÑĥ
ĠÑĤ ÑĢÐ¾
ĠÑģÐºÐ°Ð· Ð°ÑĤÑĮ
Ð»Ñı Ð»
ĠÐ¼Ð°ÑĤÐµÑĢÐ¸ Ð°Ð»Ñĭ
ĠÐ¼Ð½Ð¾Ð³ Ð¸Ñħ
ĠÐº ÑĢÐ¸Ð·
ĠÐ½Ð°Ñĩ Ð°Ð»
ĠÑħÐ¾ÑĤ Ñı
Ð¿ Ð¾Ð·Ð¸
Ð¡ Ð£ÐĽ
ĠÐºÐ¾ÑĤÐ¾ÑĢ ÑĭÐ¼
it al
ĠÑģÐµÐº ÑĢÐµÑĤ
ĠÐĿ Ð£Ðł
ÑĨ ÑĥÐ·
Ġ im
ĠÐ´ÐµÐ½ ÐµÐ¶
Ð½ÐµÐ¼ ÐµÑģÐµ
ĠÑģÐ¿ Ð¾ÑĢ
p x
Ð°ÑĤÐµÐ»ÑĮ ÑģÑĤÐ²Ð°
ĠÐ·Ð°Ð±Ð¾Ð»ÐµÐ² Ð°Ð½Ð¸Ñı
Ð¾Ð²Ð°Ð½ Ð¸Ñİ
m ail
ĠÐ°ÑĥÑĢÑĥ ÑħÐ°Ð½
ĠÐ°Ñĥ Ð¼Ð°ÒĽ
ĠÒ± ÑģÑĤÐ°Ð½
ĠÐ¶ÐµÑĤÐºÑĸÐ· Ñĥ
b e
ĠÒĽÑĭÑĪ ÒĽÑĭÐ»
ĠÐ±Ð°Ð» Ð°Ð±Ð°ÒĽ
ĠÐ´Ðµ ÑĦ
ĠÑĥ Ð¼ÐµÑĢ
ĠÑĪÐµÑĤÐµÐ» Ð´ÑĸÐº
ĠÐŀ Ð½Ñĭ
ĠÐł ÑĥÑģ
Ð´i Ò£
Ð°Ð´ Ð»ÐµÐ¶
ĠÐ°Ð¹ ÑĤÐ°ÑĢ
Ð¸Ð¹ ÑģÐºÐ¾Ð¹
ĠÐ¿ÑĢÐ¸Ð» Ð¾Ð¶
ÐµÐ² ÑĭÑħ
Ðº Ð¾Ð³
Ġ3 9
ĠÑĤÐ°ÑĢ Ð°ÑĤ
m d
Ð°Ð» Ð¸ÐµÐ²
ÑĢÑĥ Ñĩ
ĠÐ¿Ð¾ Ñį
ĠÐ¿Ð¾Ð¿ ÑĭÑĤ
ĠÐ» Ð¸Ðº
Ð½Ñİ Ñİ
ĠÐ± Ð¾ÐµÐ²
Ð¸Ð»Ð¸ Ñī
ĠÑĢÐ°Ð· Ð¼ÐµÑī
ĠÑģ Ð½Ð¸Ð¼
ĠÐĲ ÑĤ
ĠÐľ ÓĻÑģ
ĠÐ¼ÐµÐºÑĤÐµ Ð±
ĠÐ¾Ð±ÑĬ ÑıÑģÐ½
ĠÓĻÐºÑĸÐ¼ ÑĸÐ½ÑĸÒ£
ÐºÐ¾Ð¼Ð¼ÐµÐ½ ÑĤÐ¸ÑĢÐ¾Ð²
ĠÒĽÐ¾Ñģ Ð¿
Ñı ÑİÑĤÑģÑı
ĠÑĤÑĸÐ» ÑĪÑĸÑģÑĸ
ĠÐ´Ð°Ð¹ ÑĭÐ½Ð´Ð°Ñĥ
ĠÐºÐ¾Ð´ ÐµÐº
ĠÑģÐ¼ Ð¾ÑĤ
ÑģÐº Ð¸
ĠÐ°Ð¹ ÑĤÐ°
Ð»Ð°Ñģ ÑĮ
ĠÑĢÐµ Ð´
ĠÓĻÐ´Ñĸ ÑģÑĸ
ĠÐ´ÓĻÑģÑĤ Ò¯ÑĢ
Ð¡Ð£ÐĽ Ð¢ÐĲÐĿ
Ð» ÑĭÐ¼
ĠÐ½Ð¾Ð² Ð¾Ð¹
Ð³ Ð¸Ð´
ĠÐĸ Ð°Ð·
ĠÐºÓ©Ð· Ñĸ
ĠÐ±Ð¾Ð» Ð°ÑĢ
ĠÐ³ Ð¸Ð¿
ĠÐ¶ÐµÐ½Ñī Ð¸Ð½Ð°
Ð°Ð±Ð¾ÑĢ Ð°ÑĤÐ¾ÑĢ
ÒĽÐ°Ð½ Ð´Ð°Ð¹
Ð»ÐµÐºÑĤ Ð¸Ð²
Ò¯ ÑĪ
ĠÐŀ Ð¿
ĠÐ¼Ð°Ð³ Ð¸ÑģÑĤ
ĠÑĤÐµÐ»ÐµÐº Ð°Ð½
ĠÑĩ Ð¸Ð½Ð¾Ð²
al se
ĠÐ¼Ð¸Ð½Ð¸ÑģÑĤÑĢ Ð»ÑĸÐ³ÑĸÐ½ÑĸÒ£
Ð¸ÑĩÐµÑģÐº Ð¸Ð¼Ð¸
ĠÐ¶Ð°Ñģ Ð°Ð´Ñĭ
ĠÐĸ ÐµÑĤ
Ñī Ð¸ÐºÐ¾Ð²
Ð± ÑĥÐ»
ĠÑĢÐ°Ð· Ð½ÑĭÑħ
ĠÐļÓ© ÑĢ
ĠÓ© ÑĢÑĤ
ÐµÑĪ ÑĮ
ĠÐ¿ÑĢÐµÐ´ÑģÐµÐ´ Ð°ÑĤÐµÐ»Ñı
Ðĸ Òļ
ĠÑĥÑģÑĤ ÑĢÐ¾Ð¹
ĠÐ¼ÓĻ ÑĤÑĸÐ½
ĠÐ±ÐµÑģÐ¿ Ð»Ð°ÑĤ
ĠÐĸ Ð°Ñģ
ĠÐºÓ© Ð¼ÑĸÑĢ
ÑĥÑİ ÑīÐµÐ³Ð¾
Ð°Ð¹ Ð»Ñĭ
ĠÑģÑħ ÐµÐ¼
ÑĢÐ¾Ð¿ Ð°Ð²Ð»
ĠÐķÒ£ Ð±ÐµÐº
ĠÐĿÒ±ÑĢ ÑģÒ±Ð»ÑĤÐ°Ð½
ĠÐŁÑĢÐµÐ·Ð¸Ð´ÐµÐ½ ÑĤÐ°
ĠÓ©Ð½Ð´ÑĸÑĢ ÑĸÑģÑĤÑĸÐº
ĠÐ¼Ð°Ñģ ÑģÐ¾Ð²
ĠÑĤÐµÑĢ Ð³Ðµ
ĠÐ¿ÑĥÑĤ ÐµÐ¼
ĠÑĤÐ°Ðº Ð¾Ðµ
ĠÐ´ÐµÐ¼ Ð°Ð»
ĠÐ¿ÑĢÐ¾ Ñĩ
ĠÐ¿ÐµÑĢ ÐµÐ½
ĠÒĽÐ¾Ð¹ ÒĵÐ°Ð½
ĠÑģÐ¿Ðµ ÑĨ
ig n
ĠÐ¿ÑĢÐ¾ ÐºÐ¾Ð¼Ð¼ÐµÐ½ÑĤÐ¸ÑĢÐ¾Ð²
ÑĤÐµ Ð³ÑĢÐ°
Ð°Ð»ÑĭÒĽ ÑĤÑĭ
Ð° ÑĨÐ¸ÐµÐ¹
ĠÑĨÐµÐ»ÑĮ Ñİ
ĠÐ± ÐµÐº
Ð¸Ñı ÒĵÐ°
ĠÑģ ÐµÐ»
ĠÐ¸Ð³ ÑĢÐ¾
ĠÑĤÑĸÐ» ÑĸÐ½
ĠÑĢÐµÑĤ ÑĤÐµ
ĠÐº Ð½Ð¸
ĠÐ¶ÐµÑĤ ÐºÐµÐ½
ĠÐ° ÑĤÐ°Ð½
ĠÐ°Ð´ Ð²Ð¾Ðº
ĠÐµÑģÐµÐ¿ ÑĤÐµÐ»
ĠÐ¾ÑģÐ¾Ð± ÐµÐ½Ð½Ð¾
ĠÐ¾ÑĤÐ¼ÐµÑĤ Ð¸ÑĤÑĮ
ĠÐ¿ Ð¸Ñģ
ĠÐµÑģÐµÐ¿ ÐºÐµ
ĠÑģÑĤÐ¾Ð» Ð¸ÑĨÐµ
ĠÐ°Ðº ÑĨÐ¸Ð¾Ð½
ĠÑĥ Ð°ÒĽÑĭ
ĠÐ±ÑĸÐ· Ð³Ðµ
ĠÐ¿ÑĢÐµ Ð¿
ĠÐ¿Ð¾Ñģ ÐµÐ»
ĠÐºÐ»Ð¸ ÐµÐ½ÑĤ
ĠÐ¿ÑĢÐµ Ð¿Ð°ÑĢÐ°ÑĤ
ĠÐ¶Ò¯ ÑĢÐµÐº
ĠÐ¿Ð¾Ð´ Ñģ
Ð¸Ð¼ Ð°
ĠÐ¡ Ðº
Ð¸Ð¼ ÑĭÑħ
ĠÑĤÓĻÑĥÐµÐ» ÑģÑĸÐ·
ĠÐ¿ÑĢÐ¸ Ð³Ð¾Ð²Ð¾ÑĢ
dis play
Ġ en
Ð°Ð´ Ð¶
ĠÑĤÑĥÑĢÐ½Ð¸ ÑĢ
ĠÐ¼Ð¾Ð» Ð¾Ð´Ñĭ
ÐµÐ½ Ð½Ð¾Ð¼
ĠÑĢÑĥÐ± Ð»ÐµÐ¹
ĠÐ¶Ð¾Ð± Ð°ÑģÑĭ
ĠÐ´ÐµÐ¿ÑĥÑĤ Ð°ÑĤ
y st
Ð² Ð¸Ð³
Ð°ÑģÑĤ ÐµÑĢ
ĠÐ¿ÑģÐ¸Ñħ Ð¾Ð»Ð¾Ð³
ĠÑįÐº Ð¾Ð»Ð¾Ð³
ĠÐ´Ð°Ð¹ ÑĭÐ½Ð´Ð°
ĠÐ¡ ÑĥÑĢÐµÑĤ
ĠÒĽÑĭÐ·Ð¼ÐµÑĤ ÑĸÐ½Ðµ
ÐĲ Ðº
ÑıÐ± ÑĢÐµ
ĠÑģÐ°Ð¼ Ð¾
ĠÐ¶Ð°ÑĢÐ¸Ñı Ð»Ð°Ð½ÒĵÐ°Ð½
Ð¸Ð´ÐµÐ¼ Ð¸
ĠÐ³Ð» Ð¾Ð±
ĠÐŃ Ð»ÐµÐºÑĤ
ÑĨ Ð°Ð¼
Ġ ?
ĠÐ¡ Ð¿
ĠÐŀÐ½ Ð´Ð°
ĠÐ¼Ò¯Ð¼ÐºÑĸÐ½ Ð´ÑĸÐ³Ñĸ
Ġ20 23
ĠÐºÐ¾Ð½ÐºÑĥÑĢ Ñģ
ĠÐ¶ÑĭÐ» Ñĥ
Ð¼ Ð°Ð»Ñĭ
ÑĸÑģ ÑĸÐ½ÑĸÒ£
ĠÑģÐ¾ÑĨÐ¸Ð°Ð»ÑĮ Ð½Ð¾Ð¹
r a
ĠÐ½ Ð¾Ñģ
ĠÒĽÒ±Ð½Ð´Ñĭ Ð»ÑĭÒĽ
ĠÑĢÐ¾Ð¶ Ð´ÐµÐ½Ð¸Ñı
i e
ĠÐ°ÑĤ Ð¼Ð¾ÑģÑĦÐµÑĢ
Ð°Ò£ÒĵÑĭ ÑģÑĤÐ°Ñĥ
ĠÐºÐ¾Ð» Ð¾Ð½
ÐµÐ² Ð¸Ð´
ĠÐ·ÐµÐ¼ ÐµÐ»ÑĮ
ĠÐ·Ð°ÑģÐµÐ´ Ð°Ð½Ð¸Ð¸
Ð»ÐµÐ½ Ð³ÐµÐ½
ÑĤÑĭ ÒĵÑĭ
ru e
ĠÐľÐ¸Ð½Ð¸ÑģÑĤÐµÑĢ ÑģÑĤÐ²Ð°
ÐµÑĢÑĤ ÑĤÐµÑĥ
ĠÐ² Ð´
ĠÐºÓ© Ð»
Ð¾ÑĢ ÑıÐ´
A L
ÑĭÐ¼ÑĭÐ· Ð´Ñĭ
ĠÑħÐ°Ð±Ð°ÑĢ Ð»Ð°Ð´Ñĭ
ĠÑĪ Ð¸Ðº
ĠÑģÑĤÐ°ÑĤÑĮ Ðµ
ĠÐ»ÐµÐº Ð°ÑĢ
ĠÒĽÐ°Ð´Ð° ÒĵÐ°Ð»
Ð¼ Ð°Ð½Ð¸Ñı
ĠÐ² ÑģÑı
Ð´ÐµÐ½ Ð¸ÐµÑĤ
ĠÐ° ÑĢÐµÑģÑĤ
ĠÒĽÐ°ÑĢ ÑĭÐ·
ĠÑĦÑĥÐ½Ðº ÑĨÐ¸Ð¾Ð½
Ð´ÐµÐ½ Ð¸Ð¹
ĠÑģÐ¸Ð¿Ð°ÑĤ ÑĤÐ°Ð¼
ĠÐ¼ÐµÐ¼Ð»ÐµÐºÐµÑĤ ÑĤÑĸÒ£
ĠÐ²Ð½ÑĥÑĤÑĢÐµÐ½ Ð½Ð¸Ñħ
Ð¸Ð² Ð°ÑĤÑĮÑģÑı
4 1
Ġa b
ĠÐ± Ðµ
Ð¸Ð· Ð¼Ð°
ĠÐ· Ð¸Ñı
ĠÐ¿ Ð¸ÑģÑĮ
ĠÐ³ ÐµÐº
Ð°ÑĤ Ð¾
ter n
ÑģÐ¾Ð» ÑİÑĤ
ĠÐ±Ð»Ð°Ð³Ð¾Ð´Ð°ÑĢ Ñı
ĠÐł Ñĥ
ĠÐ² ÐµÑī
Ð¸Ð² Ð°ÑİÑĤÑģÑı
ĠÑģÐµÐ½ ÑĸÐ¼
ĠÐ¸Ð½ ÑĤÐµÐ»
ĠÐŀ ÒĵÐ°Ð½
ĠÐ½Ð°Ñĩ Ð°Ð»Ð¸
ĠÐ´ Ð¾Ð²ÐµÑĢ
ĠÐ¼ Ð¸Ð³
ĠÐ°Ð²ÑĤÐ¾ Ð±ÑĥÑģ
ĠÑĥ Ñī
ĠÑģÐ¾Ð²ÐµÑĢ ÑĪ
ĠÐ±ÑĸÑĢ Ð´ÐµÐ½
ĠÑģÐ¾ÑĤÑĢÑĥÐ´ Ð½Ð¸ÐºÐ¸
Ð¸Ð²Ð¸ Ð´Ñĥ
ĠÐ²Ð¾Ð· Ð±
ĠÑĥÐ´ Ð¾Ð±
Ð¸Ð¼ ÐµÐ½ÑĤ
ĠÑģÐµÐ¼ÑĮ Ð¸
ĠÑĩ Ð¸ÑģÑĤ
ĠÐ¼ÓĻÐ»ÑĸÐ¼ ÐµÑĤ
ĠÐ°Òĵ ÑĭÐ¼
ÑģÑĭÐ» Ð¼Ð°Ð½
ĠÑĤÒ± ÑĢÑĥ
Ðļ Ó©
ĠÐ¿ Ð»Ð°ÑģÑĤ
ĠÑĢÐµÐ³Ð¸ Ð¾Ð½Ðµ
c md
Ð¸Ñģ ÑģÐµÑĢ
ĠÐ¼Ð¸Ð½ ÐµÑĢ
ĠÐ¸Ð½ÑĦÐ¾ÑĢÐ¼Ð° ÑĨÐ¸Ñı
ĠÐ¿ÑĢÐ¾Ð² ÐµÑģÑĤÐ¸
ĠÐ½ ÑĭÐ½
ĠÐ½Ð¾Ñĩ ÑĮÑİ
ĠÐ¼ÐµÐºÑĤÐµ Ð±Ñĸ
ĠÐ³Ð¸ Ð¿ÐµÑĢ
ĠÐºÐµÐ·Ð´ÐµÑģ ÐµÐ´Ñĸ
ĠÐ¿Ð¾ Ð¼ÐµÑī
ĠÑģÐ°Ð¼ ÑĭÐµ
ĠÐ¶ÐµÑĤÑĸÐ»Ð´Ñĸ ÑĢÑĥ
ĠÑĤÓĻÑĢÐ±Ð¸ ÐµÐ»ÐµÑĥ
Ðº Ð¾Ð±
ĠÐ´ Ð¾Ð¶
ĠÐºÐ¾Ð½ ÐµÑĩÐ½Ð¾
Ð¿Ð°ÑĢ Ð°ÑĤÑĭ
201 6
Ð´ Ð¸Ðº
ĠÐ¸ ÑĤ
ĠÐ¾ÑĪ Ð¸Ð±
ĠÒ± Ð¹
ĠÐ¾ÒĽÐ¸ ÒĵÐ°
ĠÑĤÐ°Ð½ ÑĭÑģ
ĠÐºÓ©ÑĢ ÑĸÐ¿
Ñĭ Ðº
ÐµÐ»Ñı Ñħ
ÑıÑģ Ð½Ñı
Ð½ Ð°Ð±
ĠÐ¿ÑĢÐ°Ð² Ð¸Ð»ÑĮ
ĠÒĽÒ± Ð½Ñĭ
cl ass
ĠÐ¸Ð·Ð± Ð¸ÑĢ
h at
ĠÒĴ ÑĭÐ»ÑĭÐ¼
Ñĭ ÑĪÐµ
ĠÐ±Ð¸ ÑĸÐº
ĠÑģÐº Ð¾Ð½Ñĩ
ĠÓĻ ÑģÑĸÑĢÐµÑģÐµ
ĠÐ¶ Ð¸ÑĤÐµÐ»Ð¸
ĠÐ¾ ÑĢÐ¸
Ð¾Ð´ Ñĥ
ÐµÐ¼ Ð¾Ð½
ĠÐ±Ð°Ð»Ð°Ð»Ð°ÑĢ Ð´ÑĭÒ£
Ġ4 8
ÐµÑĤ Ð¸ÐºÐ°Ð»ÑĭÒĽ
ĠÐºÒ¯Ð½ Ð³Ðµ
Ð¸ÑĢÐ¾Ð² Ð°Ð½Ñĭ
ĠÐ¿Ð¾Ð³Ð¸Ð± Ð»Ð¸
g round
ĠÑģÑĤÐ°Ð± Ð¸Ð»ÑĮ
ĠÐ¸Ð½Ð²ÐµÑģÑĤÐ¸ ÑĨÐ¸Ñı
ĠÒ¯Ð¼ ÑĸÑĤ
ĠÑĦÐ¾Ð½ Ð´Ð°
ĠÑĪÐµÑĪ Ñĥ
ĠÐ±Ð¾Ðº ÑģÐµÑĢ
ĠÐ½Ð¾Ð² Ð¾ÑģÑĤ
Ð±ÐµÐº Ð¾Ð²Ð°
ĠÐ¿ÑĢÐµÐ´ÑģÑĤÐ°Ð² Ð¸ÑĤÐµÐ»Ð¸
ĠÑĥÑģÐ»Ñĥ Ð³Ð¸
ĠÐºÐ°Ð¿Ð¸ÑĤ Ð°Ð»
Ðľ ÓĻ
Ð³ iÐ½
ĠÐ»ÑĥÑĩ ÑĪÐµ
Ðº Ð°ÑĢ
an g
Ðº Ð°Ñı
Ð± Ð¾Ð¹
ov er
ĠÐĵÐµÑĢ Ð¼Ð°Ð½
ĠÐ¶Ð¸Ð²Ð¾ÑĤ Ð½ÑĭÑħ
ĠÑĤÑĭ Ð¹ÑĭÐ¼
Ñĸ ÑĢÐµ
s o
k t
ĠÐ°ÑĤÒĽÐ°ÑĢ ÑĥÑĪÑĭ
ÑĥÑĪ ÑĸÑģÑĸ
Ġ0 9
Ð°Ðº Ð¾Ð¼
ÑģÐ¿ Ð¾ÑĢÑĤ
ĠÑĥÑĩÐµÑĤ Ð¾Ð¼
Ñģ Ð¼
ÑĤÑĭ Ð¹
ĠÐ°ÐºÑĤ ÑĸÐ»ÐµÑĢ
Ðº Ð¸Ð½Ð°
ĠÐŁÑĢÐ°Ð² Ð¸ÑĤÐµÐ»ÑĮ
ÑĸÐ¼ÑĸÐ· Ð´Ñĸ
ĠÐķ ÐºÑĸÐ½ÑĪÑĸ
Ð¡ Ð°Ð¼
Ð¾Ð´ Ð¾Ð²
ĠÐĳÐ°Ð½ Ðº
ĠÐ¶Ð¾Ð± Ð°
Ġ15 0
Ð¸Ð¹ ÑģÐºÐ¸Ð¹
ĠÐ±Ð°Ñģ ÒĽ
ÐµÐ² Ð½Ð¾Ð²
ĠÐ±Ð°Ñģ ÑĭÐ¿
Òļ Ðł
ĠÑħÐ°Ð±Ð°ÑĢ Ð»Ð°Ð¼
Ñĳ Ð¼
ĠÐ¶Ò±Ð¼ÑĭÑģ ÒĽÐ°
ĠÑĤÐ¾Ð± Ñĭ
ĠÐ±Ð¾Ð» Ð¼Ð°ÒĵÐ°Ð½
ĠÐ¿ÐµÑĢÐµ ÑħÐ¾Ð´
p ar
Ð¾Ð² ÑĤÑĭÒ£
ÑĤ ÑĢÐ°Ð½
ĠÐºÐ¾Ð¼Ð¼Ñĥ Ð½Ð¸Ðº
Ġre s
ĠÐ½ÐµÐºÐ¾ÑĤÐ¾ÑĢÑĭ Ñħ
ĠÐ¾Ð±ÑīÐµ ÑģÑĤÐ²Ð°
ĠÑĢÐµÐ³Ð¸Ð¾Ð½ Ð°Ñħ
ĠÒĽÒ± Ð½
ĠÐ¿ÑĢÐµÐ´Ð¿Ð¾Ð» Ð°Ð³
ĠÐĲÐ· Ð°Ð¼
ĠÑĦ ÐµÑģÑĤ
ÐµÑĤ Ð¸
ĠÑģÐ¸Ð» Ñĥ
19 9
ĠÐ¿ ÑĭÑĤ
ĠÐĿÐ°Ñĥ ÑĢÑĭÐ·
ÑĢÐ¸ Ñģ
ĠÐĸ Ò¯
ĠÐ²Ñĭ ÑıÑģÐ½
ĠÐ±Ó©Ð»ÑĸÐ¼ ÑĸÐ½ÑĸÒ£
S E
ĠÑģÐ°Ð»ÑĭÐ½ ÒĵÐ°Ð½
ĠÑģÐ°Ð¼ ÑĭÐ¼
ĠÐµÑĢÐµÐºÑĪ ÐµÐ»Ñĸ
Ñİ ÑīÐµÐ³Ð¾
ÐµÑĢ Ðµ
ĠÒĽÐ¾Ð» ÒĵÐ°
ĠÑĤÐ°ÑĢÐ°Ð¿ ÑĭÐ½Ð°Ð½
ĠÐ¿Ð¾Ð´ÑĤ Ð²ÐµÑĢÐ´
Ð¼Ð¾Ð¶ Ð½Ð¾
ub l
Ġp l
ĠÑģÐ¿ Ð¸Ñģ
? Â»
ĠÓ© Ð¹ÑĤÐºÐµÐ½Ñĸ
ĠÑģÐµÑĢÑĤÐ¸ ÑĦÐ¸Ðº
ĠÐĿÐ°Ð¿ ÑĢÐ¸Ð¼ÐµÑĢ
ĠÑĥ ÑĪ
Ġf alse
ĠÐ¿ÑĢÐ¸ Ð·Ð²
Ġ( @
ĠÐ´ÐµÑĢÐµÐº ÑĤÐµÑĢ
oc k
ĠÐ¼ Ð°Ð½
Ð¸ÑĤÐµÐ»ÑĮ Ð½ÑĭÐ¼
Ð¾Ð³ÑĢÐ°ÑĦ Ð¸Ñı
ĠÐ±ÑĥÐ´ ÐµÐ¼
ĠÐ¾ÑĤÐ¼ÐµÑĤ Ð¸Ð»Ð¸
ĠÐ´ÐµÒ£Ð³ÐµÐ¹ Ð´Ðµ
Ðĸ Ð°Ñģ
ĠÑįÐº Ð¾Ð»Ð¾Ð³Ð¸ÑıÐ»ÑĭÒĽ
Ð± Ð¸ÑĤ
ĠÒĽÒ±ÑĢÐ°Ð¼ ÑĭÐ½Ð°
ic e
ĠÐ´ÓĻÑĢÑĸ Ð³ÐµÑĢ
ÑĨÐ¸Ð¾Ð½ Ð½ÑĭÐµ
Ð¼Ð¸Ð½Ð¸ÑģÑĤ ÑĢÐ°
ÒĽ Ð¾Ð»
ĠÐ¢ Ð¾Ð³Ð´Ð°
Ð°Ð»Ñĭ ÒĵÑĭ
ĠÑĤÐ°Ðº Ð¸Ð¼
ĠÒļ Ð¾Ð»
ĠÒĽ ÑĭÐ¼
ÑĤÐ° ÐµÐ²
ĠÐ¼ÐµÑĢÐ¾Ð¿ÑĢÐ¸ÑıÑĤ Ð¸Ð¹
ĠÑģÑĥÑīÐµ ÑģÑĤÐ²
ĠÐ·Ð°Ðº ÑĥÐ¿
ĠÑģÐ¸ÑģÑĤÐµÐ¼ Ðµ
ÑģÑĤ ÑĭÒ£
ĠÑĤ Ð¸ÑĤ
ĠÐ´ÐµÑĢ ÐµÐ²
Ð¸Ð· Ð²Ð¾Ð´
c he
ĠÒĽÐ° Ð´Ð°Ð¼
ĠÐ¶Ò¯Ð¹ Ðµ
ĠÐ¡Ð¾ Ò£ÒĵÑĭ
ĠÐº Ð»ÑİÑĩ
ĠÐ¢Ð¾ ÒĽÐ°ÐµÐ²
ĠÐ±ÑĸÐ»Ð´Ñĸ ÑĢÐµÐ´Ñĸ
ÑĥÑĪ ÑĭÐ»Ð°ÑĢÑĭ
ĠÐ¼ÐµÐ½ ÑĪÑĸÐº
ĠÐ¯ ÒĵÐ½Ð¸
ĠÐ³Ð¾Ñģ Ð¿Ð¸ÑĤ
ĠÑĩ ÑĢÐµÐ·Ð²ÑĭÑĩÐ°Ð¹
Ð¾Ð² Ð°Ð»Ð°
ĠÐ±Ð°ÑģÒĽÐ°ÑĢÐ¼ Ð°ÑģÑĭ
Ò±ÑĢ ÑĭÐ»ÑĭÐ¼
Ð°ÑĢÑĭ ÑĪ
ĠÒĽÒ± ÒĽÑĭ
ĠÐ¡ Ð°Ð¿
ĠÑĥ Ð´Ð¾Ð²
ĠÐľ ÐµÐºÑĤÐµÐ¿
ĠÐ¢ÐµÐ¿ ÐµÑĢÑĮ
ĠÐ¾ÑĢ ÑĤÐ°Ð½
ĠÐ¿ÑĢÐ¾ÑĨÐµÑģ ÑģÐ°
ĠÐ¢ÓĻ ÑĥÐµÐ»
ĠÐĽ Ñĥ
ÑĢÐ´ ÐµÐ¼
âĢĿ ,
ĠÐŁÑĥÑĤ Ð¸Ð½
Ð¾Ð³ Ð¾ÑĢ
ĠÑģÑĤÐµÐ¿ ÐµÐ½Ð¸
ĠÑģÐ¾ÑģÑĤÐ¾Ñı Ð½Ð¸Ðµ
âĢ ľ
ĠÒĽÒ±ÑĢ ÑĭÐ»ÒĵÐ°Ð½
ĠÑģÐ¾ÑĨ ÑģÐµÑĤ
ĠÐ¿ÑĢÐµ Ð·
ÐºÐ¾ Ðµ
ĠÐºÐµÐ»ÑĤÑĸ ÑĢÑĥ
Ð¾ÑģÑĤÐ¾ ÑıÑĤÐµÐ»ÑĮ
Ð³ ÑĸÐ»ÐµÑĢ
Ð« Ò¢
ĠÐºÐ°ÑĦ ÐµÐ´
ÐµÐ»ÑĮ Ð·Ñı
Ġ200 7
ĠÑĩÐµÐ¼Ð¿Ð¸Ð¾Ð½ Ð°ÑĤÐ°
Ð°Ð¿ Ð°ÑĤ
ĠÑİ ÑĢÐ¸Ð´
ĠÐ°Ñĥ ÑĭÑģ
g et
ĠÓ©Ð½ÐµÑĢÐº ÓĻÑģÑĸÐ¿
ÑĮ ÐµÐ²
ĠÐ± Ð°ÑĥÑĭÑĢ
ĠÑģÐ² ÑĭÑĪÐµ
ac h
Ð´Ð°Ð² Ð°ÑĤÑĮ
Ð± ÐµÐ¹
a x
ĠÐ¾Ð±ÑĥÑĩ ÐµÐ½Ð¸Ñı
ÑĮ Ð¼Ð¸
ĠÒĽÐ°ÑĢÐ¶ ÑĭÐ»
ĠÐĺ ÑģÐ»Ð°Ð¼
ĠÐ½Ð° Ðº
ĠÐºÓ©Ð¼Ðµ Ð³ÑĸÐ¼ÐµÐ½
ĠÐ°ÑĢÑħ Ð¸Ð²
Ð½ÐµÑĢ Ð³Ð¾
ÐĲÒĽ Ð¿Ð°ÑĢÐ°ÑĤ
ĠÐ±Ð°Ñģ ÑĭÐ½Ð´Ð°
ĠÐ¾Ò£ Ð°Ð¹
ĠÐ³ Ò¯Ð»
Ò£ ÒĵÑĭÑĪ
ĠÑĤÓ©Ð¼ÐµÐ½ Ð³Ñĸ
ĠÐºÐ°Ð¶Ð´ Ð¾Ð³Ð¾
ĠÐ¿ÑĢÐµÐ´ ÐµÐ»
ĠÐ¾ÑĤÐ½Ð¾ÑĪÐµÐ½ Ð¸Ð¹
6 9
ĠÑĪ Ð°ÒĽÑĭ
ĠÑĪ Ò±
ĠÐ± ÑĥÐº
Ð»Ð°Ð´Ñĭ Ð²
Ġ ).
Ð¿ ÑĢÐ¸
ĠÓ©ÑĤ ÐµÑĤÑĸÐ½
Ð» Ð½
ĠÒĽÑĭÐ·Ð¼ÐµÑĤÐºÐµÑĢ Ð»ÐµÑĢÑĸ
ĠÑı Ð´
ĠÐ½ Ó©Ð¼ÑĸÑĢ
l o
Ġin t
ĠÐ¼ÐµÐ¶Ð´ÑĥÐ½Ð°ÑĢÐ¾Ð´ Ð½ÑĭÑħ
ĠÐ´Ð¾Ð¼ Ð¾Ð²
ĠÐĸÐ°Ð¼Ð±ÑĭÐ» ÑģÐºÐ¾Ð¹
ĠÐºÑĥÐ»ÑĮÑĤ ÑĥÑĢ
ĠÐ´Ò¯Ð½Ð¸Ðµ Ð³Ðµ
ĠÐºÐ¾ÑĢÐ¾Ð½Ð°Ð²Ð¸ÑĢÑĥÑģ Ð¾Ð¼
ĠÒĵÐ°ÑģÑĭÑĢ Ð´ÑĭÒ£
ĠÐ² ÑĭÐ»
ĠÐ¿ÑıÑĤ Ð¸
ĠÐ¼ Ð°Ð»ÑĮ
ÑĤÐµÐ½ ÑĪÐµ
ĠÐ¸ÑģÐ¿Ð¾Ð»ÑĮÐ· Ð¾Ð²Ð°ÑĤÑĮ
ĠÑĤÓĻÑĢÑĤÑĸ Ð±
Ð¸Ñı Ñħ
ĠÐ¿Ð°Ð¼ ÑıÑĤ
ĠÐ¸ÑĤÐ¾ Ð³Ðµ
ĠÐ¾ÑĤ ÑĢÐ°Ñģ
Ð° Ð¸Ð»
ĠÐ¿ÑĢÐ¾Ð¹ Ð´ÐµÑĤ
ĠÑĢÐ°Ð±Ð¾ÑĤÐ° ÑİÑĤ
Ð¼Ð¾Ð» Ð°
ĠÐ³Ð°Ð· Ð°
ĠÓĺ Ð»ÐµÐ¼
ĠÐ±ÑĸÑĢ Ð»ÑĸÐº
ĠÐ²Ðº Ð»Ð°Ð´
Ð°Ñĥ Ð°Ð¿
ÑĪÐµÑĤ Ð°Ñĥ
Ð³ Ð°Ð·
ĠÐ¡ÐµÐ¼ ÐµÐ¹
ĠÐ¿ÑĢÐ¸Ð½ Ð°Ð´Ð»ÐµÐ¶
Ñħ Ñĥ
ÐºÐ° Ñĩ
ĠÐļ ÐµÐ·
ĠÐ» ÑĮ
ĠÐķ ÐĲ
ÑĦ Ð¸ÑĢ
ĠÐ¸Ð½Ð´Ñĥ ÑģÑĤÑĢÐ¸
Ð¾Ñĩ Ð½ÑĭÐ¹
ĠÐ½Ð¸Ðº ÑĤÐ¾
ĠÑĭ Ð´Ñĭ
Ð¾ÑĤ Ñĥ
ĠÐµÐ¼ Ð´ÐµÑĥ
ĠÐ±Ó©Ð» ÑĸÐº
ĠÐº Ð°Ð»
ĠÐ´ÐµÐ½ ÑģÐ°Ñĥ
ĠÐ¸Ð½ ÑĤÐµÐ³ÑĢÐ°
ĠÐ¿Ð¾Ð·Ð²Ð¾Ð» Ð¸ÑĤ
ÑĪ ÑĥÑİ
ĠÒļ Ð¾ÑģÑĤÐ°Ð½Ð°Ð¹
ĠÐ´Ð¾ÐºÑĥÐ¼ÐµÐ½ ÑĤÐ¾Ð²
ur l
ĠÐ° ÑģÑĤÐ°Ð½
ĠÐ±Ð°Ñģ ÑĭÐ»ÑĭÐ¼
ĠÑĥÐ¼ÐµÐ½ ÑĮ
Ð¶Ðµ Ð³Ð¾Ð´
ĠÐ½ÐµÐ´ Ð¾ÑģÑĤÐ°ÑĤ
Ð´ Ð¾Ð»Ð¶
ĠÑĢÐµ ÐºÐ¾ÑĢ
ĠÐºÑĸ ÑĪÑĸ
Ð² Ð¸Ð´
ĠÐ³ Ð¸Ð±
Ñī Ð¸Ð¹
ĠÐ°ÑĢÒĽ Ð°ÑģÑĭÐ½Ð´Ð°
ÑĢÐ¾ ÑĤ
Ð¾Ñģ Ð½Ð¾Ð²
ĠÐºÐµÐ·ÐµÒ£ Ð´Ðµ
ĠÑģ Ð¸Ð¼Ð¿
) :
ĠÐ¿ Ð°Ð½
ĠÑģÑĤÑĢÑĥ ÐºÑĤ
z akon
ĠÑģ Ðµ
ĠÐ¸Ð³ ÑĢÐ°
Ġ5 5
ĠÐ£ Ñĩ
ÐµÐ½ Ð½ÑĭÐ¼Ð¸
ĠÐ¼ÓĻÑģÐµÐ» ÐµÑģÑĸ
ĠÑģÐ¾Ð² ÐµÑĤÐ°
ĠÐ¿Ð¾Ð·Ð²Ð¾Ð» ÑıÐµÑĤ
Ò± Ð·
ĠÑģÐ°Ð¿ Ð°ÑģÑĭÐ½
Ñħ Ð¾Ð·
i Ñģ
ÐºÐµÐ» Ð³ÐµÐ½
ĠÐ±ÑİÐ´Ð¶ÐµÑĤ Ð°
Ð± ÑĥÑĢÐ³
ĠÑģÑĢÐ°Ð² Ð½ÐµÐ½Ð¸Ñİ
ĠÐ¶ÓĻ ÑĢÐ´ÐµÐ¼
ÑĢ Ð°Ð»Ð°
Ð»ÑĭÒĵ ÑĭÐ½Ð°
ĠÐ´ Ð¾Ð·
ĠÑĢÐ° ÑĥÐ½
Ð°Òĵ Ð´Ð°ÑĢ
C ode
ÑĭÐ¼ Ð°
ĠÑħÐ¸Ð¼ Ð¸ÑıÐ»ÑĭÒĽ
Ġ$ ('
ĠÐ½Ðµ Ð³Ðµ
ĠÐºÐ¾Ð» Ð»ÐµÐºÑĤÐ¸Ð²
ĠÐ´ÐµÐ¿ Ð¾Ð·
ĠÐºÐ¸Ð» Ð¾Ð³
t ag
ĠÑĤÐ°Ðº Ð¾Ð³Ð¾
ĠÐ¼ Ð°ÒĵÐ°Ð½
ĠÐ¢ÑĥÑĢ ÑĨÐ¸Ð¸
ĠÐ¨ ÐĸÒļ
ĠÑĥÑĩ Ð°ÑģÑĤÐ¸
ĠÐµ Ð¶
ĠÐº ÑĢÐ°Ð¹
ĠÐ¿ÑĥÑĤ Ð¸
ĠÐľ Ñĥ
ĠÐľ ÑĥÑħ
ĠÑģÐ¾ÑģÑĤÐ°Ð² Ð¸Ð»Ð°
ĠÐ°Òĵ ÑĭÐ»
a le
ĠÑĥÑģÐ¿ ÐµÑħ
ĠÐ¾Ð± ÑģÐ»ÑĥÐ¶
ĠÑģÐ¾ ÑģÐµÐ´
ĠÐ½ÐµÑģÐºÐ¾Ð»ÑĮ ÐºÐ¸Ñħ
ĠÐ°Ð½Ð°Ð» Ð¸ÑĤ
ĠÑģÑĤÑĥ Ð´ÐµÐ½
ĠÐ°Ð½ÑĭÒĽ ÑĤÐ°Ð»Ð°Ð´Ñĭ
ĠÐ¶ÐµÐ½Ñī Ð¸Ð½Ñĭ
Ò±ÑĢ ÑĭÐ½
ĠÐ°Ð¹ÑĭÑĢ Ð¼Ð°
Ð¾Ð¼ ÐµÑĤÑĢ
ĠÑĤÐµÐ»Ðµ ÑĦ
ĠÒĽÐ°Ð½ ÑĪÐ°
ĠÑģÐ°Ð¿ Ð°Ð»Ñĭ
Ġ7 5
ÑĢÑĥ ÐµÑĤ
ĠÐ¼ Ð¾Ð´ÐµÑĢ
ĠÐ¶Ò¯ÑĢÐ³ÑĸÐ· ÑĸÐ»ÐµÐ´Ñĸ
ĠÑģÑĤÐ¾Ð» Ðº
ĠÒĽÐ°Ð¹ ÑĢÐ°ÑĤ
ĠÐ¿Ð»Ð°ÑĤ ÐµÐ¶
adfox Code
ĠÐ³ÑĢÑĥÐ¿ Ð¿Ð°
Ġcontain erId
Ġown erId
ĠÐ±Ð¾Ð»Ð¼ Ð°ÑģÐ°
en c
ÑĢ ÑĭÑĤÑĮ
ĠÐ¼ Ð°Ðº
ation s
ĠÑģ Ð¼ÐµÑĢ
ĠÑĦÐ¾ÑĤÐ¾ Ð³ÑĢÐ°ÑĦ
ĠÐ·Ð½Ð°Ñĩ ÐµÐ½Ð¸Ðµ
ĠÐ± ÐµÐ½
ĠÐ°Ð» Ð°ÑģÑĭÐ·
ĠÐ¾ÑĤ Ð¿
ul l
ĠÐ²Ð·Ð° Ð¸Ð¼
ĠÐŀÒĽ Ñĥ
ĠÐ¿ Ð°Ðº
ĠÐ¿Ð¾Ð´ ÑĢÐ°Ð·
ĠÐ¸ÑģÐ¿ Ð¾Ð»Ð½Ð¸ÑĤÐµÐ»ÑĮ
ĠÒĽÐ°Ð» Ð´ÑĭÑĢ
ĠÐ¼Ð¾Ð½Ð¸ÑĤÐ¾ÑĢ Ð¸Ð½Ð³
ÐµÐ³ÐµÐ½ Ð¼ÐµÐ½
ĠÐ³ ÑĢÐ°Ð¼
ĠÒĽÐ°Ð·Ð°ÒĽ ÑĤÑĭÒ£
ĠÐļ Ð¾Ð´
ĠÐ¿ÑĢÐ¾Ð¸Ð·Ð¾ÑĪ ÐµÐ»
Ð°Ð»Ð¸Ð· Ð°ÑĨÐ¸Ð¸
an ce
ĠÐ°ÑģÑĭÑĢ ÑĭÐ»Ð°Ð´Ñĭ
Ð¸Ðº Ð¾
ĠÑĥÑģÐ»Ð¾Ð² Ð¸Ð¹
Ð´Ñĭ ÒĵÑĭÐ½Ð°
ĠÒĽÐ°Ð» Ð°Ð´Ñĭ
ĠÐ±Ò± Ð¹ÑĢ
ĠÐľ Ð°Ñħ
e ch
ĠÐ±Ó©Ð» ÑĪÐµÐº
ĠÒĽÒ±ÑĢÐ°Ð¼ Ñĭ
ĠÐ±Ð°ÑģÑĤÐ°Ð¿ ÒĽÑĭ
ĠÐ½Ð°ÑĢ Ð¾Ð´Ð°
ÑĥÑİÑī Ð¸Ð¹
ĠÒļÐ°Ð·Ð°ÒĽÑģÑĤÐ°Ð½ Ð´Ð°ÒĵÑĭ
ÑĤ ÑĸÐ»ÑĸÐ³Ñĸ
ĠÒ® Ð¹
ĠÐ¸Ð½Ð´ Ð¸Ð²Ð¸Ð´Ñĥ
ĠÑģ Ð¾Ð½
ĠÐ¿Ð¾Ð² ÑĤÐ¾ÑĢ
ĠÐ½Ðµ Ð³
ĠÐŁ Ð¾Ð¼
ĠÐ¶Ò¯ Ð»
Ð´ Ð¾ÑĢÐ¾Ð¶
ĠÐ¿ÐµÑĢ ÐµÐº
ĠÐ¾ÑĤÐº ÑĢÑĭÐ»
C ont
ĠÐ°Ð·Ð°Ð¼ Ð°ÑĤ
g y
T I
ĠÐºÐ¾Ð¼Ð¸ÑģÑģ Ð¸Ð¸
ÑĢ Ñİ
G R
Ð¸ÑĤ ÑĭÐ½
ĠÒĽÐ°Ñĥ Ð»
ĠÑģÐ¾Ð¾Ð±Ñī Ð°Ð»Ð¾ÑģÑĮ
ÑĨ ÐµÐ¼
ĠÑĤÐ°Òĵ Ð°Ð¼
ĠÑĤÒ±ÑĢ ÑĭÐ¿
ĠÐºÐ¾Ð´ ÐµÐºÑģ
ĠÐ¾ ÑĦÐ¾ÑĢÐ¼
ĠÐ¼ÐµÑģÑĤ Ð°Ð¼Ð¸
ÐĳÐ°ÑĢ ÑĭÑģ
ĠÑģÑĤÑĢÑĥ ÐºÑĤÑĥ
ĠÐ¿ÐµÑĢ ÐµÐ¿
ĠÐ¿ÑĢÐµÐ´Ð¿ÑĢÐ¸ÑıÑĤ Ð¸Ð¹
20 21
ĠÐ¿ÑĢÐ¸Ð· Ð½Ð°Ðº
ÑĦ Ð°
ĠÑĤÐ°ÑĢ Ð¼Ð°ÒĽ
ĠÐ± Ñİ
ĠI I
ĠÐ» Ð¾Ðº
ĠÐ¿ÐµÑĢ ÐµÑĩ
ĠÑģÐ¾ÑĢ ÐµÐ²Ð½Ð¾Ð²
Ð¸ Ð½Ð¾Ð¹
ÑĸÑĢ ÑĸÐ¿
Ð± Ð¸Ð½
Ðŀ Ð¡
ĠÐ² Ð¸Ð½Ð¾Ð²
ĠÑĢÐ°Ñģ ÑĩÐµÑĤ
ĠÐ¾ÑĤ ÑĩÐµÑĤ
ĠÐ¶Ð¾Ð» Ð´Ð°
ĠÐ¡Ð¾Ð» ÑĤÒ¯ÑģÑĤÑĸÐº
ÐĲ Ð²
ĠÑĥÐ°ÒĽÑĭ ÑĤÑĭ
ĠÑĤÐ°Ð» ÒĽ
ĠÑģÐ°Ð¼ Ð¾Ð¼
ĠÐļ Ð¾
ĠÑģÐ¾ ÐºÑĢÐ°ÑĤ
ĠÐ¾ÑĤÑĭ ÑĢÐ°Ð´Ñĭ
ÑİÑī Ð¸Ð¼
ĠÓĻÐ´Ñĸ ÑģÑĤÐµÐ¼ÐµÐ»ÑĸÐº
ĠÐ¿ÑĢÐ°Ð² Ð¾Ð¾ÑħÑĢÐ°Ð½
Ò± ÑĢÐ°ÒĽ
ĠÐĺ ÑģÑĤ
Òļ Ðļ
ĠÑģÐ¾ÑĨÐ¸Ð°Ð»ÑĮ Ð½Ð¾
ĠÐ²Ð¾Ð·ÑĢÐ° ÑģÑĤ
ĠÑį Ð¼Ð¾
ÑĦÐ¸ÐºÐ° ÑĨÐ¸Ð¸
ĠÐ¾Ð±ÑıÐ· Ð°Ð½
ĠÐ¿ÑĢÐ¸Ð· Ð½Ð°Ð»
Ð¶ ÐµÐ½Ð¸Ð¸
Ð»Ð°ÑĢ Ð´Ð°
ĠÐ³ ÑĥÐ¼Ð°Ð½
ĠÐ¿ÑĢÐ¾ÑĨ ÐµÐ½ÑĤÐ°
Ð¸Ð» ÐµÑĤ
Ð´Ð°Ð¼ Ð¸
ĠÐºÐ¾ÑĢÐ¿ Ð¾ÑĢÐ°
ĠÒĽÐ°ÑĢÐ°Ð¼Ð° ÑģÑĤÐ°Ð½
ĠÐ¿ÑĢÐ¾Ð² ÐµÐ»
ĠÐ¿ÓĻÐ½ Ñĸ
ĠÐ¶Ð°Ð· ÑĭÐ¿
ĠÐĲÐ» ÑĤÑĭÐ½
ÑĤÑĭ Ðµ
Ñģ Ð°Ð¼
ÐµÐ· Ð´Ðµ
Ð¸Ð½ ÑģÐºÐ¸Ð¹
ĠÐ°Ð»ÒĵÐ°Ð½ Ð´Ð°
ĠÐ±ÐµÑĢ ÑĸÐ»Ð´Ñĸ
A d
ÑĸÐ» Ñĥ
ĠÐ¶Ó©Ð½ Ð´ÐµÑĥ
ÑĪ ÑĸÐ»Ñĸ
am p
end er
ĠÐ¾ÑģÐ½Ð¾Ð² Ð½Ð¾Ð¼
Ð¾Ð³ÑĢÐ°ÑĦ Ð¸ÑıÐ»ÑĭÒĽ
ÒĽÐ°ÑĪ Ð°Ð½
ÐºÑĸÐ» ÐµÑĤÑĤÑĸ
Ð» Ð°ÑĤÑĭ
ÑĥÑĪ ÑĭÑģÑĭ
Ð°Òĵ ÑĭÐ½Ð°
Ġ ðŁ
ĠÐ·Ð°Ð¿ ÑĢÐµÑī
4 6
ĠÐµÑĤÑĥ Ð³Ðµ
ĠÐ¾Ð±ÐµÑģÐ¿ÐµÑĩ Ð¸ÑĤÑĮ
ĠÐ¾ÑĤÐ² ÐµÑĩ
ÑĨÐ¸Ð¾Ð½ Ð½ÑĭÐ¹
ĠÐºÒ¯ Ð·
ĠÐ´ÐµÐ» Ðµ
Ð¸Ð» Ñı
ĠÓ©Ð½ ÑĸÐ¼Ð´Ñĸ
% )
ÐºÑĤ Ð¾ÑĢ
ĠÐ¿ÑĢÐµÐ·Ð¸Ð´ÐµÐ½ ÑĤÑĸ
ĠÑĤÒ¯Ñģ ÑĸÐ¿
ĠÐĲÐ² ÑĤÐ¾ÑĢ
Ð¶ ÐµÐ½Ð¸Ðµ
ĠÑĨ ÐµÐ»ÑıÑħ
ÐµÐ½Ð¸Ñı Ð¼Ð¸
ĠÐ¶Ð°ÒĵÐ´Ð°Ð¹Ð»Ð°ÑĢ Ð´Ð°
ĠÐ¿ÑĢÐ¾Ð¸Ñģ ÑĪÐµ
ĠÐ´Ð°Ñĥ ÑĭÑģ
ĠÐŀ ÑģÑĭÐ»Ð°Ð¹
Ñģ ÑĭÒ£
ĠÐĴ Ð¾ÑĤ
ĠÐ²Ð¾Ð·Ð´Ñĥ ÑħÐ°
ht ml
ĠÐ¶Ð°Ò£ ÒĵÑĭ
ĠÐ¼Ð°ÑĤ ÑĩÐµ
ĠÐ±Ð°Òĵ Ð°ÑģÑĭ
ĠÐĲÑĥ ÑĭÐ»
ÐµÑĢ Ð±Ð°Ð¹
ĠÐ¿ÑĢÐ¾ÑĦÐµÑģÑģ Ð¾ÑĢ
ĠÐļÓ© Ðº
ĠÑĦ Ð¸Ð³
ĠÐ¶Ð¾Ð» Ð´Ð°ÑĢÑĭ
ĠÐ¿ÑĢÐ¾Ð²Ð¾Ð´ Ð¸ÑĤÑģÑı
ĠÑĤÐµÒ£Ð³Ðµ Ð³Ðµ
ĠÐ´ÐµÐ» Ñĥ
ĠÐ²ÐµÐ´ ÑĮ
Ñģ Ð°Ð¹
ĠÑĢÐµÐ·ÑĥÐ»ÑĮÑĤ Ð°ÑĤÑĭ
ĠÐ¶Ð°ÑĢ ÑĤÑĭ
ĠÐĳ Ð¾ÑĢ
Ð¸ÑĤÐµÐ»ÑĮ Ð½Ð¾Ðµ
Ð» ÐµÑģÑĤ
ĠÑĤÑĥ ÑĭÐ½Ð´Ñĭ
ĠÐ¶ ÐµÑĢÑĤÐ²
Ð´Ðµ ÑĥÐ³Ðµ
ÒĽ Ð¸Ð¼ÑĭÐ»
Ð´ ÑĭÐ½
ĠÐ¼Ð¾Ð³ Ð»Ð¸
ĠÐ¼Ò±ÒĵÐ°Ð» ÑĸÐ¼
ĠÑĤÐ¾ÒĽ ÑĤÐ°ÑĤ
ĠÐĺ ÑĤÐ°Ð»
ÑĢ Ð»ÑĭÒĽ
ĠÐ¡ Ð°Ð¹
ĠÐ²Ð¾Ð·Ð¼Ð¾Ð¶ Ð½Ð¾
Ð¿ Ð¸Ñı
Ð¾Ñĩ Ð½Ð¾Ð³Ð¾
ĠÐĺÐ½ÑĤÐµÑĢ Ð½ÐµÑĤ
ĠÑģÐµÐ³Ð¾Ð´Ð½ÑıÑĪ Ð½Ð¸Ð¹
ĠÑĤÐ¾Ð¿ Ð»Ð¸Ð²
Ð¹ ÑĤÐ¸
ÑĦÐ¸Ðº Ñģ
ĠÑģÐ¸ÑĤÑĥ Ð°ÑĨÐ¸Ñİ
ĠÐ¸Ð½ÑĦÑĢÐ° ÑģÑĤÑĢÑĥÐºÑĤ
ĠÑģÐ°Ð¼ Ð¾Ðµ
ĠÐ¿ÑĢÐ¾ ÑģÑĤÑĢÐ°Ð½
ĠÑĤÒ±Ð¶ÑĭÑĢ ÑĭÐ¼
ĠÐµÑģÐµÐ¿ ÑĤÐµÑĥ
ĠÐ± ÑĥÐ¼Ð°
ĠÐ´ÑĢÑĥÐ· ÑĮÑı
Ġht tp
Ð¿ Ð°Ð½Ð¸Ð¸
ĠÐ±ÐµÐ»Ð³ ÑĸÐ»ÐµÑĢ
Ð¿ ÑĤ
ĠÐĲ Ð³ÐµÐ½ÑĤ
ĠÐ±Ð¾Ðº Ñģ
ĠÐ¡ ÑĤÐ¾
ÑĪ ÑĸÐ»
ĠÐ¿ Ð°ÑĢÐ°
ÑĦ Ð¾ÑĤÐ¾
Ðļ Ð°Ðº
ÒĽÐ°ÑĤÑĭÐ½ Ð°Ñģ
ĠÐ¸Ð³ ÑĢÑĭ
________ ________
ĠÐ¿ Ð¸
ÐµÑĢ Ð±
ĠÐ¶Ò¯ ÑĢÐµ
ĠÐ±Ó©Ð» Ñĥ
ĠÑį Ð²
ĠÑĤÑĸÑĢ ÑĪÑĸÐ»ÑĸÐº
ÐµÑĤ Ñĥ
Ð¸Ð½ ÑģÐºÐ°Ñı
ĠÑħ ÑĥÐ´
ÐĨ Ðļ
ĠÐºÓ©ÑĢ ÑĸÐ½ÐµÐ´Ñĸ
Ġ4 7
ĠÐŁÐµÑĤ ÑĢÐ¾Ð¿Ð°Ð²Ð»
ĠÐ·Ð°Ð²Ð¸Ñģ Ð¸Ð¼Ð¾ÑģÑĤÐ¸
ĠÐ¿ Ð¸Ñī
Ġwh ich
ĠÑģÐ¼ÐµÑĢ ÑĤÐ¸
ĠÐºÑĸÑĤÐ°Ð¿ ÑħÐ°Ð½
ĠÐº ÑĥÐ±
en s
ĠÑĢÐµÐ¹ÑĤ Ð¸Ð½Ð³
ĠÐ½Ð¸ Ð¶Ðµ
ÑĤÐµÑħ Ð½Ð¸ÐºÐ°Ð»ÑĭÒĽ
ĠÑĢÐ¾Ð´ ÑģÑĤÐ²ÐµÐ½
Ð»Ñı ÑİÑĤÑģÑı
ĠÐ°Ð¹ÑĤ ÑĭÐ»ÒĵÐ°Ð½
Ð¸Ñĩ Ð½Ð¾
ĠÐ¶ÐµÐ» ÑĸÐ»ÐµÑĢ
ĠÑĤÑĢÐ°Ð½ÑģÐ¿ Ð¾ÑĢÑĤÐ°
ĠÐĨ ÑĪ
ĠÐ²Ð¾ ÐµÐ½Ð½Ð¾
Ñĩ ÑĮ
ĠÐ¾ÑĤ Ð´Ñĭ
ĠÐ¾Ð±Ð»Ð°ÑģÑĤ ÑıÑħ
ĠÐ°ÑĪ Ñĥ
ĠÐ¾Ð¿ÐµÑĢ Ð°ÑĤÐ¾ÑĢ
ĠÐľ Ð°Ñģ
ĠÐ¼Ð¸Ð½Ð¸ÑģÑĤ ÑĢÐ°
â Ħĸ
ĠÐºÒ¯ ÑĢÐµ
ĠÐ¼ Ð¾Ð½Ð¾
c ent
ĠÐ¼ ÐµÑĩ
ĠÑĪ Ð°Ñħ
Ð¸Ð· Ð½ÐµÑģ
ĠÑĦÐ¾ÑĢ ÑĥÐ¼
Ð»Ð°Ð½ Ð°
ĠÐµÑĢÑĸ ÑĤÑĸÐ½Ð´Ñĸ
ĠÐ½Ð¾ÑĢÐ¼ Ð°ÑĤÐ¸Ð²
ĠÐ½ÓĻÑĢ ÑģÐµ
Ñĩ Ð¸ÐºÐ¾Ð²
ĠÐ¢Ð°ÑĢ Ð°Ð·
ĠÐ¿Ð°ÑĢÐ°ÒĽ ÑĪ
ÒĽ Ð°Ð±
ĠÑĩÐµÑĤÑĭ ÑĢÐµÑħ
ĠÐ´Ð¸ ÑĢÐµÐº
Ð´Ð°Ð½ Ð´ÑĭÑĢÑĥ
ÑĢÐµÐ¼ÐµÐ½ Ð½Ð¾
ĠÐĶ Ð¾Ñģ
ÐµÑĢ Ñĥ
Ġ$(' #
ÑĤÐµÑħ Ð½
ĠÐºÐ¾Ð¼Ð¸ÑĤÐµÑĤ Ð°
ĠÓĺ Ð´Ñĸ
ÐºÐ¾Ð² Ð°
ĠÑģ Ð¼ÐµÐ½
ĠÐºÐµÐ¿ ÑĸÐ»
ĠÐ°Ð¿ ÑĤÐ°
Ð¾Ð½ Ð°ÑĢ
Ðº Ð»ÑİÑĩ
ĠÐŁ Ð°Ð¹
ĠÑģÐ°Ð½ Ð°Ð»Ð°Ð´Ñĭ
Ð»ÐµÑĢ ÑĸÐ½
ĠÐ³Ð»Ð°Ð² Ð½ÑĭÐ¹
ĠÐ¸Ð¼ Ð¿
ĠÐ±Ð°Ð»Ð°Ð»Ð°ÑĢ ÒĵÐ°
ĠÐ½ ÑĭÒĵ
ĠÐ¶Ð°ÑĤÑĤÑĭ ÒĵÑĥ
um ber
ĠÐ¿Ð°Ð¹ Ð´Ð°Ð»Ñĭ
ĠÐ½ÐµÐ¸Ð· Ð²ÐµÑģÑĤ
Ð½Ð°Ð» Ð´ÑĭÒĽ
ĠÐļÑĭÑĢÐ³ÑĭÐ· ÑģÑĤÐ°Ð½Ð°
ĠÒĽÒ±ÒĽÑĭ ÒĵÑĭ
Ð¸ ÑĢÐ°
ĠÓ© Ð»ÑĸÐ¼
ĠÐ°ÐºÐ¸Ð¼ Ð°ÑĤÐ°
ĠÐĲ Ð¹ÑĤ
ĠÑģÐ°Ð¼ Ð¾ÑģÑĤÐ¾ÑıÑĤÐµÐ»ÑĮ
ĠÐ´ Ð½Ð¸
ĠÐµÑĪ ÐºÑĸÐ¼
ĠÐºÐ² Ð°Ð»Ð¸
ÑĤ Ð°Ð¹ÑĤÑĭÐ½
ĠÐ¶Ð°Ð· ÒĵÐ°Ð½
ro up
ĠÐ· Ð½Ð°ÐºÐ¾Ð¼
d ate
O N
ĠÑģÐµÐ½ ÑĸÐ¼Ð´Ñĸ
ĠÐ± Ð¾Ð³
ÑģÑĤÐ¾ ÑıÑĤÐµÐ»ÑĮ
ĠÐ¼ÐµÑĢÐ· ÑĸÐ¼Ð´Ñĸ
Ġâ Ĩ
ĠÐ±ÐµÐºÑĸÑĤ ÑĸÐ»Ð³ÐµÐ½
ĠÐ¶Ð°Ð» ÒĵÑĭÐ·
ĠÑĤÒ±Ð»Òĵ Ð°Ð»Ð°ÑĢ
ĠÐĵÐ¾Ð»Ð¾Ð² ÐºÐ¸Ð½
ĠÐ´ÐµÐ¹ÑģÑĤÐ² Ð¸Ð¹
Ð»Ð°Ð³Ð¾ Ð´Ð°ÑĢ
ÑĤÐ°ÑĢ ÑĭÐ½Ð´Ð°
stan a
ĠÐ²ÐµÐ´Ð¾Ð¼ ÑģÑĤÐ²Ð°
Ðŀ ÑĤ
Ñģ Ð°Ò£
Ġ100 0
ĠÑĤ ÑĥÑĤ
ĠÑĢÐµÐ³Ð¸ Ð¾Ð½Ð¾Ð²
ĠÑĪÐ°Ð¼ Ð°Ð¼ÐµÐ½
ĠÐµÑĢ ÑĤÐµ
Ðķ ÑĢ
ĠÐĵÐ¾Ñģ ÑĥÐ´Ð°ÑĢ
ĠÑĤÑĥ ÑĢÐ¸
Ð¸Ðº Ð°ÑģÑĭ
ĠÐŁ Ð¾ÑĢ
Â» :
on g
ĠÐºÐµÑĤ ÐµÐ¹ÑĸÐº
ĠÐ½Ð°Ð¿ÑĢÐ°Ð² Ð»ÐµÐ½Ð¸Ñı
ĠÐ¿Ð¾ Ð¸ÑģÐº
ĠÑĦÐ°Ðº ÑĤÑĥ
Ð½Ð¾Ð² ÑĮ
ĠÓĻ ÑģÐºÐµÑĢ
ĠÐ¼Ð°ÑĢ Ð°Ð¿Ð°ÑĤ
it e
ĠÐºÐ¾Ð½Ñģ ÑĥÐ»ÑĮ
ÒĽÑĭÐ· Ñĭ
ĠÐ¾ ÑģÐ°Ð´
ÑĥÐ± ÐµÐ¶
ÑĥÑħ Ð³Ð°Ð»
ĠÐºÐ°Ñģ Ð°ÐµÑĤÑģÑı
Ð°ÐµÑĤ Ðµ
u g
Ð½ Ð¸Ñģ
ĠÐ·ÐµÐ¹Ð½ÐµÑĤ Ð°ÒĽÑĭ
ĠÑĥÐ»Ð¸ÑĨ Ðµ
Ġ Ñī
ÐµÐº ÑĤÐµÑĢ
ĠÑĢÐ°Ð±Ð¾Ñĩ Ð¸Ñħ
ĠÒĽÒ±ÑĢÐ°Ð¼ ÑĭÐ½Ð´Ð°
ĠÐĺ Ð¼
ĠÑģÐ¾ÑģÑĤÐ°Ð² Ðµ
Ð±ÐµÑĢ Ð³ÐµÐ½
Ð»Ð¸ ÑĪ
ÑĩÐ¸ Ð½Ð¾Ð¹
ĠÐ¼Ð°ÑĤÐµÑĢÐ¸ Ð°Ð»Ð´ÑĭÒĽ
ĠÐķÐ²ÑĢÐ¾ Ð¿Ñĭ
Òĵ Ò±ÑĢ
Ð¾Ñģ Ñĭ
Ð´ÑĭÒĽ ÒĽÐ°
ÑĢÐ¸ ÑĩÐµÑģÐº
ĠÐ²Ð¾ Ð¾Ð±ÑīÐµ
ĠÐ¿ÑĢÐ¸Ð½ ÑıÑĤÑĮ
ateg ory
Ð»Ð°ÑĢ ÑĭÐ½Ð°
Ð² Ð¾ÑģÑĤ
ĠÐºÐ¾Ð½ÑĨ ÐµÑĢÑĤ
ÑģÑĤÐ²ÐµÐ½ Ð½Ð¾Ðµ
Ñģ ÐµÑĢÑĸ
Ð´ÐµÑĢ Ð´Ðµ
Ð± Ð¸Ð»
Ð´ Ð¾Ð¼
Ð½ÐµÐ¼ Ñĥ
ĠÐ¢ Ð¾Ð¿
ĠÐ°Ñĥ Ð¼Ð°ÒĵÑĭÐ½Ð´Ð°
ÐµÑĩ Ð°ÑĤ
Ð´Ðµ Ð²
ĠÐ¿ÑĢÐ¸Ð½Ñı Ð»
Ð¾Ð² Ð¸Ñĩ
ĠÐ¿ÑĢÐµÑģÑĤÑĥÐ¿ Ð»ÐµÐ½Ð¸Ñı
as h
or s
ÑİÑī ÐµÐ¹
ĠÐµ Ðº
ĠÑĤÒ¯ÑģÑĸÐ½ Ð´ÑĸÑĢÑĥ
ĠÐ¿Ð¾Ð´Ð´ÐµÑĢÐ¶ ÐºÐ¸
ĠÐ¾Ð¿ ÑĤÐ¸Ð¼
Ðĺ Ð¢ÐĲ
Ð±Ñĸ ÑĤ
ÑĪÐ¸Ñħ ÑģÑı
ĠÑĤÓ© Ð»ÐµÑĥ
ĠÐŁ Ð¾Ð·
ĠÑģÑĩÐ¸ÑĤ Ð°ÑİÑĤ
Ð¾ÑĤÐ¾ Ð¹
ÑĥÐ´Ðµ Ð±
ĠÐ» Ð¸Ð¼
Ð» ÐµÐ²
ĠÑĢÐ°Ð±Ð¾ÑĤ Ð½Ð¸ÐºÐ¾Ð²
ĠÐ¶ÐµÑĤ ÑĤÑĸ
ĠÐºÐ» Ð¸Ð¼
ÑĤÐµ Ð·
ĠÐ¿Ð¾Ð´Ð´ÐµÑĢÐ¶ ÐºÑĥ
ĠÒĽÒ± ÑĤÑĤÑĭÒĽ
Ð´ Ð¶
ĠÑģ Ñİ
Ð°Ñĥ Ð¸
ĠÐĴ Ð°Ð»
Ð¾ÑĢ Ð²
ĠÐŀÑĢ Ð³Ð°Ð½
ÑĢ ÐµÐ»ÑĮ
ĠÑģÑĤÐ°ÑĤÑĮ Ð¸
Ð¸ÑĢÑĥ ÐµÑĤÑģÑı
ĠÐ¶Ð°ÑĥÐ°Ð¿ÐºÐµÑĢ ÑĪÑĸÐ»ÑĸÐº
Ð¼ÐµÑĤ Ð¸Ð¼
ĠÐĺ ÑĢ
ĠÐ¿ÑĢÐ¸Ð½Ñı Ð»Ð¸
ĠÐ¸ÑģÐ¿Ð¾Ð»ÑĮÐ· Ð¾Ð²Ð°Ð½Ð¸Ñı
Ð°Ñı ÑģÐ¸
ub e
ĠÐ±Ð» Ð¾Ð³
ĠÐ¿Ð¾Ð»ÑĥÑĩ ÐµÐ½Ð¸Ñı
Ġw ill
sh ow
ĠÒĽÐ°ÑĤÑĭÑģ ÑĥÑĪÑĭÐ»Ð°ÑĢ
ĠÐ¼ÐµÑĢÐ· ÑĸÐ¼Ñĸ
ent s
ĠÐ¼ Ð°Ð»Ñĭ
10 9
ÐĿ Ð°Ð·Ð°ÑĢÐ±Ð°ÐµÐ²
ĠÐ±Ò± ÒĵÐ°Ð½
Ð¸Ð½ Ð³Ðµ
Ð¸Ñı Ð¼Ð¸
ĠÐ´Ð² Ð¸Ð³
ĠÑĤÑĭÑĢ ÑĭÑģ
ĠÐ¼ Ð¸ÑĤ
ĠÐ¶Ð°ÑĥÐ°Ð¿ ÑĤÑĭ
ĠÐ¾ Ð²
ĠÐĴ ÐµÐ´
ÓĻÑĢ Ð±Ð¸Ðµ
ĠÐ±ÐµÑĢ Ðµ
ÑĭÑģÑĤÐ°ÑĢ Ð´ÑĭÒ£
ĠÐł Ð¸Ñģ
ĠÑģÐ¾Ð²Ð¼ÐµÑģÑĤ Ð½Ð¾
ÑĤ ÑĸÐ·
Ð»Ð¸ ÑĨÐ°
ĠÐ» ÐµÑģ
ĠÐ±Ð¾Ð»ÒĵÐ°Ð½ Ð´ÑĭÒĽÑĤÐ°Ð½
ĠÑĪÑĭÒĵ Ñĥ
ĠÐ½ÐµÑģ Ð¸Ðµ
ĠA n
ÐºÑĤ ÐµÐ½
ĠÑģÐ¸ÑģÑĤÐµÐ¼ Ñĥ
ĠÒļ Ð¾Ñģ
ÐĨ ÐĽ
ĠÐ° Ð¶ÑĭÑĢ
ĠÒĽÒ± ÑĢÐ°Ð´Ñĭ
ĠÑģ Ð°Ð¼Ð¸
Ġ &
ĠÑģÐ¾ ÒĽ
E lement
ĠÑĤÐ°Ñĥ ÑĭÐ¿
ev el
ĠÐ´Ð¾Ð»Ð»Ð°ÑĢ Ð°
Òĵ ÑĭÐ½Ð°Ð½
Ð´ Ð¾ÑĢÐ¾Ð²
Ð°Ð¼ ÐµÐ´
ĠÐ¿Ð¾ Ð³Ð¾
ĠÐ¿ÑĢÐ¾ ÑĤÑı
ĠÑģÐ°Ð» Ð´Ð°ÑĢÑĭÐ½Ð°Ð½
Ò° Ð»
ĠÓĻ Ðº
ĠÐ°ÑĢÐ°Ð» Ð°Ñģ
ÑĤÒ¯ Ð»ÑĸÐº
ÐĲ Ð£
ĠÐ² Ð¾Ð²
ĠÐ£ Ðļ
ÑĭÐ² Ð°Ñı
ĠÒ¯Ð½ÐµÐ¼ Ñĸ
ĠÐ±Ò± Ð¹ÑĭÐ¼
ĠÐļÐ¾ÑģÑĤÐ°Ð½Ð°Ð¹ ÑģÐºÐ¾Ð¹
Ð¶ ÐµÐ¹
Ð´Ð°Ð½ Ñĥ
Ð´Ð°Ð» Ð´Ñĭ
ĠÐĸ Ð°Ð¿
Ġ4 00
ĠÐ°ÑĥÐ´ Ð¸ÑĤ
ĠÒĽÒ± Ð±ÑĭÑĢ
ĠÐĲÐ± Ð´
ĠÐ¼ÓĻ ÑģÐ»
ĠÐ¾ÑģÑĤ Ð°ÐµÑĤÑģÑı
ĠÐĿ Ð¸
ĠÐŁÐ°Ð²Ð»Ð¾Ð´Ð°ÑĢ ÑģÐºÐ¾Ð¹
ĠÐ°Ð± ÑģÐ¾Ð»ÑİÑĤ
ol og
ĠÐ°Ð» ÐºÐ¾Ð³
ĠÐ° ÑĥÐ»
b ox
Ð±Ð°Ð½ Ðº
ĠÐŀÑģÑĭ ÒĵÐ°Ð½
Ñģ ÑĭÐ»ÑĭÒĽ
ĠÐ¼ Ð³
ĠÐĶÐµ Ð¿Ð°ÑĢÑĤÐ°Ð¼
Ð°Ðº Ð°
ĠÑĢÐ°ÑģÑģ ÑĩÐ¸ÑĤ
ĠÑĤÒ± Ð·
ĠÑĥÑĩ Ð¸ÑĤ
ĠÐ½ÐµÐ³ÑĸÐ· Ñĸ
ĠÒĽÑĭÐ· ÑĭÐ»
ĠÐ±Ð°ÑģÑĤ Ð°Ð»Ð´Ñĭ
Ð¼ Ð¸ÑĢ
ĠÐºÐ°Ð½ Ð°Ð»
ĠÐ² Ð½Ð¾Ð²ÑĮ
ĠÒĽÐ°Ð¹ ÑĤÑĭÑģ
ĠÐĹ Ð´ÐµÑģÑĮ
ĠÐĳÒ± ÒĵÐ°Ð½
Ġ all
yst em
ĠÑģÐ¸Ð» Ñĭ
4 4
ĠÒĽÐ¾Ð¹ ÑĭÐ»ÒĵÐ°Ð½
ĠÐ´ Ó©
ĠÑĪ Ð°ÑĢÐ°
Ð°Ð´ ÑĢÐ°ÑĤ
ĠÐ¸Ð½Ð²ÐµÑģÑĤÐ¸ ÑĨÐ¸Ð¹
ĠÐł Ð¾Ð´
o y
ĠÑģÐ¼Ð¾Ð³ ÑĥÑĤ
Ð°ÑĤ Ð°ÑĢ
ĠÐ±Ò±ÑĢ ÑĭÑĪ
ĠÐºÐ»ÑĥÐ± Ð°
ĠÐ¿Ð¾Ð´ ÐµÐ»
Ð·Ð² ÑĥÑĩ
Ġw as
ĠÐķÐ² ÑĢÐ°Ð·
Ð¼ÐµÑĤ ÑĮ
ĠÒĽÒ±ÑĢÑĭÐ»ÑĭÐ¼ Ñĭ
Ð» ÑĥÐ¶
ĠÑĢÐµ Ð³
ÐºÑĸÑĢ ÑĤ
ĠÒĽÑĭÐ¼ Ð±Ð°ÑĤ
ĠÐ¶Ð°Ð· Ð±Ð°
ĠÐ¿Ð°ÑĢ Ð»Ð°Ð¼ÐµÐ½ÑĤ
ĠÑĤÐ°Ð½ÑĭÐ¼ Ð°Ð»
ÑĢÐµ Ð·Ð¸Ð´ÐµÐ½ÑĤ
ĠÐ´ÓĻ ÑĥÑĸÑĢ
ĠÐĸ ÐµÐ½
Ġ4 9
ĠÒĽÐ¾Ñģ Ñĥ
ĠÐ¸Ð½ÑĤÐµÑĢÐµÑģ Ð½Ð¾
ĠÐ» Ð°Ð±Ð¾ÑĢÐ°ÑĤÐ¾ÑĢ
Ð»ÐµÑĤ Ð½ÐµÐ³Ð¾
ĠÐ¿ÑĢÐµÐ´ÑĥÐ¿ ÑĢÐµÐ¶
ÑĭÑģÑĤ Ð°ÒĵÑĭ
ĠÑģÐ°Ð¼ Ð¾Ð»
ĠÓĻÐ´ÐµÐ±Ð¸ ÐµÑĤÑĸ
Ð´Ð°Ð½ ÑĭÒ£
ÑģÐ¿ ÑĸÑĢ
ĠÑĤÑĢÐ°Ð½ Ð·
ĠÑĤÐµÐ» ÐµÐ²
ĠÐ¿ÑĢÐ¾ÑĦ Ð¸Ð»Ð°ÐºÑĤ
ÑĢ Ð¸Ñı
Ð± ÑĥÑĢ
Ð´Ð°ÑĢ ÑĭÐ¼ÐµÐ½
ĠÑģÐ¸Ð¼ Ð²Ð¾Ð»
Ð¸Ð» Ð»
ĠÑĩÐ¸Ñģ Ð»Ð°
ÐºÑĤ ÐµÐ¼
ÑĪ Ð°Ð¼Ð°
1 00
Ðĳ Ð°Ð¹
ĠW B
ÑģÑĤÐ²ÐµÐ½ Ð½Ð°Ñı
ĠÒ¯ Ð½
ĠÐ¿ ÐµÐ²
ĠÐ·Ð´Ð¾ÑĢÐ¾Ð² ÑĮÑı
ĠÐºÐµÐ·ÐµÒ£ Ñĸ
ĠÑģÐ¿ ÑĢÐ¾Ñģ
ĠÐ½ÐµÐ¾Ð±ÑħÐ¾Ð´ Ð¸Ð¼Ð¾ÑģÑĤÐ¸
ÑĤ ÐµÑģ
ĠÐ¶ÑĭÐ» Ð´Ð°
ĠÐº ÐµÑĢÑĸ
ĠÓ©ÑĢ ÐºÐµÐ½
ĠÐ¶Ð¸Ð»ÑĮ Ñı
ÑĥÑħÐ³Ð°Ð» ÑĤÐµÑĢ
ĠÑĦÐ°Ðº ÑĥÐ»ÑĮÑĤ
Ð°Ð¼Ð± ÐµÑĤÐ¾Ð²
Ð¸ÑĢÑĥ ÑĢÐ³
ĠÐ¿Ð¾ ÐµÐ·Ð´
Ñĩ ÐµÐ½ÐºÐ¾
ĠÐ§ ÐµÐ¼
ĠÐ½Ðµ Ð²
evel op
Ðľ Ðľ
ĠÐ°ÒĵÑĭÐ» ÑĪÑĭÐ½
ĠÑħÐ°Ð» ÒĽÑĭ
ĠÐ´Ð¾Ð¼ Ð°ÑĪ
ĠÑģÐµÐ· ÑĸÐ¼
ĠÑĤÓ© ÑĢ
ÑıÑī Ð¸Ñħ
ĠÐºÐ°Ð·Ð°ÑħÑģÑĤÐ°Ð½ ÑģÐºÐ¾Ð³Ð¾
Ð¿ ÐµÐ¹
ĠÐ¾Ð» Ð¸Ð¼Ð¿Ð¸
ĠÒ® ÑĪ
Ð°Ð½ Ð½ÑĭÑħ
ÑĢÑı Ð·
ĠÐĵ Ð¾ÑĢ
ĠÑįÐºÑģÐ¿ÐµÑĢÑĤ Ð¸Ð·
ĠÐ±Ð°ÑģÑĪ ÑĭÑģÑĭÐ½ÑĭÒ£
Ð¸ÑģÑĤ Ð°
Ðº ÑĢÐµÐ´Ð¸ÑĤ
ĠÑĤ ÑĢÐµÑĤ
Ñĥ ÑģÐ»Ð¾Ð²
ĠÐµ ÑģÐºÐµ
ĠÑĤÐµÑħÐ½ Ð¾Ð»Ð¾Ð³Ð¸ÑıÐ»ÑĭÒĽ
ĠÐ¢ Ò¯
ĠÐ¥ Ð¾ÑĤ
ĠÐ±Ó©Ð» ÑĸÐ¿
ĠÐ·Ð° ÑĦÐ¸ÐºÑģ
ĠÐ½Ò±ÑģÒĽ Ð°Ñĥ
ĠÐ¿ÑĢÐ¸ ÑģÑĥÑĤ
n ur
ĠÐĸÐ¾Òĵ Ð°ÑĢÑĭ
ÒĽ ÑĤ
ĠÑĸÑģÑĤ ÐµÐ¹Ð´Ñĸ
ĠÐĿÐ°Ð·Ð°ÑĢÐ±Ð°ÐµÐ² Ð°
ĠÑģÑĥÐ± ÑģÐ¸Ð´
Ġ ÑĸÑģÑĸ
ĠÐ± ÐµÐ½Ð·
Ð¸Ð½ÑĤÐµÑĢ ÐµÑģ
ĠÑģÐ¾Ò£ ÑĭÐ½Ð´Ð°
ĠÐ½Ð° ÑĪÐµÐ³Ð¾
4 2
................................ ................................
ĠÐ°Ðº ÑĨÐ¸Ñı
ĠÐ± Ð¾ÑģÑĤÐ°Ð½
ĠÐĿÐ¸Ðº Ð¾Ð»
ĠÐ²Ñģ Ñİ
ĠÐ¶Ð°ÑĤ Ð°ÑĤÑĭÐ½
y m
ĠÐ¡ÑĢÐµÐ´ Ð¸
ĠÑĤÐµ Ð¿Ð»
ÑĤÐ° ÑĨÐ¸Ñı
ĠÐ½ÑĭÐ½ ÐµÑĪ
ÐµÐº Ð¾Ð¼
ĠÑĤÒ¯ Ð¿
ĠÐĳ Ð°Ðº
Ð°Ð» Ð°Ð¿
ĠÐ¶Ò±Ð¼ÑĭÑģ Ð¿ÐµÐ½
ĠÐºÐ¸ ÑĸÐ¼
ĠÐ¶Ð°Ñģ ÒĽÐ°
ĠÐ¾Ð±Ñī ÐµÐ¹
ĠÑĦÐ¾ÑĢÐ¼ ÑĥÐ»
5 6
ĠÐ¼Ð¾Ð´ÐµÑĢ Ð½Ð¸Ð·
ĠÐ¸ ÑģÐ»Ð°Ð¼
ĠÐ¿ÑĢÐ¾Ð¸Ð· Ð²ÐµÐ´
ĠÐ½ÐµÐ´ ÐµÐ»Ñİ
ĠÐ¾ Ð¶
ĠÐ¿ÑĢÐ¸Ðµ Ñħ
ĠÒļ Ð°Ð»
ĠÑģÐ°ÒĽ ÑĤÐ°Ð»
ĠÐ²Ð¸Ð´ Ð¾Ð²
en g
ĠÐ± ÑĥÑĭÐ½
ĠÐ½ÐµÑģ Ð¼Ð¾ÑĤÑĢÑı
ic s
i x
ĠÐ¼Ð°Ð·Ð¼Ò± Ð½Ñĭ
ĠÒĽÑĭÑģ ÑĭÐ¼
Ð· Ðµ
ĠÐ¸Ð· Ð¾Ð±
ĠÐ¸Ð· ÑĬ
ĠÐ¢ÑĥÑĢÐºÐµÑģÑĤÐ°Ð½ ÑģÐºÐ¾Ð¹
ĠÐŀÑĢ ÑĤÐ°
ÐµÐ½ ÑĤÐµ
ĠÑģÐ°Ð»ÑĭÑģÑĤÑĭÑĢ ÒĵÐ°Ð½Ð´Ð°
Ġ200 6
ĠÐ°ÑĤÐ° ÑĥÑĭ
ĠÑģÑĤ ÐµÐ½
ĠÑĥÑĩÐ°ÑģÑĤÐ¸ ÐµÐ¼
ĠÑģÐ¾ ÒĵÑĭÑģ
ĠÐ² Ð¿
Ð¾ÑĢ Ðµ
Ðº ÑĢÐ°Ñģ
Ðĸ Ðķ
ir st
ĠÐľÓĻÑģ ÐµÐ»ÐµÐ½
ÑĢÑĥ ÑİÑĤ
ĠÐ¿ÑĢÐ¾Ð¸Ð·Ð²Ð¾Ð´ ÑģÑĤÐ²Ð¾
ÒĽÒ± Ð¶Ð°ÑĤ
ĠÐĴ Ð¸Ðº
ĠÐ²Ð°Ð¶ Ð½Ð¾
ĠÐ½Ð°Ñĥ ÐºÐ¸
ĠÐ´Ð¸ Ð°Ð»Ð¾Ð³
ĠÑĢÐµÐ°Ðº ÑĨÐ¸Ñı
ĠÑģÑĤÐ¾Ð» Ð¸Ñĩ
ĠÐŃÑĤÐ¾ ÑĤ
Ðŀ Ð±
Ð¡ Ð°Ð±Ð°ÒĽÑĤÑĭÒ£
ĠÒĽÒ±ÑĢ Ð°Ð»Ñĭ
ĠÐºÐ¾Ð¼Ð¿Ð¾Ð½ ÐµÐ½ÑĤ
Ð¾ÑĢ Ñĥ
ĠÒĽÐ¾Ð¹ Ð´Ñĭ
Ð¾Ð± ÑĢÐ¸ÑĤ
ĠÐ¡ ÑĥÐ´
ĠÐľÐ¾ÑģÐº Ð²Ðµ
5 7
ÑĢÐ° ÑģÑĤ
Ð°ÒĽ ÑĭÐ¼
ÐµÐ¼ ÐµÑĤ
ĠÐ¶Ð°ÑĢ Ð°ÒĽ
ĠÐ¢ ÑĸÐ»
ĠÐ´Ð°Ð¼ÑĭÑĤÑĥ ÒĵÐ°
ĠÐĳ ÑĭÐ»
ĠÐºÓ© Ð±Ñĸ
ÑĢÐ¾Ð¿ ÐµÐ¹
ĠT witter
ÐĿ Ðŀ
ĠÐľ ÐµÐ½ÑĸÒ£
ĠÑĢÐ¾ Ð¼Ð°Ð½
ĠÑĤÒ±ÑĢÒĵÑĭ Ð´Ð°Ð½
ĠÐ½Ðµ Ð´Ð°Ð²
Ġ( Â«
Ð¸Ð² ÑĤÑĸ
ĠÐ± Ð°ÐºÑĤÐµÑĢ
00 26
Ñĥ Ð°Ð½
ĠÐ·Ð°Ð² ÐµÐ´
ĠÐ¿Ð¾Ð±ÐµÐ´ Ñĥ
Ġp art
ĠÐ¸Ð· Ð´ÐµÐ»
ĠÐ¿ÑĢÐ°Ð² Ð»ÐµÐ½Ð¸Ñı
Ð°Ð» ÑĥÑĭ
ĠÐ´Ð°Ð¹ÑĭÐ½ Ð´ÑĭÒĽ
ĠÑĢÐ°ÑģÐ¿ ÑĢÐµÐ´ÐµÐ»
ĠÐ°ÐºÑĤÐ¸Ð² Ð½Ð¾
ĠÑģÐ¿ ÐµÐºÑĤ
Ð¿ Ð¾
Ð°ÐµÐ¼ Ð¾Ð³Ð¾
ĠÐºÐ¾Ð½ÐºÑĥÑĢ ÐµÐ½
ĠÐ´Ð¸Ð°Ð³ Ð½Ð¾ÑģÑĤ
ĠÐ¿ÑĢÐ¾Ð¼ÑĭÑĪÐ»ÐµÐ½ Ð½Ð¾ÑģÑĤÐ¸
ĠÑĥÑģÑĤ Ð¾Ð¹ÑĩÐ¸Ð²
ÑĭÑģÑĤÐ°ÑĢ Ð´Ñĭ
Ð¾Ðº Ð¾Ð¹
ĠÐ½ ÐµÐ»ÑĮÐ·Ñı
ĠÒ± Ñı
ĠÐ´Ð¾Ð»Ð¶ Ð½Ð¾ÑģÑĤÐ¸
Ð°ÑĢ Ð°Ð±Ð¸
ĠÑĤÓĻÑĥÐµÐ» Ð´Ñĸ
ĠÐĶÐµÐ½ ÑģÐ°ÑĥÐ»ÑĭÒĽ
Ġ( +
ĠÑĪ ÐµÑģÑĤÑĮ
Ð¾ÑĢ Ð´Ð¸Ð½
in k
ĠÐ²ÑĤÐ¾ÑĢ Ð¾Ð³Ð¾
c ategory
ĠÐļ ÑĢÐ°Ñģ
Ñĩ ÐµÑĢ
Ð» ÑģÑı
ĠÐ²Ð¾Ð¿ÑĢÐ¾Ñģ Ð¾Ð²
ĠÐ¾Ð± ÐµÑī
ĠÑĤÐ¾Ñĩ ÐºÐ¸
ĠÐ° Ð¼Ð°Ð½
ĠÐ¼ ÑĥÑģ
ĠÐ´Ð¾ ÑħÐ¾Ð´
ĠÐ½Ð° ÐºÐ¾Ð¿
Ð¾Ð½ Ñĥ
ÑĪ i
Ð°Ð½ Ð½ÑĭÐµ
ĠÐ½Ð° Ð´ÐµÐ¶
Ð¸Ð» Ð¸Ð·
ĠÐ¼ÐµÑģÑĤ Ð½ÑĭÑħ
ÑĪ Ð°ÑĢÑĤ
ĠÐĲÐº ÑĤÐ¾Ð±Ðµ
ĠÐ´Ð¸ ÑģÑĤÐ°Ð½
ĠÐ¿ ÑĸÑĪ
ĠÐ¼Ò¯ÑĪ ÐµÑģÑĸ
Ð¸ÑĢÐ¾Ð² ÐºÐ¸
Ġh as
Ð¾Ð² Ð¾Ðµ
Ð»ÐµÑĤ Ð²Ð¾ÑĢ
Ð´Ñĭ Ð´Ñĥ
ÑĢÐ¸ Ð¾ÑĤ
ĠÐ¾Ð¿ Ð¿Ð¾Ð·Ð¸
ĠÐ³Ð¾Ð²Ð¾ÑĢ Ð¸ÑĤÑĮ
ĠÒĽÐ¾Ð»Ð´Ð°Ð½ ÑĭÑģÒĽÐ°
ÑģÐµÑĢ Ð²
ĠÐ· Ð¸Ð¼
ĠÑģÐ¾ ÐµÐ´Ð¸Ð½
ÐºÐ°Ð½ Ð°Ð»Ðµ
04 22
ĠÐµ Ð³
Ñĩ Ð¸ÐºÐ°
ĠÑĢÐµ Ð±
ĠÐĳ Ð¾Ð»ÑĮÑĪ
ĠÐ¿ Ðµ
ĠÐ¿ÑĢÐ¸Ð½Ñı ÑĤÐ¾
ĠÐºÐ¾Ñģ Ð¼
ĠÐ¡ Ð¿Ð¾ÑĢÑĤ
201 5
dis able
Ðł Ðŀ
ĠÐ± Ð¾
ÑĪÑĭÐ» Ð°ÑĢÑĭ
ex clude
ĠÐĲÐºÑĤÑİÐ± Ð¸Ð½ÑģÐºÐ¾Ð¹
ĠÐ°Ð´ ÑĢÐµÑģ
ÑıÑĤ Ð¸Ðµ
Ñį Ð¿
ĠÓĻÐ´Ñĸ ÑģÑĤÐµÑĢÑĸ
ĠÐ¸Ð¼ Ð¼ÑĥÐ½
ĠÑħ Ð¾Ðº
ĠÑĤÐµÑħÐ½ Ð¾Ð»Ð¾Ð³Ð¸Ð¸
ĠÑģÓ©Ð¹ Ð»ÐµÐ¼
ĠÐ¾ÑģÐ½Ð¾Ð² Ð½ÑĭÑħ
Ð»Ð¸ Ð±Ð¾
ÐµÐ½ Ð½ÑĥÑİ
ĠÐ·Ð°Ðº Ð¾Ð½Ñĩ
ĠÐ¢ Ð°Ð¹
ĠÐĲ ÐĽ
ĠÓ©Ð·Ð³ÐµÑĢ ÑĤÑĥ
ĠÐ±ÐµÐ»Ð³ÑĸÐ» ÐµÑĢÑĸ
Ñĥ Ð°ÑĪ
Ó© ÑģÐ¿ÑĸÑĢ
ÑĭÐ¼ÑĭÐ· ÒĵÐ°
ĠÑģÐ°Ð¹ ÑĤÑĭ
ĠÑĢÑĥ Ñħ
ĠÒĽ Ð°ÒĽ
ÐĳÒ¯ Ð³ÑĸÐ½
ĠÐ¼Ò± ÑģÑĭÐ»Ð¼Ð°Ð½
n er
Ñī ÐµÐ½Ð¸Ñı
ĠÐ½Ð°Ð¹ ÑĤÐ¸
ĠÐ²Ñĭ Ð²
ĠÐºÑĢÑĥÐ¿ Ð½ÐµÐ¹
Ġd is
ĠÐºÒ¯ Ð¼
ÐµÐ´ i
Ð°ÑĢÑĤ ÑĭÐ»Ð°Ð¹
Ñĩ Ð°Ð½
ĠÐ²Ð»Ð° ÑģÑĤ
ĠÐ¼Ð°ÑģÑĪ ÑĤÐ°Ð±
m at
ĠÐĶ Ð°ÑĢ
ĠÒĽÐ¾Ð»Ð´Ð°Ð½ ÑĭÐ»Ð°ÑĤÑĭÐ½
ĠÓĻ Ð»ÐµÑĥ
Ð¾Ð² Ð¾ÑĢÑĭ
ĠÐ£ Ð¿ÑĢÐ°Ð²
ĠÐ½ÐµÐ³ÑĸÐ· Ð´ÐµÐ»Ð³ÐµÐ½
ĠÐ¿ÑĢÐµ Ð¸Ð¼
ĠÐ½Ðµ Ð²Ð¾Ð·
ÑĪ Ð°ÑģÑĭ
ĠÐ´ Ð°Ð»Ð°
Ñį Ð½ÐµÑĢÐ³
ĠÐ¶Ð°ÒĽÑģÐ°ÑĢ ÑĤÑĥ
ĠÑĦÑĢÐ°Ð½ ÑĨÑĥÐ·
ĠÑģÐµÐ¼ ÑĮÑı
ÑĢÐ°ÒĽ Ò±ÑĢÑĭÐ»ÑĭÐ¼
Ð´ÐµÐ½ Ð¸
ĠÐ¿ÑĢÐ¸Ð¼ÐµÑĢ Ð½Ð¾
Ð°ÐµÐ¼ ÑĭÐµ
ĠÐĶ ÐµÐ³ÐµÐ½Ð¼ÐµÐ½
ĠÐ¼Ò±ÒĵÐ°Ð» ÑĸÐ¼Ð´ÐµÑĢ
ĠÐ·Ð°Ð¿ Ð¸Ñģ
ĠÐ²ÐµÑĢ Ñħ
ĠÐ°Ð» ÒĵÐ°
ĠÐŀÑĤ Ð¼ÐµÑĤÐ¸Ð¼
Ġc an
ĠÐĿÐ°ÑĨÐ¸Ð¾Ð½Ð°Ð»ÑĮ Ð½Ð¾Ð³Ð¾
ĠÐ¾ÑģÐ²Ð¾Ð± Ð¾Ð¶
ĠÐ´Ð² ÑĥÐ¼
ĠÐ°Ð»Ð¼ Ð°ÑĤÐ¸Ð½
ĠÑĤÒ±ÑĢ Ð¼
ÑĥÐ» Ð¾Ð²
o us
ĠÐ·Ð°ÑıÐ² Ð»ÐµÐ½Ð¸Ðµ
ĠÐ±ÐµÐ¹ ÑĸÐ¼
ĠÑįÐºÐ¾Ð½Ð¾Ð¼ Ð¸ÑĩÐµÑģÐºÐ¾Ð³Ð¾
ĠÐ½Ð°ÑĪ Ð»Ð¸
ÐĸÐ°Ò£ Ð°
ĠÐ½ÐµÐ´ ÐµÐ»Ð¸
ĠÐºÓ©Ð· Ð´ÐµÐ»Ð³ÐµÐ½
Ġm e
Ġp r
ĠÓĻÐ» Ð´Ðµ
Ġ0 8
ĠÑį ÑģÑĤ
Ð°ÑĤ ÑĭÐ¿
ĠÐĵÐµÑĢ Ð¼Ð°Ð½Ð¸Ñı
ĠÐ±Ð¸Ð·Ð½ÐµÑģ Ð¼ÐµÐ½
ĠÐºÒ¯Ð½ Ð½ÐµÐ½
Ð°Ð»Ð¸Ð· Ð¸ÑĢÐ¾Ð²Ð°Ð½
ÐµÑĤ ÐµÐ½
Ð¾Ð² ÑĥÑİ
Ġ4 6
ĠÑĢÐ°Ð´Ð¸ Ð¾
ĠÐ¶ÐµÐ¼ÒĽÐ¾ÑĢÐ»ÑĭÒĽ ÒĽÐ°
ĠÑģ Ò±Ð»
Ñģ Ð¾ÑĢ
ĠÐ¿Ð»Ð¾ Ñħ
Ðķ Ò£
ĠÑĤÑĢ Ð»Ð½
ÑĥÑĪ ÑĸÐ½ÑĸÒ£
ĠÐºÓ©ÑĢ Ð¼
ĠÐ± Ð°ÑıÐ½
Ð¸Ð» Ð¾ÑĤ
ĠÐºÑĢÑĥÐ¿ Ð½ÑĭÑħ
Ñĩ Ñĥ
ĠÐ½Ð¸Ðº Ð¾Ð³Ð´Ð°
ĠÑģÑĸÐ· Ð´ÑĸÒ£
ĠÐºÐ°Ð·Ð°ÑħÑģÑĤÐ°Ð½ ÑģÐºÐ¾Ð¹
ion s
ĠÑģÐ¸Ð³ Ð½Ð°Ð»
ĠÑĤÐ°Ð¿ ÒĽÐ°Ð½
ĠÑģÑĥÐ´ ÑĮ
ĠÐĲÐº ÑĤÐ°Ñĥ
ĠÐµÑĢÐµÐºÑĪÐµÐ»ÑĸÐº ÑĤÐµÑĢÑĸ
Ð¸ÑĢÑĥ ÑİÑĤ
ĠÑģÐ¾Ð· Ð´Ð°ÑĤÑĮ
Ð°ÑĤÐµÐ»ÑĮ Ð½ÑĭÑħ
ÐµÐ»Ðµ Ð³ÐµÐ½
ĠÐĴ Ð°Ð¼
Ð¸ÑģÑĤ ÑĸÐº
ÑĢÐ¾Ð² Ð¾Ð´
ĠÒĽÐ¾ÑĢÑĭÑĤÑĭÐ½Ð´Ñĭ ÑģÑĭ
Ġ4 2
in t
ĠÐ¾ÑĤ ÐºÐ°Ð·Ð°Ð»
Ð· Ð¸Ñı
Ð´Ð° ÐµÐ¼
Ð° ÑīÐµ
ĠÐĲ ÑĤÐ°
ĠÐ²ÐµÑīÐµ ÑģÑĤÐ²
ĠÐºÐµÐ·Ð´ÐµÑģ Ñĥ
ĠÑĤ Ð°Ð½Ñĭ
ĠÐ´ÐµÑĢ Ð¶
ĠÐ½ÐµÑĦ ÑĤÑĮ
ĠZ akon
ĠÐºÓ©ÑĢÑģÐµÑĤ ÑĤÑĸ
Ġ, ,
ÑĤÐ° ÑĨÐ¸Ð¸
ail y
ĠÐ²Ð½ÑĥÑĤ ÑĢÐ¸
ĠÐºÒ¯Ð½ ÑĸÐ½Ðµ
ĠÑĤÐ¾Ð¿ ÒĽÐ°
Ð»Ðµ Ð³ÐµÐ½
ĠÐ²Ð¾Ð´ Ð¸ÑĤÐµÐ»ÑĮ
ĠÐ±Ò±Ð· ÑĥÑĪÑĭÐ»ÑĭÒĽ
Ð»Ð°Ð´ ÐµÐ»ÑĮ
ĠÐ½Ð°ÑĢ ÐºÐ¾ÑĤ
ĠÐºÐ¾ÑĢÐ¾Ð½Ð°Ð²Ð¸ÑĢÑĥÑģ Ð½Ð¾Ð¹
ĠÐ¿ÑĢÐ¾ÑĪ ÐµÐ´
ÒĽ Ð°Ñĥ
ĠÐ²ÑĤÐ¾ÑĢ Ð¾Ð¼
ĠÐ½ÐµÐ³ÑĸÐ· ÑĸÐ½ÐµÐ½
ĠÐ¼ÐµÐ´Ð¸ÑĨ Ð¸Ð½Ð°
ĠÒĽÐ°Ð½ Ð°ÒĵÐ°ÑĤ
Ðº Ó©
20 19
ĠÑĤÑĸÑĢÐºÐµÐ» Ð³ÐµÐ½
ĠÓ©Ð» ÑĪÐµ
ĠÑĤÓĻÑĢ ÑĸÐ·Ð´Ñĸ
ĠÑĪ ÑĭÑĢ
ĠÐ²ÐµÐ´ ÑĥÑī
ĠÑĤÑĢÐ°Ð½ÑģÐ¿ Ð¾ÑĢ
ĠÑģÐ°Ð» Ð°ÑģÑĭ
ĠÑĤÐ°Ð» ÒĽÑĭÐ»
ĠÐ¡ Ð°
ro ll
ĠÑĥÐ½Ð¸Ð²ÐµÑĢÑģÐ¸ÑĤÐµÑĤ Ñĸ
ĠÑĥÐ°ÒĽÑĭÑĤ ÑĪÐ°
he n
ĠÐ§ ÐĺÐ¢ÐĲ
ĠÒĽ Ð°Ð¿
er m
Ð¾Ð» Ð¸ÑĤ
ĠÐĴ Ð¸Ð´Ðµ
ĠÐ¿ÑĢÐ¾ ÑħÐ¾Ð´Ð¸ÑĤ
ĠÑĤÑĢÐµÐ½ ÐµÑĢ
ĠÐ¾ÑĤÐ¼ÐµÑĩ Ð°ÐµÑĤ
ĠÒ±ÑģÑĤ Ð°Ð¿
ĠÑĤÐ¾ÑĢÐ³Ð¾Ð² Ð»Ð¸
ĠÐļ Ð°Ð¶
ĠÐŁ ÑĥÐ±Ð»Ð¸Ðº
Ò¯ Ð½Ð¸Ðµ
Ðļ Ð°Ð¹ÑĢÐ°ÑĤ
ÒĽ Ñĥ
ĠÓ¨ Ð½
er v
ĠÐ¼ÐµÑĢ Ðµ
t r
ÑĥÐ» ÑĸÐº
ĠÑģÒ±ÑĢÐ°ÒĽ ÑĤÐ°ÑĢ
Ð»ÐµÑĢ Ð´Ñĸ
ĠÑĤÐ¾Ð» ÑĭÒĽÑĤÑĭÑĢÑĥ
ĠÑĤÐµÑħÐ½Ð¾Ð»Ð¾Ð³ Ð¸Ð¹
ĠÐ¿Ð°ÑĨÐ¸ ÐµÐ½ÑĤÐ¾Ð²
Ð¾ÑĤ ÑĢÐµÐ±
ĠÐ·Ð°ÑĢ ÑĥÐ±ÐµÐ¶
ĠÒĽÐ°Ð»ÑĭÐ¿ ÑĤÑĭ
ĠÐºÐ¾Ð½ ÑģÑĤÑĢÑĥ
ĠÐ¿Ð¾Ð»ÑĥÑĩ Ð°ÑĤÑĮ
ĠÐ¿ÑĢÐ¾Ð¸Ñģ ÑħÐ¾Ð´
Ð³ Ð¸Ð½
ĠÑģÐ¿Ð¸Ñģ Ð¾Ðº
ĠÐ¾ÑĢÑĤÐ°Ð»Ñĭ ÒĵÑĭÐ½ÑĭÒ£
Ñ ŀ
ĠÑĦ Ð¾Ð½Ðµ
ĠÐ¾ÑĤÐ´ÐµÐ» Ð°
ĠÑĥ Ñħ
Ð»Ð°Ñģ Ñģ
ĠÐ¶ÐµÐ» Ñĸ
Ð¼Ð°Ð½ Ð¾Ð²
ĠÐ¿ÑĢÐµÐ´ÑģÑĤÐ°Ð² Ð¸ÑĤÐµÐ»ÐµÐ¹
5 9
ÑĸÑģ ÑĸÐ½Ðµ
ĠÐ± ÐµÐ´
ĠÐºÐµÐ´ÐµÑĢ Ð³Ñĸ
Ð¸Ð² Ð°Ð½Ð¸Ðµ
ĠÐĳÐ¾Ð» ÐµÐµ
ĠÐ±Ð¾ÑĢÑĮ Ð±Ðµ
ĠÐ½ Ð¾Ð³
ĠÑı ÑĢ
ĠÐ¢Ð°ÑĢ Ð¸Ñħ
ÑĢÐµ ÑĨ
ĠÐ¶Ð¾ÑģÐ¿Ð°ÑĢ Ð»Ð°Ñĥ
ĠÑģ Ð¸Ñħ
ĠÐļ Ð¾Ðº
ĠÓĻÐ·ÑĸÑĢ Ð»ÐµÑĥ
Òĵ Ð°Ð¼Ð±
al t
ĠÐĴ ÑģÐµÐ¼
ĠÒĽÐ¾ÒĵÐ°Ð¼ Ð½ÑĭÒ£
Ð¾ÑĢ Ð¸ÑĤÐµÑĤ
ĠÐŃ ÑĤÐ¸
ĠÐ´Ð¸Ð· Ð°Ð¹
ĠÐ¿Ð¾Ñģ Ð²
Ð¼ Ð°Ñĥ
ĠÒĽÐ¾Ð¹ ÑĭÐ¿
Ð» ÑĥÐ±
ĠÐĳ Ó©Ð»
ĠÐ¶Ð°Ò£ÒĵÑĭ ÑĢÑĥ
Ð« Ðł
ĠÒ¯ÑĪ iÐ½
ĠÐ²ÐºÐ»ÑİÑĩ Ð°Ñı
ĠÑģÐµÑĢ Ð´
ĠÓ©Ð· Ð´ÐµÑĢÑĸÐ½ÑĸÒ£
ĠÑģ Ð°Òĵ
ĠÑģÐµÑĢÐ² Ð¸Ñģ
ĠÐ±Ð¾Ð»Ð¶ Ð°Ð¼
ĠÐĵ Ðµ
ĠÐµ Ð¶ÐµÐ³Ð¾Ð´
Ðĳ Ðł
ĠÐ¼Ð¸Ð»Ð»Ð¸Ð°ÑĢ Ð´
ĠÒĽÐ°ÑģÐ¸ ÐµÑĤÑĤÐµÑĢ
ĠÑĪÐµÐº Ð°ÑĢ
Ð¸Ñı Ð»Ð°ÑĢ
ĠÐĿ ÓĻ
ĠÐ¶Ð¾Ð» Ð°Ñĥ
ĠÑģÑĤ Ð°ÑĨÐ¸Ð¾Ð½
Ð¾Ò£ ÑĭÑĢ
ĠÑģÐ²Ð¸Ð´ÐµÑĤ ÐµÐ»ÑĮ
ĠÑĢÐµÐ¶Ð¸Ð¼ Ðµ
7 0
Ð°Ð»ÑĮ Ð´Ñĭ
ĠÐ¿ÑĢÐµÐ´ÑĥÑģ Ð¼Ð°ÑĤÑĢÐ¸Ð²
ĠÑĭÐ½ÑĤÑĭÐ¼Ð°ÒĽÑĤÐ° ÑģÑĤÑĭÒĽ
ot t
ĠÐľ Ð¾Ð½
ĠÐ§ÑĤÐ¾ Ð±Ñĭ
ĠÐĲ Ð»Ð°ÑĪ
ÑıÑģ ÑĮ
ĠÐ± Ð°Ð»ÑĭÒĽ
ÐŁ Ðļ
Ð°ÐµÐ¼ ÑĭÐ¹
f t
ĠÐĲÐ½Ð´ ÑĢÐµÐ¹
ÑĤÐ¸ Ð¶Ðµ
ÐµÐ· Ð¾Ð²
ĠÐ±Ð°ÒĵÐ´Ð°ÑĢÐ»Ð°Ð¼ Ð°
ÑĤ ÑĤÑĭ
Ð· Ð°Ð»
ÑģÐµ Ð¿
ĠÐ·Ð°Ð´ÐµÑĢÐ¶ Ð°Ð»Ð¸
ĠÑĢÐµ Ð¿
Ð¿ Ð¾Ñĩ
ĠÐ°Ð¹Ð½Ð°Ð» ÑĭÐ¼
Ð¾Ð²Ð°Ð½ Ð¾
Cont ext
ĠÐµÑģÐµÐ± ÑĸÐ½ÐµÐ½
ĠÐ¸Ñģ ÑħÐ¾Ð´
ĠÐ¾Ð±ÑĬÐµÐºÑĤ ÑĸÐ»ÐµÑĢ
ĠÑĤÐµÑħ Ð½Ð¸ÐºÐ¸
ÑĸÐ¼ÑĸÐ· Ð´Ðµ
ĠÑģÑĤ Ð°Ð´
ĠÑįÐ² Ð°ÐºÑĥ
ĠÐ·Ð°ÑıÐ² Ð¸Ð»Ð¸
Ð· ÑĭÑĢ
Ñĸ ÑģÐºÐµ
ĠÐ¡ Ð¾Ð½Ð´Ð°
ĠÐ¢ ÐĲÐļ
ÑĥÐ´ Ð¸Ð»Ð¸
ĠÑİ Ð¶
ĠÐ¿ÑĢÐ¾Ð´ÑĥÐºÑĤ Ð¾Ð²
Ðķ ÐĴ
ph one
ĠÐĲÐ»ÐµÐºÑģ ÐµÐ¹
ÑĪ ÑĭÐ½ÑĭÒ£
ĠÐ¼ÑĥÐ· ÐµÐ¹
Ð°Ñĥ Ð»Ñĭ
ĠÐĺ Ñħ
Ð¾Ñĩ Ð½ÑĭÐµ
ÑģÑĤÑĭ ÑĢÐ°Ð´Ñĭ
ĠÐ¿ÑĢÐ¸Ð¼ÐµÑĢ Ñĥ
ĠÐ´ÐµÐ¼ Ð¾Ð½
ĠÑģÑĩ Ð°ÑģÑĤ
ĠÐĶÐ¼Ð¸ÑĤ ÑĢÐ¸Ð¹
ĠÐĿ ÑĮÑİ
ĠÐ±ÑĸÑĢ ÑĤ
ĠÐ¾Ð± ÑģÑĤÐ¾ÑıÑĤÐµÐ»ÑĮ
ĠÐ·Ð°Ðº Ð¾Ð½Ð°
ĠÐ¡ÐµÐ²ÐµÑĢ Ð¾
ĠÐ¾ÑĢ Ð¼Ð°Ð½
4 3
ĠÐ½Ð°ÑĪ Ð°ÑĢ
ĠÐ±Ð°Ð¹ÒĽ Ð°Ð»Ð°Ð´Ñĭ
ĠÐ¿ÑĢÐ¾ÑĨ ÐµÑģÑĤÐµÑĢ
ÐµÑģ ÑĸÐ¿
ĠÐ°ÑĤ Ð°Ð¹Ð´Ñĭ
ĠÑĤÐ°Ð± Ñĥ
Ġc ount
ĠÐºÓ©ÑĪ ÐµÑģÑĸ
ĠÐļ ÓĻÑģÑĸÐ¿
ĠÐĴÐµÐ»Ð¸Ðº Ð¾Ð±ÑĢÐ¸ÑĤ
ĠÐŁÐ°ÑĢ Ð»Ð°Ð¼ÐµÐ½ÑĤ
Ñĩ Ð°ÑĤ
Ðº ÓĻÑģÑĸÐ¿
ĠÐĽ Ñİ
ÑĪÐ° ÐµÑĤÑģÑı
Ðĵ Ð°Ð·
Ð½Ð°Ñĩ Ð°Ð»Ð°
âĢ ¢
Ð¿Ð¸ Ð¾Ð½
ĠÐ· Ð°ÑĥÑĭÑĤ
ĠÐ²Ð¾Ð¹ Ð½Ñĭ
Ġ20 00
ĠÐ°Ðº ÑĨÐ¸Ð¸
ĠÑģÑĤ ÑĢÐµÐ¼
ĠÑĪ Ð¾ÑĤ
ĠÑĪÐ¸Ðº ÑĸÐ·
Ó© Ð½ÐµÑĢ
ĠÑĪÐ¸ ÑĢÐ¾
ĠÐ¿Ð¾ Ð´Ð°ÑĢ
! !
ĠÐ¿Ð°ÑĨÐ¸ ÐµÐ½ÑĤ
ĠÐ±Ó©Ð»ÑĸÐ¼ ÑĪ
ĠÐ´ÓĻÑģÑĤ Ò¯ÑĢÐ»Ñĸ
Ð± Ð¾Ð»ÑĮ
i um
ĠÐ¾Ð±Ð¾ÑĢ Ð¾Ð½Ñĭ
ĠÐ°Ð½Ð°Ð»Ð¾Ð³ Ð¸Ñĩ
ĠÐŀ ÑĢÐ°Ð»
ĠÐķ ÑģÑĤÑĮ
Ñĥ Ð»Ð°
6 6
ĠÐ¿Ð°ÑģÑģÐ°Ð¶ Ð¸ÑĢ
ĠÐŀÑģÑĭÐ»Ð°Ð¹ ÑĪÐ°
Ġh ave
ĠÐ½Ð°ÑĢÑĥÑĪ ÐµÐ½Ð¸Ñı
Ð°Ð¼Ð± ÐµÑĤ
ĠÐ´Ð¾ÐºÑĥÐ¼ÐµÐ½ ÑĤÑĭ
ĠÐŀ Ð¼
Ġc l
Ġin sert
ĠÐ¿ÑĢÐ¾ÑĨÐµÑģ ÑģÐµ
ĠÐ¯ Ð¿Ð¾Ð½
ĠÐĽ Ð¾Ð½Ð´
ĠÐ¼Ò± ÒĽ
ĠÐ¢Ò¯ÑĢ Ðº
ÐĿ Ðļ
ÒĽ ÑĭÐ¼Ð´Ñĭ
ĠÐºÐ² Ð°Ð´ÑĢÐ°ÑĤ
ĠÐ´ ÑĥÑħ
ĠÑĪ Ð°ÒĽ
ĠÐķ Ð¡
ĠÐĶ Ð¾Ð±
ĠÐ¼ Ð°Ð»Ð¾
ĠÑģÐ¿ÐµÑĨÐ¸Ð°Ð»Ð¸ÑģÑĤ Ð¾Ð²
ĠÐ¼Ð°ÒĽÑģ Ð°ÑĤÑĤÐ°ÑĢ
ĠÒĽÐ°ÑĪ ÑĭÒĽÑĤÑĭÒĽ
ĠÐ¾Ð¹ Ð»Ð°Ð¹
ĠÐ¼Ð¸Ð»Ð»Ð¸Ð°ÑĢ Ð´Ð°
E C
ĠÑģÐµÐ»ÑĮ ÑģÐºÐ¾Ð³Ð¾
Ġ26 4
Ñħ Ð±Ð°ÑĤ
ĠÐ´Ð¸ÑĢÐµÐº ÑĤÐ¾ÑĢÐ°
ĠÐ¿Ð¾Ð² ÑĭÑģ
ĠÐł Ð¾Ñģ
ÑĤÐ°ÑĢ Ð¼ÐµÐ½
Ñĥ ÐµÐºÐµÐ»
ĠÐºÒ¯ Ð»
Ðĳ Ð¾Ð»
ĠÑĨ Ð¸ÑĤ
ĠÐ¶ Ð¸Ð´
Ð¡ Ð¾Ð½ÑĭÐ¼ÐµÐ½
Ð´ÑĭÑĢ ÑĭÐ¿
ĠÐ² Ð²Ð¾Ð´
ĠÐ¼ÐµÐ´ Ð°Ð»ÑĮ
ĠÐ¿Ð¾Ð´ÑĢÐ°Ð· Ð´ÐµÐ»
ĠC om
ĠÑĤÐµ Ð°ÑĤ
Ð»Ð°Ð½ ÑĭÐ¿
ĠÐ´Ð°Ð¼ ÑĭÒĵÐ°Ð½
Ð« Ð¡
Ð»ÐµÑĤ Ð½ÑıÑı
ĠÐŀÐ± Ð»
ĠÐŀ Ñĩ
ĠÒĽÐ°Ð» Ð°ÑģÑĭÐ½Ð´Ð°ÒĵÑĭ
ĠÐ¾Ñģ ÑĭÐ»Ð°Ð¹
ĠÐ¿Ð¾Ð· Ð´ÑĢÐ°Ð²
ĠÐ½Ð°Ð¿Ð¸Ñģ Ð°Ð»
ĠÐľ Ð°Ð»
ĠÐºÓ©ÑĢÑģÐµÑĤ ÑĸÐ¿
ĠÐ´ ÑĥÐ¼Ð°Ñİ
ĠÑĤÐ°Òĵ Ð°Ð¹
ĠÐ²ÐµÑĢ Ð½ÑĥÑĤÑĮ
ĠÐ²ÐµÑĢ Ð¾ÑıÑĤ
ÐľÐµÐ¼Ð»ÐµÐºÐµÑĤ ÑĤÑĸÐº
ĠÐ¡Ð¾Ð² ÐµÑĤ
Ñĥ Ð¶Ðµ
ĠÐ¸Ð½ÑĦÐµÐº ÑĨÐ¸Ð¸
ĠÐºÐ¾Ð½ÑĨ ÐµÐ¿
ĠÐ¼ÑĭÒ£ Ð½Ð°Ð½
ĠÐ°Ð½ÑĭÒĽ ÑĤÐ°Ð»Ð´Ñĭ
ĠÐļÐµÒ£ ÐµÑģ
ĠÐľ ÐµÑĤ
ÐĻ Ð¢Ðķ
Ð¸Ð² Ð°Ð»Ð¸
ĠÐºÐ°ÑĤÐµÐ³ Ð¾ÑĢÐ¸Ñı
ĠÐ¾ÑĤÐ²ÐµÑĤÑģÑĤÐ²ÐµÐ½ Ð½Ð¾ÑģÑĤÑĮ
Òļ Ò±ÑĢ
ĠÐµÐºÐµÐ½ Ð´ÑĸÐ³ÑĸÐ½
ĠÐ± ÑĢÐ¾Ð½
ĠÐ´ÐµÐ¹ÑģÑĤÐ² Ð¸ÑĤÐµÐ»ÑĮÐ½Ð¾
ĠÐĵÐµÑĢÐ¼Ð°Ð½ Ð¸Ð¸
il d
ĠÐ½ Ð¸Ð¼Ð¸
ÐĲÐ» ÑĤÑĭÐ½
ĠÐ´ÐµÐ¿ÑĥÑĤ Ð°ÑĤÑĭ
Ð´Ð°ÑĢ Ð´Ð°Ð½
Ð»Ð¸ ÑĨÑĭ
ÑģÑĤÐ²ÐµÐ½ Ð½ÑĭÐ¼
ĠÐ¿ÑĢÐ¾ÑĨ ÐµÐ½ÑĤ
ĠÐµÑĪ ÒĽÐ°Ð½Ð´Ð°Ð¹
ĠÑĤÐµ Ò£Ð³
ĠÐ°Ð» Ð´ÑĭÒ£ÒĵÑĭ
w e
ĠÐľ Ð°Ò£ÒĵÑĭÑģÑĤÐ°Ñĥ
ĠÐ¢ÐĲÐļ ÐĸÐķ
ĠÑģÐ¾ÑģÑĤÐ¾ Ð¸ÑĤÑģÑı
ĠÐ¿ÑĢÐ¾ Ð¸Ð³
Ġ ÑĭÐ»
S P
ĠÐº Ð¾ÑģÑĤ
ĠÑĤÐ°Ð± ÑĭÐ»Ð°ÑĤÑĭÐ½
ĠÐµÐ½Ð³ÑĸÐ· ÑĸÐ»ÐµÐ´Ñĸ
ĠÐ¦ÐµÐ½ÑĤÑĢ Ð°Ð»ÑĮÐ½Ð¾Ð¹
Ġt rue
ĠÑĤÐ°Ð¿ÑģÑĭÑĢ Ð¼Ð°
Ġ/ *
ĠÐ²Ð¾ ÑĪ
Ð´ÑĭÒĽ ÑĤÑĭ
ĠÑģ Ð°ÑĤÑĥ
ĠÐ¼ ÑĭÑģÐ°Ð»Ñĭ
ĠÐ³ÐµÐº ÑĤÐ°ÑĢ
ĠÐ· Ð¾Ð»
ĠÐĳ Ð¾Ð»ÑĮÑĪÐµ
ĠÐ±Ð¾Ð»ÑĮ Ð½Ð¸ÑĨ
ĠÐºÑĸ ÑĢÐµÐ´Ñĸ
Ð°Ð¼Ð± Ð»Ðµ
ĠÐ¿Ð°Ð½Ð´ÐµÐ¼ Ð¸Ð¸
ĠÐĶ Ð°Ñĥ
ĠÐ¸Ð½ÑĦ ÑĢÐ°ÒĽÒ±ÑĢÑĭÐ»ÑĭÐ¼
ĠÓĻÐºÑĸÐ¼ Ð´ÑĸÐ³ÑĸÐ½ÑĸÒ£
% ),
ĠÐ²Ð¾Ð· Ð³Ð»Ð°Ð²
ĠÐĴ Ð°Ñģ
ĠÐµÑģ ÑĸÐ¼
ĠÐ±ÐµÑĢ ÑĥÑĪÑĸ
Ġre g
ĠW hat
Ð¡ÑĥÐ»ÑĤÐ°Ð½ Ð°
ĠÐĲÑĤÑĭÑĢÐ°Ñĥ ÑģÐºÐ¾Ð¹
Ð´ Ð¶Ð°Ð½
ĠÒĽÐ¾Ñģ ÑĭÐ»
ĠÒĽÐ°Ð» ÑĭÒ£
ĠÐľÐ°Ð½Ð³Ð¸ÑģÑĤÐ°Ñĥ ÑģÐºÐ¾Ð¹
ĠÐ¡ ÑĭÑĢ
ĠÐ¾Ð¿ÐµÑĢ Ð°ÑĨÐ¸Ð¸
ĠÐºÓĻÑģÑĸÐ¿ ÐºÐµÑĢÐ»ÐµÑĢ
ĠÐ¡ Ð¾Ð´Ð°Ð½
ĠÑģÑĤ Ð°ÑĢÑĤ
ĠÐ¾ÑĢÐ½ ÑĭÐ½
ĠÐ¿ÑģÐ¸Ñħ Ð¾Ð»Ð¾Ð³Ð¸ÑıÐ»ÑĭÒĽ
Ð¢ Ð°ÑĢ
ĠÐ¾Ð±ÑĬ ÐµÐºÑĤÐ¸Ð²
ĠÐºÐµÑĤ ÐµÐ´Ñĸ
ĠÐĵ Ð¾Ð»
Ð± Ò±Ð»
ÑĨ Ð¸ÑĤ
Ð¼ Ð°Ñħ
ĠÑĤÐµÑħÐ½Ð¾Ð»Ð¾Ð³Ð¸Ñı Ð»Ð°ÑĢ
ĠÐĶ Ð¾Ð½
ĠÑĢÐµÐºÐ¾ÑĢ Ð´
ĠÑĥÐ· Ð½
ĠÐļ ÐµÑĢ
ĠÑģÐ¾ Ð±Ð¸ÑĢÐ°
ĠÑĩ Ð¸ÑĤ
ĠÑĢÐµÐ¶Ð¸Ð¼ Ð°
ĠÐ¿ÑĢÐ¸ Ñģ
ĠÐ³Ð¾ÑģÑĥÐ´Ð°ÑĢ ÑģÑĤÐ²Ð¾
os it
ĠÐ¿ÑĢÐ¸ÑħÐ¾Ð´ Ð¸ÑĤÑģÑı
ĠÑģÑĩÐµÑĤ Ð¾Ð¼
ĠÑĪÐ°Ð± ÑĥÑĭÐ»
ĠÑģÐ°Ð¿ Ð°ÑĢ
ĠÐ¿Ð¾ÑĢÑıÐ´ ÐºÐµ
ĠÑĢÐµÐ´Ð° ÐºÑĨÐ¸Ñı
ĠÐļ Ð°Ð¼
ĠÐ±Ñĸ ÑĢÐ°Ð·
Ð°Ð¶Ð¸Ð» Ð¸ÑģÐ°
ĠÐ¿ Ð½ÐµÐ²
ĠÑĥÐ³Ð¾Ð»Ð¾Ð² Ð½Ð¾Ðµ
Ñĭ Ð³
ĠÐ¿ÑĢÐ¾Ð³ÑĢÐ°Ð¼ Ð¼Ðµ
ĠÐ¾ÑĤÑĢÐ°Ñģ Ð»Ð¸
all y
ĠÐ¿ÑĢÐ¾Ð±Ð»ÐµÐ¼ Ð°
ÑĸÑĢ ÑĤ
ĠÐ¤ÑĢÐ°Ð½ ÑĨÐ¸Ñı
ĠÒĽÐ¾Ð» Ð°Ð¹Ð»Ñĭ
ĠÐ¿Ð¾ÑģÑĤÐ¾ÑıÐ½ Ð½Ð¾
d es
c ed
n e
ĠÑģ Ð½Ñı
ĠÑĤÒ± ÑĤ
ĠÐ¿ÑĢÐ°Ð²Ð¸ÑĤÐµÐ»ÑĮ ÑģÑĤÐ²Ð¾
ĠÐ² ÐµÐ»Ð¸Ñĩ
ĠÐ°Ð» Ð´Ð°ÒĵÑĭ
ĠÐł Ð°Ð±
ĠÐ»Ð°ÑĥÐ°Ð· ÑĭÐ¼
ĠÐļ Ð¸ÑĢ
ĠÐ±ÑĸÐ» ÑĸÐ¼Ð´Ñĸ
ĠÐ¢ Ðµ
ĠÐ¶Ð°Ñģ Ð°Ð¹
ĠÑĤÑĥ Ð¼Ð°Ð½
ĠÐ¶ Ò±Ð»Ð´ÑĭÐ·
ĠÑģÐ¾Ð·Ð´Ð°Ð½ Ð¸Ñı
ĠÑģÐ°Ð¿ Ð°ÑģÑĭ
ĠÐ¼Ò± ÑĢÐ°
ĠÐ¿Ð¾Ð» Ð½Ð¾Ð¼Ð¾Ñĩ
ĠÑĥ Ð¶
I V
ĠÐĵ ÑĢÑĥÐ·
ĠÒĽÐ°ÑĢÐ¶ÑĭÐ» Ð°Ð½Ð´ÑĭÑĢÑĥ
ÑģÐµ Ò£
ĠÐ¿Ð¾ Ð¿ÑĢÐ°Ð²
ĠÐ±Ð°ÑģÑĤ Ð°Ð»Ð°Ð´Ñĭ
ĠÐºÐ¾Ð¼ Ð¼ÑĥÐ½
ĠÐ£ÐºÑĢÐ° Ð¸Ð½Ð°
ĠÐļ Ð°Ð·Ð°Ñħ
Óĺ ÑĢ
ĠÐ°ÑĪ ÑĭÐ¿
ĠÑĤÐµÑĢ Ð¼
ÒĵÑĭ Ð¿
ĠÐ¼ÐµÐºÐµÐ¼ ÐµÐ»ÐµÑĢ
ÑĤÑĥ ÑĢÐ°
Ð°ÑĤ ÒĽÐ°
ĠÐĶ ÓĻ
ĠÐ± Ð°ÒĽÑĭÑĤ
Ð±ÐµÐº ÑģÑĤÐ°Ð½
ĠÒĽÐ¾Ð»Ð´Ð°Ð½ ÑĥÒĵÐ°
or ld
ĠÐ¿Ð¾Ð»Ð¸ÑĨÐµÐ¹ ÑģÐºÐ¸Ðµ
Ġ un
ĠÐ±Ð°ÑĢ Ð°
ĠÐ¼Ð¸Ð½Ð¸ÑģÑĤÐµÑĢ ÑģÑĤÐ²Ð°
ĠÓĻÑĢÐµÐº ÐµÑĤÑĤÐµÑĢ
ĠÐ±ÑĸÑĢ ÑĸÐ½
Ð°Ð» ÑĭÐ½
ÑĪ Ð¸Ð½
ĠÑİ Ð³Ð¾
Ġ200 5
ÑĢÐ° ÒĵÐ°Ð½
ĠÐ¡ Ð²
Ð¾Ñĩ ÑĮ
ĠÑĪ Ð°Ð³
ÑĭÑĢ Ð¼Ð°Ð½
ĠÐ´ÐµÐ» Ð°Ð¼
ĠÐļÐ¾Ð¼ Ð¿Ð°Ð½Ð¸Ñı
ĠÒ¯ ÐºÑĸÐ¼
ĠÑĤÐ°Ð¼ Ð¾Ð¶
ĠÐ·Ð°Ð²Ð¸Ñģ Ð¸ÑĤ
ĠÐ§ÐĺÐ¢ÐĲ ÐĻÐ¢Ðķ
ĠÐ¿Ð¾ ÑģÐµ
Ð¸Ð¼ ÐµÐ½
ĠÐ¿Ð¾ÑĤÐµÑĢ Ð¿
ĠÑĤÒ¯ÑĢÐ»ÐµÑĢ ÑĸÐ½
ÑĨ Ð°ÑĢ
ĠÐ½ÓĻÑĤÐ¸Ð¶ ÐµÑģÑĸ
ĠÐ¾Ð´ Ð½Ñĥ
ĠÐ± ÑĢÐ¸ÑĤÐ°Ð½
ĠÑĥÓĻ ÐºÑĸÐ»ÐµÑĤÑĤÑĸ
ĠÐ¼Ð¾Ð»ÐµÐº ÑĥÐ»
ĠÐ± ÑĥÑĢ
Ġ6 5
Ð¸Ð· Ð¸
ĠÐ¿ ÑĭÑĤÐ°
ÐµÒ£ ÑĸÐ·
ĠÐ¿Ð¾Ð¿ ÑĢÐ¾Ñģ
ĠÑĩÐ»ÐµÐ½ Ð¾Ð²
ĠÐĳ Ð°ÑģÑĤ
j ect
Ð´ÐµÐ» ÑĸÐºÑĤÑĸ
ÑģÐ¸ ÐµÐ¹
ĠÐŃÐº ÑģÐ¿
ar k
ĠÐ¿Ð¸ÑĤ Ð°Ð½Ð¸Ñı
ĠÐ¡ ÐµÐ¹
ĠÑģÐ°Ð¼ Ð¾Ð³Ð¾
ĠÐºÓ© ÑĢÑĥ
ĠÒĽÒ± Ð¹
ĠÐ¾ Ð½Ð¾
ĠÐ·Ð½Ð°Ñĩ ÐµÐ½Ð¸Ñı
ÑĸÐ½ ÐµÑģÐµ
ĠÐ³ Ð¾Ð½
Ġs c
ĠÐ¼Ð°Ð³ Ð½Ð¸ÑĤ
ĠÐľÒ± Ð½Ð´Ð°
ĠÐ¸Ð½ÑģÑĤÑĢÑĥ Ð¼ÐµÐ½
ĠÑĪÐµÐ± ÐµÑĢ
ĠÐ¼ ÐµÐ»
ÑĤ ÑĤÐ°ÑĢ
Ñģ Ó©Ð·
ĠÐ¤ Ð¸Ð½
Ð´Ñĸ Ð³ÑĸÐ½Ðµ
ĠÐĴÐ¾ÑģÑĤ Ð¾ÑĩÐ½Ð¾
\ "
Ð»ÑĭÒĽ ÑĤÐ°Ð¹
ĠÐ²ÑĭÐ¿ Ð»Ð°ÑĤ
Ġ( ,
Ġtr ans
ĠÑĢÐµÑģÑĥÑĢ ÑģÐ¾Ð²
ÂŃ ÂŃ
Ð¶Ò¯Ð· ÑĸÐ»ÑĸÐº
ĠÐ¼Ò¯ÑĪ ÐµÐ»ÐµÑĢÑĸ
ĠÐ¾Ð±ÑīÐµ Ð³Ð¾
Ð¡ Ð¡Ðł
ÑģÑĤÐ² Ð¸Ð¸
ĠÐ¶Ð°Ñĥ ÑĭÐ½
ĠÑĤÓĻÑĢÑĤÑĸ Ð±Ñĸ
ĠÒĽÒ±ÑĢÐ°Ð» Ð´Ð°ÑĢÑĭ
ÑģÐµÐ½ Ð±Ñĸ
ut h
ĠÑĤÑĥ ÑĭÐ½Ð´Ð°
Ð»Ð° Ð¶
Ðļ ÐŁ
Ð°ÑĤÑĤÐ°ÑĢ Ð´ÑĭÒ£
ĠÐĴ Ð¼ÐµÑģÑĤÐµ
ÑĢÑı Ñģ
ĠÐ´ÐµÒ£Ð³ÐµÐ¹ ÑĸÐ½
ĠÐ¸Ð½ÑĦ Ð¾ÑĢÐ¼
ĠÑĤÒ± ÒĽÑĭÐ¼
ĠÐ¼ Ð¾ÑĤÐ¸Ð²
Ð¥ Ð°Ð»ÑĭÒĽ
ĠÐĺ Ð»
ĠÐ¨ÑĭÐ¼ÐºÐµÐ½ ÑĤÐµ
Ð½ Ð°Ð¿
ĠÑĤÐµÑħ Ð½Ð¸ÐºÐ°
ĠÐļ Ñĸ
p ro
Ð¢ÐĲ Ðł
ĠÐ¶Ð°Ð· ÑĭÐ»
ĠÐĳÒ¯Ð³ÑĸÐ½ Ð³Ñĸ
ĠÐ¼Ð¸Ð»Ð»Ð¸Ð°ÑĢ Ð´Ð¾Ð²
ĠÐº ÑĢÑĥ
Ðĺ Ð¢
ĠÐ°Ð» ÑĤÑĭ
ÑĤÑĭÑĢ ÑĭÐ¿
ÑĥÑĤ ÑģÑı
Ð²ÐµÑĢ Ð³
ĠÐ½Ð°Ð³ ÑĢÑĥÐ·
re v
ĠÐ²Ð½Ðµ Ð´ÑĢ
ĠÐ¸ Ð¼ÐµÑĤÑĮ
ĠÒĽÐ°Ð· Ð°
ĠÒĽÑĭÐ· ÑĭÒĽÑĤÑĭ
Ñĥ Ñį
Ġfor m
ĠÐ±Ð°ÑģÑĤ Ð°Ð¹Ð´Ñĭ
ĠÑĢÐ° ÑģÑĤÐ²
ĠÑģÐ°Ð¼ ÑĭÐ¹
ĠÐ¶ÐµÒ£ ÑĸÐ¼
Â °
ĠÒ±ÒĽÑģ Ð°Ñģ
Òĵ ÑĭÐ¼ÐµÐ½
ĠÑĢÐµÐ¶ Ð¸ÑģÑģÐµÑĢ
ĠÐºÐ¾Ð½ ÑģÑĤÐ¸ÑĤÑĥ
ĠÒļ Ð°Ð±
ĠÒĽÐ°ÑĥÑĸÐ¿ ÑĤÑĸ
ÑĢÑĥ Ðº
ĠÒ¯Ð» ÐµÑģÑĸ
ĠÐ¿Ð¾Ñģ Ð¾Ð±
ĠÐ¾ÑĢÐ½Ð°Ð» Ð°ÑģÑĤÑĭÑĢÑĥ
ĠÐ²Ð¾ Ð¾ÑĢÑĥÐ¶
ĠÑĤÓĻÐ¶ÑĸÑĢÐ¸Ð± Ðµ
Ñģ Ð¸Ð½
Ð¿ ÐµÑĤ
ĠÑĥ ÑģÑĤÐ°Ð½Ð°Ð²Ð»
ĠÐ¶Ð°Ð¹ ÑĭÐ½Ð´Ð°
ĠÑģ Ð¾Ð´Ð°Ð½
Ð¤ Ð°ÑĢÐ°Ð±Ð¸
o od
a Ð½
ĠÐ´ ÑĥÑĪ
ÑģÑĭÐ½ ÑĭÐ¿
ĠÐ¶ Ò±ÒĽ
ĠÐ¿Ð¾Ð²Ñĭ ÑĪÐµÐ½Ð¸Ðµ
ĠÒ¯Ð» ÐµÑģ
ĠÑģÑĢÐµ Ð´Ñĭ
ĠÐķÑĥÑĢÐ¾Ð¿ Ð°
ap ital
Ð³ ÑĢÐ°Ð¼
ÑĤÑĸ Ð³ÑĸÐ½
ĠÑįÐºÑģÑĤ ÑĢÐµÐ¼
Ð¾Ð¶ Ð¸
Ð± Ò±
Ġpro du
Ð¼ÐµÐ½ Ð½Ð¾
ĠÐ´ Ð¸Ð²
ĠÑģÒ¯ ÑĢÑĥ
Ð¡ Ò±Ð»ÑĤÐ°Ð½
ĠÒĽÐ°Ð»ÑĭÐ¿ÑĤÐ°Ñģ ÒĽÐ°Ð½
ĠÐ¶Ò±Ð¼ Ñģ
ĠÐ¿Ð¾ÑģÑĤÑĢÐ°Ð´Ð°Ð² ÑĪÐ¸Ñħ
ĠÑįÐº ÑĢÐ°Ð½
ĠÐ¿ÑĢÐ¸ Ð¾ÑĢÐ¸ÑĤÐµÑĤ
ĠÐµÐ² ÑĢÐ¾Ð¿ÐµÐ¹
Ð¿ Ð°Ð»Ñĭ
ĠÑĢÑĥÐºÐ¾Ð²Ð¾Ð´ Ð¸ÑĤÐµÐ»Ñı
ĠÐ·ÑĢ ÐµÐ½Ð¸Ñı
Ð½ Ð°Ñģ
ĠÐķÐĲ ÐŃÐ¡
ĠÐ°Ð½ÑĭÒĽ ÑĤÐ°Ð¼
ĠÐ¸Ð·Ð¼ÐµÐ½ ÐµÐ½Ð¸Ð¹
Ð´ÐµÐ¹ ÑģÑĤÐ²Ð¸Ðµ
ĠÐ´ Ð°ÒĽ
Ð³Ð°Ð½ Ð¸
ĠÑģÑĭ Ð³
ĠÒĽÐ°Ð» Ð´ÑĭÒĽ
Ð¸ÑģÑĤ ÐµÑĢ
ÐµÑģ ÑıÑĩ
ÑĨ Ñĥ
ÑĦ Ð¸Ð»ÑĮ
ĠÐ¸Ð½Ð²ÐµÑģÑĤÐ¸ ÑĨÐ¸ÑıÐ»ÑĭÒĽ
ĠÐºÐµÐ¹ Ð´Ðµ
ĠÐºÓ©ÑĢÑģÐµÑĤ ÐºÐµÐ½
ĠÐ¿Ð°Ð¹ÑĭÐ· ÒĵÐ°
ĠÐ¾ÑĤÐ¼ÐµÑĩ Ð°ÐµÑĤÑģÑı
ĠÑĸÑģÑĤ ÐµÐ¹ÑĤÑĸÐ½
ĠÐĳ Ð°ÑĥÑĭÑĢ
Ð¸ÑĢÐ¾Ð²Ð°Ð½ Ð¾
ĠÑģÐ¾Ð±ÑĭÑĤ Ð¸Ð¹
ĠÐ¶ÐµÑĤ Ñĸ
ĠÑĤÑĥÑĢÐ¸Ð· Ð¼
ĠÑģÐ°Ð» Ð¼Ð°ÒĽ
Ð¸ÑģÑĤ Ð¸ÐºÐ°
ĠÐĸÒ±Ð¼ ÑĭÑģ
ĠÑĤ ÐºÐ°Ð½
E R
Ð°ÑĢ Ð´
ĠÑĤÒ¯ Ð½
ĠÐĵÐµÐ½ Ð½Ð°Ð´
ĠÐķÑĢ Ð»Ð°Ð½
ĠÐ¾Ð± ÑĢÐ°Ð±Ð¾ÑĤ
ĠÐ¾ÒĽ ÑĥÐ»ÑĭÒĽ
ĠÓ©Ð· ÐµÐºÑĤÑĸ
ĠÐ°Òĵ Ð·
ĠÑģÐ¸Ð¼Ð¿ ÑĤÐ¾Ð¼
ĠÐº ÑĸÑģÑĸ
Ð± ÐµÐ»ÑĸÐº
ĠÑģÐ¾ ÑĨÐ¸
ĠÐ¾Ñģ ÑĥÐ¶Ð´ÐµÐ½
S I
ĠF or
ĠÐ²ÑģÐµÐ¼ Ñĥ
Ð°ÒĵÐ´Ð°ÑĢ Ð»Ð°Ð¼
Ġ !
ĠÐ¶ Ð°Ð¼Ð°Ð½
Ð¼ÐµÑģÑĤ Ð¾
ĠÐ¡ Ó©Ð¹
ĠÐŀÑģ Ð¾Ð±
ĠÐĲÒĽÐ¿Ð°ÑĢÐ°ÑĤ ÑĤÑĭÒĽ
ĠÐĳÐ°Ñģ ÒĽÐ°
Ð¼Ð°Òĵ ÑĭÐ½Ð°
ĠÐĿÐ° Ñĩ
Ð¾Ð´Ð° Ð²
ĠÐºÓ©Ð± ÐµÐ¹
ĠÑĢÐ°Ð½ ÑĮÑĪÐµ
ĠÐ° ÒĵÐ°
ĠÐ· Ð´Ð°Ð½Ð¸Ñı
ĠÐ¼ÓĻÐ¶ Ð±
ĠÐĴ ÑĤÐ¾ÑĢ
ĠÐĳ ÐµÐ·
Ð³ÐµÑĢ ÑĪÑĸÐ»ÑĸÐº
ÒĽ ÑĭÐ½Ð´Ñĭ
Ð¾Ñģ ÑĢÐµÐ´
ĠÐ¾ÐºÐ°Ð·Ð°Ð» ÑģÑı
Ġ >
ÑģÑĤ Ð°ÑĢÑĭ
Ð°Ð¼ÑĭÐ· ÒĵÐ°
ĠÑĥÑĩÐ°ÑģÑĤ Ð¸Ñı
ĠÐľÐļ Ðļ
ĠÐ¶Ð°ÒĵÐ´Ð°Ð¹ ÑĭÐ½Ð´Ð°
ÑĥÑĪÑĭÐ»Ð°ÑĢ ÒĵÐ°
ĠÒĽÐ°ÑĤ Ð°Ò£
ĠÐł Ð¾Ð¼
Ġ ÑĭÒ£ÒĵÐ°Ð¹
ĠÐ¼ ÑĭÑĪ
ĠÐ´Ð°Ð» ÐµÐµ
ĠB a
Ġ. -
ĠÒļÒ± Ð´Ð°Ð¹
Ð¾Ð± ÑĢ
ÒĽ Ð°Ð·Ð°ÒĽ
ĠÐºÒ¯Ð½ Ð´ÐµÑĢÑĸ
ĠÐ¸Ð½ÑģÑĤÐ¸ÑĤÑĥ ÑĤÑĭ
ĠÑĪ Ð°ÒĵÑĭÐ¼
ĠÐ¼ Ð½Ð¾
ĠÐº ÑĥÐ´Ð°
on d
Ġ* /
ĠÑĤÐ°Ð»Ð°Ð¿ ÑĤÐ°ÑĢ
ÓĻ Ð´Ñĸ
ĠÑħÐ¾ÑĤ ÐµÐ»
ÒļÐ°Ð· ÑĸÑĢÐ³Ñĸ
th er
ĠÐ¾ÑĤ ÑĢÐ°Ð¶
ĠÐľÓĻ Ð´ÐµÐ½Ð¸ÐµÑĤ
Ð¾Ð² Ð¾Ð¼
Ð°Ð¼ Ð¸Ð½
ĠÐºÐµÒ£ ÑĸÐ½ÐµÐ½
ÑĸÒ£ÑĸÐ· Ð³Ðµ
ĠÐ¿Ð¾Ð´ ÑħÐ¾Ð´
ĠÑģÓĻÐ¹ ÐºÐµÑģÑĤ
ĠÑĩÐµÐ¼Ð¿Ð¸Ð¾Ð½ Ð°ÑĤ
? !
== ==
ĠÑģÐ°Ñı ÑģÐ°ÑĤÑĭ
ĠÐ· Ð½Ð°Ðº
ĠÒĽÐ°Ð±ÑĭÑĢ Òĵ
le s
ĠÑģÐ¸Ð»ÑĮ Ð½Ð¾
ĠÐ¢ÐµÐ¼ ÑĸÑĢ
ĠÐ¿ÑĢÐ¾ ÑĤÐµ
ÐµÑĢÐ±Ð°Ð¹ Ð´Ð¶Ð°Ð½
Ð´Ð° ÑĥÒĵÐ°
Ðļ Ð¾Ð½
ĠÑĦÐ¾ÑĢÐ¼ Ñĭ
ÑĭÒĽ ÑĤÑĭÒ£
Ġp er
ĠÑģ Ð½Ð¾Ð²Ð°
ĠÑģÐ¾Ð¾ÑĤÐ²ÐµÑĤ ÑģÑĤÐ²ÐµÐ½Ð½Ð¾
ĠÐĿ Ð°Ð·
ĠÐĨ ÐĨ
ĠÓĻÐ¹ÐµÐ» Ð´ÐµÑĢ
ĠÐºÐ¾Ð½ÑĦÐµÑĢÐµÐ½ ÑĨÐ¸Ñı
ĠÑħ Ð²Ð°ÑĤ
ĠÐ¾ÑĤ Ð°Ð½Ð´ÑĭÒĽ
Ð´i Ðº
ĠÐ¿ÑĢÐµÐ´Ð¿ÑĢÐ¸Ð½Ð¸Ð¼ Ð°ÑĤÐµÐ»ÐµÐ¹
ĠÐ·Ð°ÑĢ Ð´Ð°Ð¿
ĠÑģ Ð½
Ġ9 5
Ñħ Ð¸Ð¼
Ð¾Ð± Ð½Ð¾Ð²
ĠÐ¸Ð½ ÑĨÐ¸
ĠÐĳ Ð»
ĠÐ¿Ð¾Ð²Ñĭ ÑĪÐµÐ½Ð¸Ñı
ent er
ĠÐ¤ÑĢÐ°Ð½ ÑĨÐ¸Ð¸
Ð°Ð± Ð°ÐµÐ²
ÑģÑĤÐ°Ð½ Ñĥ
ĠÑģ ÑĬ
ĠÒĽÒ± Ð·ÑĭÑĢ
ĠÐºÑĸ ÑĪ
t e
ĠÑĦ ÑĥÐ½
ĠÐºÑĢÐ¾Ð² Ð¸
ĠÑģÐ½Ð¸Ð¶ ÐµÐ½Ð¸Ðµ
ÑģÐ»ÑĥÐ¶ Ð±Ñĭ
Ð°Ð½ Ð¸
ĠÐ¸ÑģÐ¿ Ñĭ
ĠÐº ÑĢÐµ
ĠÐ»Ð¸ÑĤ ÐµÑĢ
ĠÐĲÒĽ Ð¼Ð¾Ð»Ð°
ĠÐ¶ Ð½Ðµ
ĠÓĻ ÑģÐµÑĢÑĸ
Ð»Ðµ Ð´Ñĸ
ĠÐ¼Ð¸ÑĢÐ¾Ð² Ð¾Ð¹
ÑĥÑģÑĤ Ñı
ĠÐ¸ ÐµÐ»ÐµÐ½
ĠÐ¿ÑĢÐ¾Ð³ Ð½Ð¾
ĠÐ¾Ð±Ð»Ð°ÑģÑĤ Ð½Ð¾Ð³Ð¾
ĠÐ¡ Ð°ÑĢÑĭ
ĠÑĨ ÐµÑĢ
Ð¸Ð¼Ð¿ Ð¸Ð¹
ÐµÐ³ ÑĸÐ½Ð´Ðµ
ĠÑģÐ¼ Ð°ÑĢÑĤ
ĠÐ²Ð°ÐºÑĨ Ð¸Ð½
ĠÐ²Ñģ Ñĳ
ĠÐ¾ÑĢÑĤÐ° ÒĵÐ°
ĠÐ°Ð³ÐµÐ½ÑĤÑĤÑĸ Ð³ÑĸÐ½ÑĸÒ£
ĠÐ¿Ð¾Ð» Ñı
ĠÑĥÐ´Ð¾Ð² Ð»ÐµÑĤÐ²Ð¾ÑĢ
ĠÐ´ ÑĢÐ°
ÑĤ ÑĤÑĸ
ĠÑģÓ©Ð· Ñĸ
ĠÑĢÐµÐ³Ñĥ Ð»ÑıÑĢ
ĠÑĢÐ°Ð· ÑĢÑĥ
ĠÒĽÐ¾Ð¹ Ð¼
ĠÐ¼Ð°ÑĪ Ð¸Ð½Ð°
ĠÐ¸ ÐµÑģÑĸ
ĠÑĪÐµÒ£Ð±ÐµÑĢ ÑĸÐ½Ð´Ðµ
ĠÐ¶Ò¯ ÑĢÐµÐ´Ñĸ
Ġ0 7
ÐµÐºÑĤ ÐµÐ»
ÑĭÐ½Ð´Ð°Ð¹ ÑĤÑĭÐ½
ĠÐ²Ð¾Ð· Ð´ÑĥÑĪ
ĠÓ©Ð· ÑĸÐ½Ð´Ðµ
ĠÐºÒ¯Ð½ ÑĤÑĸÐ·
ÑģÐº Ð°ÑĢ
ĠÐ²ÐµÑĤÐµÑĢ Ð¸Ð½Ð°ÑĢ
ĠÐ¿ÑĢÐµÐ´Ð»Ð¾Ð¶ ÐµÐ½Ð¸Ñı
ÑĸÒ£ÑĸÐ· Ð´Ñĸ
Ð°ÑĤÐµÐ» ÑıÐ¼
Ġ5 7
ĠÐ±Ð°Ð»Ð°Ð»Ð°ÑĢ Ð´Ñĭ
ÐµÐ¼ ÑģÑı
ĠÐ¿Ð»Ð¾ÑīÐ°Ð´ Ð¸
ĠP ro
ĠÐľ ÐĺÐĶ
ĠÐ± ÑĢÐµÐ½
ÐºÐ° Ð¶
ĠÐº Ð¾Ð³Ð¾
ĠÐ³ Ð¾
ĠÓĺÑĢ Ð¸Ð½Ðµ
ĠÑģÐ¾Ð·Ð´Ð°Ð½ Ð¸Ðµ
. ),
ĠÐļ Ð°ÑģÐ¿
ĠÑģÐ°Ð» ÑĤ
a i
ĠÑģÐµÐ¼ Ð¸Ð½Ð°ÑĢ
ÐµÐ¹ Ð½
ĠÐ´ÑĢÑĥÐ³ Ð¸Ð¼Ð¸
ĠÑģÐ²Ð¾ Ð¸Ð¼Ð¸
ĠÑģÐ¾Ð± ÑĢÐ°Ð½
ĠÑģÐº Ð¾Ð»ÑĮÐºÐ¾
Ð·Ñĭ ÑģÐº
um n
ÐŁ ÑĢÐ¾
ĠÑĢÐ°Ð² Ð½Ð¾
ĠÐĿ Ñĥ
ÐºÓ©Ð» ÑĸÐº
ÑĤÐµÑĢ Ð´ÐµÐ½
ĠÐ¼Ò± Ð½Ð´Ð°
ĠÐ¶Ò¯ ÑĢÑĥ
Ð´Ñĭ Ð»ÑĭÒĽ
Ġ264 109
8 7
Ġd e
ap t
ĠÑĥÑĤÐ¾Ñĩ Ð½
ĠÐ¿Ð¾Ð³Ð¸Ð± ÑĪÐ¸Ñħ
ĠÐ°Ð²ÑĤÐ¾Ð¼Ð¾Ð±Ð¸Ð» ÐµÐ¹
Ñĭ ÑĢÑĥ
at h
. "
y s
Ðľ ÐĶ
ĠÐ¾ÑĢÐ³Ð°Ð½ Ð´Ð°ÑĢ
ĠÑĤÓ©Ð¼ÐµÐ½ Ð´ÐµÑĤ
ĠÐ½ÐµÐ± Ð¾Ð»ÑĮÑĪ
Ð¾ ÑģÑĤÐ°Ð½Ð¾Ð²
ĠÑĪÐµÑĪ ÑĸÐ¼Ð´ÐµÑĢ
ĠÐ·Ð°Ð¿ Ð°Ð´
Ðľ Ð¸Ð½Ð¸ÑģÑĤÑĢ
ÑĢÐ¾Ð² Ð°Ð½Ð¸Ðµ
ĠÑģÐ»ÑĥÑĩÐ°Ñı Ñħ
ĠÐ´ ÑĥÐ¼
ĠÐĺ Ð±
ĠÐ¾ÑĤ ÑĢÐ¸ÑĨ
Ġin form
ĠÑı Ð´ÐµÑĢ
Ð´ÐµÐ» Ð¸
Ð±Ðµ Ð³Ñĸ
Ðļ Ð°Ð½
ĠÐ¿ÑĢÐ¾Ð²ÐµÐ´ ÐµÐ½Ð¸Ðµ
Ð³ÐµÐ½ Ð´Ðµ
ĠÑĥÑģÑĤÐ°Ð½Ð¾Ð² Ð»ÐµÐ½
ĠÐ°Ð½ÑĭÒĽ ÑĤÐ°Ð¹Ð´Ñĭ
ĠÐ· Ð°ÒĽÑĭÐ¼
ĠÒĽÐ°Ð± Ð°ÑĤ
ĠÐĸ Ð¾Ð±
ĠÐ´Ð¸Ð¿Ð»Ð¾Ð¼ Ð°ÑĤ
ol or
ĠA r
ĠÓ©Ñģ ÑĸÐ¿
ĠÐ½Ð°Ð·Ð² Ð°Ð»
Ð°ÑĤ Ð¾ÑĢÐ°
Ðķ Ð³ÐµÑĢ
ĠÐ±Ð°Òĵ ÑĭÐ½
ĠÑĪÐ°ÑĢÑĥÐ°ÑĪ ÑĭÐ»
ĠÐļ Ð°Ð¿
Ð¢ Ðļ
ĠÐ±Ð¾Ð»ÑĮ Ð½Ð¸ÑĨÑĥ
ĠÐºÑĢÐ¸ÑĤ ÐµÑĢ
ĠÐ¿ÑĢÐ¾Ð² ÐµÐ»Ð¸
ĠÐ·Ð°Ð´Ð° ÑĩÐ¸
ĠÐ·Ð°ÐºÐ¾Ð½Ð¾ Ð¿ÑĢÐ¾
ĠÐ¶Ð¸Ð½ Ð°Ñĥ
ÐĲ Ñĥ
ÐµÑĢ Ð¼ÐµÐ½
ĠÐ±Ñĸ ÑĤÑĸÑĢ
ĠÐ» Ð°Ð¹
ĠÐ¡ Ð¿Ðµ
ÑĢÐµ Ð³
Ð°ÑĤÐ¾ÑĢ Ð¾Ð²
ĠÐ¿ÑĢÐµ Ð´ÑĭÐ´Ñĥ
ĠÐ¢ Ð¸Ð¼
ÑĪ ÐµÐ¼Ñĥ
ĠÐ¶ÐµÑĤÐº ÑĸÐ»ÑĸÐºÑĤÑĸ
ÑĸÑĢ Ð¼
ĠÒĽÐ°ÑĤÑĭÑģ ÒĽÐ°Ð½
ÑĸÐ¼ÑĸÐ· Ð³Ðµ
Ð´ÐµÐ½ Ð¸ÐµÐ¼
Ġ el
ĠÐ±Ð°ÑĢ ÑĭÐ½ÑĪÐ°
ĠÐ°Ð» Ð°Ð¼ÑĭÐ·
ĠÐ°Ñĥ ÑĭÑģÑĤÑĭÑĢ
ĠÑĦÐ¾ÑĢ Ð¼Ðµ
ĠÐ¿Ð¾ ÐºÐ¾Ð»
ĠÐľ Ð°Ð³
ÑĤ ÑĢÐ°
ĠÐºÐ¸Ð»Ð¾Ð³ ÑĢÐ°Ð¼Ð¼
ĠÐ¿ÑĢÐ¸ÑĪ Ð»Ð¾ÑģÑĮ
Ò±ÒĽ ÑĭÒĽÑĤÑĭÒĽ
Ð¸ÑĤÐµÐ»ÑĮ Ð½Ð°Ñı
ĠÐ¼ ÑĭÐ½
ÑĪ Ð°Ð»ÑĭÒĽÑĤÑĭ
Ð² ÑĢÐ°ÑĤ
l ine
ĠÐº ÑĸÐ½
Ð· Ð´ÑĢÐ°Ð²
ĠÐµÒ£ Ð±ÐµÐ³
ĠÑĸÑĪ ÑĸÐ½Ð´ÐµÐ³Ñĸ
ĠÒĽÐ°Ð±ÑĭÐ»Ð´Ð°Ð½ ÒĵÐ°Ð½
ÑģÐ¿ ÐµÐ½
Ð°ÑĤÑĮ Ñı
ĠÐ¢ÑĢÐ°Ð¼ Ð¿
ĠÐĴ ÐĴ
ĠÐ¾ÑĤ ÑģÑĤÐ°Ð²
Ð³ÐµÑĢ Ð»ÑĸÐº
ĠÑĤÐµÐ¾ÑĢ Ð¸ÑıÐ»ÑĭÒĽ
ĠÑģÑĢÐµ Ð´Ñĥ
Ð° Ð¸
ĠÐ½ÓĻ ÑĤÐ¸Ð¶Ðµ
ĠÐļ ÐŁ
ĠÐ¿Ð¾ÑĢÑĥÑĩ Ð¸Ð»
l ock
ĠÐ¼Ð°ÑĤÐµÑĢÐ¸Ð°Ð» Ð¾Ð²
ĠÐ¿Ð¾ Ð±Ðµ
ÐºÐ¾ ÑģÑĤÑĮ
ÑĸÐº ÑĤÑĸÑĢ
ĠÑĢÑıÐ´ Ð¾Ð¼
ĠÐĵ ÐµÐ½ÐµÑĢ
Ð¼Ð°Ð½ ÑĭÒ£
Ð¾Ð½Ð°ÑĢ ÑĥÑĪ
ĠÐĳÐ°ÑģÒĽÐ°ÑĢ Ð¼Ð°
ĠU n
ĠÐ´Ð°Ð½ Ð½Ð¾Ð¹
Ðļ Ð¡ÐŁ
ÐµÑģÑĤ Ñĸ
ĠÐ²ÐµÑĤ ÑĢÐ°
ĠÐĳ Ð°Ñħ
ĠÐºÒ¯ ÑĪÑĸ
ĠÑĤ Ð³
ĠÐĳÐ¸ ÑĭÐ»
Ð°ÑĤÐµÐ»ÑĮ Ð½ÑĭÐµ
ĠÐ³ Ð°
ĠÐ´Ð¾Ð¿ ÑĥÑģÑĤ
ÑĸÐ» ÑĥÐ´Ðµ
ĠÑģÐµÑĢ ÑĸÐºÑĤÐµ
u c
ĠÑĤÐ°ÑģÑĭÐ¼Ð°Ð» Ð´Ð°Ñĥ
ĠÑĥÐ½Ð¸Ð²ÐµÑĢÑģÐ¸ÑĤÐµÑĤ ÑĸÐ½ÑĸÒ£
ĠÑĪ Ð¾
ĠÐ¾ ÑĤÑĭÑĢÑĥ
ĠÐº Ð¾Ð¿
ĠÐ°ÑĤÒĽÐ°ÑĢ Ð°Ð´Ñĭ
ĠÐ°Ð¹ÑĤÐ°ÑĢ Ð»ÑĭÒĽÑĤÐ°Ð¹
ĠÑĢÐ°Ð¹Ð¾Ð½ Ð°Ñħ
ĠÑĤÐµÐ» Ð°
ÑĨ Ð°Ð¼Ð¸
ĠD ep
ĠÐµÐºÐµÐ½ Ñĸ
ĠÑģÐºÐ°Ð· Ð°Ð»Ð°
ÒĽÐ°Ð¹ Ñģ
Ð´Ð° ÑĩÐ¸
ĠÐĹ Ð°ÑĤ
ĠÐ£ÐºÑĢÐ° Ð¸Ð½Ðµ
ĠÐ¿ÑĢÐ¾ ÑĤÐ¾
ĠÐ²ÑĭÐ¿ Ð¾Ð»Ð½Ñı
ĠÒĽÐ¾Ñģ ÒĽÐ°Ð½
ĠÐ°Ð´Ð°Ð¼ Ð´Ð°ÑĢÒĵÐ°
ÐµÐº ÑĤÐ°
ĠÐ»ÑİÐ± Ð¾Ð¹
Ð¿ÑĢÐ¾ ÑĤÐ¸Ð²
ĠÐ¿Ð°Ð¹Ð´Ð°Ð»Ð°Ð½ ÒĵÐ°Ð½
ĠÐ°Ð» ÒĵÑĭÑģ
ĠÑģÑĭ Ð±Ð°Ð¹Ð»Ð°Ñģ
ĠÐļÐ¾Ð¼Ð¸ÑĤÐµÑĤ Ð°
ĠÑģÐ¾Ð´ÐµÑĢÐ¶ Ð°Ð½Ð¸Ñı
ĠÐº ÐµÐ´ÐµÐ½
Ð´Ð° ÑĨÐ¸Ð¸
Ð¡ Ð¾Ð»
ĠÐĲÑĢ Ð¼ÐµÐ½
Ġ1 20
ĠÑĸÑģÑĤ ÐµÐ¿
ĠÑĪ Ð°Ò£
ĠÐŁ Ð¾Ð±
ÑĪÑĸ ÑĤ
Ð°ÑĢ Ð½
ĠÐ£Ð·Ð±ÐµÐºÐ¸ ÑģÑĤÐ°Ð½Ð°
ĠÐ°Ð²Ð¸ Ð°ÐºÐ¾Ð¼
Ð¶ÐµÐ» Ð³Ñĸ
ĠÐ¢ ÐµÐ³
Ġd evelop
ÑĢÐ°Ð¼ ÑĭÐ·
ĠÐ±Ð°Ñģ Ð¿
ÑĢÐ¾ Ð¼ÐµÑĤ
ÑĭÑģ ÑĭÐ¼ÐµÐ½
ĠÒĽÐ¾Ð¹ ÑĭÐ»Ð°ÑĤÑĭÐ½
oc um
ĠÐļÑĭÐ·ÑĭÐ»Ð¾ÑĢ Ð´Ð¸Ð½ÑģÐºÐ¾Ð¹
ĠÐ°ÑĥÐ´Ð°Ð½ ÑĭÐ½Ð´Ð°
ĠÐ·Ð°Ð² Ð¾ÐµÐ²
ĠÐ°Ð¹Ð½Ð°Ð» Ð´Ñĭ
ĠÐ¿ÑĢÐµÐ¸Ð¼ ÑĥÑīÐµ
ĠÐº ÑĢÐ°
ĠÐ½Ð°Ñģ Ð¸ÑħÐ°ÑĤ
ĠÐ¾Ð¿ Ð¸Ñģ
Ð² Ð¸ÑĤ
ĠÐ¼ÐµÐºÑĤÐµÐ¿ ÐºÐµ
ÐĲ Ð´Ð°Ð¼
ĠÐ·Ð°ÑģÐµÐ´ Ð°Ð½Ð¸Ñı
ĠÑĥÐ´ Ð¸Ð²
ÑģÐº ÐµÐ¼ÐµÐ½
ĠÐ¿Ð¾Ð² Ð¾Ð´Ñĥ
ĠÐ´Ð¾Ð»Ð¶ Ð½Ð¾ÑģÑĤÑĮ
ĠÐ¼ Ð°Ñħ
ĠÐ¿ÑĢÐ¸Ð²Ð¾Ð´ Ð¸ÑĤ
ĠÐ¿ÑĢÐ¸ ÑĢÐ¾
ĠÐŁÑĥÐ±Ð»Ð¸Ðº Ð°ÑĨÐ¸Ñı
ĠÐ·Ð°ÑĤÑĤÐ°ÑĢ Ð´ÑĭÒ£
ĠÐ¿ÑĢÐ¾Ð¸ÑģÑĪÐµ ÑģÑĤÐ²Ð¸Ñı
ĠÐ¾ Ð´ÐµÐ¶
ĠÐ¸Ð¼ Ñı
ĠÐ²Ð°ÑĢÐ¸ Ð°Ð½
ĠÐ¿ÐµÑĢÐ² ÑĭÐµ
ĠÐ±Ð°ÒĵÑĭÑĤ ÑĤÐ°
ĠÐĳÒ± Ð´Ð°Ð½
ĠÐ·Ð° Ð¸Ð½ÑĤÐµÑĢÐµÑģ
ÑıÐ± ÑĢÑĮ
ÑĪÐµÐ½ ÐºÐ¾
Ġz akon
ĠÐ¼Ð°Ð¼Ð°Ð½ Ð´Ð°ÑĢ
ĠÑĦÐ¸Ð· Ð¸ÐºÐ°Ð»ÑĭÒĽ
ĠÐ»Ð¸ ÑĪÐµÐ½Ð¸Ñı
ĠÑģÐ¾Ð² ÑģÐµÐ¼
ĠÑĥÐºÑĢÐ° Ð¸Ð½
ĠÐŀ Ð¿ÐµÑĢ
ĠÐ¾Ð± Ð½Ð¾Ð²
ĠÐ¿Ð¾Ð»ÑĮÐ· Ñĥ
ĠÐŁÐµÑĢÐ² ÑĭÐ¹
ĠÐķÐ² Ð³ÐµÐ½
ĠÐ´Ð°Ð½ Ð½Ð¾Ð³Ð¾
ĠÐĴ Ð°ÑĪ
ĠÑį Ð»
Ġ qu
Ñį Ð»ÐµÐºÑĤ
ĠÑģÑĤÑĥÐ´ÐµÐ½ÑĤ Ð¾Ð²
ĠÐĿÐµ Ð³ÑĸÐ·Ð³Ñĸ
ĠÐ¶ Ð¸Ð½Ð°
ĠÐ¿Ð¾Ð² ÑĢÐµÐ¶
ĠÐ½Ð°Ð¿ÑĢÐ°Ð² Ð»ÐµÐ½Ð¸Ð¸
ĠÑĤÐµÐ¼Ð¿ÐµÑĢ Ð°ÑĤÑĥ
ĠÐ³Ð¾ÑĤ Ð¾Ð²Ñĭ
Ð¿ Ð°ÑĤ
ĠÐ±ÐµÑĢ ÑĸÐ»ÐµÑĤÑĸÐ½
ol l
ÑĢÐ° ÑģÐ»
ĠÐ±Ð¾Ð»ÒĵÐ°Ð½ Ð´Ð°
Ð°Ð½ ÑĮ
6 7
ĠÐ¿ÑĢÐ¾ÑĤÐ¸Ð² Ð¾
ĠÐ² ÐµÑĢÑĤ
ĠÑģ ÑĭÐ½Ð°
ĠÑĢÐµÑĪ Ð¸Ð»Ð¸
ĠÐ¡ÐĿ Ðĵ
Ð°ÑĤÐµÐ»ÑĮ Ð½Ð¾Ð¹
ĠÑģÑĥÐ¼ Ð¼Ð°
ĠÑĥ Ð¼
Ġs p
ĠÐ´ÐµÐ» ÐµÐ³
Ð°ÑĤÑĭÐ½ ÑĭÐ½
ĠÒĽÑĭÑĢÐºÒ¯Ð¹ ÐµÐº
ĠÐ¶Ð°Ð»Òĵ Ð°Ñģ
ÐµÐ»ÐµÑĢ ÑĸÐ½Ðµ
ĠÒĽÒ±ÒĽÑĭÒĽ ÑĤÐ°ÑĢÑĭ
ĠÐ´Ð¾Ñģ ÑĥÐ´ÐµÐ±
ĠÐµÐ»ÑĸÐ¼ÑĸÐ· Ð´Ðµ
ĠÐºÐ¾Ð»Ð¸ÑĩÐµ ÑģÑĤÐ²Ð°
ĠÐ¼Ð°ÑĤ ÑĩÐ°
Ðĸ Ð°Ð»
ĠÐ°ÑĢ Ð´Ð°
uth or
ÑĤÐ¾ Ð³Ð¾
ĠÐ½Ð¾Ð¼ ÐµÑĢ
ĠÑĤÐµÐ½ Ð½Ð¸Ñģ
if ic
ĠÐ¶ ÐµÑĢÑĸ
Ð°Òĵ Ð°Ð¹
ÑĤ Ò±ÑĢ
Ð¾Ð» Ð¸
ĠÐ±ÑĸÐ» ÑĥÐ³Ðµ
Ġ4 80
ĠÐ´Ð¾ ÑħÐ¾Ð´Ð¾Ð²
Ðĳ Ð°Ñģ
ĠÐ±Ð¾Ð» ÑģÐ°ÒĽ
ĠÐ½ÐµÐ³ Ð°ÑĤÐ¸Ð²
Ð¸Ðº Ð°Ð½ÑĭÒ£
ĠÑģÑĤÐ¾ÑĢÐ¾Ð½ Ñĥ
ĠÑį Ð½
ĠÑģÐµÐºÑĥÐ½ Ð´Ñĥ
ĠÑĤÐ°Òĵ Ð´ÑĭÑĢ
Ò° Ðł
ĠÐ¿ÑĢÐ°Ð² Ð¾Ð½Ð°ÑĢÑĥÑĪ
ĠÐ¾ Ñī
ÑĭÒĵÑĭ ÑĢÐ°ÒĽ
ĠÐļ Ð°Ð»
ÐºÐµÑĤ Ð¸Ð½Ð³
ĠÐĲÑĦ Ð³Ð°Ð½Ð¸
ĠÐ¾Ð± Ð¾Ð·
ĠÓĻÑĢÑĸÐ¿ ÑĤÐµ
in ist
ĠÐĸ ÐµÐºÐµ
ĠÑģÐ¿ Ð¸ÑĢ
Ġo ur
ĠÐĴÐ¸Ðº ÑĤÐ¾ÑĢ
Ð¸Ð² ÑĪÐ¸Ð¹
ĠÑĤÐµÑĢ Ð°Ð¿
Ð¾Ð½Ðµ ÑĨ
ĠÐ¿Ð¾Ð» ÐµÐ·
ĠÐ´ Ð¾Ð²
ĠÐ³Ð°Ð· ÐµÑĤÑĸ
ĠÐ·Ð½Ð°Ñĩ Ð¸ÑĤÐµÐ»ÑĮÐ½Ð¾
ĠÐĵ Ò¯Ð»
ĠÑĥ ÑĢÐ¾
ĠÐ²Ð¾Ðº ÑĢÑĥÐ³
Ð· Ð¾ÑĢ
ĠÐºÓ©Ð¿ ÑĪÑĸÐ»ÑĸÐº
ĠÐ£ Ð½Ð¸Ð²ÐµÑĢÑģÐ¸ÑĤÐµÑĤ
ĠÐ¿Ð¾Ð´Ð³Ð¾ÑĤÐ¾Ð² ÐºÐ¸
Ñī Ñĳ
ĠÐ°Ð½ÑĭÒĽ ÑĤÐ°Ð»ÒĵÐ°Ð½
ĠÑģÑĤ Ð¸Ð¼
ÐµÐ· Ð¶
ĠÐ¢ Ð°Ñĥ
ĠÑĨ Ð¸ÐºÐ»
ĠÐĺ Ð»ÑĮ
ĠÐ¾Ò£ ÑĤÒ¯ÑģÑĤÑĸÐº
ĠÐ¿ÑĢÐ¾Ð´ÑĥÐº ÑĤÑĭ
ĠÐ¿ÑĢÐ°Ð² Ð¸Ð»Ð°
ĠÑģÑĤÐ¾ Ð¸Ð¼Ð¾ÑģÑĤÐ¸
Ð¿ÑĢÐ¾ Ð´Ñĥ
ĠÐ¶Ð¾Ð» ÑĭÐ½
Ð°Ð»Ð°ÑĢ Ð¼ÐµÐ½
ĠÑĥÑĤ ÑĢÐ¾Ð¼
ĠÐļ ÐĴÐĺ
ĠÑĤÐ°Ð» Ð°Ð½ÑĤ
ĠÐ±Ð¾Ð» ÑĥÒĵÐ°
ĠÐĿ ÐŁ
ĠÒ¯Ð¹ÑĢÐµÑĤ Ñĥ
ĠÐ·Ð°ÑĢÐµÐ³Ð¸ÑģÑĤÑĢÐ¸ÑĢÐ¾Ð²Ð°Ð½ Ð¾
ĠÐ¿ÑĢÐ¾Ð³ÑĢÐ°Ð¼ Ð¼Ð°
ĠÐ°Ð½ Ð³Ð»
Ġ q
ĠÐ½ ÐµÑĢÐ²
ÑĥÐ± ÐµÑĢ
ĠÐĲÐº Ð¸Ð¼
ĠÐ¾ÒĽ ÑĥÒĵÐ°
ĠÑĸÑģÑĤ Ðµ
ĠÐ½Ð° Ð´Ðµ
ĠY ou
ĠÐ´Ó© Ò£Ð³
ĠÐ·Ð°Ðº Ð°Ð·
ĠÐ¾ÑĦÐ¸ÑĨÐ¸Ð°Ð»ÑĮ Ð½ÑĭÐ¹
ĠÐºÐ°Ðº Ð¸Ñħ
ÐµÐ´ Ð»Ð¸Ð²
ĠÐ°Ð» ÒĽ
ĠÐļ Ð°ÑĤ
Ò£ ÑĸÑĢ
ÑĪ Ð¸
ĠÐµÑģÐºÐµÑĢ Ðµ
ĠÐľ Ð°ÐºÑģÐ¸Ð¼
ĠÐ½Ð°Ð·Ð½Ð°Ñĩ ÐµÐ½
Ð½Ðµ Ð´ÐµÐ»ÑĮ
t ablet
ĠÐ²ÐµÑĢ Ð½ÑĥÐ»
ÑĮÑı Ð½
ĠÐºÐ¾ÑįÑĦÑĦÐ¸ÑĨÐ¸ ÐµÐ½ÑĤ
ÑģÐ¿ Ð¾ÑģÐ¾Ð±
Ġp s
ĠÐ¿ÐµÑĢÐ² ÑĭÐ¼
r ent
Ð¾Ð²ÐµÑĢ ÑĪÐµÐ½
ĠÒĽÐ°Ð¹ ÑĭÑĢ
Ġ200 3
ĠÐ²Ð¾Ð· Ð¾Ð±Ð½Ð¾Ð²
ĠÓĺ Ñĥ
Ñı Ð»Ð°
ĠÐ²ÑĭÐ· Ð²
ĠÐ½Ð°Ð¿ Ð¾Ð¼Ð½
ĠÐ½ÐµÑģ Ð¸
ĠÐ¶Ð°Ñģ ÑĥÑĪ
ĠÐ¸Ð½ÑĤÐµÐ» Ð»ÐµÐº
ĠÐĵ Ð°Ð·
ĠÐ¿ÑĢÐ¾Ð²Ð¾Ð´ Ð¸ÑĤÑĮ
ĠÒĽ ÑĭÐ»
Ð¾Ð¿ ÑĢÐ¾
Ġ ÉĻ
er y
ÑģÑĤ ÑĢÐ°
Ġ6 00
ĠÐ¼Ð¾Ð»Ð¾Ð´Ðµ Ð¶
kt op
ĠÐ· Ð¾Ð½Ðµ
ĠÒļÐ°ÑĢ Ð¶Ñĭ
ĠÐľ ÑĥÑĢ
ĠÐ»Ð¸Ð½ Ð¸Ð¸
ĠÐ¸ Ð¿Ð¾ÑĤ
ĠÐ´Ð°Ð»ÑĮ ÑĪÐµ
Ð· ÐµÐ¼
Ð²ÐµÐ¹ ÑĨÐ°ÑĢ
ĠÐĲ ÑĢÑĤ
ÑģÐ»ÑĥÐ¶ Ð±Ñĥ
ĠÑĨ ÐµÐ»Ð¸
ĠÑģÑĨÐµÐ½ Ð°ÑĢ
ĠÑģÐ¾ Òĵ
ÑĤ Ð¿
ĠÒĽÐ°ÑĤÑĭÐ½ Ð°Ñģ
ĠÑģÑĸÐ· Ð³Ðµ
ĠÐ²Ð· ÑĢÐ¾ÑģÐ»
Ð±Ð°Ð½ ÐºÐ°
ĠÒĽÒ±Ð¶Ð°ÑĤÑĤÐ°ÑĢ Ð´Ñĭ
) )
ĠÑģÐ¼ ÑĭÑģ
Ð¾ÑĢ Ð¸
ĠÐ¼ÓĻÐ¶Ð± Ò¯ÑĢ
ĠÐ¼ÓĻÑģÐµÐ»ÐµÐ»ÐµÑĢ Ð´Ñĸ
ÑĤÐµÑĢ ÑĸÐ½Ð´Ðµ
ĠÑģÑĤÑĢÐ°Ð½ Ñĥ
ĠÐ²Ð¸ÑĢÑĥ Ñģ
ĠÐ¼ÑĥÐ¶Ñĩ Ð¸Ð½
201 4
ĠÐ¼Ð°ÑĪ Ð¸Ð½Ñĭ
ĠÐ±Ð°Ð» Ð°ÑģÑĭ
ÑĪ Ð°ÑĢÐ°
Ġ ar
ĠÒĽÐ°Ð´Ð°ÒĵÐ°Ð» Ð°Ñĥ
ĠÑĢÐ°Ð±Ð¾ÑĤ Ð°Ð»
ĠÑĢÐµÐ±ÐµÐ½ Ð¾Ðº
ĠÐ¢ Ð¾Ð»ÑĮÐºÐ¾
e k
ĠÑĦ Ð¾ÑĢÐ¼Ð°
Ð°Ð½ Ðº
ĠÒĽÐ¾Ñģ ÑĭÐ»ÒĵÐ°Ð½
ĠÑĦÐ¸Ð½ Ð°Ð»
ĠÑĢÐ°ÑģÑģÐºÐ°Ð· ÑĭÐ²Ð°ÐµÑĤ
Ġ0 5
Ġw e
Ð°Ñı ÑģÑĮ
ĠÑģÐ¾ÑģÑĤÐ¾Ñı Ð½Ð¸
ĠÑĩ Ð°ÑīÐµ
Ð½Ñĥ Ð»Ð¸
ĠÐ±Ð¾Ð»ÒĵÐ°Ð½ Ñĭ
ĠÒĽÐ¾ÑĢ ÒĵÐ°Ð»
ĠÑįÐºÐ¾Ð½Ð¾Ð¼ Ð¸ÑĩÐµÑģÐºÐ¾Ð¹
ĠÐ¸Ð· Ð¼ÐµÑĢ
ĠÐļ ÑĢ
ĠÑĤÑĥÑĢÐ½Ð¸ ÑĢÐ°
ĠÐ°ÑģÑĭÑĢÑĥ ÒĵÐ°
ĠÐ¡Ð¾ Ð½ÑĭÒ£
ĠÑģÐµÐ²ÐµÑĢ Ðµ
ĠÐŁ Ð¾ÑģÑĤ
ĠÒĽÐ°Ð» Ð°Ð¼
ĠÒĽ Ð¾Ð½Ñĭ
ĠÐ² Ð¸ÑĤ
ĠÑĤÑĥ ÒĵÑĭÐ·
ĠÐĲ Ñħ
ĠÑĥÑģÑĤ ÑĢÐ¾
Ð½ Ð´Ð°ÒĵÑĭ
ÑĢÐ¾Ð² Ð¾Ð¶
ÑĬ ÑıÐ²
Ðĸ Ò±Ð¼
ĠÑģÑĤ Ð¸Ð»
ĠÐĲÐ¹ ÑĤÐ°
ĠÐ¿ Ð°Ñģ
ĠÐ¼Ð¸Ð½ Ñĥ
ĠÑģÑĤÐ°Ð½Ð¾Ð² Ð¸ÑĤÑģÑı
ĠÑģÐ°Ð¼ Ð¾Ð¹
ĠÑĤÑĸÐ· ÑĸÐ¼
ĠÒ±Ð¹ÑĭÐ¼ Ð´Ð°ÑĢ
ĠÑģÑĭÐ¹ Ð»ÑĭÒĽ
ĠÒļÑĭÑĢ ÒĵÑĭÐ·
ĠÐ´Ð² Ð¾Ðµ
ĠÐºÒ¯ÑĪ ÑĤÑĸ
ĠÐ¾ÑĢÐ³Ð°Ð½ Ð´Ð°ÑĢÑĭ
ĠÐ±ÐµÑĢ ÑĸÐ»
ĠÐ¿ÑĢÐ¸ Ð¾ÑģÑĤÐ°Ð½Ð¾Ð²
ĠÐ·Ð°Ðº ÑĢÑĭÑĤ
ĠÐł ÐµÐ·
---- ----
ĠÐ¼ÐµÑģÑĤ Ð¾ÑĢÐ¾Ð¶
ĠÐºÐ°Ð¼ ÐµÑĢ
ĠÑĢÐµ Ð²Ð¾Ð»Ñİ
ĠÑĢÐ¾ÑģÑģÐ¸Ð¹ ÑģÐºÐ¸Ñħ
ĠÐ±ÑĸÐ» ÑĸÐº
ÑĸÑĢ Ð³ÐµÐ½
ĠÐŁÐ¾Ð´Ð¿Ð¸ÑģÑĭÐ² Ð°Ð¹ÑĤÐµÑģÑĮ
des ktop
ĠÑĤÐµ Ð³Ñĸ
Ð¶ Ð°Ð·
ĠÐ·Ð°ÑĢ Ð¿Ð»
ĠÐºÐ°Ð´ ÑĢ
ÑĪÐ°ÑĢ Ð°Ð»Ð°ÑĢ
ĠÐŁÑĢÐµÐ·Ð¸Ð´ÐµÐ½ÑĤ ÑĸÐ½ÑĸÒ£
ÒĵÐ°Ð¼Ð± Ð°ÑĢ
ĠÒĽÐ°Ñĥ ÑĭÐ¼Ð´Ð°
ĠÐ¸Ð¼ Ð¿Ð¾ÑĢÑĤ
ĠÐ¶ Ð°ÑĢÑĤÑĭÐ»Ð°Ð¹
ĠÐ°ÑģÑĭ ÑĢÐ°Ð´Ñĭ
Ġw ork
Ð°ÑģÑĤ ÑĮ
ĠÐ¿Ð¾Ð´ ÑĢÐ¾ÑģÑĤ
ĠÐ¿Ð¾ÑıÑģÐ½ Ð¸Ð»
a ÑĢ
Ñį Ð¹
Ð°Ð»Ð¸Ð· Ð°ÑĨÐ¸Ñı
ÒĽ Ð¾Ñģ
ĠÐ¾ÑĢÑĥÐ¶ Ð¸Ñı
Ð¿ ÑĭÐ½
ĠÐ´Ð¾Ð» Ð³
ĠÐ³ ÑĢÐ¾Ð·
ĠÐµÑģÐºÐµÑĢÑĤ ÐºÑĸÑĪ
ap p
ĠÑįÐ»ÐµÐºÑĤÑĢÐ¾Ð½ Ð´Ñĭ
ÑĢ Ñĸ
Ð´ÑĭÑĢ Ð°ÑĤÑĭÐ½
Ð°Ð± Ð±Ð°ÑĤ
ĠÐ²Ñĭ Ð²Ð¾Ð´
Ð½Ð¾Ð³ Ð´Ð°
ĠÐ¶Ð°Ð» ÒĵÐ°Ð½
s port
ÐºÐ°Ð½ Ð°Ð»
Ġf unction
ĠÐ¼ÓĻÑĢÑĤÐµ Ð±
ĠÐ² ÐµÐ±
ÑģÑĤ ÑĢÐ°Ð»
Ð½Ð¾ÑģÑĤ ÑıÐ¼Ð¸
ĠÐ´Ð¾Ð¼ Ðµ
ĠÐ°ÑĪ ÑĭÐ»Ð´Ñĭ
ĠÐ·Ð°ÑıÐ² Ð¸Ð»Ð°
ĠÐ´Ð°Ð² Ð½Ð¾
ĠÐ²ÐµÑĢÑģ Ð¸Ð¸
P osition
ĠÒ±Ð· ÑĭÐ½Ð´ÑĭÒĵÑĭ
ĠÒĽÐ°Ð¶ÐµÑĤ ÑĤÑĸÐ»ÑĸÐº
ĠÐµÐ» Ð³Ðµ
Ġ200 4
ĠÐ¼Ð°ÑĤ ÐµÑĢ
ĠÐ· Ð´Ð°Ð½
ĠÒ¯ÑģÑĤ ÑĸÐ½Ðµ
ĠÐ¿ÑĢÐµ ÐºÑĢÐ°Ñī
ĠÐ¶Ð°Ò£ ÒĵÑĭÑĢ
ÐµÐ»ÐµÑĢ Ð³Ðµ
Ð¼ Ð°Ð»
Ð¸Ð½ ÑĮ
ĠÐ¿Ð°ÑģÑģÐ°Ð¶ Ð¸ÑĢÐ¾Ð²
ÐµÑĤ ÐµÐ»
Ñģ Ð¸Ð²
ĠÐ¿ÑĥÐ±Ð»Ð¸Ðº Ð°ÑĨÐ¸Ñİ
ĠÐ´Ð¾ÐºÑĥÐ¼ÐµÐ½ ÑĤ
ĠÐºÓ©ÑĢÑģÐµÑĤ ÐµÑĤÑĸÐ½
ĠÐ¾Ð±ÑĭÑĩ Ð½Ð¾
Ð¸Ñı Ð¼
ĠÐŀ Ð´Ð°Ð½
ater ial
ĠÐ¿ÐµÑĢÐ² ÑĭÑħ
ÐµÑģ ÑĸÐ¼ÐµÐ½
ĠÐ°Ð²ÑĤÐ¾ÑĢ Ð»ÑĭÒĽ
ĠÐ± Ð°ÒĵÐ°Ð½
ĠÐºÐ¾Ð» Ð»ÐµÐ³
ÐĻ Ð¾ÑĢ
ĠÐ¶Ð°ÒĵÐ´Ð°Ð¹ ÑĭÐ½
ĠÐ°ÑĢ Ð°Ð»ÑĭÒĽ
ĠÑĪ Ð¾Ñĥ
ÑħÐ¾Ð¶ Ð´ÐµÐ½Ð¸Ñı
ĠÐĶ Ð¾ÑģÑĤ
ĠÐºÐ¾Ð¼Ð¿Ð°Ð½Ð¸Ñı ÑģÑĭ
Ð¶ Ñĸ
Ð´ÐµÑĢ ÑĸÐ½Ð´Ðµ
ĠÐ¿ÑĢÐ¾ÐºÑĥÑĢ Ð°ÑĤÑĥÑĢÐ°
ĠÂ ·
ĠÐºÐµÒ£ ÑĸÑģÑĤÑĸÐº
ĠÐŁÐ¾Ñĩ ÐµÐ¼Ñĥ
Ð°Ð¹ ÑĭÐ¿
ĠÐ¶Ð°Ñģ ÑĭÑĢ
ĠÐŀÑģ ÑĭÐ½Ð´Ð°Ð¹
ĠÑĢÐµÐº Ð»Ð°Ð¼
ĠÐ¼Ð°Ð» ÐµÐ½ÑĮ
Ð»Ð° ÑĩÐ¸Ð²
Ð´Ðµ ÑĥÑĸ
ĠÑĦ Ð°Ð·
ĠÑĢÐµÐ¼Ð¾Ð½ ÑĤ
ĠÐ±Ð°Òĵ Ð°Ð»Ñĭ
ĠÐ² Ð»Ð°Ð´ÐµÐ»ÑĮ
ĠÐºÐ¾Ð¼Ð¿ ÐµÐ½
Ð±ÑĸÑĢ ÑĸÐ½Ðµ
ÑĤÐ° Ò£
ÑĪ Ð¸Ð¼Ð¸
ĠÐ¿ÑĢÐ¾Ð² Ð¸Ð½
Ð´Ð° Ñı
ĠÐ¼Ð°ÒĽ Ð°Ð»Ð°
ĠÐ±ÑĸÐ» ÑĸÐºÑĤ
ĠÐ² ÑĥÐ·
ÒĽÑĭ ÑĤÑĥ
ĠÐķ ÐĿ
ĠÐŁ ÑĢÐ¸Ð¼
ĠÐº ÑĥÐ»ÑĮ
ĠÐ½ÐµÐ³ÑĸÐ· ÑĸÐ½
ÑĢÐ¾Ð² Ð°
ĠÑģÐ°Ð½ ÑĭÐ½
ĠÐ¼ Ð¾Ð·
Ð¸Ð¼ ÑĭÐµ
ĠÒ±Ð¼ ÑĤ
Ð¸Ð± ÐµÑĢ
ÑĸÒ£ Ð´Ñĸ
b usiness
ĠÐ¶Ð°ÑĤ ÒĽÑĭÐ·
Ð½Ð¾ Ð´Ð¾ÑĢÐ¾Ð¶
ĠÑĨ ÐµÐ½Ð°
ĠÐĹÐ°Ð¿Ð°Ð´ Ð½Ð¾
ĠÐ° ÑĢÐ°Ð±
ÑĢ ÑĭÒĽ
ĠÒ± Ð¶ÑĭÐ¼
ĠÑĥÐ³ ÑĢÐ¾Ð·
ĠÑħÐ°Ð»ÑĭÒĽ ÑĤÑĭ
ĠÐ¼ ÑıÑģ
ĠÐĴ ÐµÐ½
Ð½Ð¾Ð² ÐµÐ½Ð¸Ñı
ĠÑĦ Ð°Ð¹Ð»
Ð¢ ÓĻ
ĠÒ±ÑģÑĤ Ð°Ñĥ
ĠÐ° ÒĵÑĭÐ½
ÐļÐ¡ÐŁ Ðŀ
ĠÐ¼Ð¸Ð½Ð¸Ð¼ ÑĥÐ¼
ĠÐ¿Ð¾ÑģÐ² ÑıÑī
ĠÐ· Ð¸ÑıÐ½
5 2
Ġ( "
Ð· Ð¾Ð²
ĠÐ² ÐµÑģÐµ
ĠÑģÐ¿ÐµÑĨÐ¸Ð°Ð»Ð¸ÑģÑĤ Ñĭ
ĠÐ¿ÑĥÑĤ ÑĮ
ĠÐ½ Ð¸ÐµÑĤ
ĠÐ²ÑĭÐ½ ÑĥÐ¶Ð´ÐµÐ½
ĠÐ´ÐµÑĦ Ð¸ÑĨ
Ð»ÑıÑĤÑĮ ÑģÑı
ĠÐ±Ð°ÑģÑĪ ÑĭÐ»ÑĭÒĽ
ĠÐ°ÑģÐ¿ Ð°Ð¿
Ð°Ð¼ÐµÐ½ Ð¾Ð³Ð¾ÑĢ
ĠÐ¼Ð½Ð¾ Ð¶Ðµ
ĠÑĤÐµÑĢÐ³Ðµ Ñĥ
ĠÐ±Ð°Ñģ ÑĭÐ½Ð°Ð½
ĠÑĤÐ¾ÒĽ ÑĤ
Ð¾Ðº ÑĥÐ¿
el o
ÑĥÑİÑī Ð¸Ð¼
Ð°ÑĤ ÑĭÑģ
ĠÑģÐ¾ Ñģ
ÑĤ ÑĸÐ»ÑĸÐ³ÑĸÐ½
ĠÐ¿ ÑĤÐ¸
ĠÐ¿ÐµÑĢ ÐµÑģÑĤ
Ð» Ð¸ÑģÑĮ
ĠÑĤÐ¸ Ð¿Ð°
ĠÑĪ Ð°Ð»
ÑĤ Ð¸Ð½
Ð³ Ð¸Ð·
ĠÐºÐµÑĪÐµÐ½ Ð´Ñĸ
ĠÐ¼ÐµÑģÑĤ Ð°Ñħ
ĠÐľ Ò¯
ĠÐĲÐ»Ð¼Ð°ÑĤÑĭ Ð´Ð°
ĠÑıÐ·Ñĭ Ðº
ĠÑĥÐ¿ÑĢÐ°Ð² Ð»ÐµÐ½Ð¸Ðµ
ĠÐ·Ð°Ð¿ Ð»Ð°Ð½
ĠÐ¼Ò±ÒĵÐ°Ð» ÑĸÐ¼Ñĸ
ĠÑģÑĤÑĢÐ°Ð½ Ð°
ĠÐ¶Ð°Ñģ Ó©ÑģÐ¿ÑĸÑĢ
Ðĺ Ð¡
Ñģ ÑĢÐ¾Ñĩ
ĠÑĤÒ±Ð» ÒĵÐ°Ð½ÑĭÒ£
Ð°ÒĽ ÑĤÐ°ÑĢ
ĠÐ¿ÑĢÐµÐ¶ Ð´Ðµ
Ð¾Ð² Ð°ÑĤÑĮÑģÑı
ĠÐľ Ðµ
ĠÑģÐ°Ð» ÑĤÐ°Ð½
ĠÑĤÐ°Ð¿ ÑģÑĭ
ĠÐ±Ð°Ñģ ÑĭÐ½
ĠÐľÐ°ÑĤ ÐµÑĢÐ¸
ÐµÐ»Ð¸ Ð³Ð¸
ĠÑĤÐ°Ð»ÒĽ ÑĭÐ»Ð°Ñĥ
ĠÐ°Ð·Ð°Ð¼Ð°ÑĤÑĤÐ°ÑĢ Ð´ÑĭÒ£
ĠÐ·Ð°Ò£ ÑģÑĭÐ·
ĠÑģÓ©Ð¹ Ð»ÐµÑĥ
ÑĢÑĥÐ³ Ð¸Ðµ
ĠÐ¿Ð¾ÐºÐ°Ð· Ð°ÑĤÐµÐ»ÑĮ
Ñģ Ð¸Ñı
ĠÐĴÑģÐµÐ¼ Ð¸ÑĢ
ĠÑĪÑĭÒĵÐ°ÑĢ ÑĭÐ¿
Ð°Ð² ÑĪÐ¸Ð¹
ĠÑħÐ¾ÑĤ ÑıÑĤ
ĠÐµÑĢÐµÐºÑĪÐµÐ»Ñĸ Ð³Ñĸ
ĠÐ¾ÑĤÐ½Ð¾Ñģ Ð¸ÑĤÐµÐ»ÑĮÐ½Ð¾
ĠÐºÐµÐ·ÐµÒ£ ÑĸÐ½Ð´Ðµ
ĠÐ·Ð°Ðº ÑĢÑĭ
ĠÐļÐ¾ÑĢ ÐµÑı
ĠÐ¼Ð¾ ÑĪÐµÐ½
ĠÐ¶Ð¾Òĵ Ð°Ð»
ĠÐ¾ÑĤÐ¼ÐµÑĩ Ð°ÑİÑĤ
ĠÐ°ÑĢÑĤ ÑĤÑĭ
Ò£ Ð´ÐµÑĥ
Ġ4 3
ĠÐ±Ð°ÒĵÐ´Ð°ÑĢÐ»Ð°Ð¼ Ð°Ð»Ð°ÑĢ
ĠÐľÓĻ ÑģÐºÐµ
ĠÐ¾ÒĽ ÑĭÑĢÐ¼Ð°Ð½
Ñĩ Ð¸Ð½Ð°
Ð´Ð°Ð» Ð°Ð´Ñĭ
ĠÐ¼ÐµÐ¶Ð´ÑĥÐ½Ð°ÑĢÐ¾Ð´ Ð½Ð¾Ð³Ð¾
ÑĪ Ñĥ
Ġm an
ĠÒ±ÑģÑĭÐ½ ÑĭÑģÑĤÐ°ÑĢ
ÐºÐ¸ Ð¿
ÑĭÐ»Ð°ÑĢ Ð´ÑĭÒ£
ĠÐĹ ÐµÐ¼
ĠÑħÐ¾Ñĩ ÐµÑĤ
ĠÐ¤ÐµÐ´ÐµÑĢ Ð°ÑĨÐ¸Ð¸
ĠÐµ Ð»Ðµ
ĠÐ²ÑĭÐ½ ÐµÑģ
ĠÐ¶Ò±Ð¼ ÑĭÑģÑĤÑĭ
ĠÐ¿Ð°ÑĢ Ð»Ð°Ð¼ÐµÐ½ÑĤÐ°
ĠÐ°Ð³ÐµÐ½ÑĤ ÑģÑĤÐ²Ð°
ĠÐĽ ÐµÐ½
ĠÐ¾ÑĨÐµÐ½ ÐºÐ¸
ĠÑĢÐµÐ³Ð¸ÑģÑĤ ÑĢÐ°ÑĨÐ¸Ð¸
y r
ÐµÐ½ÑĤÐ° ÑĨÐ¸Ñı
ÑĭÒĵ ÑĭÐ½Ð´Ð°
ĠÑĦÑĥÐ½Ðº ÑĨÐ¸Ð¸
ĠÒĽÐ¾Ñģ ÑĭÐ¿
ĠÐ² ÐµÑģÑĤÐ¸
ot os
ĠÐ·Ð½ Ð°Ð¼ÐµÐ½
ĠÑģÐµÐ²ÐµÑĢ Ð¾
ĠÐ¼ÐµÐ´Ð¸ÑĨÐ¸Ð½ ÑģÐºÐ¸Ñħ
ĠÐŁÐ¾Ñģ Ð¼Ð¾ÑĤÑĢÐµÑĤÑĮ
ĠÒ¯Ð¹ Ð»ÐµÑĢ
ĠÐ¾Ñĩ ÐµÐ²Ð¸Ð´
ĠÑħÐ°Ð»ÑĭÒĽ ÒĽÐ°
ĠÐ¶Ð°Ð· Ð°Ð´Ñĭ
ĠÐ¿ÑĢÐµÐ´ÑģÑĤÐ°Ð² Ð»ÑıÐµÑĤ
ĠÒ± Ð½
ĠÑĤÐµÐº ÑģÑĤ
Ġ5 8
Ð¾Ð» Ð°
ĠÐ±ÐµÐ¹ Ð½Ðµ
ĠÐ¾ÐºÐ°Ð·Ð°Ð» Ð¸ÑģÑĮ
ĠÐ´ Ð¾Ð²Ð¾Ð»ÑĮ
ÑĤÐµÑĢ ÑĸÐ¼ÐµÐ½
Ð· Ð°Ðº
c ess
ÑİÑī Ð°Ñı
ĠÐ±Ð¾Ð» ÑĥÑĭÐ½Ð°
Ñĭ ÑģÑĤÐ°Ð½
ĠÐ²Ð¾Ñģ Ð¿
ĠÐľ Ðľ
N ame
ĠÐ±ÑĸÑĢ ÑĭÒ£ÒĵÐ°Ð¹
ĠÐ¿Ð¾Ð´ ÑĢÑıÐ´
ĠÐľ ÐµÑĢ
ĠÒĽÐ°ÑĢÐ°Ð¶ Ð°ÑĤ
Ð¸Ð½ ÑĦ
ÑĥÐ» ÐµÑĤ
ĠÐºÓ©ÑĢÑģÐµÑĤ ÑĥÐ³Ðµ
ĠÓ© ÑģÑĸ
ĠÐµÐ´Ñĸ Ð¼
ĠÐ¢ Ð¾ÑĢ
ĠÐ°ÑģÑģ Ð¾ÑĨÐ¸
ÐµÑģ Ð°
ĠÑģÐ¾ÑģÑĤÐ°Ð² Ð°
Ð½Ð¾Ð³ Ð¸Ðµ
ĠÐ¾ÑģÐ¾Ð± Ð¾
in ed
ĠÐ± ÑĢÐ°ÑĤ
ĠÐ¼ÓĻÐ»ÑĸÐ¼ Ð´ÐµÐ´Ñĸ
ĠÑįÐ½ÐµÑĢÐ³ Ð¸Ð¸
ĠÐ¸ÑģÑģÐ»ÐµÐ´ Ð¾Ð²Ð°Ð½Ð¸Ð¹
ĠÑĤÐ°Ðº Ð°Ñı
ÑĤ ÐµÐ¹Ð´Ñĸ
Ñĩ Ð½Ð¾
ĠÐĴ Ð¾Ð»
Ò°Ð» ÑĤÑĤÑĭÒĽ
Ñĭ ÑĢÐ°
ĠÐ²Ð¾Ð·ÑĢÐ° ÑģÑĤÐµ
ĠÐ²Ð»Ð¸Ñı Ð½Ð¸Ðµ
ĠÐ¡ Ð°Ð¹ÑĤ
ĠÐ¿ÑĢÐ¾ÑĪ ÐµÐ»
ĠÐĨÑĪ ÐºÑĸ
ĠY a
ĠÑĭÐ» ÒĵÐ°Ð»
Ġ9 9
ÐµÐ¼ ÑĮ
Ð½Ð¸Ðº Ñĥ
ĠÐ· Ð¾
ĠÐ¿ÐµÑĢ ÐµÐ¶
Ð´ÐµÐ» ÐµÑĢ
ĠÐ°ÑĤÐ°Ð» Ð°ÑĤÑĭÐ½
ĠÒĽÐ¾Ð½ Ð´ÑĭÑĢ
ĠÐ¿Ð°ÑĢ Ð°Ð¼ÐµÑĤ
ĠÐºÐ¾ÑĢÑĢÑĥÐ¿ ÑĨÐ¸Ð¸
ĠA ir
ÐĲ Ðĳ
n g
ĠÐ±Ð°ÒĵÑĭ ÑĤÑĭ
ĠÓ©Ðº ÑĸÐ»Ñĸ
ÑĤ ÓĻ
ĠÐ±Ð¾Ð»ÑĮÑĪ Ð°Ñı
ĠÑĢ ÑĭÐ±
Ð°ÑĤÑĤÐ°ÑĢ Ð´Ñĭ
Ð¢ Ò¯ÑĢ
ÐµÑģÐºÐ¾ Ð³Ð¾
ott om
ĠÐ²ÑĭÐ±Ð¾ÑĢ Ð¾Ð²
ĠÐ¡ ÑĭÑĢÑĤ
ĠÐ±Ð°Ñģ Ñĭ
ĠÐ³Ð¾Ð´ Ð¾Ð¼
ÑģÐ¾ ÐµÐ´Ð¸Ð½
ĠÐ¡Ð¾Ð² ÐµÑĤÐ°
Ñģ ÑĸÐ¿
ĠÑĤÐµÑĢ ÑĸÑģ
ĠÑĤÓĻ ÑĥÐµÐºÐµÐ»
ĠÑģ ÐµÐ»Ð°
ÑĭÐ² Ð°Ð»Ð¸
ĠÑĦ Ð¾Ñģ
ĠÐ¾ Ð·Ð²ÑĥÑĩ
ĠÒĽÐ°ÑĤÐ°ÑĢ ÑĭÐ½Ð°
ĠÐ·Ð°Ñī Ð¸Ñī
Ð°Ð»ÑĮ Ð½ÑĭÐ¼Ð¸
ĠÒ¯Ð¹ Ð»ÐµÑģÑĤ
Ð¢ Ðł
ĠÐĺ Ð¼ÐµÐ½Ð½Ð¾
ĠÐ² Ð²
ĠÑģÐ¾ÑģÑĤÐ°Ð² Ð»Ñı
ĠÐ¶Ò¯Ð¹ ÐµÐ»Ñĸ
ÐĲ ÐŁ
ÐĨ Ðł
Ġ ÑĭÑģÑĤÑĭÒĽ
ĠÑģÐºÐ¾ÑĢ Ð¾ÑģÑĤÑĮ
ĠÐ°Ð² ÑĤÐ¾ÑĢÑĭ
ÑĪÐµÐ½ Ð¸Ñİ
ĠÒĽÑĭÑģ ÒĽÐ°ÑĢ
ĠÐ¿Ð°Ð» Ð°ÑĤ
ĠÑĢÐ¾Ð´ Ð¸ÑĤÐµÐ»ÐµÐ¹
ĠÐ³Ð°ÑĢ Ð°Ð½
ĠÐŁÑĢÐµÐ´ ÑģÑĤÐ°Ð²
Ð¾ÑĢ Ð»Ð°ÑĢ
ĠÐ¼ Ð½ÐµÐ½Ð¸Ðµ
ĠÐ½Ð¾Ð²Ð¾ÑģÑĤ ÐµÐ¹
ĠÐ· Ð¾Ð»Ð¾
ĠÐ¿Ð°ÑĢ Ð°Ð¼ÐµÑĤÑĢ
Ð¾ÑĤ ÐµÑĢ
ĠÑģÑĤÑĢÐ°Ð½ Ð°Ð¼Ð¸
Ġ4 4
Ð´ ÐµÑĤÑģÑı
ĠÐ¿ÑĢÐ¾Ð²ÐµÑĢ ÐºÐ¸
ĠÐ½ÐµÐºÐ¾ÑĤ Ð¾ÑĢ
ĠÐ¼ÑĸÐ½Ð´ÐµÑĤ ÑĤÐµÐ¼
ĠÐºÐ¾Ð¼Ð¿Ð»ÐµÐº ÑģÐ°
ĠÐ¢ Ð°Ð´Ð¶
Ñģ ÑĭÐ¼ÐµÐ½
ĠÑĢÐ°Ð·Ð»Ð¸Ñĩ Ð½ÑĭÐµ
ĠÑĥÑĩÐ° ÑģÑĤÐ²
ĠÓ¨ Ð¼ÑĸÑĢ
Ġ5 6
ĠÐºÐµÐ¹ ÑĸÐ¿
ĠÐĳ ÑĥÐ´
ÐºÐ¾Ð½ ÑĦÐµÑĢÐµÐ½
ĠÐ³Ð¾ÑĢÐ¾Ð´ Ð¾Ð²
ĠÐºÐµÐ· ÑĸÐ½Ð´ÐµÐ³Ñĸ
ĠÐĴÐ¸Ð´Ðµ Ð¾
ĠÑĤ ÐµÑĢÑĸ
ĠÐ£ ÑĢÐ°Ð»ÑĮ
ĠÐľ ÑĥÐ¶
form at
ÐµÐº Ð¾
ĠÐļ Ó©Ð»
ĠÐ¾Ð³ÑĢÐ°Ð½Ð¸Ñĩ ÐµÐ½Ð¸Ñı
ĠÑĪ ÑĤÐ°Ð±
ĠÐ¼ÐµÒ£Ð³ÐµÑĢ ÑĥÑĪÑĸÑģÑĸ
ĠÐ´ÓĻ ÑĢÐµÐ¶Ðµ
ĠÐ¡ Ð¡Ð¡Ðł
Ð¼ Ð°Ñģ
Ð¸Ð» Ð¸Ð½
ĠÐ½Ð°ÑĪ ÐµÐ¼
ĠÐ³Ð¾ÑĢÐ¾Ð´Ð° Ñħ
ÐºÑĸ ÑĪÑĸ
ĠÑģÑĥÐ´ ÑĮÑı
ĠÒ±ÑģÑĭÐ½ Ð°Ð´Ñĭ
Ð¸ÑĨ Ð¸Ð½
ÐµÐ² Ð¸Ñĩ
ĠÐ±Ó©Ð»Ñĸ Ð³ÑĸÐ½
ĠÑĤÒ±Ð»Òĵ Ð°Ð»Ð°ÑĢÐ´ÑĭÒ£
ĠÑĢÐ°ÑģÑģÐ»ÐµÐ´ Ð¾Ð²Ð°Ð½Ð¸Ñı
Ġ0 1
Ð°Ð± Ð¸Ð»
ĠÑģÐ¾Ð¿ ÑĢÐ¾Ð²Ð¾Ð¶
ĠÐ½ÐµÐ¿ Ð¾ÑģÑĢÐµÐ´
ĠÑİ Ð³Ðµ
ĠÐ±Ð¾Ð»ÑĮÑĪ Ð¾Ðµ
ĠÑģÐ¾ Ð¶Ð°Ð»
Òļ Ò±
ĠÐĳ ÐĲÒļ
ĠÐĶ ÐµÐ¿
Ñĭ Ð¶
ĠÐ¡ ÑĤÑĥ
Ð¾ÑĢ ÒĵÐ°Ð½
ĠÐ¶Ð°Ð» Ð¾Ð±
ÑħÐ°Ð½ Ð¾Ð²
in a
ĠÓĻ ÐºÐµ
ĠÐ´Ð¾Ð³ Ð¾Ð²
ÑĥÑģÐº Ð°
Ð´Ñĸ ÐºÑĤÐµÐ½
ÑĪ Ð°Ñĥ
ĠÑĤÐ°ÑĢ Ð°ÑĤÑĥ
Ðº Ó©ÑĢ
ĠÐ¾ ÑĤÐ¾
âĢ ĭ
ĠÐ½Ð¾Ñĩ ÑĮ
5 4
ocum ent
ĠÐ¿Ð¾Ñģ ÑĢÐµÐ´
ĠÓ©Ð¼ÑĸÑĢ Ñĸ
T o
ĠÐ¶Ò¯Ð· ÑĸÐ½Ð´Ðµ
E N
ĠÐ¸ÑģÐ¿Ð¾Ð»ÑĮÐ· Ð¾Ð²Ð°Ð½Ð¸Ðµ
ĠÐ¿Ð¾ Ð½ÐµÐ´ÐµÐ»ÑĮ
Ð°ÑĢ ÒĵÑĭ
ĠÐ³Ð»Ð°Ð² Ð½Ð¾Ð³Ð¾
Ð¸ÑĤÐµÐ»ÑĮ Ð½Ð¾ÑģÑĤÑĮ
ÐŃ ÑĤÐ¾
ĠÑĢÐ¾ Ð·
ÑĮ ÑĤÐµ
ĠÓĺ Ð»ÐµÑĥÐ¼ÐµÑĤÑĤÑĸÐº
] (
ĠÐ¿Ð¾Ð´ Ð½Ñı
ĠÑıÐ½Ð²Ð°ÑĢ Ðµ
ĠÐ¾ÑĤÐº ÑĢÑĭÐ²
Ð»i Ðº
ÑģÑıÑĤ ÑģÑı
Ð¶ ÐµÐº
ĠÐ¡ Ð¾Ð±
Ñĸ ÑģÑĤÑĸÒ£
ĠÑģÐ¾Ð¾Ð±Ñī Ð°ÐµÑĤÑģÑı
ĠÐ°ÑĢÑħ Ð¸ÑĤ
ĠÐ½Ð° ÑģÑĤÑĥÐ¿
Ġd o
ĠÐ¿ÑĢÐ¸Ð² ÐµÐ´
ĠÐ½Ðµ Ð¿ÑĢÐ¾
ĠÑģÐ°ÒĽ ÑĤÐ°Ð¿
ĠÐ¼Ð¾Ð¼ ÐµÐ½ÑĤÐ°
Ġit s
ĠÓĺ ÐºÑĸÐ¼
ĠÑįÐºÑģÐ¿ÐµÑĢ ÑĤÑĭ
ÐµÐ¹ ÑĸÐ½
ĠÑĢÐ°Ð· Ð³
ĠÐ´ÑĢÑĥÐ³ Ð¸Ð¼
ĠÐºÓĻÑģÑĸÐ¿ ÑĤÑĸÐº
Ð· Ð´
ĠÐ¸Ð½Ð½Ð¾Ð² Ð°ÑĨÐ¸ÑıÐ»ÑĭÒĽ
ĠÐ¿Ð¾Ð» Ðµ
ĠÐ¶Ð°ÑĢ Ð°Ð¼
Ð¾Ð²Ð°Ð½ Ð½ÑĭÑħ
Ð±Ð¾Ð» Ð°ÑĤ
ĠÑĤ ÐµÑģ
ĠÐ¾ÑĢÑĭÐ½ Ð´Ñĭ
ĠÐ± Ð°Ñĥ
Ð¾Ñħ Ð¾Ð·ÑıÐ¹
ĠÐ¦ ÐµÐ½ÑĤ
ĠÓĺ Ð¹
ĠÒļ Ð°Ñĥ
Ð¿ ÐµÐ´
Ð°Ñİ ÑīÐµÐ³Ð¾
ĠÐºÐ¾Ð¼Ð¼Ñĥ Ð½Ð°Ð»Ð´ÑĭÒĽ
ĠÓ¨Ð· Ð±ÐµÐºÑģÑĤÐ°Ð½
Ð¸Ð¼ ÑģÑı
ĠÐ Ļ
ÐĶ Ðķ
ĠÐ±Ð°ÑģÑĤ Ð°Ð»ÒĵÐ°Ð½
ĠÐ¶ÑĭÐ» ÑĭÐ½Ð°
ĠÐ¶ Ð¸Ð»Ð¸Ñī
ĠÑģÐ¾Ð² ÐµÑī
Ðĺ Ðĺ
Ð¾ÑĤ Ð²ÐµÑĤ
ĠÐ¿ÐµÑĢÐµÑĢ Ð°Ð±Ð¾ÑĤ
ĠÐ·Ð°Ð¼ ÐµÐ½
ĠÑģÐ°Ð¼ Ð¾Ð»ÐµÑĤ
Ġ0 2
ĠÐ¿ Ð¾ÑĢÑĭ
ĠÑĥÐ² Ð¸Ð´
s et
ĠÐ±ÓĻÑĢ ÑĸÐ½
ĠÐ¼ÑĥÐ¶ ÑĩÐ¸Ð½Ñĭ
ÑĤÐ° Ñı
ĠÑįÐ½ÐµÑĢÐ³ÐµÑĤ Ð¸ÐºÐ¸
ĠÐ°Ð»Ð´ ÑĭÐ½Ð°
ĠÑģÐµÐ±ÐµÐ¿ ÑĤÑĸ
ĠÐ¿Ð¾ ÐºÐ°Ð·Ð°Ð»
Ð¸ÑĤ Ð¼
ĠÑħ Ð¾Ð·Ñı
ÑĭÐ¼Ð´Ñĭ Ð»ÑĭÒĽ
ĠÐ½Ð° Ð³ÑĢÐ°
ĠÐľÐ¸Ñħ Ð°Ð¸Ð»
ĠÐ¼Ò¯ Ð³ÐµÐ´
ĠÐºÐ¾ÑĢ Ð¿Ð¾ÑĢ
ĠÐµ ÐºÑĸÐ½
ĠÐ¾ÑģÐ½Ð¾Ð² Ð½Ð¾Ð¹
ĠÐ½Ð°ÑģÑĤÐ¾Ñı Ñī
ĠÐ´Ðµ Ð±
ĠÒ® Ð»
A T
ÑĨÐ¸Ð¾Ð½ Ð½Ð¾
ĠÒĵ Ð°ÑĢÑĭÑĪ
Ð« ÐĹ
ĠÐµÐ» Ð´Ðµ
ĠÐºÑĢÐ¸Ð· Ð¸Ñģ
ĠÑĪ Ð°Ð¿
ĠÒĽÐ°ÑĤÑĭÑģ ÑĭÐ¿
ĠÐ¸Ð½ ÑĤÐµÐ½
ĠÐ¿ÑĢÐ¾Ð´Ð¾Ð»Ð¶ Ð°ÐµÑĤ
ĠÐ½Ð¾ÑĢÐ¼ Ð°ÑĤÐ¸Ð²ÑĤÑĸÐº
Ð´Ð°Ð½ Ñĭ
ĠÑĢÑĥÐ± ÐµÐ¶
ĠÐ¾ÑĢÐ½ Ð°ÑĤÑĥ
ĠÐ´ Ð°ÐµÑĤ
ĠÐ° ÑģÑĤÑĭ
ĠÐ´Ð¾Ð¿ Ð¾Ð»Ð½
ĠÑĢÐµ ÐºÐ¾Ð½
ĠÐ¼ÐµÐ¼Ð»ÐµÐºÐµÑĤ ÑĤiÐº
Ġ8 30
ĠÐĿÐµÑģ Ð¼Ð¾ÑĤÑĢÑı
ÑĤ Ð°Ðº
r and
ĠÒĽÐ¾Ñģ ÑĭÐ¼
ĠÐ» ÐµÐ¶
ĠÐ² Ð¾ÑģÑĮ
ĠÐ´Ð°ÑıÑĢ Ð»Ð°Ñĥ
ĠÑĸÐ· Ð´ÐµÐ½
p r
ĠÑĤÒ±ÑĢÒĵÑĭÐ½ Ð´Ð°ÑĢÑĭ
ĠÐ¿ÐµÑĢÐµÐ³ Ð¾Ð²Ð¾ÑĢÑĭ
Ġ ÒĵÐ°
ĠÐ¼ÐµÑĤ Ð°Ð»
Ġ, -,
ĠÐŀ Ð´Ð¸Ð½
ĠÐ¼ÐµÐ¶Ð´ÑĥÐ½Ð°ÑĢÐ¾Ð´ Ð½Ð¾Ð¹
ĠÐ¿ÑĢÐ¾ÐµÐº ÑĤÑĭ
ĠÑħÐ¾Ð» Ð¾Ð´
ĠÐŁÐµÑĤÑĢÐ¾Ð¿Ð°Ð²Ð» Ð¾Ð²
ĠÐ´ÐµÑĢ Ð±ÐµÑģ
ÑĥÑĪ ÐºÐ°
io us
' ],
ĠÐ¾Ð±ÑĢÐ°Ð· Ð¾Ð²Ð°ÑĤÐµÐ»ÑĮ
ĠÐ° Ð´Ð°Ð»
ÑĨ Ð¸ÐºÐ»
ĠÐ°ÑĢ Ð¼Ð°Ð½
ĠÐ¿ÐµÑĢÐ² Ð¾Ðµ
ÐºÐ¾Ð± Ñĭ
ĠÐ¶Ð°Ð· Ð±
Ð¸ÑĤÐµÐ»ÑĮ Ð½Ð¾ÑģÑĤÐ¸
ĠÑģÐ¾ÑģÑĤÐ¾ Ð¸ÑĤ
ĠÐŀ ÐŁ
ĠÐļÐµÐ¹ ÑĸÐ½
o ul
ĠÐ¾Ð±Ð½Ð°ÑĢÑĥÐ¶ Ð¸Ð»Ð¸
ĠÐ½Ðµ Ð¾Ð´
Ð°ÑģÑĤ ÑĭÒ£
ĠÐ¡Ð¾ Ñİ
ĠÒ¯ Ð´ÐµÑĢ
ĠÑģÐ¾Ð´ÐµÑĢÐ¶ Ð°Ð½Ð¸Ðµ
ĠÑģÑĢÐµÐ´ Ð½ÐµÐ³Ð¾
ĠÐĶ Ð°Ð½Ð¸Ñı
Ð»Ð°ÑĢ ÑĭÐ½Ð´Ð°
ĠÑĢÐµ ÑģÑĤ
ĠÐ°ÑģÑĭÑĢ Ð°ÑĤÑĭÐ½
ĠÓĻÒ£Ð³ÑĸÐ¼ Ðµ
ĠÑģÐ´ÐµÐ» Ð°Ð»
Ðĳ Ò±
ĠÑĢÐµ ÑĩÑĮ
ĠÐ¿ÑĢÐµÐ´ ÑģÑĤÐ¾Ñı
ĠÐºÐ°Ð·Ð°ÑħÑģÑĤÐ°Ð½ ÑĨÑĭ
ĠÑĢÑĥ ÐºÐ¸
ĠÐ½Ð° ÑĨ
Ð²Ð°ÑĢ Ð´
Ð»ÐµÑĤ ÑĢÑıÑģ
ĠÐºÐ°ÑĩÐµ ÑģÑĤÐ²Ð¾
ĠÐ·Ð½Ð°Ñĩ Ð¸ÑĤ
Ð½ ÐµÑĤÑģÑı
ĠÑĢÐ° ÐºÐµÑĤ
ĠÑĥÐ½Ð¸Ð²ÐµÑĢÑģÐ¸ÑĤÐµÑĤ Ð°
ĠÑĪÐºÐ¾Ð» Ðµ
ÑģÑĤÑĢ Ð¸Ñı
ĠÐ¶ ÑĸÐº
Ð¸Ðº Ð¾Ð¹
ĠÑĨ ÐµÑħ
ĠÐ± ÑĥÑħÐ³Ð°Ð»ÑĤÐµÑĢ
A pp
Ð¸Ð´ÐµÐ¼Ð¸ Ð¾Ð»Ð¾Ð³
ĠR e
Ð¸Ð± Ð¸ÑĢ
ĠÐ²Ñĭ Ð´
Ð± ÐµÑĤÐ¾Ð²
ĠÑĤÑĢÑĥ Ð±
ĠÒĽÑĥ Ð°ÑĤ
Ġ4 1
Ġp p
Ð± ÑĢÐ°Ð½
ĠÑģ ÐµÐ¹
ĠU S
ÑĨ ÐµÑģÑģ
ĠTh is
Ñİ ÑģÑĮ
ĠÐ°Ñĥ ÑĭÐ»Ñĭ
ĠÐ·Ð°Ð¿ Ð°Ñģ
ĠÐº ÑĢÐ¸ÑģÑĤ
Ð½Ð¾Ð³ ÑĢÐ°ÑĦ
ĠÑĤÐµÐ½ Ð´ÐµÐ½
Ġ7 7
ÑĭÑĪ Ð»ÐµÐ½
ow n
ĠÐºÐ²Ð°ÑĢ ÑĤÐ°Ð»
ĠÐ´Ð²Ð¸Ð¶ ÐµÐ½Ð¸Ðµ
Ð¡ Ðľ
ĠÐŀÑĤ Ð¼ÐµÑĩ
ĠÑıÐ·Ñĭ ÐºÐ°
ĠÑį Ð¼
ÐĿ ÑĥÑĢ
ĠÐ½ÑĭÒĵ Ð°Ð¹ÑĤÑĥ
ĠÓ©ÑĤÐºÑĸÐ· Ð´Ñĸ
ÒļÐ°Ð·Ð°ÒĽÑģÑĤÐ°Ð½ Ð½ÑĭÒ£
ĠÑĪÐµÐºÑĤÐµ ÑĥÐ»Ñĸ
TI ON
ÐµÑģÑĤ Ð½Ð¾
ĠÐ¾ÑĢÑĭÐ½ Ð´Ð°ÑĢÑĭ
ĠÐ¾ÑĤÐ¼ÐµÑĤ Ð¸Ð»Ð°
ĠÐº Ð¾ÑĢÐ¼
ÒĵÒ±ÑĢ Ð»ÑĭÐ¼
ĠÑĢÐ¾ÑģÑģÐ¸Ð¹ ÑģÐºÐ¾Ð³Ð¾
ĠÐļ Ð°Ð±
ĠÑģÑĤÐ°ÑĤ ÑĥÑģ
A R
ĠÐ°Ðº ÑĨÐ¸Ð¹
ĠÐ¶ÐµÐº Ð¿Ðµ
Ð°ÑĤ Ð°Ñĥ
ĠÓĻÑĥ Ðµ
Ġa g
Ð¸Ð» Ð¸Ñı
b ottom
s k
ÑĭÐ¼ Ð½ÑĭÒ£
ĠÐłÐµÑģÐ¿ÑĥÐ±Ð»Ð¸Ðº Ð°Ð»ÑĭÒĽ
ur n
5 3
ĠÐ¿ ÑĥÑĤÐµ
Ðŀ Ð¹
ÐµÐ»Ð¸Ð³Ð¸ Ð¾Ð·
Ġph one
ĠB ank
ĠÑģÐ¼Ð¾Ð³ Ð»Ð¸
Ð´Ð°Ð½ ÒĵÐ°Ð½
] ;
ĠÐ¿Ð°ÑĤ ÑĢÐ¸Ð¾ÑĤ
ÐµÑģ ÑĸÐ½Ð´ÐµÐ³Ñĸ
ĠÐ¼Ð°Ð¼Ð°Ð½ Ð´ÑĭÒĽ
ĠÐ²Ð°Ðº ÑĨÐ¸
ÐµÐ» ÐµÑĤ
ĠP h
ĠÐ¿Ð¾Ð¼ Ð¾ÑĩÑĮ
Ð¾ÑĤ ÑĮ
ĠÐ±Ó©Ð»ÑĸÐ½ Ð³ÐµÐ½
Ð¾Ðº Ñģ
ĠÐĹ Ð°ÑĢ
ĠÐ»ÐµÑĩ ÐµÐ½Ð¸Ðµ
Ð°Ð½ Ð¾Ð²Ð°
ĠÐºÐ¸Ð»Ð¾Ð¼ÐµÑĤ ÑĢÐ¾Ð²
ÑĸÑģ ÑĸÐ½ÑĪÐµ
ĠÐľ ÐµÐ¹
\ /
ĠÑģÐ¾Ð» ÑĤÒ¯ÑģÑĤÑĸÐº
ÑĢÐ°Ð½ Ñģ
Ð¡Ð¢ÐĲÐĿ ÐĲ
ĠÐ¿ ÑĥÐ±
Ð»Ðµ ÑĥÐ³Ðµ
ĠÒĽÐ°Ð¼ ÑĤÐ¸
ĠÐ¾ÑĢÐ³Ð°Ð½ Ð´Ð°ÑĢÐ´ÑĭÒ£
ĠÑĩÐµÐ»Ð¾Ð² ÐµÑĩ
ĠÐ·Ð°ÑģÑĤ Ð°Ð²
ĠÐ±ÑĥÐ´ÑĥÑī ÐµÐ¼
Ð»Ñİ Ñģ
Ð½ Ð¾Ð»ÐµÑĤ
ĠÑĤÑĢÐ° Ð³ÐµÐ´
ÐµÐºÐµ Ð³Ðµ
ÑĭÒ£ Ð´Ð°ÑĢ
ĠS h
Ðĵ ÐĨ
ĠÐĴ ÑĭÑģ
ĠÑĥ Ð½Ð¸Ðº
8 8
Ð¶ ÓĻÐ½Ðµ
5 1
ÑģÑĤÐ² Ð°Ñħ
ĠÐ²ÑģÑĤÑĢÐµ ÑĩÐµ
ĠÐºÐ¾Ð½ÑĤ ÑĢÐ°ÐºÑĤ
ĠÐ¶ÐµÑĤ ÐµÐ´Ñĸ
Ġ id
ÐµÐ´ Ð½ÐµÐ²
ĠÐºÓ©ÑĢÑģÐµÑĤ ÑĸÐ»ÐµÐ´Ñĸ
ĠÐ°Ð³ÐµÐ½ÑĤÑĤÑĸ Ð³Ñĸ
ĠÐĳÐ°Ð» Ð°Ð»Ð°ÑĢ
ĠÐ½ÐµÐ´ Ð²Ð¸Ð¶
ĠÑĢÑı Ð´Ð°
ĠÐ½ÐµÐ³ÑĸÐ· Ð´ÐµÑĢÑĸ
ĠÑĪ ÓĻ
ĠÐºÒ¯Ð½ Ð´ÐµÐ»ÑĸÐºÑĤÑĸ
ĠÑĤÑĭÐ½ ÑĭÑģ
at a
ÐµÑĢ Ð³
ĠÐµÐ´Ð¸Ð½ Ð¸ÑĨ
ÐºÐ°Ñĩ Ð°ÑĤÑĮ
Ð° Ñĩ
ĠÑĩ Ð°ÑģÐ°
Ñģ ÑĸÒ£
ĠÐ°Ð· Ð°Ð¹ÑĤÑĥ
om e
ÑĨÐ¸Ñı ÑģÑĭÐ½ÑĭÒ£
A uto
ÑĪ Ð¸ÐµÑģÑı
ĠÑģÐµÐ· Ð¾Ð½
ĠÑĪÑĤ Ð°ÑĤ
ĠÐ¶ÑĭÐ» Ð´Ð°ÑĢÒĵÐ°
ĠÑģÐ»ÐµÐ´ÑĥÑİÑī Ð¸Ðµ
Ġt ablet
Ð¸ÑĢÑĥ ÐµÐ¼
ÑĢÐ°Ñģ ÑĭÐ½ÑĭÒ£
ĠÐ´ÐµÐº Ð»Ð°ÑĢ
ĠÐ¢ÐµÐ¼ Ð¸ÑĢ
Ġthe ir
ĠÑĦ Ð¸Ðº
ĠÐ´Ð¾ÑĢÐ¾Ð³ Ð¸
ĠÒĽ Ð¸Ð¼ÑĭÐ»
7 13
u al
ĠÑĢÐ°ÑģÑģ Ð¼Ð¾ÑĤÑĢ
ĠâĢ ¦
ĠÑĢÐµÐ·ÑĥÐ»ÑĮÑĤ Ð°ÑĤÐ¾Ð²
Ð´Ñĸ ÐºÑĤÑĸÒ£
Ð°Ð¼ Ñĭ
ĠÐĿ ÐµÐº
ĠÐ¿ Ñı
ĠÐ±ÑĸÐ»Ð´ÑĸÑĢ Ð´Ñĸ
ĠÐ¿Ð» Ð¾ÑĤ
Ġ25 0
ĠÒĽÐ°Ð¹ Ð´Ð°
Ð¸Ð± Ð»Ð¸
ĠÐ¿Ð»Ð°Ð½Ð¸ÑĢÑĥ ÐµÑĤ
ĠÑģ ÑĦÐ¾ÑĢÐ¼
ĠÐ±ÐµÐ»Ð³Ñĸ ÑģÑĸ
ĠÐ² ÑĢÐµÐ´
ĠÐ·Ð°Ò£Ð´Ñĭ Ð»ÑĭÒĽ
ĠÐ½ÐµÑĦ ÑĤÑı
ĠÐłÐ¾ÑģÑģ Ð¸Ñİ
Ð¾Ð¼ Ð°
Ġ5 9
Ð°Ð´ ÐµÐ½Ð¸Ñı
Ð² Ð¾Ð¹
ĠÐ½ÐµÐ¾Ð±ÑħÐ¾Ð´ Ð¸Ð¼Ð¾ÑģÑĤÑĮ
ĠÐĴ ÐµÑĢÑħ
Ð´ÐµÐ¼ Ñĸ
ĠÐĲ Ð½Ð°Ð»
ĠÑĢÐµÑĪ Ð¸Ð»
Ñĭ ÑģÐº
ĠÑĢÐµÐºÐ¾Ð½ ÑģÑĤÑĢÑĥ
Ð¸ÑĤ Ð¾Ð¼
ĠÑĥÑģÐ¸Ð» ÐµÐ½Ð¸Ðµ
ĠÐ¶Ð¾Ð» Ð¼ÐµÐ½
Ð¾Ñģ ÑĭÐ½
Ð¸ÑģÑģ Ð¸Ñı
ĠÐ±Ð°Ð½ ÐºÐ¸
Ð°Ð½ Ð¸Ð¼
Ð¸ÑĦ Ð¸ÐºÐ°
ĠÐ²ÐµÐ´Ð¾Ð¼ ÑģÑĤÐ²Ðµ
ĠÐ½Ð° Ð²
ĠÐºÐµÑĢ Ð½Ðµ
ĠÐ°Ñĥ ÑĭÑģÑĤÑĭÑĢÑĥ
ÐĲ ÑĤÑĭÑĢÐ°Ñĥ
f ull
ĠÐ½Ð°ÑĩÐ°Ð»ÑĮ Ð½Ð¸Ðº
ĠÐ¾ÑĤÐ´ÐµÐ»ÑĮ Ð½ÑĭÑħ
Ð°ÒĽÑĭÑĢ ÑĭÐ¿
ĠÑĤÑĸÑĢ Ñĸ
ÑĸÑĢ ÑĸÐ¼
ÑĢ Ð¼
ĠÐºÐµÐ» Ñĸ
ĠÐĳÐ°ÑĥÑĭÑĢ Ð¶Ð°Ð½
ÑĭÐ»Ð¼ ÑĭÑģÑĤÑĭÒĽ
ĠÑĦÐ¸Ð½Ð°Ð½Ñģ Ð¾Ð²ÑĭÑħ
Ð¶ Ð°Ð±
ap h
Ð¿ Ð°Ð¹Ð´Ñĭ
ĠÐ´Ð¾Ð» Ñı
ph otos
ĠÐ¶Ð°ÑĢ Ð°ÑĤ
ĠA stana
ĠÐ·Ð°Ð¼Ð°Ð½ Ð°ÑĥÐ¸
Ð´ÑĸÐº ÑĤÑĸ
ĠÐĿ Ð°ÑĤ
ĠÑįÐº ÑģÐº
ĠÑĪÐ°ÑĢ ÑĤÑĭ
Ñī Ð¸ÐºÐ¸
Ġr ender
ĠÐ£ ÑģÑĤÑĮ
ÐĲ ÑĤÐ°Ð¼
ĠÓĻÐ»ÐµÐ¼ Ð½ÑĸÒ£
ĠÐ¼ÐµÐ½ Ñĸ
ĠÐ¾ÑĢÐ³Ð°Ð½ Ð´Ð°ÑĢÑĭÐ½ÑĭÒ£
ĠÐĴÐµÐ»Ð¸ÐºÐ¾Ð±ÑĢÐ¸ÑĤ Ð°Ð½Ð¸Ð¸
Ġ6 7
ĠÐºÐµÒ£ ÐµÐ¹ÑĤÑĥ
Ñĩ Ð¸ÐºÐ¸
Ð´ÑĭÑĢ ÒĵÐ°Ð½
Ðµ Ð¸
Ð°ÑĢ Ð¼
ĠÐ¿ÑĢÐ¾ÑĪ Ð»Ð¸
ÑĭÐ¼ Ð´Ð°ÑĢ
Ð¡ ÑĤ
ĠÐŁÐ¾Ñģ Ð»ÐµÐ´
ĠÐ´ÐµÐ¼Ð°Ð» ÑĭÑģ
le d
Ðĸ ÐµÑĢ
Ð·Ð² ÐµÑĪ
ĠÐ¢Ð°Ð´Ð¶ Ð¸ÐºÐ¸
on s
ment s
ĠÐ³ÑĢÐ°Ð´Ñĥ ÑģÐ¾Ð²
ĠÐ±ÑĸÑĢÐ» ÐµÑģÑĸÐ¿
ĠÐ¸Ð¼ Ð¿ÐµÑĢ
ĠÐĸÐ¾Ð» Ð´Ð°Ñĥ
Ð°ÑĨÐ¸Ñı Ð»Ð°ÑĢ
et h
ĠÐºÐµÑĤ Ñĥ
ĠÐĸ ÐµÒ£
ĠÑĸ ÑģÐºÐµÑĢ
Ð³Ð¾ÑĢ Ð¾Ð´
ÐºÐ¾ ÑģÑĤÐ¸
ĠÐ·Ð°Ð² Ð¾Ð´
Ð°Ð± Ð°ÑĤÑĭÐ²
ÑĢÐ¸ ÑĦ
ĠÐ¾ÑģÐ½Ð¾Ð² Ð½ÑĭÐµ
" )
it er
Ðľ Ð°ÒĽ
6 1
ĠÐ¿Ð¾Ð·Ð¸ ÑĨÐ¸Ð¸
ĠÐµ ÑĤÐµ
re e
ĠÐ·Ð°ÐºÐ¾Ð½Ð¾Ð´Ð°ÑĤÐµÐ»ÑĮ ÑģÑĤÐ²Ð°
Ð°Ð¹ ÑģÑı
ĠÑĤÐµÑĢ ÐµÐ·
ÑĤ Ð°ÐºÐ¸
Ð¾Ð½ ÑĤÐµÑĢ
osit photos
6 8
ĠÑĤÓ© Ð»ÐµÐ½
ĠÐ¼ÑĸÐ½Ð´ÐµÑĤ Ñĸ
Ð´ Ð¾ÑĢ
ĠÐºÐ°Ð´ ÑĢÐ¾Ð²
Ð± Ð°ÑģÑĭÐ½ÑĭÒ£
Ð°ÑİÑīÐ¸Ñħ ÑģÑı
ĠÐ»ÑİÐ´ ÑıÐ¼
ĠÐ¶Ð°Ñģ Ð°Ð»Ð°Ð´Ñĭ
ĠÐ¶ÐµÑĢ Ð´ÐµÐ½
ĠÐ´ÐµÐ²ÑĥÑĪ ÐºÐ°
ĠÐ°Ð»Ð¼ Ð°Ñģ
ĠÑģÐ°Ð» ÒĵÐ°Ð½
Ġ[ '
ĠÐ¨ ÑĭÐ½
ĠÑĥ ÑģÑĤÑĢÐ°Ð½
ĠÐ½Ð°Ð»Ð¸Ñĩ Ð¸Ðµ
Ðŀ ÐĹ
ÑĭÐ¼ ÐºÐµÐ½ÑĤ
ĠÐĿ Ð°Ð²
ĠÐ½Ð¸ÐºÐ°Ðº Ð¸Ñħ
ĠÐ²Ð¾ÐµÐ½Ð½Ð¾ ÑģÐ»ÑĥÐ¶
Auto R
elo ads
Ġis AutoR
Ġphone Width
Ġtablet Width
ĠisAutoR eloads
ĠÐ¼ÓĻÑģÐµÐ» ÐµÐ½Ñĸ
Ðº Ð¸Ð¼Ð¸
ÑĤÐ° ÑģÑĤ
ad e
ĠÐ¿Ð¾ÑĤÐµÐ½ÑĨÐ¸ Ð°Ð»
Ðĺ ÐĹ
ĠÐ±Ð¾Ð»ÑĮ Ð½Ð¸ÑĨÑĭ
ĠÐŁ Ð¾ÐºÐ°
ĠÒĽÑĥ Ð°Ð½ÑĭÑĪ
Ð± Ó©Ð»
ĠÐ° ÑģÑĭÐ»
ĠÑĥÑĩÑĢÐµÐ¶ Ð´ÐµÐ½Ð¸Ñı
ĠÐ´Ð¾Ð± Ñĭ
ĠÐ¸Ð¼ÑĥÑīÐµ ÑģÑĤÐ²Ð°
ĠÐ¾Ð±ÑĢÐ°Ð· Ð¾Ð²Ð°Ð½Ð¸Ðµ
ĠÐ·Ð°Ð½Ð¸Ð¼ Ð°ÐµÑĤ
ĠÐ½ÓĻÑĤÐ¸Ð¶ ÐµÐ»ÐµÑĢÑĸ
ÑģÑĤ Ò¯ÑĢ
Ðļ Ð°Ð¼ÐµÐ½Ð¾Ð³Ð¾ÑĢ
ÐļÐ°Ð·Ð°ÑħÑģÑĤÐ°Ð½ ÑģÐºÐ°Ñı
ĠÑį ÑĦÐ¸ÑĢ
ĠÐ³ Ð¸Ð¼
ĠÐ¶Ð°Ð¿ Ð¿Ð°Ð¹
ĠÐ¸Ð½ÑģÐ¿ ÐµÐº
ĠÑģÑĤ Ð°Ð´Ð¸
ĠÐĸ Ð¸
ĠÓĻÐ´ÐµÑĤ ÑĤÐµ
ÐĲ Ð±Ð°Ð¹
ĠÒĽÐ¾Ð» Ð¶ÐµÑĤ
ĠÑĥ ÑģÐºÐ¾ÑĢ
ĠÐ±ÑĸÐ» ÐµÐ´Ñĸ
ĠÐ¿ÑĢÐ¾ÑĤÑı Ð¶ÐµÐ½Ð¸Ð¸
Ñī ÐµÐ½Ð¸Ðµ
ÑĢÐ¸ Ñĩ
ĠÐ½Ð°Ð¿ÑĢÐ°Ð² Ð»ÐµÐ½
ĠÐľÓĻ Ð¶
ĠÐ¢Ð°Ð± Ð¸Òĵ
ĠÐ·Ð°Ð¿ ÑĥÑģÑĤ
ĠÐºÐ°Ð¶Ð´ Ð¾Ð¹
ĠÐ°Ð» ÑĭÐ½Ð´Ñĭ
ĠÐĴ ÐļÐŀ
ĠÑĥ ÑħÐ¾Ð´
ĠÐ±Ò±Ð» ÑĪÑĭÒĽ
ĠÐ·Ð°ÑĤÑĤÐ°ÑĢ Ð´Ñĭ
ĠÐ¥ Ð¾ÑĢ
apt ive
ĠÐ¶ÐµÐº ÐµÐ»ÐµÐ³ÐµÐ½
ĠÐ¶Ð°Ð· Ð´Ñĭ
ĠÐ´Ð²ÑĥÐ¼ Ñı
Ð´Ð° ÑģÑĤÑĭÑĢÑĥ
ĠÐľÐ¸Ð½Ð¸ÑģÑĤÐµÑĢ ÑģÑĤÐ²Ð¾
ĠÐº ÑĢÐ°ÑĤ
ÑĢÐ°Ð¹ ÑĤÑĭÐ½
ĠÐ°ÐºÑĤÐ¸Ð² Ð¾Ð²
ÐºÐµÐ½ÑĤ Ð°Ð¹
ĠÐºÐµÐ» ÑģÐµ
Òļ Ð°ÑĢÐ°
ĠÑģÐ¾ÑģÑĤÐ¾ÑıÐ½ Ð¸Ñı
ĠÐ± Ò¯Ð¹
ĠÐµÐ½Ð³ÑĸÐ· ÑĸÐ»Ð³ÐµÐ½
ÑĭÐ² Ð°Ð»
enc y
ĠÐ±Ð°ÑģÑĪ ÑĭÐ»Ð°ÑĢ
f o
Ġs pe
ĠÒĽÒ± Ð¿Ð¸Ñı
ĠÑĦÐ¸Ð½Ð°Ð½ÑģÐ¾Ð² Ð¾Ð¹
ĠÒĽÐ°ÑģÐ¸ÐµÑĤ ÑĤÐµÑĢÑĸ
ĠÐ´Ð¾Ðº ÑĤÐ¾ÑĢ
ĠÐľ Ð¸ÑĢ
ÑĤÑĸÐ½ ÑĪÑĸ
ĠÐ¼Ð°ÑĢ ÐºÐ¸
ĠÑģÐµÐº ÑĤÐ¾ÑĢÐ°
ĠÐ³ÑĢÑĥÐ¿ Ð¿Ðµ
ĠÑģÑĤÐ°ÑĨÐ¸Ð¾Ð½ Ð°ÑĢ
ĠÐ¶ÐµÐ»ÐµÐ· Ð½Ð¾Ð´Ð¾ÑĢÐ¾Ð¶
ĠÐ¾ÑĤ ÑĢÐ°ÑģÐ»
ord er
ĠÐ±ÑĸÐ» Ð³ÐµÐ½
Ðĳ ÑĸÐ»ÑĸÐ¼
ĠÐ¿Ð°Ð¹Ð´Ð°Ð»Ð°Ð½ Ð°
ĠÐ±ÐµÑĢÑĥ Ð´Ñĸ
ĠÐ¶Ð°ÒĵÐ´Ð°Ð¹ Ð´Ñĭ
ĠÐ¼ÐµÐ´Ð¸ Ð°
ĠÐ´ÐµÐ» ÑĸÐ½Ð³ÐµÐ½
ĠE x
Ð½Ð¾ Ð¿
ÑģÑĤÐ² Ð¸Ð¹
Ð¸ÑĢÐ¾Ð²Ð°Ð½ Ð½ÑĭÑħ
Ð¼ Ð°ÑģÑĭ
ÐļÐ¾Ð¼ ÑģÐ¾Ð¼
ĠÑĤ Ó©Ð·
ĠÐ¶ÐµÐ» ÑĸÑģÑĸÐ½Ð´Ðµ
Ð°ÑĤÐµÐ»ÑĮ Ð½ÑĭÐ¹
ĠÑĦÐ¾ÑĢÐ¼ Ð°ÑĤ
ĠÑĤÐ°ÑĢ ÑĤÑĭÐ¿
ĠÐ·Ð°Ð´Ð° ÑĩÐ°
ÑĪÐµ Ñĩ
ĠÐ°Ð» ÑĥÑĪÑĭ
ĠÐļ Ð¡Ðł
Ðº Ð»
ÐµÐ² ÑĭÐµ
ĠÐ£ Ð¶Ðµ
Ð°Ñı Ñĥ
iz e
ĠÐ°Ð¹ÑĤÑĥ ÒĵÐ°
ĠÐºÐµÐ· Ð´ÐµÐ³Ñĸ
ÓĻ Ð»Ñĸ
ĠÑĸÐ· Ð´ÐµÑĥ
ÑĸÐ»ÑĤ ÐµÐ¼Ðµ
Ð¾ Ð³Ðµ
ĠÐ¢ Ð°ÑĪ
Ð¾Ð¶ Ð°
ĠÐ²Ð¾ ÑģÐº
ĠÐ¼Ð¾Ð´ ÐµÐ»Ð¸
ĠÐ½Ð°Ð½ ÐµÑģ
ÑĸÑĪ ÐºÐµ
ĠÒĽÐ°ÑĢ Ð°ÑģÑĤÑĭÑĢÑĥ
ÐµÐ² Ð¾Ð³Ð¾
ĠÑĤÒ¯Ñģ Ñĸ
ĠÐĴ ÐµÑĢ
ĠÐ¿ÑĢÐ°Ð² Ð¸Ð»Ð¾
Ġ5 2
ĠÑĪ Ð°
ĠÒĽÒ±ÑĤ ÒĽÐ°ÑĢ
ÑĤÑĭÐ¼ Ð´Ñĭ
ĠI t
ĠÐ¿Ð¾ ÐµÐ´Ð¸Ð½
ĠÐ´Ð¸Ð°Ð³ Ð½Ð¾Ð·
ĠÐ³ÑĢÐ°Ð¶Ð´Ð°Ð½ Ðµ
ĠÑģÑĤ Ð¾Ñı
Ñı Ð¶
ĠÑĥ Ð´ÐµÐ»
ÐĲ ÑģÑĤÐ°Ð½
ĠA m
A fter
Ð»Ñİ Ð·
ÑĢÐ¸Ð¼ Ð¸Ð½
ĠÐ¿Ð¾Ð´ÑĢÐ¾Ð± Ð½Ð¾ÑģÑĤÐ¸
ĠÐŁÐ¾Ð¼ Ð¸Ð¼Ð¾
ÑĪÐ° ÑİÑĤ
ĠÑģÑĢÐ¾ ÐºÐ¸
Ð° Ð´Ð°Ð¼
ĠÐ¸Ð½ Ð²Ð°Ð»Ð¸
ÑģÑĤ Ð°ÑĤÐ¸
ĠÐ¡ ÑĤÐ°Ð½
ÒĽ ÑĭÐ»Ñĭ
ĠÐ¡Ð¾ Ð¾Ð±Ñī
ĠP ol
ĠÒĽÐ°ÑĢ ÑģÑĭÐ»
ĠÐ½Ð° ÑĥÐº
ĠÐ³Ð¾Ð´ Ð¾Ð²
ĠÐĶ Ð§Ð¡
ĠÑĪÑĭÐ½ Ð°Ð¹Ñĭ
ĠÓ©ÑĤÐºÑĸÐ· ÑĸÐ»Ð´Ñĸ
ĠÐºÐ¾Ð» Ð»ÐµÐº
Ð½Ð¸Ñĩ ÑĤÐ¾
ĠÐºÐµÑĤ ÑĸÐ¿
ĠÑĢÐ°Ð· Ð½ÑĭÐµ
ÑĸÐ¼ Ðµ
' ;
Ð¾Ðº Ð°Ð·
Ad aptive
ĠÐ¥ Ð¥
create Adaptive
ĠÐºÐ°Ð·Ð°ÑħÑģÑĤÐ°Ð½ ÑģÐºÐ¸Ðµ
ĠÐ´Ð¾Ð¼ Ð¾Ð¹
ĠÐĶ ÐĴÐĶ
ĠÐŃ ÑĤÐ°
ĠÐĺ Ð·Ð²
ĠÐºÐµÐ»Ð³ÐµÐ½ Ð´Ðµ
Ġy ear
ĠÑĢÐ¸ Ñģ
it ies
ÐĿ Ðķ
ĠÑıÐ·Ñĭ ÐºÐµ
ĠÐĲÑĥ Ð´Ð°Ð½
Ð¸ÑĤ Ð¸Ð²
ÑĭÐ»Ð¼ Ð°Ð¹Ð´Ñĭ
ĠÐ¿ÐµÑĢ ÐµÑħ
ĠÐ¡Ð¸ ÑĢÐ¸Ð¸
ĠA t
ĠÐ²Ð· ÑıÑĤ
ĠÑĭÒĽ ÑĤÐ¸Ð¼
ĠÐ§ ÐŁ
ĠÑĢÐ°ÑģÑģ Ð¼Ð¾ÑĤÑĢÐµÐ½
ĠÑĦÐ¸Ð»Ð¸ Ð°Ð»
ĠÐĳ Ð¸ÑĪ
ĠÑģÐ¼ Ð¾Ð¶ÐµÑĤ
Ð¾Ð· Ð½
ĠÐºÓ©Ð»ÐµÐ¼ ÑĸÐ½Ð´Ðµ
ĠÑģÐ¾Ñİ Ð·Ð°
ĠÐ¾Ð±Ð¾ÑĢÑĥÐ´ Ð¾Ð²Ð°Ð½Ð¸Ñı
is s
ĠÐľÐ°ÑĢ Ð°ÑĤ
ĠÐ¼ Ð°ÑģÑĤÐµÑĢ
Ñĩ ÐµÑĢÐ°
ĠÐ¿ Ð»ÐµÐ½
":" \
ÑĸÐ» Ðµ
ĠÐº Ð°Ð»ÑĮ
ĠÐ½Ð°Ñģ Ð»ÐµÐ´
ĠÑĤÐµÑĢÑĢÐ¸ÑĤ Ð¾ÑĢÐ¸Ñı
ĠÐ¿Ð½ÐµÐ² Ð¼Ð¾Ð½
ĠÒĽÐ°ÑĢ ÒĽÑĭÐ½Ð´Ñĭ
Ð°Ð¹ Ð´
ĠÐºÐµÑĢ ÐµÐ¼ÐµÑĤ
ĠÑĪÐ°ÒĽÑĭÑĢ ÑĭÐ¼
ĠÑĪÒ± ÒĵÑĭÐ»
Ġa c
ÑĨÐ¸Ñı ÒĵÐ°
Ð¾ÑĢ Ð¾Ð¼
ĠÑĦÐ¸Ð· Ð¸
ĠÑĤÐ¾Ð² Ð°ÑĢÑĭ
ĠÑģÐ¾Ð¶Ð°Ð» ÐµÐ½Ð¸Ñİ
ĠÐĲ ÑĤÐ°Ð»ÒĵÐ°Ð½
Ġ ÑĸÐ½
ĠÐĲ Ð¡Ð¢ÐĲÐĿÐĲ
Ð¼ÐµÑĤ ÑĤÑĸ
ÐĺÐ½ ÑĤÐµÑĢ
ip p
Ðŀ Ðļ
Ġw ww
ĠÐ´Ð¸Ñģ ÑĨÐ¸
ĠÒĽÐ¾Ñı Ð´Ñĭ
Ð°Ð² ÑĪÐ¸Ñħ
Ð± Ò±ÑĢ
Ð¾Ñĩ Ð½Ð¸Ðº
ĠÐ²Ð¸ Ð´Ð°
ĠÐ°Ð²ÑĤÐ¾ Ð±Ñĥ
Ñĸ ÑĢÐµÐº
ĠÐ¡ Ð°Ð³
ĠÐºÐ¾Ð» Ð»Ðµ
Ð°ÑĤÐµÐ»Ñı Ð¼Ð¸
Ð¿ ÑĸÐ½
ĠÐ°ÒĵÑĭÐ¼ Ð´Ð°ÒĵÑĭ
Ð±ÐµÐº Ð°
ĠÑĤÑĢÐµÐ± Ð¾Ð²Ð°Ð½Ð¸Ð¹
ĠÐ² ÑĢÑĥÑĩ
ĠÐ¿ÑĢÐµÐ´Ð»Ð¾Ð¶ Ð¸Ð»
ĠÑģÐµÐ· Ð¾Ð½Ð°
ĠÐľ Ð¸
ĠÐ±Ð¾ÑĢÑĮ Ð±Ñĭ
ĠÓ©Ð½ÑĸÐ¼Ð´ÐµÑĢ ÑĸÐ½
us s
Ð»Ð°ÑĢ Ð¼ÐµÐ½
Ð¸Ñı Ð½Ñĭ
ĠÐ¿Ð¾Ð´ Ð½Ð¸Ð¼
Ð°Ð± ÐµÐº
ÑĢÐ¾Ð» ÑĭÒĽ
ĠÐ¿ÓĻ ÑĤÐµÑĢ
ĠÑģÐ¾ Ð¾Ð±ÑīÐµ
ĠÐĲ ÐºÐ°Ð´ÐµÐ¼
ÑĤ Ð¸Ðº
Òļ ÑĭÐ·ÑĭÐ»
Ð´Ð°Ð¹ ÑĤÑĭÐ½
ĠÒĽÐ°ÑĤÑĭÑģÑĥ ÑĭÐ¼ÐµÐ½
Ð°Ð½ Ðµ
Ð³Ð¾ ÑĤ
ĠÐ²ÑĭÑĪ ÐµÐ»
ĠÐ¶Ð°ÑĤÒĽÐ°Ð½ ÑĭÐ½
ĠÐļÐ¾Ð½ ÐµÑĩÐ½Ð¾
ÒĽ Ð¾Ð¹
Ð»ÑĭÒĵ ÑĭÐ½ÑĭÒ£
Ð¸Ð² ÑĪÐµÐ³Ð¾
ĠÑģÐµÐ¼ ÑĮÐµ
Ð°Ð»Ð°ÑĢ Ð´Ð°Ð½
ĠÐºÒ¯Ð½ÑĤÑĸÐ· Ð±ÐµÐ»ÑĸÐº
Ð°Ð»Ð» ÐµÐ»ÑĮ
ĠÐĽ Ðµ
Ðĸ Ð°Ð½
ĠÓĻÐ»ÐµÐ¼ Ð´ÐµÐ³Ñĸ
ĠÐĶ Ò¯Ð½Ð¸Ðµ
Ġ gr
ĠÐ¶Ð°Ð½ ÑĭÐ½Ð´Ð°ÒĵÑĭ
ĠÑįÐºÑģÐ¿ÐµÑĢ Ð¸Ð¼ÐµÐ½ÑĤ
ĠÐ¿ÑĢÐ¾ÐºÐ¾Ð¼Ð¼ÐµÐ½ÑĤÐ¸ÑĢÐ¾Ð² Ð°Ð»
u f
F C
ĠÐ¾ÑĢÐ¸ ÐµÐ½ÑĤ
ĠÑģÑĤÐ°Ð½ ÑĨÐ¸Ð¸
ĠÑĸÑĢ ÑĸÐº
Ð¸ÑĤ ÐµÑĢ
ĠÑĤÐ°Ð¿ ÑĤÑĭ
ĠÐºÐ²Ð°ÑĢÑĤÐ¸ ÑĢÑĭ
ĠÐ°Ð¹Ð½Ð°Ð» ÑĭÐ¿
ĠÐ¿Ð¾Ð»ÑĥÑĩ Ð¸Ð»Ð°
Ñī Ð¸Ñħ
Ð³ ÑĢÐ¾
ag es
ĠÐ¿ÑĢÐ¾Ð¸Ð·Ð¾ÑĪ Ð»Ð°
ĠÐ¿Ð¾ ÑģÐ°Ð´
Ð°Ð¼ Ð°Ð¹
ĠÑģÐ» ÑĥÑĪ
Ð°ÒĽÑĤÑĭ ÒĵÑĭ
m s
ĠÑģÒ± ÑħÐ±Ð°ÑĤ
ÐĲÐĽ Ð«Òļ
ĠÐĶÐ¶ Ð¾Ð½
Ð¼Ð°Òĵ ÑĭÐ½ÑĭÒ£
ĠÑĤÒ¯ÑĢ ÑĸÐ½
ĠÐ°Ñĥ Ð¼Ð°ÒĵÑĭ
ĠÐ¿Ð¾Ð´ ÐºÐ»ÑİÑĩ
ÑģÑĤÐ² Ð°Ð¼Ð¸
ĠÐºÐ¾ÑĢ Ð¾ÑĤ
Ġ200 1
Ñħ Ð¸ÑĤ
ĠÐ°Ð½ÑĭÒĽ ÑĤÐ°ÑĥÒĵÐ°
ĠÐ±ÐµÑĤÑĸÐ½ ÐµÐ½
ĠÐĳ Ò°
ĠÑı ÐºÐ¾Ð±Ñĭ
ĠÑģÑĤ ÑĢÐ°Ð¶
ĠÐ¿ÑĥÐ½ÐºÑĤ Ð¾Ð²
ĠÐµ ÑīÑĳ
ĠÐ¼ Ò±ÑĢ
ĠÐº ÓĻ
p i
ĠÐ¼ÐµÑģÑĤ Ð½ÑĭÐµ
oul d
ĠÐº ÑĢÐ¾Ð¼Ðµ
ĠÐºÐ°Ð·Ð°ÑħÑģÑĤÐ°Ð½ ÑģÐºÐ¸Ð¹
ÑĸÐ» ÐµÑĥ
ĠÐŀ ÑĢÐ°Ð·
ĠÐĲÐ» ÑĤÐ°Ð¹
Ñģ Ð°Ò£ÑĭÐ·
ĠÒļÐ°Ð·Ð°ÒĽÑģÑĤÐ°Ð½ ÒĵÐ°
ĠÐ¶ Ð°ÑģÑĭ
ĠÒ±Ð¼ ÑĭÑĤ
ĠÒĽÐ°Ð¼ÑĤÐ¸ Ð´Ñĭ
ĠÑģ ÐµÐ³
ÑĥÐ» Ð¸Ð½
ĠÓ©Ð·Ð³ÐµÑĢ ÑĸÑģ
ÐµÐ» ÐµÐ³
ĠÐŀÐ»Ð¸Ð¼Ð¿Ð¸ Ð°Ð´Ð°
ĠÐºÐµÒ£ ÐµÑģÑĸÐ½ÑĸÒ£
ĠÐ½Ð°ÐºÐ°Ð· Ð°Ð½Ð¸Ðµ
ĠN ur
ĠÐ´Ð°Ð¼Ñĥ ÑĭÐ½ÑĭÒ£
ĠÑģÐ»ÐµÐ´ÑĥÑİÑī Ð¸Ð¹
ĠÑĥÐ³Ð¾Ð»Ð¾Ð² Ð½Ð¾Ð³Ð¾
ĠÐ¿ÑĢÐµÐ¿ Ð¾Ð´Ð°Ð²
ĠÐ±Ð¾Ð»ÑĮÑĪÐ¸Ð½ ÑģÑĤÐ²Ð¾
ĠÐ²ÑĭÐ± Ð¾ÑĢÑĭ
ÒĵÑĭÑģ ÑĭÐ½Ð°Ð½
ĠÑģ ÐµÐ¿
Ð¸Ð¼ Ð¾Ð²Ð°
ĠÐ·Ð°ÑĢÐ°Ð¶ ÐµÐ½Ð¸Ñı
ÑĭÐ¼ ÑģÑĭÐ·
ĠÐ¾Ð¶Ð¸ Ð´Ð°ÑİÑĤÑģÑı
ĠÐ¸ Ð´
ĠÒ± Ð¶
ÐĿ Ð«
ĠÐ¾Ð±ÑĬ ÐµÐºÑĤÑĸ
ĠÐĶ Ð¸Ð¼
' s
ĠÑĢÐ°Ñģ ÑħÐ¾Ð´Ñĭ
ĠÐ¼Ð°ÒĽ ÑĤÐ°Ð½
o und
Ð°ÑİÑī Ð°Ñı
ĠÐ¡ Ð°Ñı
ĠÐ¼ ÐµÐ³
con d
10 16
ĠA s
Ð¿ Ò±Ð»
ĠÐ¾ ÑģÑĤÐ°Ð½
ĠÑĦ Ð°Ð½
ĠÐ°Ð»ÐºÐ¾Ð³ Ð¾Ð»ÑĮ
ĠÐ³ÑĢÐ°Ð½ Ð¸ÑĨÑĭ
ĠÐ½Ð° ÒĽÑĤ
ĠÐ¶Ð°ÒĵÐ´Ð°Ð¹ ÒĵÐ°
t ab
ĠÓĻÐ´Ñĸ ÑģÑĤÐµÐ¼
ĠÑģÑĥÐ¿ ÑĢÑĥÐ³
ĠÐ³Ð»Ð°Ð² Ð½Ð¾Ðµ
Ð¸Ð½Ð¾ Ðº
Ġs et
ĠÐļÐ¸ÑĤ Ð°Ðµ
ĠÐ¿ÑĢÐ¸Ð· Ð½Ð°Ð½
ĠÐ¿ÑĢÐ¾Ð´ Ð¾Ð²Ð¾Ð»ÑĮ
ĠÐ·Ð°Ð³ ÑĢÑıÐ·
ĠÐ±Ð°ÑģÑĪ ÑĭÐ»Ð°ÑĢÑĭ
ĠÐ±Ð°Ð· Ðµ
ĠÓ©Ð· Ð´ÐµÑĢÑĸ
Ð¾ Ð¾Ð±ÑĢÐ°Ð·
Ò¯ÑĢ Ð³ÑĸÐ·
ĠÐ¼ ÑĭÒĽÑĤÑĭ
ĠÐ²ÑĭÐ± Ð¾ÑĢÐ°Ñħ
ĠÑĥÐ² Ð¸
le ct
ĠÐ°Ð´Ð°Ð¼ Ð´Ð°ÑĢÐ´Ñĭ
Ð¸ÑĩÐµÑģÐº Ð¾Ð¼Ñĥ
ĠÐºÐ¾Ð½ÑĤ Ð°Ðº
ĠÓĻÑģÐµÑĢ ÑĸÐ½
ĠN ews
ÑĪÐµÐ½ Ð¸Ð¸
ÑĭÐ» ÑĥÑĭÐ½Ð°
ĠÑĥ ÑģÑĤÑĥÐ¿
ĠÐĳ Ð°ÒĽ
ĠÐ±ÐµÑĢ ÐµÐ³
ĠÑĤÐ¸ÑĸÐ¼Ð´Ñĸ Ð»ÑĸÐ³ÑĸÐ½
ĠÓ©Ð·Ð³ÐµÑĢ ÑĤ
Ðķ ÐĶ
ĠÐ½ÐµÐ´Ð°Ð² Ð½Ð¾
ĠÐ¶Ò±Ð¼ÑĭÑģ ÑĭÐ½ÑĭÒ£
ĠÑĪÐ°ÑĢ Ð°Ð»Ð°ÑĢÑĭ
ĠÐĳÐ¾Ð» Ð°ÑĤ
ÑĨÐ¸Ñı Ð»Ð°Ñĥ
ĠÐ¿ÑģÐ¸Ñħ Ð¾Ð»Ð¾Ð³Ð¸Ñı
ĠÐľ ÑĸÐ½Ðµ
Ð°Ð½ Ð½ÑĭÒ£
ÐµÐ» ÐµÐ¿
ĠÑĢÐµ ÑĨÐµÐ¿
ÐºÐ¸Ð¿ Ð°Ð¶
Ð¾Ñĩ ÐºÐ¸
ĠÐ¿Ð¾Ð´ Ð²ÐµÑĢÐ³
ĠÑĢÓĻÑģ ÑĸÐ¼
ĠÐµ Ð´
ĠÐ¶ÐµÑĤÐºÑĸÐ· Ð´Ñĸ
ĠÐ¾Ð· Ð½Ð°ÐºÐ¾Ð¼
ÑĪÐ°ÑĢ ÑĥÐ°ÑĪ
Ð°ÑĤ ÑĭÑĢ
ĠÐķÑĥ ÑĢÐ°Ð·
ĠÑģÑĤ ÑĢÐ°
ĠÑĤÑĸÐ» ÑĸÐ½ÑĸÒ£
ĠÑĥ Ð½Ð¸ÑĩÑĤÐ¾
ĠÑģÑĤ Ð°ÑĤÑĥ
ĠÐ¼Ò¯Ð¼ÐºÑĸÐ½ Ð´ÑĸÐ³ÑĸÐ½
ÑĤÐµÑĢ ÐµÐº
ĠDep ositphotos
Ð½Ð¾Ð² ÑĢÐµÐ¼ÐµÐ½Ð½Ð¾
Ð°Ð¼ Ð¼ÐµÐ´
Ġ6 9
ĠÐĳ Ð°ÑģÑĤÑĭ
ĠÐĳ Ð°Ð»Ð°
ĠÐ´Ð°ÒĽ ÑĭÐ»
ĠÐºÓ©Ð¼ÐµÐºÑĤÐµÑģ ÐµÐ´Ñĸ
ĠÐ½ÐµÑģ Ð¾Ð²ÐµÑĢÑĪÐµÐ½
Ðŀ ÐĶ
ĠÑĸÑģÑĤ ÐµÑĢÑĸ
ÑĭÑĪ ÑĤÑĭ
ĠÐ¿ÐµÑĢÐµÐ³ Ð¾Ð²Ð¾ÑĢ
ÑĭÒĽ ÑĤÐ°ÑĢ
ĠÐ¿Ð¾ ÑĤÐ¾
ĠâĨ Ĵ
a w
ĠÐ¢ Ð¾Ð¼
ĠÐ¿Ð¾Ð»Ð¾Ð¶ ÐµÐ½Ð¸Ñı
sc ript
ĠÐ¼Ð¾Ð³ Ñĥ
ĠÑįÑĤÐ°Ð¿ Ðµ
ĠÐ¶ Ð°ÒĵÑĭ
ĠÐºÓĻÑģÑĸÐ¿ ÐºÐµÑĢ
ĠÒĽÐ°Ð±ÑĸÐ» ÐµÑĤÑĤÑĸ
ĠÐº Ð»Ð°
ĠÐĲÐ»ÑĮ Ð²Ð°ÑĢ
ĠÐ¿Ð¾ÑģÐ»ÐµÐ´ Ð½Ð¸Ð¹
ÐĹ Ð°
ĠÐ¿ÑĢÐ¸ ÑĩÐ¸Ð½Ð¾Ð¹
Ðĳ Ð¸
ĠÑĤÒ± Ò£ÒĵÑĭÑĪ
ĠÑģÒ¯Ð¹ ÐµÐ½
ĠÐ¿Ð»Ð°ÑĤ ÑĦÐ¾ÑĢÐ¼
ĠÐ¼Ð¾Ð¶ ÐµÐ¼
Ġ- .
ĠÐ¢ Ð°Ð½
Ð¾Ð²Ð°Ð½ Ð°
ĠH e
ĠÐ²ÑĭÐ¿ Ð¾Ð»Ð½ÐµÐ½
ÑĭÒ£ÑĭÐ· Ð´Ñĭ
ĠÐĺ Ð³Ð¾ÑĢ
Ð´ÐµÐ½ Ð¸Ñİ
Ð¾ÑģÐº Ð¾Ð²
Ð¶ Ò±Ð¼
ĠÐ½Ð°Ð±Ð»Ñİ Ð´Ð°ÐµÑĤÑģÑı
Ð´Ð°Ð½ Ð´ÑĭÑĢÑĭÐ»ÒĵÐ°Ð½
ĠÐ· Ð¾Ð½
ĠÒļÐ°Ð· ÐĲÒĽÐ¿Ð°ÑĢÐ°ÑĤ
ĠÐºÐµÐ»ÑĤÑĸÑĢ ÑĸÐ»Ð³ÐµÐ½
ĠÐºÑĢÐ°Ñģ Ð¸Ð²
ĠÒĽÐ°Ð» Ð°Ð½ÑĭÒ£
ĠÒĵÐ°Ð»ÑĭÐ¼ Ð´Ð°ÑĢ
ĠÐ´ÑĢÑĥÐ³ Ð°
ÒĽÐ°Ð½ Ñĭ
ĠÐº Ð¸Ð½
ĠÐ±Ð°ÑĢ Ð°Ð´Ñĭ
ĠÑħ Ð»Ð¾ÑĢ
back ground
s App
Ð½Ð°Ð· Ð½Ð°Ñĩ
ĠÑģÑĤ ÐµÑĢ
ĠÑģÐµÑĤ ÑıÑħ
ĠÑĤÐ°Ð½ ÑĭÑģÑĤÑĭÑĢ
Ð»Ð° ÑģÑĤÐ¸
ĠÐµÐ½Ð³ÑĸÐ· ÑĸÐ»Ð´Ñĸ
ÑĭÐ² Ð°Ð½Ð¸Ñı
all back
a uthor
ĠÐĲ Ð¼
ĠÐ¿ Ð¸Ð»Ð¾ÑĤ
ĠÐ¿Ð¾Ð¶ Ð°ÑĢÐ°
i ent
Ð¿ ÑĸÑĢ
ĠÐ±Ð¾Ð»ÑĮÑĪ ÐµÐ¹
ĠÑĢ ÐµÐ»Ð¸Ð³Ð¸Ð¾Ð·
ĠÑįÐºÑģÐ¿Ð»Ñĥ Ð°ÑĤ
n umber
ĠÐ· Ð¾Ð½Ñĭ
Ð½ÐµÐ½ Ð¸Ð¹
ĠÐ¶Ð°Òĵ Ð°Ð»Ð°Ñĥ
ĠÑĢÐ°Ñģ Ñĩ
ĠÐľ Ð½Ð¾Ð³Ð¸Ðµ
ĠÐ°Ð²Ð°ÑĢ Ð¸Ð¸
ÑĤÑĥ ÒĵÐ°
tern ational
ĠÐ±Ó©Ð» Ð¼
ĠÑĥÑĩ Ð°Ñģ
ĠÐ´ ÐµÐ·
ĠÑĢÐµÐ·ÑĥÐ»ÑĮÑĤÐ°ÑĤ Ð°Ð¼
ĠÐ¿ÑĢÐ¸Ð½Ð¸Ð¼ Ð°ÑĤÑĮ
ÒĽ Ð°Ð»
ĠÐ´Ð°Ð½ Ð½Ð¾Ð¼
ĠÐ¿Ð¾Ð½ ÑıÑĤ
ĠÑħ Ð¸ÑĢÑĥÑĢÐ³
ĠÐ¾Ð±ÐµÑģÐ¿ÐµÑĩ ÐµÐ½Ð¸Ðµ
ĠÐ¸Ð· Ð³Ð¾ÑĤÐ¾Ð²
ĠÑĤÐ°Ð½ Ñĥ
Ð¿ Ñĸ
Ġ0 6
Ð¿ Ð°ÒĵÐ°Ð½
ĠÐ² ÐµÐ»Ð¸Ðº
ĠÐ¼ÑĸÐ½Ð´ÐµÑĤ ÑĤÐµÑĢÑĸ
ĠÐ¿Ð¾Ð» Ð½Ð¾
ĠÐ±Ð»Ð¸Ð¶Ð°Ð¹ ÑĪÐ¸Ðµ
ĠÑģÑĥÑĢ ÐµÑĤÑĤÐµÑĢ
ÑĪÑĸÐ»ÐµÑĢ Ð´ÑĸÒ£
ĠÐ¼Ð¾Ð»Ð¾Ð´Ðµ Ð¶Ð¸
ĠÑĨ Ð¸Ðº
Ð¸ÑĤ Ð°Ð»
ÐµÐ¹ Ð¼ÐµÐ½
ĠÑģÐ¾ÑģÑĤÐ°Ð² Ð¸ÑĤ
ĠÐĲÐ· ÐµÑĢÐ±Ð°Ð¹Ð´Ð¶Ð°Ð½
ÑĢÐ¾Ñģ Ð¾Ð²
a Ð»
ĠÐ½Ð°ÑĢÑĥÑĪ ÐµÐ½Ð¸Ðµ
ĠÐ¥ Ð°Ð±Ð°ÑĢ
Ðŀ Ð½ÑĭÒ£
ĠÑģÐ¾Ð³Ð»Ð° ÑĪÐµÐ½Ð¸Ñı
Ñİ ÑĢ
ĠÑĪ ÐµÑģÑĤÐ¸
ÒĽÐ°Ð½ Ð´Ð°
ĠÐ²Ð¾Ð·Ð´Ñĥ Ñħ
ÑģÑĤ ÐµÐ½
ĠÒ¯ÑģÑĤ ÐµÐ»
ig e
ÑĭÑĢ Ð·
ĠÐ¸ Ð¾Ð½
Ġ- ,
Ð´ Ð°Ð»Ð°
ĠÐ¢ ÑĸÐ¿ÑĤÑĸ
Ð³Ñĸ Ð¿
04 10
ĠÑĥÐ²ÐµÐ»Ð¸Ñĩ ÐµÐ½Ð¸Ðµ
ĠÐ¼ÐµÐ´Ð¸ÑĨ Ð¸Ð½ÑģÐºÐ¾Ð¹
ĠÐ¿ÑĢÐ¾Ð³ÑĢÐ°Ð¼ Ð¼Ñĥ
Ñģ ÑĸÐ½ÑĸÒ£
Ð¾Ð¼ Ð°ÑĤ
ĠÐ½ÐµÐ²Ð¾Ð· Ð¼Ð¾Ð¶Ð½Ð¾
ĠÐºÓ©Ð± ÑĸÐ½ÐµÑģÐµ
g an
ĠÐ±Ð¾Ð»ÑĮ Ð½ÑĭÑħ
ro w
ĠÐļÐ¾Ð´ ÐµÐº
ĠÐĶ ÐµÐ½ÑĮ
ĠÐ´Ð¸ ÑĦ
Ð¿ Ð¾Ñģ
ĠÐŁÐ¾Ð´Ð¿Ð¸ÑģÑĭÐ² Ð°Ð¹ÑģÑı
ĠÐ´ Ð°ÑĤÑĮ
ÑģÑĤÐ² Ð¸ÐµÐ¼
ĠÐ¼ ÑıÑĩ
ĠÑįÑĦÑĦ ÐµÐºÑĤ
ĠÑĥÑħ ÑĥÐ´
ĠÐĵ ÑĥÐ»ÑĮ
ÐµÑħ Ð½
ĠÐ² ÐµÐ½
ĠÑģÐ¾Ñİ Ð·
ĠÑħÐ¾Ñĩ Ñĥ
ĠÑĤÒ¯Ñģ ÐµÑĤÑĸÐ½
ĠÐ½Ð°ÑģÑĤ ÑĢÐ¾
ĠÐ½Ð¾Ð² ÑĥÑİ
Ð³ Ò¯Ð»
Ð´ Ð¸Ð½Ð³
ĠÐĶ ÐµÐ²
o ve
se cond
Ġ5 4
ĠÑĤÓ©Ð¼ÐµÐ½ Ð´ÐµÐ³Ñĸ
ĠÐ°Ð½Ð°Ð»Ð¸Ð· Ð°
ĠÐ¶ÐµÑĤ Ñĥ
ĠÐ¡ Ó©Ð·
Ð¾ÑĢ ÑĤÑĥ
ÑĮ Ð¼
C l
ĠÐ·Ð°Ð¼ ÐµÑĩ
ĠÐļ Ð°Ð¹ÑĢÐ°ÑĤ
at ive
ĠÐºÓ© ÑĪÑĸ
ĠÑĤ ÑĢÐ°Ñģ
ĠÐºÓ© ÑĪÐµ
ĠÐ¿ÑĢÐ¾ÑĨ ÐµÑģÑĸ
ĠÐºÐ¾Ð½ ÐµÑĩ
ĠÒĽÐ°Ð± ÑĸÐ»ÐµÑĤÑĸÐ½
ĠÐºÒ¯Ð½ Ð´Ðµ
ĠÐ¼ÓĻÑģÐ» Ð¸Ñħ
ĠÐºÒ¯Ð½ ÑĸÐ½ÐµÐ½
ĠÑģ ÑĸÐ»
ĠÐ¿ÑĢÐ¸Ð½ ÐµÑģ
col umn
ĠÐ¶Ð°Ð½ÑĥÐ°ÑĢ Ð»Ð°ÑĢ
ĠÐ½ÐµÐ¼ Ð½Ð¾Ð³Ð¾
Ð¾Ð± Ð¾ÑĢÐ¾ÑĤ
ĠÐ¶ Ð¸ÑĤÑĮ
ĠÐ¿Ð¾ÑĢÑĤ ÑĦ
ĠÐĶ Ð°Ð»
ĠÐ¿Ð¾ÑģÐ»ÐµÐ´ ÑģÑĤÐ²Ð¸Ñı
Ð² Ñĥ
ĠQ az
ĠÐŁÑĢÐµÐ´ ÑģÐµÐ´
ĠÐ¼Ð¾Ð»Ð¾Ð´Ñĭ Ñħ
ÑĢÐ° ÑģÑĭ
ĠÐ±Ð¾Ð»ÐµÐ· Ð½Ð¸
Ð»Ñĸ Ð³ÑĸÐ½Ðµ
ĠÐ±Ð¾Ñģ Ð°ÑĤ
k k
Ðĵ Ð»Ð°Ð²
ĠÐ¼Ò± ÑĢÐ°Òĵ
ĠÐ±Ð°Ñģ ÑĭÐ½Ð°
Ð± Ð°Ð»Ñĭ
ĠÐŀ Ðĳ
ĠÐ±Ð¾Ð¹ ÑĭÐ½Ð´Ð°
ĠÐ¾ÑĢÐ½Ð°Ð» Ð°ÑģÑĤÑĭÑĢ
ĠÐ±ÐµÐ¹ Ð±ÑĸÑĤ
ac cent
ĠÑĤÑĸÐ» Ð´Ñĸ
ĠÐ°ÑĤ Ð»ÐµÑĤ
ĠÐ´ Ð¸Ðº
ĠÒļ Ñĥ
ÑĢÐ¸ÑĤ Ð°Ð½Ð¸Ñı
Ġo ut
ĠÐ¿ÑĢÐµÐ´ ÑĬÑıÐ²
04 15
ĠÐ´ÐµÒ£Ð³ÐµÐ¹ Ð´ÐµÐ³Ñĸ
Ð¶ ÐµÑĢ
ĠÑĢÐµÐºÐ¾Ð¼ÐµÐ½ Ð´Ñĥ
ĠÐ¿ÑĢÐ¾ Ð·
ĠÐ¿Ð¾Ð»Ð¾Ð¶ ÐµÐ½Ð¸Ðµ
ÐĲ ÒĴ
ĠÐŁÐ¾Ð» Ð¸
ĠÐ¸Ð·Ð± ÑĢÐ°Ð½
ĠÑģÑĤÑĢÐ°Ð½ Ð¸ÑĨÐµ
Ġ let
ÐµÑĤ ÑĤÑĸÐº
% ).
ĠÒĽÐ°ÑĤÑĭÑģ Ð°Ð´Ñĭ
ig h
box ed
ĠÐ³Ð»Ð°Ð² Ð½ÑĭÐ¼
ĠÐ±Ð¾Ð»Ð¼ Ð°ÑĥÑĭ
ĠÑĩÐµÐ¼Ð¿Ð¸Ð¾Ð½ Ð°ÑĤÐµ
ĠÐ°Ð± Ð·Ð°
Ð³ ÑĢ
Ñİ Ð¼
ĠÐ±Ó©Ð» ÑĸÑģ
ĠÐ·Ð½Ð° Ñİ
ĠÑĢÐ°Ð· ÑĬ
ĠÐĲÑģÑģ Ð°Ð¼Ð±Ð»Ðµ
Ġ u
ĠÑĢÐµÑģÐ¿ÑĥÐ±Ð»Ð¸ÐºÐ°Ð½ ÑģÐºÐ¾Ð³Ð¾
ÑģÐµÐº ÑĢÐµÑĤ
ĠÐ°Ð³ÐµÐ½ÑĤ ÑģÑĤÐ²Ð¾
ĠÐ´ÐµÐ¿Ð¾Ð· Ð¸ÑĤ
ĠÑĤÐµÐ¼Ð¿ÐµÑĢ Ð°ÑĤÑĥÑĢÑĭ
Ġ7 00
ĠÐ¶Ð¸Ð½ Ð°Ð»
er al
Ð¾Ðº Ð¾Ð¼
ÑĤ Ð¸ÐºÐ°Ð»ÑĭÒĽ
ÑĢÐ¾Ð² Ð°Ð»Ð¸
ĠÐ¿ÑĢÐ¾ ÑģÐ¿
ĠÐ±ÐµÑĢÑĥ Ð´ÑĸÒ£
ĠÐ±Ð¾Ð»ÒĵÐ°Ð½ ÑĭÐ½
ĠÐºÑĥÑĢ ÑģÐ°
Ð¸Ð½Ð° ÑĨÐ¸Ñı
ĠÒ®ÐºÑĸÐ¼ÐµÑĤ ÑĸÐ½ÑĸÒ£
ĠÐ³Ð¸Ð´ ÑĢÐ¾
ĠÐ¸Ð³ ÑĢ
ĠÐŀÐ± ÑĬ
ĠÐĳ Ð°ÑıÐ½
ÐĲÐ¢ Ð«
ĠÐ²ÑĢÐ° ÑĩÐ¸
ĠÐ·Ð°ÑıÐ² Ð»ÐµÐ½Ð¸Ñı
8 9
ĠÐ¸Ð½ÑĦÑĢÐ°ÑģÑĤÑĢÑĥÐºÑĤ ÑĥÑĢÑĭ
ĠÑĪ Ðº
ĠÐ²ÑĭÑģÐ¾Ðº Ð¾Ð¹
ĠÑĤÐ°Ð¿ÑģÑĭÑĢ ÑĭÑģ
ĠÐŁÐ¾ÑĤ Ð¾Ð¼Ñĥ
ĠÑģ ÑĬÐµÐ¼
ĠÐ½Ð¾ÑĢÐ¼ Ñĭ
ĠÐ¿Ð¾ÑĢÑĤ Ð°Ð»Ñĭ
Ð²Ð¸ Ð´Ðµ
Ð¸Ð½ Ð¸
Ð¾ÑĤ Ð¾ÑĢ
ĠÐ¿Ð¾Ð· Ð´
ĠÐºÐ¾ÑĤÐ¾ÑĢ Ð¾Ð¼Ñĥ
ÑĤ Ò¯ÑĢ
ĠÐ¸Ð³ ÑĢÑĥ
Ð¿Ð¾Ð» Ð½Ð¾Ð¼Ð¾Ñĩ
ĠÑģ ÐµÐ»Ðµ
Ð»Ð¸ÑĪ ÐºÐ¾Ð¼
ĠÐ¿ÑĢÐµ Ð²Ñĭ
ĠÑģÑĤÑĢÐ°ÑĤÐµÐ³ Ð¸ÑıÐ»ÑĭÒĽ
ĠÐ½Ð° ÑĪÐ°
T ube
ĠÐ´ÓĻ Ð¼
ĠÐ° ÑħÑĥ
Ð°ÑģÑĤ ÑĢÐ¾ÑĦ
ĠÐ»Ð¸Ðº Ð²Ð¸Ð´
ĠÐ¶Ò¯ÑĢ ÐµÑĤÑĸÐ½
ĠÐºÐ¾Ð¼Ð¼ÐµÑĢ ÑĨÐ¸ÑıÐ»ÑĭÒĽ
ĠÐ¿ Ð°Ð²
ĠÒĽÐ°ÑĢ Ñĥ
Ò£Ð³ ÑĸÐ»ÑĸÐº
Ð°ÑĢÐ¼Ð° ÑĨÐµÐ²
ĠÐºÐ¾ Ð¾ÑĢÐ´Ð¸Ð½
ÒĽ Ò±ÑĢ
Ð¾Ð½ Ð¸Ñı
ĠÒĽÑĭÐ·ÑĭÒĵ ÑĥÑĪÑĭÐ»ÑĭÒĽ
ĠÐĶ Ð°Ð²
ĠÐĲÐ»Ð»Ð° Ò»
ĠÐ±ÐµÐ»Ð³Ñĸ ÑģÑĸÐ·
Ð¾ÑĤ Ð¾ÑĢÑĭ
ĠÐ¡ ÑĭÐ½
Ðľ ÐµÐ½ÑĸÒ£
Ð·Ð° Ñī
ĠÐ¼Ð¾Ð½Ð¾ Ð¿Ð¾Ð»
ĠÐ¿ÑĢÐ¸Ðµ Ð·
ĠÐ±Ð°Ð» Ð°Ð½Ñĭ
Ñĸ Ð±ÐµÐº
ÑĤ ÑĭÐ»ÑĭÒĵÑĭ
Ð´ÐµÐ½ Ñĭ
Ð½Ñĥ Ð²
ĠÐ¾Ð· Ð½Ð°Ñĩ
ÒĽ Ð°Ñģ
ĠÑĤÑĸÐ· ÑĸÐ¼Ñĸ
ĠÑĨÐµÑĢ ÐµÐ¼Ð¾Ð½
ĠÐ»ÐµÑĩ ÐµÐ½Ð¸Ñı
ĠÒĽÑĭÐ· ÑĭÒĽ
ĠÐ¶Ð¸ÑĭÐ½ ÑĤÑĭÒĵÑĭ
ĠÑĤ ÐµÑĤ
Ñį ÑĤÐ°Ð¶
ÒĽ Ð°ÒĽ
ĠÐ¿ÑĢÐ¾ÑĨÐµÑģ ÑģÐ¾Ð²
ĠÐļ ÐľÐľ
ĠÑĢÐ° Ð´
Ð¡ Ðĳ
ĠÐ´ Ð°Ò£
ĠÐ¾Ð±ÑĥÑĩ ÐµÐ½Ð¸Ðµ
ĠÐ² Ð¿ÐµÑĢ
Ġ0 3
Ġa ct
Ðļ Ó©ÑĢ
ĠÐ¿ Ð»Ð°Ð²
Ð´ÐµÐ¹ ÑĤÑĸÐ½
Ð¶ Ð¸Ð½
ÐŁ ÐµÑĤÐµÑĢ
Ġin ter
Ġ8 00
ĠÐ°Ð»ÑĭÐ½ Ð°Ð´Ñĭ
w ik
ĠÐŃÐºÐ¾Ð½Ð¾Ð¼ Ð¸ÐºÐ°
ĠÐ¾ÑģÑĥÑīÐµÑģÑĤÐ² Ð»ÑıÐµÑĤÑģÑı
Ð¿Ð¾Ð» Ð½Ðµ
ĠKA SE
ĠÑĤÐµÐ¼ Ñĥ
ĠÐ¿ÑĢÐ¸ ÑģÑĤÑĥÐ¿
ĠÐ¿Ð¾ÐºÐ°Ð· Ð°ÑĤÐµÐ»Ð¸
ĠÐ¶Ð¾Ð» Ð´Ð°ÑĢÑĭÐ½
Ð¢ Ñĥ
ĠÐ¿Ð¾Ð· Ð¶Ðµ
ĠÑĨ ÐµÐ¿
ĠÐł Ð°Ð¼
Ðĸ Ð°ÑĢ
ÐŃ Ðº
ĠÐ¶Ð°Ñģ Ð°Ð¹ÑĤÑĭÐ½
ĠÑĥÑĩÐ°ÑģÑĤ Ð½Ð¸ÐºÐ¸
ĠÑģÐ°Ð» Ð¼Ð°ÒĵÑĭ
ĠÐ² Ð¼ÐµÑģÑĤÐ¾
ĠÑįÐº Ð·
ĠÐ°ÑĢ ÑĤÐµÑĢ
I AL
ĠÐ¿Ð¾Ð½ÐµÐ´ÐµÐ»ÑĮ Ð½Ð¸Ðº
ĠÑĪÐ°ÑĢÑĤ ÑĤÐ°ÑĢÑĭ
ĠÑĥÐ¿ÑĢÐ°Ð² Ð»Ñı
Ð°ÐµÐ¼ Ð¾Ð¹
ĠÑģÐ¿ Ð¸Ðº
Ð¾ÑĢ Ð¾Ð´
ĠÐ¸Ð½ÑĤÐµÐ»Ð»ÐµÐº ÑĤÑĥ
ĠÐ¿Ð¾ÑĢÑıÐ´ Ð¾Ðº
ĠÐ¼ÑĭÑģ Ð°Ð»
ĠÒĽÐ¾Ð»Ð´Ð°Ð½ Ð°Ð´Ñĭ
ĠÐ± ÑĢÐ°
ÐµÑģÑĤ ÑĸÒ£
Ðĺ Ðķ
ĠÐ¾Ð±Ð»Ð°ÑģÑĤ ÐµÐ¹
ÑĥÑİÑī ÐµÐ¹
ĠÑĤÑİ ÑĢÑĮ
ĠÐ°Ð¹ Ð½Ð°Ð»ÒĵÐ°Ð½
ĠÐ½ Ð¸Ð¶
Ð¾Ð»Ð¾Ð³ Ð¸ÑĩÐµÑģÐºÐ¸Ñħ
ÑĤ ÒĽÑĭÑĪ
ĠÑĦ ÑĢÐ¾Ð½
ĠÒ° Ð¹ÑĭÐ¼
ĠÐ¾ÑĤ Ñĩ
ĠÐĳÐµÐ»Ð°ÑĢÑĥÑģ Ð¸
ÓĻÐ´Ñĸ ÑģÑĤÐµÐ¼ÐµÐ»ÑĸÐº
ĠÐ°Ð¿ Ð¿Ð°ÑĢÐ°ÑĤÑĭ
Ò±Ð» ÑĭÐ½ÑĭÒ£
ĠÐ¼ Ð°ÑĤÑĮ
Ð°ÑĤÐµÐ»ÑĮ Ð½Ð¾Ð³Ð¾
ĠÑĪ ÐµÐºÑĤÐµÐ»
ĠÐ±Ð°Ñģ Ñģ
Ðº Ó©Ð·
ĠÐ¼Ó©Ð»ÑĪÐµÑĢ Ð´Ðµ
ĠÑįÐºÑģÐ¿ÐµÑĢÑĤ Ð¾Ð²
ĠÐ¿ÑĢÐµ ÐºÑĢÐ°Ñģ
ĠÐĺÐ· ÑĢÐ°
ĠÑĢÐ¾ÑģÑģÐ¸Ð¹ ÑģÐºÐ¾Ð¹
ÑĥÑīÐµ Ðµ
st r
Ð°Ð¶Ð¸Ð» Ð¸Ñģ
ĠÐ±Ð»Ð¸Ð¶Ð°Ð¹ ÑĪÐµÐµ
Ġa m
ĠÐĿ Ð°ÑĪ
ĠÐ½Ðµ Ð¿ÑĢÐ°Ð²
ĠÑģÐ¾Ð· Ð½
ĠÐ¸ÑģÑĤ Ð¾ÑĢÐ¸Ñı
ĠÐĳ Ó©
ĠÐ½Ð°ÑĨÐ¸Ð¾Ð½Ð°Ð»ÑĮ Ð½Ð¾Ð³Ð¾
Ġ5 1
ĠÐ²Ð°ÐºÑĨÐ¸ Ð½Ñĭ
ĠÐĿ Ð°Ð¼
ĠÐ±Ð°Ð» Ð»
ÑĭÐ» Ð¼Ð°ÒĵÐ°Ð½
ĠÑĤÐµÒ£ Ð³ÐµÐ½Ñĸ
ĠÑĤÐ°Ð½ ÑĭÐ¼Ð´ÑĭÒĽ
Ðŀ Ðĵ
ĠÐ¡ÑĭÑĢÑĤ ÒĽÑĭ
ĠÑģ Ð°Ð´
ÐµÐ½ÑĮ Ðµ
ĠÐ°Ð»Ð¼ Ð°Ð´Ñĭ
ÑĭÐ² Ð°ÑİÑĤÑģÑı
Ġ ÑĭÑĢ
ĠÐºÐ¾ÑĢÑĢÐµÑģÐ¿Ð¾Ð½ Ð´ÐµÐ½
ĠÒĽ Ð¸Ñģ
ĠÒ±ÑģÑĭÐ½ ÑĭÑģ
Ð² ÐµÑĢÑĤ
ÐµÐ¶ Ð°ÑĤÑĮ
ÑĭÒ£ÑĭÐ· ÒĵÐ°
Ñı ÒĽ
Òĵ Ð°Ð»Ð¸
ĠÑĥÐ² Ð°Ð¶
ĠÐĲÑĢ Ð¼Ð°Ð½
ĠÒĽÒ± Ð¼
ĠÐł ÐµÑĪ
ĠÐ¿Ð°ÑĢÑĤ Ð¸Ð¹
Ġp e
ĠÐºÐ°ÑĢ ÑĤÐ¾Ñĩ
ĠÐ¿ÑĢÐ¾Ð´Ð° Ð¶Ð¸
ĠÑĤÓ© ÑĤÐµÐ½ÑĪÐµ
ĠÑģÐµÐ½ÑĤ ÑıÐ±ÑĢÐµ
Ñį ÑĢ
Ñī Ð¸Ðµ
ĠÑĤÑĸÐ· Ð±
Ġe lement
Ð¿ ÑĢÐµÐ´
ĠÐĴ ÐµÑĤÐµÑĢ
ĠÐ¾ÑĢÑĤÐ°Ð½ Ñĭ
ĠÐ²Ð°Ð»Ñİ ÑĤÐ°
ĠÐ²Ð¾ÑģÐº ÑĢÐµÑģ
ĠÑĢÐ¾Ð´ Ð¸ÑĤÐµÐ»Ð¸
ĠÐ²Ð°ÑĢÐ¸ Ð°Ð½ÑĤ
ĠÐ¿Ð°Ð¹ÑĭÐ· Ñĭ
ĠÒĽÒ±ÑĢ ÑĭÐ»Ð´Ñĭ
ĠÐĽÐ¸ Ð³Ð¸
ĠÐºÓ©ÑĢÑĸÐ½ ÑĸÑģ
ÑĢÐ¾Ð½ Ð´ÑĭÒĽ
Ð¢ Ð£
Ġm ore
ĠÐ¿ÑĢÐµÐ´Ð»Ð¾Ð¶ ÐµÐ½Ð¸Ðµ
ĠÐķ ÑģÐµÐ¿
ĠÐļÐĿ Ðł
ĠÐ³ÑĢÑĥÐ· Ð¾Ð²
ĠÐ¿ÑĢÐ°ÐºÑĤ Ð¸ÐºÐ°Ð»ÑĭÒĽ
ÑģÐº Ð¾Ð¿
ĠÐ¿ÑĢÐµÐ´ Ð¾ÑĤ
ĠÐºÐ¾ Ð¾Ð¿ÐµÑĢ
ĠÑĤÐµÐ¿ Ð»Ð°
ÑĦÐ¸ÑĨÐ¸ ÑĢÐ¾Ð²Ð°Ð½
ĠÐ½ÐµÐ¾Ð±ÑħÐ¾Ð´Ð¸Ð¼ ÑĭÐµ
ĠÐ¶Ð¾Ð± Ð°ÑģÑĭÐ½
ĠÑĦÐ¸Ð½Ð°Ð½ÑģÐ¾Ð² Ð¾Ð³Ð¾
ĠÑģÐ¾ÑģÑĤÐ¾ÑıÐ½Ð¸ Ñİ
ĠÑģÐ°Ð½ Ðº
ÑĥÑĪÑĸÐ»ÐµÑĢ Ð´ÑĸÒ£
Ðº ÑĥÐ¿
ĠÐ¢ ÐµÐ½
Ñģ ÑĸÐ»ÑĤÐµÐ¼Ðµ
ĠÐ¾Ð±ÑĬÐµÐ¼ Ð°
ĠÐ¿ÑĢÐµÐ´Ð¿ÑĢÐ¸Ð½Ð¸Ð¼ Ð°ÑĤÐµÐ»ÑĮ
ĠÐ´Ð¾Ð»Ð¶ Ð½Ð¾ÑģÑĤ
Ġs u
Ð¾Ð² Ð°ÑĤÐµÐ»Ð¸
ĠT r
ĠÑĤÒ¯ÑĢ ÐºÑĸ
ĠÐ¸Ð·Ð¾Ð± ÑĢÐ°Ð¶
ĠÐ·Ð°Ð½ ÑıÑĤÐ¾
Ð· Ð°Ð½
ĠÐľ Ð½Ðµ
Ð¸Ð² Ð°
ÑĤÐµÑĢ Ð½
ĠÑģÑĤÑĢÑĥÐºÑĤ ÑĥÑĢ
ĠÑģÐ°Ð» Ð´Ñĭ
k az
ĠÐ¿ÑĢÐ¾ ÑģÑĮ
ÑĤ ÑĸÐ¼
ĠÐ¿Ð¾Ð´Ð¿Ð¸Ñģ Ð°Ð»
ĠÐ± ÐµÑĤÑĤÐµÑĢ
ĠÑģÐ¾ÑĨÑģÐµÑĤ ÑıÑħ
ĠÒĽÐ¾ÑĢ Òĵ
w indow
ĠÐ±ÑĭÐ² ÑĪÐµÐ³Ð¾
ÐºÐ°ÑĤ ÐµÑĢ
Ð¿ Ð¾Ð²
at es
ĠÑģÐ°Ñĥ Ð°Ð»
Ðº ÐµÐº
ĠÐ¿ÑĢÐ¾ Ð¸Ð½ÑĦÐ¾ÑĢÐ¼
ĠÐŁ Ð¾Ð¿
ĠÑģÐ¿ Ð¸
ÐµÐ½ Ð¾Ð²
ĠÐ¡ Ð°Ð±Ð°ÒĽ
ĠÑĦÐµÑģÑĤ Ð¸Ð²Ð°Ð»
ĠÐ¾ÑĤ ÑĭÐ½
ĠÐ± ÑĢÐ¾
ĠÑģÐµÑĢ ÐµÐ´
Ð¾Ð½Ð° Ñĩ
ĠÐŁ ÑģÐ¸Ñħ
Ñĥ Ñı
ĠÐ°ÒĽ Ð¿Ð°ÑĢÐ°ÑĤÑĤÐ°ÑĢ
ĠÐľÐ¸Ð½ Ð·Ð´ÑĢÐ°Ð²
ĠÐ±Ð°ÑģÑĤÐ°Ñĥ ÑĭÑĪ
ĠÑĢÐ¾ÑģÑģ Ð¸ÑıÐ½
9 5
Y a
ĠI T
ĠÐ¢ÓĻÑĥÐµÐ» ÑģÑĸÐ·
Ð° ÑĩÐµ
ige News
ĠÑģÐ¾ÑĤ ÒĽÐ°
ĠÑģÐ²ÑıÐ· Ð°Ð½Ð¾
ĠÐļ ÑĤÐ¾
ĠÐ¿ÑıÑĤ Ð½Ð¸ÑĨÑĥ
ĠÐ¼ÑĥÐ·Ñĭ ÐºÐ°
ĠÐĲÑģÑĤÐ°Ð½Ð° Ð´Ð°
ÑĥÐ» ÐµÑĢÑĸ
ĠÑĢÑĥÐºÐ¾Ð²Ð¾Ð´ ÑģÑĤÐ²Ð¾
ĠÑĤÓ© Ò£
Ð¿ ÐµÐ¹Ð´Ñĸ
ĠÐĹ Ð°Ð¼
ĠÐ±ÓĻÑģ ÐµÐºÐµÐ»
ĠÑĢÐµÑĪÐµÐ½ Ð¸Ð¹
ĠÐĹÐ°ÑĤ ÐµÐ¼
ÐļÐ°Ð½ ÐµÐ»Ð¾
Òĵ Ð°ÑĤ
ĠÑĢÐ°Ð·Ð²Ð¸ÑĤ Ð¸Ð¸
Ðµ ÑĦ
ÑĪ Ð¸ÑĤÑĮ
ĠÑĤÒ±ÑĢÒĵÑĭÐ½ Ñĭ
ĠÐ£ Ð³
ĠÑģÑĥÐ¿ ÐµÑĢ
Ġn ews
ÓĻÑģ ÑĸÐ»
ĠÐ¶Ò±Ð¼ÑĭÑģÑĤÐ°ÑĢ Ð´Ñĭ
Ø §
ĠÐ½ Ð¾Ðº
ĠÐ°ÐºÐ¸Ð¼ Ð°ÑĤ
ĠÐ½ÐµÐ´ ÐµÐ»Ðµ
ÐµÐ¼ Ð°
ĠÒĽÐ¾ÒĵÐ°Ð¼ Ð´Ð°
ĠÐ¿Ð¾ÑģÑĤÑĢÐ° Ð´Ð°Ð»Ð¸
le x
ĠÐ¡ÑĸÐ· Ð´ÑĸÒ£
Ð°Ð½ ÒĵÐ°Ð½
ĠÑģÑĥ Ð´Ñĭ
ĠÐ²Ð¾Ð·ÑĢÐ° ÑģÑĤÐ°
ĠÐºÓ©Ð±Ñĸ ÑĢÐµÐº
ĠBa igeNews
ĠÐºÐµÐ¿ÑĸÐ» Ð´ÑĸÐº
ĠÐ¶Ð°Ð¿ ÑĭÑĢÐ°ÒĽ
ĠÑĤÐ¾Ð» ÒĽÑĭÐ½
Ð°Ð½ Ð½ÑĭÐ¹
ĠÐ¾ÑĦÐ¸ÑĨÐ¸Ð°Ð»ÑĮ Ð½Ð¾
Ð¹ ÑĤÐµ
ĠÐ¾Ð±Ð¾Ð· Ð½Ð°Ñĩ
ĠÑĤ Ð¾Ð·
Ð¾ÑĢ Ð³
ĠÐ¿Ð¾ÑĤÐµÑĢÐ¿ ÐµÐ²
Òļ ÑĭÐ·
Ġa cc
ĠÐµÑģÐµÐ¿ ÑĤÐµ
ĠÐ¾ÑĤÑĭÑĢ Ð¼ÑĭÐ·
ĠÑģÐ¾Ò£ ÑĭÐ½Ð°
Ñī Ð°Ñı
ĠÐºÓ©Ð»ÐµÐ¼ ÑĸÐ½
ĠÒ±Ð¹ÑĭÐ¼ Ð´Ð°ÑĢÐ´ÑĭÒ£
ĠÑĢÐµÑģÐ¿ÑĥÐ±Ð»Ð¸Ðº Ðµ
ĠÐ·Ð°Ð½Ð¸Ð¼ Ð°ÑĤÑĮÑģÑı
Ð»ÐµÑĢ Ð³Ðµ
for e
i qu
ĠÑģÑĥÑīÐµ ÑģÑĤÐ²ÑĥÐµÑĤ
ÑĥÑĪ ÑĸÐ»ÑĸÐº
ĠÐ²Ð¾Ñģ ÐµÐ¼ÑĮ
Ð¾Ð± ÑħÐ¾Ð´
ÐĲ Ðŀ
ĠÐ¿Ð»Ð°Ð½Ð¸ÑĢÑĥ ÑİÑĤ
ĠÐĸ Ðļ
ÑĥÑĪÑĭÐ»Ð°ÑĢ Ð´Ñĭ
Ð°ÑĢ Ñĥ
SP EC
ÑĢÐ¾ Ð·Ð°
ĠÐ³Ð¸Ð¿ÐµÑĢ ÑģÑĸÐ»ÑĤÐµÐ¼Ðµ
ĠÐ¿Ð¾Ð²ÐµÑĢÑħ Ð½Ð¾ÑģÑĤÐ¸
ĠÑĥ Ð»Ð¸ÑĨÑĭ
ĠÐ½Ð¾Ð² ÑĭÐ¼
ĠÐ·Ð°Ð² Ð¾Ð´Ð°
ĠÑĥÑĩ Ð°ÑģÐº
ĠÐºÐ¾Ð¼Ð°Ð½ Ð´Ñĥ
ĠÑģÐ°Ð½ Ð´ÑĭÒĽ
ÑĸÐºÑĤÑĸ Ð³Ñĸ
ĠÐĿÓĻ ÑĤÐ¸Ð¶
ĠÓ©Ð½ ÐµÑĢÑĸ
ĠÑģÐ² ÐµÐ´ÐµÐ½Ð¸Ñı
ĠÐ½ ÑĢÐ°Ð²
ĠÐ¶Ð¾Ð± Ð°Ð»Ð°ÑĢ
ĠÐ´Ð¾ÑģÑĤÐ¸ Ð¶ÐµÐ½Ð¸Ñı
ÑĥÑİ ÑīÐµÐµ
Ò±Ñģ ÒĽÐ°
ĠÑħÐ°Ð»ÒĽ ÑĭÐ½Ð°
c ss
ĠÐ¿ÑĢÐ¾ ÑĤÐµÑģÑĤ
ĠÑģÑĤÐ°Ð½ ÑĨÐ¸Ñı
ĠÐ¿ÑĢÐ¾ÑĪ Ð»Ð°
ĠÐ¿Ð¾ÑĪ ÑĤÐ°
ĠÐ»Ð° Ð³ÐµÑĢ
ĠÑģ Ð°Ò£
ĠÐ¶ Ð°Ð¼
ĠÐ¥Ð¾ÑĤ Ñı
ÑĤÐ¸ ÑĢÑĥ
ĠÐ°ÑĤ ÑĭÐ½Ð°Ð½
ï ¸
ĠÑģÐ¾Ð±ÑĭÑĤ Ð¸Ñı
ĠI II
Ð°ÑĨÐ¸Ñı ÑģÑĭ
ĠX X
ÑĨ Ð¸Ð½
ĠÐ¿ÑĢÐ¾ÐºÑĥÑĢ Ð¾ÑĢ
Ð°Ð»ÑĮ ÑıÐ½
ÑĤÑĭÑĢ ÒĵÐ°Ð½
ĠÑĩ ÑĥÑĤÑĮ
ĠÑģÐ°ÒĽ ÑĤÐ°ÑĥÒĵÐ°
ĠÒĽÐ°ÑĢÐ°ÑģÑĤÑĭÑĢ ÑĭÐ»ÒĵÐ°Ð½
ĠÑĭÐ½ ÑĤÐ°Ð»
ĠÑģÐ²ÑıÐ· ÑĮ
ĠÐ´ ÑĢÐµÐ²
ĠÐ±ÑĸÑĢÐ» ÐµÑģÐºÐµÐ½
ĠÐ»ÐµÐ³ ÐºÐ¾
ĠÐ½Ð°ÑĢÑĥÑĪ ÐµÐ½Ð¸Ð¹
ĠÑĦÑĥÑĤ Ð±Ð¾Ð»ÑĮ
ĠÐĲ Ð»Ð¸
ĠS ub
ÑģÐºÐµÑĢ ÑĤÑĥ
ÐĶ Ðļ
ÐĲÒĽ ÑĤÓ©Ð±Ðµ
ĠÐ´Ð¾Ñĩ ÑĮ
ĠÐľ Ð¾ÑĢ
ĠÑĤ Ð¾ÑĩÐ½Ð¾
ĠÐ¿ÑĢÐ°Ð² Ð´Ð°
ĠÑģÐµÑģÑģ Ð¸Ð¸
Ð²Ð¸Ð´Ðµ Ð¾
ï¸ ı
ÐºÑĤ Ð¾ÑĢÑĭ
Ð°Ð» Ð¸Ð½
Ð¸Ð² Ð°Ð»ÑĮ
ĠÑĪ Ñĥ
ĠÑģÐ¸ ÑĢÐµÐº
ĠÐµ ÐºÐµ
ĠÐ¸Ð½ ÑĤÐµÐ³
Ð»Ð°Ð½ ÑĭÑģ
ĠÒ¯Ð¹ Ð´ÑĸÒ£
ĠÐ±Ð°ÒĽ ÑĭÐ»
ĠÑĤÐµÐ¼Ð¿ÐµÑĢ Ð°ÑĤÑĥÑĢ
ĠÐ°Ð»Ð´ ÑĭÐ½Ð´Ð°ÒĵÑĭ
ĠÐ½Ð°ÑĥÑĩ Ð½Ð¾
ĠÐ·Ð°Ñī Ð¸ÑĤÐµ
Ð¿Ð¾Ð» ÑĥÑĩ
Ġb ack
mat y
Ð¸Ð· Ð°
ĠÒĽÐ¾Ð»Ð´Ð°Ð½ Ð°
l ight
ĠÐ°ÑĢÐ° Ð´Ð°
ĠÐ±Ð¸ÑĢ Ð¶
ĠÐ·Ð½Ð°Ð¼ÐµÐ½ Ð¸ÑĤ
(' ');
ĠÐ²Ñĭ Ð´Ð°
ĠÑģÑĤ Ð¸Ð»ÑĮ
ĠÐ·ÐµÐ¼ Ð»ÐµÑĤÑĢÑıÑģ
ĠÐ¿ÑĢÐµÐ´Ð¿Ð¾Ð» Ð¾Ð¶
ĠYou Tube
Ġ8 5
ĠÐ¶ÐµÒ£ÑĸÐ¼ Ð¿Ð°Ð·
ĠÐłÐ¾ÑģÑģ Ð¸Ð¹ÑģÐºÐ¾Ð¹
ĠÒĽÐ¾Ð·ÒĵÐ°Ð» ÑĭÑģ
ĠÐ¶Ð¸Ð»ÑĮ Ðµ
SPEC IAL
ĠÐ¶ÐµÑĤÐµÐº ÑĪÑĸ
ĠÐ¾ÑĤÑģÑĥÑĤ ÑģÑĤÐ²Ð¸Ðµ
D SPECIAL
Ġ% -
ĠÑĤÐ°ÒĵÐ°Ð¹ÑĭÐ½ Ð´Ð°Ð»Ð´Ñĭ
ĠÐ¾ Ð´Ð°ÒĽ
Ð· ÐµÑĢÑĤÑĤÐµÑĥ
con om
ĠÐ¾ÒĽÑĭÑĤÑĥ Ð´ÑĭÒ£
Ð¾ ÑĢÐ°Ð¼
ĠÐ¡ Ð°Ð±
ĠÐĳÒ¯ Ð³iÐ½
ĠÐ±ÑĸÐ» ÐµÑĤÑĸÐ½
Ð¸Ð¼ Ð¾Ð¹
ĠÐĶÐ¾Ð± Ð°Ð²
ĠÐ· Ð»Ð¾
ĠÐ¿ÑĢÐµÐ·Ð¸Ð´ÐµÐ½ ÑĤÐ¾Ð¼
Ġ 00
ĠÐ¿Ð¾ÑĤÐµÐ½ ÑĨÐ¸Ð°Ð»ÑĮ
ĠÐľ ÐµÑģÑĤ
l t
Ñı ÑĢ
Ù İ
ĠI B
Ð¥ ÐĽ
ÑĥÐ»ÑĮ ÑĦ
ĠÐºÐµÐ·Ð´Ðµ ÑģÑĤÑĸ
ĠÑĪ ÐµÑĢ
Ò±ÒĽ ÑĭÒĽ
Ð¢ ÐķÐł
ĠÐ¿ÑĢÐ¾ÐºÑĥÑĢ Ð°ÑĤÑĥ
ÐĸÐ°Ð» Ð¿Ñĭ
ĠÑģ Ó©Ð½
ĠÐ°Ð»Ñĥ Ð´Ñĭ
ĠÐºÓ©ÑĤÐµÑĢ Ñĥ
ĠÐ³Ð¾ÑģÑĥÐ´Ð°ÑĢÑģÑĤÐ²ÐµÐ½ Ð½ÑĭÐ¹
ĠÒ± ÑģÐ°ÒĽ
ĠÐļÐµÐ¹ Ð±ÑĸÑĢ
ĠÐºÐ°Ð±Ð¸Ð½ ÐµÑĤ
ĠÐ°Ð» ÑĥÑĭ
ĠÐ´ÐµÐ¹ÑģÑĤÐ² Ð¸Ðµ
Ð¾ Ð¸
ĠÐĿÐ° Ð¸Ð±
ĠÐ´Ð°Ð¼ÑĭÑĤÑĥ Ð´ÑĭÒ£
ĠÐ½Ð°ÑĩÐ°Ð»ÑĮ Ð½Ð¸ÐºÐ°
ĠÑĢÐ°Ð± Ð¾ÑĤÐ¾
ĠÐ°Ð¹ ÑĭÐ½ÑĭÒ£
Ġs in
ĠÐĴÐĴ ÐŁ
ĠÐĴÐµÑĢÑħ Ð¾Ð²
ĠÒĽÐ°Ð±ÑĭÐ»Ð´Ð° Ð´Ñĭ
Ð¾Ð» Ð¾Ñģ
ĠÑħÐ°ÑĤ ÑĪÑĭÑģÑĭ
ĠÒ±Ð» ÒĵÐ°Ð¹
ĠÐ¡ÐµÑĢ ÑĸÐº
ĠÑĸÑģÑĤ ÐµÐ¹
ĠÐ½ÐµÑģÐ¾Ð²ÐµÑĢÑĪÐµÐ½ Ð½Ð¾Ð»ÐµÑĤ
Ġ| |
ĠÐĵ Ð°Ð»
ĠÑħÐ°ÑĢÐ°ÐºÑĤÐµÑĢ Ð¸ÑģÑĤ
ÐºÐµ Ò£
Ð´ÐµÐ¼ Ðµ
ĠÐ² ÐµÐºÐ°
Ð± ÑĥÐ´
ÐµÐ´ Ð¾Ð¼
Ð½Ð¾Ðº ÑĢÐ°ÑĤ
ĠÐ¡ ÐŁ
Ð°Ð¿ ÑģÑĭÑĢ
ĠÑģÑĤÑĥÐ´ÐµÐ½ÑĤ ÑĤÐµÑĢ
ĠÓĻÐ» ÑĸÐ¿
ĠÑģÒ± Ð¹
ĠÐ´ÐµÐ¿Ð°ÑĢÑĤÐ°Ð¼ÐµÐ½ÑĤ ÑĸÐ½ÑĸÒ£
Ð°ÑĤÐ¸Ð² ÑĤÑĸ
Ð½Ð¸ ÑĨÐ¸
Ġ ed
ĠÒĽÐ°Ð·Ð°ÒĽ ÑĪÐ°
ubl ic
Ð»Ñı ÑĤÐ¾ÑĢ
Ð· Ð°ÒĽ
ĠÒĽÒ±ÑĢÐ° ÑģÑĤÑĭÑĢÑĥ
ĠÐ¶Ò¯Ð» Ð´Ðµ
ĠA g
ĠÑĤ ÑĭÐ¼
ĠÐ¸Ð½ÑĤÐµÐ½ ÑģÐ¸Ð²
ĠÒ¯Ð¹ Ð´Ðµ
ĠÐ¢ Ð°ÒĵÑĭ
Ðŀ ÐŁ
ĠÑĤÑĢÐµÐ± ÑĥÐµÑĤ
ĠÐ¾Ð±Ð» ÑĭÑģÑĤÐ°ÑĢ
ĠÓ¨ Ð½ÐµÑĢ
ĠÐ¿Ð¾Ð»Ð¸ ÑĨÐ¸Ñİ
Ð¶Ð°Ð¹ Ñĭ
Ð¸Ðº Ð°Ð¼Ð¸
ĠÑĪ Ð¾Ðº
Ð´Ñĭ ÑĢÐ°Ð´Ñĭ
ĠÐ°Ð¿ ÑĤ
ĠÐ±Ð°Ñı Ð½Ð´Ð°
ĠÑĤÐ°Ð»Ð°Ð¿ ÑĤÐ°ÑĢÑĭÐ½Ð°
ĠÐµÐ» Ð´ÐµÑĢÐ´ÑĸÒ£
ĠÓĺÑĢ Ð±ÑĸÑĢ
ĠÑĥÑĩÐ°ÑģÑĤ ÐºÐ¾Ð²
ĠÐ±Ð¸Ð· Ð½Ðµ
ĠÒ±Ð· ÑĭÐ½
ĠÐ¡ Ð°ÑĤ
ĠÑį Ð½ÐµÑĢÐ³Ð¾
ĠÑĤÐ¾Ð» ÑĭÒĵÑĭÐ¼ÐµÐ½
ĠÐ°Ð´Ð°Ð¼ Ð³ÐµÑĢÑĪÑĸÐ»ÑĸÐº
an c
ĠÐ¶Ò±Ð¼ ÑĭÑģÑĤÑĭÒ£
ĠÐ¾ÑĦ Ð¸Ñģ
ĠÐ¾ Ð´ÐµÑĢÐ¶
ĠÐ¼ Ð¾ÑģÑĤ
Ð±Ð°ÑģÑĤ Ò±Ð·
ĠÑĤÐµÒ£Ð³ ÐµÐ´ÐµÐ½
Ð¸Ð¼ Ð¾Ð³Ð¾
ĠÑĤÓĻ ÑĥÐ»ÑĸÐº
ĠÒ¯ÑģÑĤ ÑĸÐ½Ð´Ðµ
ĠÐ¿ÑĢÐ¾Ð´ Ð»
ĠÐľÐ¾ÑģÐº Ð²Ñĭ
ĠÐ²ÑĢÐ°Ñĩ ÐµÐ¹
Ð¾ÑģÑĤ Ð¾Ñı
ÑĦÐ¾ÑĢÐ¼Ð° ÑĨÐ¸Ñı
Ð³Ð¾ Ñģ
ĠÑįÐ»ÐµÐºÑĤÑĢÐ¾ ÑįÐ½ÐµÑĢÐ³
ĠÐ¿Ð¾Ð´Ð´ÐµÑĢÐ¶ ÐºÐµ
ĠÑĤÐ°ÑĢ Ð°Ñĥ
Ð»Ð°ÑĢ Ð´Ð°Ð½
Ð« Ðľ
Ñı ÑģÐ°
ĠÑĥÐ²ÐµÐ»Ð¸Ñĩ Ð¸ÑĤÑĮ
ÐµÑģ ÑĸÐ½ÐµÐ½
ĠÐ¶ÐµÑĤÐµÐº ÑĪÑĸÑģÑĸ
ÑĢÐ¾Ð² Ð¾Ð»ÑĮ
ĠÐ¼ÐµÐ¹ ÑĢÐ°Ð¼
Ð¿ ÑĢÐµ
Ð¸ÑĢÐ¾Ð² Ð°ÑĤÑĮÑģÑı
ĠÐ½Ð°Ð· ÑĭÐ²Ð°ÑİÑĤ
ĠÐ°Ñĥ ÒĽÑĭÐ¼Ð´Ñĭ
7 5
Ð½ Ò£
ĠÒ¯Ð» Ð³ÐµÑĢ
ĠÑĤÐµÑĢÑĢÐ¾ÑĢ Ð¸ÑģÑĤ
ĠÐĸÐ¾Òĵ Ð°ÑĢÒĵÑĭ
ĠÑģÑĥÐ¼ Ð¼Ñĭ
ay s
ĠÐ±Ð¸ Ð¾Ð»Ð¾Ð³Ð¸ÑıÐ»ÑĭÒĽ
ĠÐ¿Ð¾Ð±Ðµ Ð´Ñĭ
Ñĥ Ð½Ð¾Ðº
ĠÐ¿Ð°Ð¹Ð´Ð°Ð»Ð°Ð½ ÑĭÐ¿
ĠÑĤÒ±ÑĢ ÒĵÑĭÑģÑĭÐ½Ð°Ð½
ĠÐ±ÑĭÐ² ÑĪÐ¸Ð¹
ĠÐ½ Ð°ÑĤ
ĠÑģ Ð»Ð¸ÑĪÐºÐ¾Ð¼
ÑĨÐ¸Ð¾Ð½ Ð½Ð°Ñı
ĠÐ¼Ð°ÑĢ ÑĤÐµ
ÑĪ Ð°Ð¼
ĠÑģÐ°Ð¼Ð¾ÑģÑĤÐ¾ÑıÑĤÐµÐ»ÑĮ Ð½Ð¾
ĠÐļÐ°Ð·Ð°ÑħÑģÑĤÐ°Ð½ Ñĥ
ĠÐ¼Ðµ ÑĪÑĸÑĤ
" }
ÐµÐ¹ Ð»ÑĸÐº
ĠÐ¾ÑĤÐ½Ð¾ ÑģÑıÑĤÑģÑı
ĠÐ°Ð»Ð¼ Ð°ÑģÑĥ
Ð´ ÑĮ
ĠÐ°Ð²ÑĤÐ¾ ÐºÓ©Ð»ÑĸÐº
ĠÐ´ÐµÐºÐ°Ð± ÑĢÐµ
ĠÐ´Ð°Ð½ Ð½Ð¾Ð¼Ñĥ
ĠÐ»ÑĥÑĩ ÑĪÐ¸Ñħ
ÑģÑĤÑĢÑĥ ÐºÑĤÑĥ
ĠÐĳ Ð°ÒĽÑĭÑĤ
ĠÐ¸ÑģÑĤÐ¾ÑĢ Ð¸Ñİ
ĠÒ±ÑģÑĭÐ½ Ñĥ
ĠÐ±Ð°ÒĵÐ´Ð°ÑĢÐ»Ð°Ð¼ Ð°ÑģÑĭÐ½
ĠÐ·ÐµÑĢÑĤ ÑĤÐµÐ»
Ġ5 3
ĠÐ¸Ð½Ð´ ÐµÐº
ĠÐ¿ÑĢÐ¸Ð¼ÐµÐ½ ÐµÐ½Ð¸Ñı
ÐµÑģÐº Ðµ
ĠÐŁ Ð»Ð°Ð½
ĠÐ²ÐµÑīÐµ ÑģÑĤÐ²Ð°
ĠÐ¿ÑĢÐµÐ´ Ð½Ð°Ð·Ð½Ð°Ñĩ
ĠÐµÑģÐº Ñĸ
ĠÒĽÐ°Ð±ÑĸÐ» ÐµÑĤÑĸ
ĠÐ£ ÑĩÐ°ÑģÑĤ
ĠÐ¼ÐµÑģÑĤ Ð½Ð¾Ð³Ð¾
Ð°ÑģÑĤ Ð°
k it
ĠÐ±ÐµÑģÐ¿Ð»Ð°ÑĤ Ð½Ð¾
Ð» Ð°Ð·
Ðº ÐµÐ·
ĠÐłÐ°Ñģ ÑģÐºÐ°Ð·
I N
Ð¾Ð» ÑĭÒĽ
ĠÓ©Ð½ÑĸÐ¼ Ð½ÑĸÒ£
ÑĤÑĸ ÑĢÑĥ
Ð±ÐµÑĢ ÐµÐ¶
ÒĽÐ°ÑĢ Ð°Ð»ÑĭÒĽ
ĠÑĭÒ£ÒĵÐ°Ð¹ Ð»Ñĭ
ĠÐĨ Ñģ
ÐµÑģÑĤ Ðµ
b y
Ð±Ð°ÐµÐ² ÑĤÑĭÒ£
ĠÐ¶ÐµÑĢÐ»ÐµÑĢ Ð´Ðµ
Ð±ÑĸÑĢ ÑĸÐ¼ÐµÐ½
ĠÐļÐ°Ð·Ð°ÑħÑģÑĤÐ°Ð½ Ð¾Ð¼
ÑĸÐ½Ð´Ðµ Ð¹
ÑĨÐ¸ Ð°Ð»Ð¸ÑģÑĤ
ÑĭÑĢ Ð¼Ð°
ĠÐ´ ÑĢÐ°Ð¼
ĠÑģÐ°Ð½ Ð°ÑĤÑĭ
ĠÐºÑĢ ÑģÐµÑĤ
Ðŀ Ð±Ð»
ĠÐ¾Ð¹ÑĭÐ½ Ð´Ð°ÑĢ
ĠÑĦÐ°ÐºÑĤÐ¾ÑĢ Ð¾Ð²
w eb
ĠÐ½ ÐµÐ½
ĠÐºÐ°ÑĢ ÑĤÐ°
ĠÑĤÐµÒ£ Ð´ÐµÑĥ
ĠÑģÑĸÐ»ÑĤ ÐµÐ¼
ĠÐľ ÑĥÑģ
ĠÐ±Ò± Ð´Ð°Ð½
ÑĤÐ¸ ÑĢÐ¾Ð²Ð°Ð½
ÑĭÑĢ Ñĭ
ĠÐ¿ÑĢÐ¾Ð´Ð¾Ð»Ð¶ Ð°ÑİÑĤ
ĠÐ°Ð²ÑĤÐ¾Ð¼Ð¾Ð±Ð¸Ð» Ñı
ĠÐĸÐµÐ» ÑĤÐ¾ÒĽÑģÐ°Ð½
ĠÐ¸Ð½Ð²ÐµÑģÑĤ Ð¾ÑĢÐ¾Ð²
ĠÑĤÐµÐ»Ðµ Ð°ÑĢÐ½
ĠÐ¸Ð· Ð¾Ð»
ĠÐ¿ÑĢÐ¾ÑĤÐ¸Ð² Ð¾Ð¿
ĠÐµÒ£ Ð±ÐµÐ³Ñĸ
ĠÑģÑĤ Ð¸Ñħ
ĠÐ²Ð·Ð°Ð¸Ð¼Ð¾ Ð´ÐµÐ¹ÑģÑĤÐ²Ð¸Ñı
ĠÐķÐ²ÑĢÐ¾Ð¿ ÐµÐ¹
ĠÐ»Ð¸Ñĩ Ð½Ð¾ÑģÑĤÐ¸
Ð¾ÑĤ Ð½Ð¾
Ð´ÐµÑĢ Ð´ÐµÐ½
ĠÓ¨ ÑģÐºÐµÐ¼ÐµÐ½
Ð°ÒĽÑĭÑĢ ÑĭÐ±Ñĭ
Ð» ÑĥÑĩ
ĠÐ±Ò¯ Ð»
ÑĪ ÑĸÐ»ÐµÑĢÑĸ
ĠÐ¡Ð°Ð¿ Ð°ÑĢ
Ð½Ðµ Ñĩ
ÑģÑĤ ÑĢÐ¾Ð¹
ĠÑģÐµÐ· Ð¾Ð½Ðµ
ĠÑģÑĥÐ± Ð±
ĠÑģÐºÐ¾Ð½Ñĩ Ð°Ð»ÑģÑı
ĠÐļ Ò¯
ĠÐ½Ð°Ñĩ Ð¸Ð½Ð°
ĠÐ¾Ð±Ñī ÐµÐ¼
ĠÑģÐµÐºÑĥÐ½ Ð´
ĠÐµÐ¶ ÐµÐ´Ð½ÐµÐ²
ĠÐ¿ ÑĥÑģÑĤ
ĠÐ²Ð¾Ð·Ð± ÑĥÐ¶Ð´ÐµÐ½
ĠÐ±ÑĸÑĢÐ» ÐµÑģÑĤÑĸÐº
ÐºÑĥ Ñģ
ÑĸÐ¼ Ð´Ðµ
ak e
ĠÐ» Ð¾Ð¶
ĠÐĲ ÑĤÐ°Ð¼
t an
Ð¾ÑĢ Ð¾ÑĤÐ°
ĠÓ©Ñģ ÑĥÑĸ
ĠÐļ ÐµÐ¼
ĠÐ´Ð¾Ð¿ ÑĥÑģÐº
Ð¿ ÑĢÐµÐ¶
ĠÐļÐ¾Ð¼ Ð¿
ĠÐłÑĥ ÐºÐ¾Ð²Ð¾Ð´
ĠÒĵÑĭÐ»ÑĭÐ¼ Ð´Ð°ÑĢÑĭÐ½ÑĭÒ£
Ð¶ Ð°ÒĽ
ĠÐ´ÓĻÑĢÑĸ Ð³ÐµÑĢÐ»ÐµÑĢ
ÐµÐº ÑĤÑĭ
Ð°Ñı ÒĽ
Ð¸Ð¼ ÑĭÐ¹
ĠÐºÓ© ÐºÑĤÐµÐ¼
ĠÐľ Ð§Ð¡
ĠÐ³Ð¾Ð´Ð° Ñħ
ÑĢ Ð°ÑĤÑĭ
Ð¸Ð½Ð° ÑĨÐ¸Ð¸
ĠÑģ Ð¾Ð½Ð´Ð°
Ðĳ Ð°ÑģÑĤÑĭ
ĠÐ´Ð¾Ð²Ð¾Ð»ÑĮ Ð½Ð¾
ĠÑħ ÑĢÐ¾Ð¼
ĠÐŀÑĤÐ¼ÐµÑĩ Ð°ÐµÑĤÑģÑı
ĠÐºÐµÐ· ÐµÐ³ÑĸÐ½Ð´Ðµ
ĠÐ¼ÓĻÐ´ÐµÐ½Ð¸ÐµÑĤ Ñĸ
ĠÐ¼Ò± Ð·
ĠÑĥÑī ÐµÑĢÐ±
S n
Ġ7 2
ĠÐ¼Ð¸ÐºÑĢÐ¾ ÑĢÐ°Ð¹
ĠÑĪÑĭÐ½ ÑĭÒĽÑĤÑĭÑĢÑĥ
ĠÐ¶Ð¾ÒĵÐ°ÑĢÑĭ Ð´Ð°
ĠÐ°ÑĢÐ½ Ð°ÑĥÐ»Ñĭ
ĠÐ² Ð¾Ð´Ð°
ot e
ÐĲ Ð½
ĠÐ°Ñģ ÑĭÐ¿
ĠÐĲÑĦ ÑĢ
Ð¸Ñı ÑģÑĭÐ½
ĠÐ½Ðµ Ð¿ÑĢ
ÑĥÑĢ Ñģ
ĠÐ¾Ð¿ÐµÑĢ Ð°ÑĨÐ¸Ð¹
ĠÐ¡Ó©Ð¹ ÑĤÑĸÐ¿
Ð³Ð¸Ð´ ÑĢÐ¾Ð¼ÐµÑĤ
ĠÑįÐºÑģÐ¿Ð»Ñĥ Ð°ÑĤÐ°
ĠÐĴ Ð¾Ð´
ĠÐ¾Ð¿ÑĢÐµÐ´ÐµÐ» ÐµÐ½Ð¸Ñı
ĠÐ¶Ò¯ÑĢÐ³ÑĸÐ· ÑĥÐ³Ðµ
ĠÑĤÐ°Ð¿ÑģÑĭÑĢÐ¼ Ð°Ð»Ð°ÑĢ
ri b
ĠÐ¯Ð¿Ð¾Ð½ Ð¸Ð¸
ĠÐ°ÑıÒĽ ÑĤÐ°Ð»ÒĵÐ°Ð½
ĠÑį ÐºÐ¸Ð¿Ð°Ð¶
ĠÐ°Ð³ÐµÐ½ÑĤÑĤÑĸ Ð³ÑĸÐ½Ðµ
ĠÑģÐ°Ð¼ Ð°
Ð°ÑİÑī Ð¸Ð¼
o ff
ĠÒĽÒ±ÑĢÐ°Ð»Ð´Ð°ÑĢ ÑĭÐ½
Ð¸ÑĤÐµÐ» Ñİ
Òĵ Ð¾Ð»
ÑĪ ÑĸÐºÑĤÑĸ
ĠÐ± ÑĭÑĤ
ĠÑģÐ´ÐµÐ» Ð°Ð»Ð¸
ĠÐ½Ð°Ð·Ð½Ð°Ñĩ ÐµÐ½Ð¸Ñı
Ò» Ð°ÑĢ
ĠÐ´Ó©Ò£Ð³ ÐµÐ»ÐµÐº
ĠÓ© ÑģÐºÐµÐ½
, -
ĠÐ¼ÐµÑĢ ÐµÐ¹
Ġy ou
ĠÐ±Ð¾Ð»Ð°ÑĤÑĭÐ½ ÑĭÐ½
ĠÐºÐµÐ·Ð´ÐµÑģ ÐµÑĤÑĸÐ½
ĠÐ´Ð¾ ÑħÐ¾Ð´Ð°
ĠÑģÐ¿Ð¾ÑĢÑĤ ÑĤÑĭÒĽ
ÐĲÑĤÐ°Ð¼ ÐµÐºÐµÐ½
re l
ĠÐ¶Ð°ÒĽ ÑĭÐ½Ð´Ð°
ĠÐ¿Ð¾ÑģÑĤ ÐµÐ¿
Ġ200 2
ĠÐŀÐ¹ ÑĭÐ½
C O
ĠÑħ Ð¸Ñī
ĠÐ·Ð°Ðº ÑĢÐµÐ¿
ow er
Ð½Ð¸Ðº Ðµ
ĠÐ±Ð¾Ð»ÑĮÑĪ Ð¸Ðµ
Ġ \
Ð» Ð¸Ð·
ĠÑģ ÐµÑĢÐ¸
ĠÑĸÑģÑĤ ÐµÐ³ÐµÐ½
Ð¸Ñģ Ð¸
ĠÐ´ÐµÑĤ ÑĮÐ¼Ð¸
ĠÐ¶Ð¾Ð» ÑĭÐ½Ð´Ð°
Ð±Ò± Ð´Ð°Ð½
ĠÐŀ Ðł
Ð¾ÑĤÐ¾ÑĢÑĭ Ðµ
Ð´ÑĸÐ³ÑĸÐ½ ÐµÐ½
Ð°ÑĢÑĤ ÑĭÐ»ÒĵÐ°Ð½
Ð¾Ð· Ñĭ
ĠÑģÑĥ Ð´ÑĭÒ£
ĠÐĳÒ¯ Ð³ÑĸÐ½Ð´Ðµ
ĠÐ²ÑĢÐµÐ¼ÐµÐ½ ÐµÐ¼
ĠÑĤÓĻÑĢÑĤÑĸÐ± ÑĸÐ½
ĠÑĤÐ°Ð¼ Ð°ÑĪÐ°
ÐĲÐĹ ÐĲÒļ
ĠÐ¡ÐµÑĢ Ð³Ðµ
ĠÑĤÑı Ð¶
ĠÑģÐ°Ð½ Ð°ÑĤ
ĠÑĦÐ¸Ð»ÑĮ Ð¼Ð°
Ð¸Ñĩ Ð½ÑĭÐ¹
ÑĢÐ¾ ÑģÑģ
ĠÑĪÐ°Ð¼ Ð°ÑģÑĭÐ½Ð´Ð°
ĠÐ¼ÐµÐºÑĤÐµÐ¿ ÑĤÑĸÒ£
Â» )
ĠÐ±Ð°Ð»Ð°Ð±Ð°ÒĽ ÑĪÐ°
ĠÓ¨ ÑĤÐºÐµÐ½
ĠÐ±Ò± Ð¹
ĠÑĤÑĥÑĢÐ¸ÑģÑĤ Ð¾Ð²
ĠÒļÑĭÑĢÒĵÑĭÐ· ÑģÑĤÐ°Ð½
ĠÐ±ÐµÑĢ Ð¼ÐµÐ¹Ð´Ñĸ
ĠÐ¡Ð°Ð½ ÐºÑĤ
ĠÑģ Ð°ÑĢÑĭ
ÐµÐ½ Ð´Ñĸ
ĠÑĢÐ°ÑģÐ¿ÑĢÐ¾ÑģÑĤÑĢÐ°Ð½ ÐµÐ½Ð¸Ñı
Ð°Ð»Ð¸Ð· Ð¼
ĠÑĨÐ¸ÑĦ ÑĢ
ĠÐ¾Ð»Ð¸Ð¼Ð¿Ð¸ Ð°Ð´Ð°
Ñĥ ÑģÑĤÑĮ
ĠÐ¿ÑĢÐ¸ ÑģÐ¾ÐµÐ´Ð¸Ð½
Ðľ Ð°ÑĢ
ĠÒ¯Ð¹ Ð³Ðµ
Ð· Ð´ÑĸÐº
ĠÑģÑĢÐµÐ´ Ð½ÐµÐ¹
Ñģ ÑĭÐ½Ð°Ð½
Ð¸ÑĤ Ð¸
ech n
Ġ ro
ĠÐ°ÑĥÐ´Ð°ÑĢ Ñĥ
ĠÒĽÐ¾ÑĢÒĵÐ°Ð½ ÑĭÑģ
ĠÐ²Ð¸ Ð´Ñĭ
ĠÐ¿ÑĢÐ¸Ð±ÑĭÐ» Ð¸
ĠÐ¸ÑģÑĤÐ¾Ñĩ Ð½Ð¸ÐºÐ¾Ð²
Ð°Ð½ Ð½Ð¾Ð¹
ĠÐ³Ð¾ÑĢ ÑıÑĩ
Ðł Ñĥ
ĠÐ¶Ò± Ð¿
ĠÑĦÐµÑĢ Ð¼ÐµÑĢ
ĠÐĶ Ð°Ð¼
ĠÐĵ Ð°ÑĢ
ĠÑģÐ¿ Ð¾ÐºÐ¾Ð¹
ĠÓĺ Ð´ÐµÐ±Ð¸
ĠÓ©Ð¼ÑĸÑĢ Ð³Ðµ
ĠÑĪ ÑĤÐ°Ð¼
Ð´ÑĭÒĽ ÑĤÑĭÒ£
ĠÐµÑĢÐµÐ¶ ÐµÐ»ÐµÑĢÑĸ
ĠÑĢÐ¾Ð´ Ð¸Ð»ÑģÑı
ĠÐºÐ¾Ð´ÐµÐº ÑģÐ°
ĠÑģÑĥ ÑĤÐ¾Ðº
ĠÐ¿ÑĢÐ¾ÑĤÐ¾ ÐºÐ¾Ð»
ĠÐ¿Ð¾Ð»ÑĥÑĩ Ð°ÑİÑĤ
ĠÐ¿ÑĢÐµÐ´Ð¿ÑĢÐ¸Ð½Ð¸Ð¼ Ð°ÑĤÐµÐ»ÑĮÑģÑĤÐ²Ð°
Ð´ÐµÐ¹ÑģÑĤÐ² Ð¸Ñİ
ĠÐ¿ÐµÑĢÐ¸ Ð¾Ð´Ð°
at ing
ĠÑģÑĤÐ°Ð² ÐºÐ¸
ĠÐļÐµÐ» ÐµÑģÑĸ
ĠÒĽÐ¾ÑĢ ÑĭÐ½ÑĭÒ£
ĠÐ¶Ò¯ÑĢÐ³ÑĸÐ· ÑĸÐ»Ð³ÐµÐ½
ÑĭÐ» ÑĥÑĭÐ½
ĠÐ´ÐµÐ³ÐµÐ½ Ð´Ðµ
ÐµÐ´Ð°Ð³Ð¾Ð³ Ð¸ÐºÐ°Ð»ÑĭÒĽ
ĠÑģÑĭÐ½ Ð°ÒĽ
ĠÐ·Ð¸Ñı Ð½Ð´Ñĭ
Ð´ÓĻ ÑģÑĤÒ¯ÑĢ
ĠÐ¾ÑĢÑĭÐ½ ÒĵÐ°
ÑĤÑĸ Ð³Ñĸ
ĠÑĢÐµÐ´Ð° ÐºÑĤÐ¾ÑĢ
ĠÐ¾Ð±ÑĬÐµÐº ÑĤÑĭ
ĠÐ³Ð¾ÑĢ Ð¾Ð¶
Ð´ÐµÑĢ Ð¼ÐµÐ½
ĠÑģÐ¸Ð½ Ð´
ĠÑĪ ÐµÑģÑĤ
ĠÐ¿ÑĢ ÐµÑĤÐµÐ½
Ð¼ Ð°Ð¹ÑĤÑĭÐ½
ÑĥÐ¶Ðµ Ð±
ĠÑģÐ°Ð¹ ÑĤÐ°
ĠÐ¼Ð°ÑĤÐµÑĢÐ¸ Ð°Ð»Ð°
id ent
ÑĩÐµÑģÐº Ð¸Ñħ
ĠÐĿ Ð°Ð´
ÑĤ Ð²Ð¾ÑĢ
Ġs ystem
ĠÐ¶Ò±Ð¼ÑĭÑģ ÑĭÐ½Ð°
ĠÐľ ÑĭÑģ
Ð¾ Ð½ÑĭÒ£
ĠÐķ Ð»ÐµÐ½Ð°
Ġs a
ĠÐ¿ÑĢÐ¾ÐºÑĥÑĢ Ð°ÑĤÑĥÑĢÑĭ
el y
ĠÐ¼Ð°ÑĢ ÐºÐµÑĤÐ¸Ð½Ð³
ĠÐ²Ñĭ ÑĢÐ°Ð·Ð¸Ð»
ĠÑĥÐ°ÒĽÑĭÑĤ ÒĽÐ°
ĠÑĤÐµÑĢÑĢÐ¸ÑĤÐ¾ÑĢ Ð¸Ñİ
ĠÐ¿ÑĢÐµÐ´ Ð¿Ð¾Ñĩ
ĠÐ¶Ò¯ÑĢÐ³ÑĸÐ· ÐµÐ´Ñĸ
ĠÐ´Ð¾Ð¿Ð¾Ð»Ð½Ð¸ÑĤÐµÐ»ÑĮ Ð½ÑĭÐµ
ĠÐľ Ð°Ð´
ĠÐ´ÑĢÑĥÐ·ÑĮÑı Ð¼
ĠÐ¿Ð¾ÐºÐ°Ð· Ð°ÑĤÐµÐ»ÐµÐ¹
ĠÐ´ Ð°ÑĤ
ĠÑĩÐµÐ¼Ð¿Ð¸ Ð¾Ð½Ñĭ
ĠÐ·ÐµÐ¼ Ð»Ð¸
ĠÐ¼ÐµÐºÑĤÐµÐ± ÑĸÐ½ÑĸÒ£
ĠÑħÐ°Ð±Ð°ÑĢ Ð»Ð°Ñģ
Ð»Ñı ÑĨÐ¸Ñı
ĠÑģÐ¾Ð¾Ð±Ñī ÐµÐ½Ð¸Ñı
Ð¾Ð» Ñĥ
t witter
ĠÐ¨ ÑĤ
Ðł ÐŁ
ĠÑĤÐ¸ ÐµÑģ
Ðķ Ð²
ĠÐµ ÑĤÑĸ
ĠÑĢÐ¾Ð» Ð¸
sc roll
ĠÐ²Ð¾Ð» Ð¾Ð½ÑĤÐµÑĢ
ĠÐĶÐµÐ¼ ÐµÐº
ĠÐ±Ð°Ð»Ð° ÒĵÐ°
Ġm ain
ĠÐ¾ÑĤÐ²ÐµÑĤ Ð¸Ð»
ĠÐ¥ Ð°Ð½
ĠÑĤÐµÐºÑĥÑī ÐµÐ¼
ĠÒ±ÑģÑĭÐ½ ÒĵÐ°Ð½
ĠÒĽÐ°Ð½ ÑĪÐ°Ð»ÑĭÒĽÑĤÑĭ
ĠÓĻ Ð´ÐµÐ¼Ñĸ
ĠÑĦÑĥÑĤÐ±Ð¾Ð» Ñĥ
ĠÐ² Ð¿Ð¾Ð»Ð½Ðµ
ĠÐ¡ ÑĤÐ°ÑĢ
ĠÐ±Ð°ÑĢ ÒĵÐ°Ð½
Ðļ Ð°Ð·Ð°Ñħ
ĠÐºÒ¯ ÑĤÑĸÐ¿
ÑĦ ÑĤ
Ð² Ð°Ð¶
ĠÑģÐ¿ÑĢÐ°Ð² ÐµÐ´Ð»Ð¸Ð²
ĠÐ±Ð¾Ð»ÑĮÐ½Ð¸ÑĨ Ðµ
ÑĦÐ¸ÐºÐ° ÑĨÐ¸Ñı
ĠÐ¿ÑĢÐ¸ÑĪ Ð»Ð¸
ÐµÑĢ ÑģÐ¸
Ð¡ Ð¾Ð½Ð´Ð°Ð¹
ĠÐľÒ± ÒĵÐ°Ð»
ĠÐ¿Ð¾ÑıÐ² Ð¸Ð»Ð°ÑģÑĮ
ï »
Ð¸Ðº Ð¾Ð¼
ĠÐ°Ð³ ÑĢ
ĠÐºÐ¾Ð½ÐºÑĥÑĢ ÑģÐ°
Ġ0 4
ĠÐ¾Ð¹ Ð»Ð°Ð¿
ĠÐ´Ð°Òĵ Ð´Ð°ÑĢ
201 3
ĠÐ± Ð¾Ð¼
ĠÐ½ Ð¾Ð¶
ĠÐ± Ð¾Ð¿
Ð½ ÐµÐºÑĤÑĸ
ĠÐ´ÐµÐ²ÑĥÑĪ ÐºÐ¸
ĠÐº ÐµÑĪÐµ
ĠÐ±Ð¾Ð» Ð¼Ð°ÒĽ
ĠÐĲÐº Ð¾ÑĢ
ĠÐ¿ÑĢÐ¾Ð´Ð¾Ð»Ð¶ Ð°ÐµÑĤÑģÑı
ĠÐ¡ Ð²ÐµÑĤ
ĠÑĥÑģÐ¿ÐµÑĪ Ð½Ð¾
ĠÐ¼ÓĻÐ½ ÑĸÐ½
ĠÐ²ÐµÐ´ ÐµÑĤÑģÑı
ĠÐºÐ°ÑĢÐ°Ð½ÑĤ Ð¸Ð½Ð°
Ġm ay
ĠÑģÐµÐ· ÑĸÐ½
ĠÐĿ ÐµÑĤ
ĠÑģÐ¾ÑĨÐ¸Ð°Ð»ÑĮ Ð½Ð¾Ð³Ð¾
ÑģÐº Ð¾ÑħÐ¾Ð·ÑıÐ¹
ĠÐ¾ÑģÑĤ Ð°Ð»Ð¸ÑģÑĮ
Ð¾Ð± ÐµÑī
ĠÒĽÑĭÐ·Ð¼ÐµÑĤ ÑĤÑĸÒ£
ĠÐ± Ð¾Ðµ
Ð´Ð°Ð½ Ð°
ĠÐķ ÑģÐµÐ½
ĠÐ²Ñĭ ÑĢÐ°Ð·
ĠÐ½Ðµ ÑĪÐµ
PO SI
ĠÐłÐ¸Ñģ ÑĥÐ½Ð¾Ðº
ĠÐ·Ð°Ð¼ÐµÑģÑĤ Ð¸ÑĤÐµÐ»Ñı
ĠÐ¿Ð¾Ð´ Ð»ÐµÐ¶
Ð°Ð»ÑĮ Ð´
c o
ĠÒĽÐ°Ð¼ ÒĽÐ¾ÑĢ
Ġ6 4
ĠÐ´ÑĢÑĥÐ³ Ð¾Ð¼
ĠÑĪÐµÑĪ ÑĥÐ³Ðµ
ib le
ÐµÑģ ÑĸÒ£
ĠÐ» Ð°ÑĤÑĭÐ½
ĠÐ¿ÑĢÐµÐ² ÑĭÑģ
Ð½Ð° ÒĵÐ°Ð½
ĠÑģÐ»ÐµÐ´ÑĥÑİÑī ÐµÐ¼
u res
POSI TION
ĠÐ¢ÐµÑħ Ð½
ĠÐºÑĸ ÑĤÐ°Ð±
ĠÑįÑĦÑĦÐµÐºÑĤÐ¸Ð² Ð½Ð¾ÑģÑĤÐ¸
ĠÐŁ Ðł
ĠÐºÐ»Ð°Ñģ ÑģÐ°
Ð°Ð» ÒĽ
ĠÐ¼Ð°Ð·Ð¼Ò±Ð½ ÑĭÐ½
ĠÐ±Ð°ÑģÒĽÐ°ÑĢ Ð¼Ð°
k en
Ð¿ÑĢ Ð¸Ð½Ð¸Ð¼
ĠÒĽÒ±ÒĽ ÑĭÒĵÑĭÐ½
ĠÑģÐºÐ¾ÑĢ ÐµÐµ
ĠÐŀ ÑģÑĤ
ĠÒ¯Ð¹ Ñĸ
Ðº Ð¾Ð»ÑĮÐºÐ¾
ĠÐ½Ð¾Ð² Ð¾Ðµ
ĠÐ¾ÒĽ Ñĭ
D POSITION
ĠÐ°Ð¹ÑĭÐ¿ Ð¿Ò±Ð»
Ð°ÑĤ ÑģÑı
Ġs e
ĠÐĶ ÐŁ
49 3
ï» ¿
Ð´ÐµÐ½ Ð°
% ;
ĠÐ¿Ð¾Ð»Ð¸ÑĤ Ð¸ÑĩÐµÑģÐºÐ¸Ñħ
ĠÑĤÐ¾Ð± ÑĭÐ½ÑĭÒ£
ĠÐºÐ¸Ð»Ð¾Ð³ÑĢÐ°Ð¼Ð¼ Ð¾Ð²
ĠÐ²ÑĭÐ· Ð´Ð¾ÑĢÐ¾Ð²
Ð» Ð¾Ð±
ÐµÐ´ ÐµÐ½Ð¸Ðµ
Ð¸Ð³ Ð°
ĠÑĤÐ¾Ð»ÑĭÒĽÑĤÑĭÑĢÑĥ Ð»Ð°ÑĢ
Ð¸ÑĤÐµÐ»ÑĮ Ð½ÑĥÑİ
Ð°Ð½Ð¸Ñı Ñħ
Ġ6 8
ĠÐ°ÑĢÑħ Ðµ
vest i
ut ion
ĠÐ°Ð²Ð°ÑĢ Ð¸Ð¹
ĠÐ½Ð°ÑĥÒĽ Ð°ÑģÑĤÐ°ÑĢ
ip edia
i ed
ĠÐ·Ð°ÑģÐµÐ´ Ð°Ð½Ð¸Ðµ
Ġal so
Ð°ÑĤ Ð¸ÐºÐ°
ĠÑĪÑĭÒĵ Ð°ÑĤÑĭÐ½
ĠÐ¿Ð¾ÑģÐ»ÐµÐ´ Ð½ÐµÐµ
ĠÐ¼Ð¸Ð½Ð¸ÑģÑĤÑĢ ÑĸÐ½ÑĸÒ£
ĠÐºÐµÐ· ÐµÐº
ĠÐĴÐµÐ´ ÑĮ
ĠÐķÐ²ÑĢÐ¾Ð¿ Ðµ
ĠÑħÐ°ÑĢÐ°ÐºÑĤÐµÑĢ Ð°
Ð¸Ð½ Ð½ÑĸÒ£
ĠÑģÐ°Ð»ÑĭÐ½ Ð°Ð´Ñĭ
ĠÐ´Ò¯ ÐºÐµÐ½
Ð¼ Ðº
Ð¾Ð² Ð°Ð»Ð¾
ĠÐ¡ Ðŀ
Ñĸ Ð³ÑĸÐ½
ĠÐ¿Ð¾Ð»Ð¸ÑĨÐµÐ¹ ÑģÐºÐ¸Ñħ
ĠÐ¿ÑĢÐ°ÐºÑĤ Ð¸ÐºÐ°
9 0
Ð» Ð¾Ð³
ĠÐ³Ð» Ð°Ð·
ĠÑĢÐ°Ð· Ð½Ð¾
Ð´ÐµÑĢ ÑĸÐ¼ÐµÐ½
ĠÐ¶Ò¯ Ð³ÑĸÐ½
ĠÐ°Ñĥ ÑĭÑĤ
Ð´ a
ĠÒļÐ°Ð·Ð°ÒĽÑģÑĤÐ°Ð½ Ð´ÑĭÒĽ
ĠÑģÑĥ Ñħ
ĠÓ©Ð½ÐµÑĢÐº ÓĻÑģÑĸ
ĠÑģÐ» ÑĥÐ¶ÐµÐ±
ĠÐ²Ð¾Ð´ Ñĥ
ĠÑĦÐ¸Ð½Ð°Ð½Ñģ Ð¸ÑĢÐ¾Ð²Ð°Ð½Ð¸Ñı
ĠÐ¿ÐµÑĢ ÐµÐ¼ÐµÐ½
Ñĳ Ð»
Ġe v
ĠÐºÐ¾Ð½ ÑģÐµÑĢÐ²
Ð¸Ñģ Ð¿
ÒĽ Ò±ÒĽÑĭÒĽÑĤÑĭÒĽ
ĠÐ¸ÑģÑĤÐ¾Ñĩ Ð½Ð¸Ðº
ĠÐ¼ Ð°Ðµ
ĠÒ± Ð¿Ð°Ð¹
ĠÐµ Ñĥ
ĠÐĳÒ° Ò°
ĠÐ²Ð¾ÑģÑĤ Ð¾ÐºÐµ
ĠÑģÐµ Ð³ÑĸÐ·
ĠÑģÑĥ Ð¼ÐµÐ½
u ro
ĠÐ´Ð°Ð½ Ð°
ĠÐºÓ© ÑĢÐµ
ĠÐ°ÑįÑĢÐ¾Ð¿ Ð¾ÑĢÑĤÐ°
ĠÐ±ÑĥÐº Ð²
ĠÐ±Ò¯ Ð³ÑĸÐ½Ð´Ðµ
ĠÐĲÐ» ÒĵÐ°ÑĪÒĽÑĭ
ÑĤ ÐµÐ¹ÑĤÑĸÐ½
ĠÐµÑģÐµÐ¿ÑĤÐµÐ» ÐµÐ´Ñĸ
ĠÑĤÐµÐ»ÐµÐ² Ð¸Ð·
ĠÓĻ Ð±
ĠÐ¾ÑģÐ½Ð¾Ð² Ð°Ð½Ð¸Ð¸
ĠÐ·Ð°Ð±Ð¾Ð»ÐµÐ² ÑĪÐ¸Ñħ
ĠÐ¿Ð¾ ÐµÐ´
ĠÐĳ ÑĢÐ°Ð·Ð¸Ð»
ĠÑĢÐµ ÑĦÐµÑĢÐµÐ½
ĠÐ¿ÐµÑĢÐµÐ³Ð¾Ð²Ð¾ÑĢ Ð¾Ð²
ĠÐ¶Ò¯Ð¹ ÐµÐ»ÐµÑĢ
ĠÐĲÒĽÐ¿Ð°ÑĢÐ°ÑĤ ÑĤÑĭ
ĠÑĥÐ¿ Ð¾ÑĤÑĢÐµÐ±
ÒĽ Ò±Ð¼
ĠÓĺ ÑģÑĸÑĢÐµÑģÐµ
ipp et
Ð¾ÑģÑĤ Ð¾Ð²ÐµÑĢ
ĠÐ¾Ð±ÑĬ ÑıÑģÐ½Ñı
ĠÐ¶Ð°Ð· Ð°
ĠÐ¥ Ð¸Ð¼
ĠÐµÐ»Ðµ ÑĥÐ»Ñĸ
web kit
Ð°Ð½ ÑģÑĭ
ind ex
ĠÐ°Ð´Ð¼Ð¸Ð½Ð¸ÑģÑĤ ÑĢÐ°ÑĨÐ¸Ð¸
ĠÑģÐ°Ð±Ð°ÒĽ ÑĤÐ°ÑĢ
S O
os e
ĠÑįÐºÐ¾Ð½Ð¾Ð¼ Ð¸ÑĩÐµÑģÐºÐ¸Ñħ
ĠÐ¡ÐµÑĢ Ð¸Ðº
ĠÐ¸Ð½ÑĦÐµÐº ÑĨÐ¸Ñı
Ðº Ð¼ÐµÐ½
ĠÐ¿ÑĢÐ¸Ð· ÑĭÐ²
ĠÐ±ÑĸÑĢ Ð´Ðµ
ĠÑģÐ½Ð¸Ð¶ ÐµÐ½Ð¸Ñı
Ġ up
ĠÐŀÐ» ÑĮ
ĠÐµÑĢÐµÐºÑĪ ÐµÐ»ÐµÐ½
ĠÐ³ÑĢÐ° Ð´
ĠÐ¼ÓĻÐ»ÑĸÐ¼ÐµÑĤÑĤÐµÑĢ Ð´Ñĸ
Òļ Ð°Ð¹
Ñģ ÒĽÐ°
ĠÐ²Ð°ÐºÑĨÐ¸Ð½Ð° ÑĨÐ¸Ð¸
ĠÑģÐ¾Ð³Ð»Ð° ÑĪÐµÐ½Ð¸Ðµ
Ðļ Ð°ÑĢ
ĠÑģÐ¾Ð¾Ð±Ñī ÐµÐ½Ð¸Ðµ
ĠÑģÐ¾ ÒĵÐ°Ð½
ÐĳÑĸÐ· Ð´ÑĸÒ£
Ð¾Ñĩ Ð½Ð°Ñı
35 5
ĠÐ°Ð¹ Ð»ÑĭÒĽ
ĠÐĵÐ¾Ð»Ð¾Ð² ÐºÐ¸Ð½Ð°
ĠÐĿ Ð°Ðº
ĠÓĻÑĢ ÒĽÐ°Ð¹Ñģ
ĠÐ·Ð°Ðº Ð¾Ð½Ð¾Ð¼
ĠÑĤÐ¾ÒĽ ÑģÐ°Ð½
ĠÐ¾Ð± ÑģÐ»ÐµÐ´
ĠÐ±Ó©Ð»Ñĸ Ð³ÑĸÐ½Ð´Ðµ
ĠÐĳ Ð°Òĵ
ĠÑĤÐµÐ» Ð¾
ĠÑĩÑĥÐ² ÑģÑĤÐ²
Ð¡ ÑĸÐ·
Ġo b
Ð°ÐºÑĤÐ¸Ð² ÑĤÑĸ
ÑĪÐµÐ½ Ð¸ÐµÐ¼
ĠÑĤÑĸÐ» ÑĸÐ½Ð´ÐµÐ³Ñĸ
ĠÐ¾ÐºÐ°Ð·Ð°Ð» Ð¾ÑģÑĮ
ĠÑģÑĤÐ°Ð´ Ð¸Ð¸
Ð¡ ÐµÐ½
Òĵ ÑĭÐ½Ð´Ð°ÒĵÑĭ
ĠÑĪÑĭÒĵ ÑĭÑģ
ĠÐ¼ÐµÐºÑĤÐµÐ¿ ÑĤÐµ
ĠÒļ ÑĭÐ»Ð¼ÑĭÑģÑĤÑĭÒĽ
ĠÐ½Ð° Ð²ÐµÑĢ
ĠÑĪÐ¾ ÒĵÑĭÑĢ
ĠÒĽÐ°ÑĢ ÒĽÑĭÐ½
im es
ĠÒĽÐ¾Ð¹ Ð¼Ð°Ð¹
ĠÒĽÐ°Ð» Ð´ÑĭÑĢÑĥ
ĠÑĪÐµÐº ÐºÐµÐ½
ÑģÑĤ ÑĢÐµ
ÑĤÒ¯ ÑģÑĤÑĸ
ĠÑģÐ°Ñı ÑħÐ°ÑĤ
ĠÐ³Ð¾ÑĢÐ¾Ð´ ÑģÐºÐ¾Ð¹
ĠÑĤÐµÐ¼Ð¿ÐµÑĢÐ°ÑĤÑĥÑĢÐ° ÑģÑĭ
r ic
ĠÑģÐ¾Ð» Ð°Ð¹
ĠÐ¶ÐµÑĤ ÑĸÑģÐ¿
Ð¡ Ðŀ
ĠÑĤÒ¯ÑĢ ÑĸÐº
ĠÐĲÐ¼ÐµÑĢ Ð¸ÐºÐ°
Ð¼Ð¾ÑĤ ÑĢÐ°
ĠÐ¶Ò¯Ð¹ ÐµÑģÑĸÐ½Ðµ
ĠÐºÓ©ÑĪ Ð±Ð°Ñģ
ĠÐ±ÐµÑģÐ¿ Ð¾ÑĢÑıÐ´
ĠÑģÑĥÐ±ÑĬÐµÐºÑĤ ÑĸÐ»ÐµÑĢ
Ð¸Ð² Ð°ÐµÐ¼
ul ar
ĠÐºÐ¾Ð¼Ð¼ÐµÐ½ÑĤÐ°ÑĢ Ð¸Ð¸
Ð¸Ñģ Ð»Ð¾
ĠÑĢÐµÐ³ Ð»Ð°Ð¼ÐµÐ½ÑĤ
Ðĳ Ð¢
ĠÑĩ ÐµÑģÑĤÑĮ
ĠÐ¿ÑĢÐ¸ Ð´ÐµÑĤÑģÑı
ĠÑĢÐµÑĪ Ð¸ÑĤÑĮ
ĠÐ¼ÐµÐ½ ÑĮ
ĠÒĽÑĭÐ·Ð¼ÐµÑĤ ÑĤÐµÑĢÐ´Ñĸ
ĠÐ²Ñĭ Ð¹ÑĤÐ¸
Ð¾Ð½ Ð¸Ð¼
ĠÐ·ÐµÑĢÑĤ ÑħÐ°Ð½
ri be
ĠÑĥ Ñģ
Ð¼ Ð°ÒĵÑĭÐ½
ĠÑħÐ°ÑĢÐ°ÐºÑĤÐµÑĢ Ð¸Ð·
ÐĲ ÑĤÐ°
ĠÐĿ Ð¾Ð²ÑĭÐ¹
ph p
ĠÐ¶Ð°Ð·Ð±Ð° ÑĪÐ°
eng th
ĠÐ½Ð°Ñĩ Ð°Ð»Ð¾
ĠÐ³Ð¾ÑģÑĤ ÐµÐ¹
ĠÒĽÐ°ÑĪ Ð°Ð½
m b
ĠÐ±Ð¾Ð» Ð´ÑĭÑĢ
ĠÐ¶Ð°Ñģ ÑĭÐ»
Ð°Ð±Ð¸Ð» Ð¸ÑĤ
ĠÐ¶ÑĭÐ» Ð¶ÑĭÐ¼
ĠÑĤÐ°Ð± ÑĭÐ»ÒĵÐ°Ð½
Ñģ ÑĸÐ½Ðµ
ĠÐ±ÑĸÐ»ÑĸÐ¼ Ñĸ
ĠÐ¿Ð¾ÑģÐ»ÐµÐ´ Ð½Ð¸Ñħ
ĠÐ· ÑĥÐ±
ĠÐ¾Ð¹ Ð½
Sn ippet
ĠÐºÐ²Ð°ÑĢÑĤÐ¸ ÑĢ
Ð°Ð»Ð´ÑĭÒĽ Ð¾ÑĢÒĵÐ°Ð½
Ð»ÐµÑĢ ÑĸÐ½ÑĸÒ£
Ð°ÑĢ Ñħ
Ð¼ Ð¾Ð²
Ð¡ Ð°ÑĢÑĭ
ĠÑģÐ»Ð¾Ð¶ Ð½Ð¾
ĠÐłÐµÑģÐ¿ÑĥÐ±Ð»Ð¸Ðº Ð°
Ð¾Ð¿ ÑĢÐ¾Ð²
Ðº Ð³
Ð°ÑĨÐ¸Ð¾Ð½ Ð½ÑĭÑħ
ar g
Ðĺ ÐĽ
ĠÐ¾ÑģÑĭ ÒĵÐ°Ð½
ĠÒĴÑĭÐ»ÑĭÐ¼ Ð¸
ĠÐ¾Ñģ Ð»Ð°Ð±
ĠÐ¾ÑĢÑĭÐ½Ð´Ð° ÑĥÒĵÐ°
ĠÐ·Ð°Ð½ ÑıÑĤÐ¸Ñı
ĠÐ¼ÓĻÑģÐµÐ»ÐµÐ»ÐµÑĢ ÑĸÐ½
Ð¸Ð» Ð¸Ð·Ð°ÑĨÐ¸Ð¸
ĠÐĳÐµÐ»Ð°ÑĢÑĥÑģ ÑĮ
ĠÐŀÑĢ ÑĭÐ½
" ;
ĠÐ°Ð» Ð¼Ð°ÒĵÐ°Ð½
ĠÐ¿ÐµÑĢÐµÐ´Ð° ÑĩÐ¸
ĠÐ·Ð°Ð¿ Ð°Ð´Ðµ
ĠÐļÑĸ ÑĤÐ°Ð¿
ĠÑĥ Ð¿Ð¾Ð»Ð½Ð¾Ð¼Ð¾Ñĩ
ĠÐ¢Ð¾Ð» ÑĭÒĵÑĭÑĢÐ°ÒĽ
ĠÐ¨ ÑĭÒĵ
e Ð½
Ġ199 8
ĠÐºÐ°ÑĤÐµÐ³ Ð¾ÑĢ
Ġon e
Ðł Ð¾ÑģÑģ
ĠÐºÐ»Ð°Ñģ ÑģÐ¸
z h
ĠÐºÐ¾Ð¼Ð¿Ð°Ð½Ð¸Ñı ÑģÑĭÐ½ÑĭÒ£
ĠÑģÐ°Ð» Ð°Ð´Ñĭ
ĠÐ²Ð¾ ÐµÐ½Ð½ÑĭÑħ
Ñģ Ð°ÑĤÑĭÐ½
Ð¢ ÐĨ
ĠÐ±Ð¾Ð¹ ÑĭÐ½Ð°
ĠÐŃ ÐļÐ¡ÐŁÐŀ
ĠÒ±ÑģÑĭÐ½ Ð´Ñĭ
ĠÐ´ÐµÐ¿Ð°ÑĢÑĤÐ°Ð¼ ÐµÐ½ÑĤÑĸ
Ð«ÐĿ Ð«Ò¢
ĠÐ¼ÓĻÑģÐµÐ» ÐµÑģÑĸÐ½
an ge
ĠÒļÑĭÐ· Ð¼ÐµÑĤ
ĠÑģÒ± Ð¹ÑĭÒĽ
Ðľ ÐµÐºÑĤÐµÐ¿
ÑģÐ¿ Ðµ
ĠÑĤÑĭÐ½ ÑĭÑĪ
ĠÐ¾Ð± ÑĥÑģÐ»Ð¾Ð²
Ð°Ð» ÒĵÐ°ÑĪÒĽÑĭ
ef ined
ĠÑĢÐ° Ðº
ÑģÑĤÐ¾ Ð¸ÑĤ
Ð¾Ð¿ ÐµÐ´
Ġo ther
ĠÐłÑĥÑģ Ð»Ð°Ð½
ĠÐ°Ð¹Ð¼Ð°ÒĽ ÑĤÑĭÒĽ
Ð»Ð°Ñĥ ÒĵÐ°
ĠÓĻ Ð»ÐµÑĥÐ¼ÐµÑĤ
ĠÒĽÐ°Ð» Ð°Ñĥ
ÑģÑĤÑĭÑĢ ÑĭÐ¿
Ġs ub
ĠÐ¸Ð· Ð´Ð°Ð½Ð¸Ðµ
ĠÐłÐ¾Ñģ ÑģÐ¸ÐµÐ¹
ÐµÑĢ ÑĤÑĭ
Ñĥ Ð½Ðµ
ĠÐ´ ÑĢÑĥÐ¶
ĠÐ¨ÑĭÐ¼ÐºÐµÐ½ ÑĤÐ°
ĠÐºÑĸ ÑĢÑĥ
ĠÑģ ÐºÐ¾
ĠÐ¼Ð°Ð¼Ð°Ð½ Ð´ÑĭÒĵÑĭ
ĠÑģÐ¿ ÑĥÑģÑĤÑı
ĠÐ¿ÑĢÐ¾Ð¹ ÑĤÐ¸
ĠÐł Ð¾ÑģÑĤ
ĠÑį ÑĦÐ¸
Ð¸Ñĩ Ð½ÑĭÐµ
ĠÑģ Ð»Ð°Ð±
ĠÐ¾ÑĤÐ´Ñĭ Ñħ
ÐµÑĤ Ð¸ÐºÐ°
ĠÐ± ÑĢÐ¾Ñģ
Ð°Ð² ÑĪÐµÐ³Ð¾
ĠÒĽÑĭÐ·Ð¼ÐµÑĤ ÐºÐµÑĢÑĸ
ĠÓ©Ð½ÑĸÐ¼ Ð´ÐµÑĢÑĸ
ĠÐ²ÑĭÐ¿ Ð»Ð°ÑĤÑĭ
ĠÐ¶ÐµÑĢ Ð´Ñĸ
ĠÐ¨ Ð°Ñħ
ĠÐ¾Ð±ÑıÐ·Ð°ÑĤÐµÐ»ÑĮ Ð½Ð¾
ĠÐ¡Ð¾ÑĤ ÑĢÑĥÐ´
âĢ¦ âĢ¦
ĠÐ¶Ð°ÑģÓ©ÑģÐ¿ÑĸÑĢ ÑĸÐ¼Ð´ÐµÑĢ
ĠÐ¼ÑĭÒ£ ÒĵÐ°
ĠÑģÐµÑĤ ÐµÐ¹
ĠÓĺÐ± Ð´Ñĸ
Ñĩ ÐµÐ·
Ñĥ Ð´ÐµÐ½
Ð¾Ð¼ ÐµÑĢ
ĠÐ·Ð² Ð¾Ð½
ĠÐ¶ÑĭÐ»Ð´Ð°Ð¼ Ð´ÑĭÒĵÑĭ
ĠÑģÐµÑĢ Ð¸Ð¸
ĠÐ»Ð¸Ð´ÐµÑĢ Ð¾Ð²
ĠÐŁÐ¾Ð· Ð¶Ðµ
if e
ĠÐ±ÐµÑĢ ÐµÐ¼ÐµÐ½
ĠÐ¾Ð¿ÐµÑĢÐ°ÑĤÐ¸Ð² Ð½Ð¾
ĠÐ³ ÐµÐ¼
ĠÐ¾Ð±ÑĬÑıÐ² Ð¸Ð»
ĠÐ±ÓĻÑģ ÐµÐºÐµÐ³Ðµ
ĠÐ° Ò£ÑĭÐ·
ĠÐ¿Ð°ÑĢÐ°ÒĽÑĪ Ð°Ð¼ÑĭÐ·ÒĵÐ°
ĠÑįÐºÐ¾Ð½Ð¾Ð¼ Ð¸ÐºÐµ
ĠÐ±Ð¾Ð»ÑĮÑĪ ÑĥÑİ
ĠÓĻÑģÐµÑĢ ÑĸÐ½ÐµÐ½
Ð´ Ð¸Ñı
ĠÐ´Ð¾ÑģÑĥÐ´ÐµÐ± Ð½Ð¾Ðµ
op le
ĠÒ¯Ð¹ Ð»ÐµÑģ
ĠÐ¶Ð°ÑĢÐ¸Ñı Ð»Ð°Ð½
Ð»ÐµÐ½ Ð½ÑĭÐ¹
ĠÑĥÑĤ ÑĢÐ°
ĠÑĤÑĢÐ°Ð½Ð· Ð¸ÑĤ
ĠÐ½Ð° ÒĵÑĭÐ·
ĠÑģÐ°Ð»ÑĭÑģÑĤÑĭÑĢ Ð¼Ð°Ð»Ñĭ
Ðµ ÐµÐ²
ĠP l
Ġre l
ĠÐ¾Ð±ÑīÐµÑģÑĤÐ²ÐµÐ½ Ð½ÑĭÑħ
ĠÐ²Ð½Ðµ Ð´
ĠÐ· ÐµÐ»ÐµÐ½
ĠÐ²ÐµÐ» Ð¾Ñģ
ÑĤ ÑĢ
ÐŁ ÑĢÐ¸
ĠÒļÐ¾ÒĵÐ°Ð¼ Ð´ÑĭÒĽ
ĠÐ°ÑĤ ÑĤÐµÑģÑĤ
ĠÑģÐ°Ð» ÑĥÒĵÐ°
ĠÐ¿ÑĢÐ¾Ð¹ Ð´ÑĥÑĤ
ĠÑģÐµÑĢÑĤÐ¸ÑĦÐ¸Ðº Ð°ÑĤ
ĠÑĥÐ± ÐµÐ¶
ĠÐ°Ð²ÑĤÐ¾Ð¼ Ð°ÑĪ
Ð°Ð½ Ð°Ð»Ð°ÑĢ
ĠÐķ Ðµ
ic ro
ĠÐ¾Ð±ÑĢÐ°ÑĤ Ð¸Ð»ÑģÑı
ĠÐŁ ÑĸÐºÑĸÑĢ
ĠÑģÐµÐ»ÑĮ ÑģÐºÐ¾ÑħÐ¾Ð·ÑıÐ¹
ĠÐł ÐµÐ³
Ð¸ÑĢÐ¾Ð²Ð°Ð½ Ð¸Ñİ
ĠÑĤÒ¯Ð· ÐµÑĤ
Ð¡ ÓĻ
ĠÐ½Ð° Ð²Ñĭ
al y
ĠÑĤÑĢÐµÑĤ Ð¸Ð¹
Ð¸ÑģÑĤ ÐºÐ°
ĠÐ¼ Ð¸ÑĢÑĥ
ĠÐ¡ÑĤÑĥ Ð´ÐµÐ½ÑĤ
ĠÐ¶Ð¾Ð± Ð°Ð»Ð°Ñĥ
Ðļ ÐµÐ»
Ð¼Ð¸ ÑĢÐ°
ĠÑĤÐµ ÑģÑĤÐ¸
ÐºÑĤ i
ĠÐ½Ð¾Ð² Ð¾Ð¼
w idth
Ðķ ÐĻ
ĠÑĪÐµÑĪ ÑĸÐ¼Ñĸ
ĠÐ½ÐµÐ¼ ÐµÑĨ
) (
ĠÐĳ Ð¸ÑĢ
ĠÐ²Ð¾Ð¹ ÑģÐº
ĠÐ² Ð»Ð¾Ð¶
ĠÐĶÐµÐ¿ ÑĥÑĤ
ĠÑĤÐ¾Ð»ÑĭÒĽ ÑĤÑĭÑĢ
Ð¸Ð½ÑĦ ÐµÐº
Ð¼ ÐµÐ¼Ð»ÐµÐºÐµÑĤ
Ð½ Ð¸Ð½Ð³
ĠÐ¢Ó© ÑĢÐ°Òĵ
Ð¤ ÐĲ
ĠÐ½ Ð°Ð¼Ð¸
Ð°Òĵ ÑĭÐ½Ð´Ð°
ĠÑģÐ¿ÐµÑĨÐ¸ Ð°Ð»Ð¸Ð·Ð¸ÑĢÐ¾Ð²Ð°Ð½
ĠÐ¶Ð°ÑĢÐ°ÒĽ Ð°ÑĤ
ÐµÐºÑĤ Ð¾ÑĢÑĭ
Ð°Ñī Ð¸ÑĤ
ĠÐ° Ð¿Ð°ÑĢ
Ġel se
o int
ĠÓĻÐ´ÐµÐ±Ð¸ ÐµÑĤÑĤÐµÑĢ
Ð½ Ð°ÑģÑĤ
ĠÐºÓ© Ð½Ðµ
ĠÐ²Ð½Ð¸Ð¼ Ð°Ð½Ð¸Ñı
Ð¸ÑĢÐ¾Ð² Ð°Ð½Ð¸Ð¸
ĠÑĪ ÑĭÒ£
ĠÑĢ ÐµÐ»
ĠÐ·Ð°Ð¿ ÑĢÐ¾Ñģ
ĠÑĤÐ¾Ð¿Ð»Ð¸Ð² Ð°
ĠÐºÐ»Ð¸ ÐµÐ½ÑĤÐ¾Ð²
ĠÑĩÐ¸Ñģ Ð»ÐµÐ½
ĠÐ¼Ð°ÑĤÐµÐ¼Ð°ÑĤ Ð¸ÐºÐ°
ĠÐºÐ¾Ð¼ Ñĥ
ĠÐĳ Ð»Ð°Ð³Ð¾Ð´Ð°ÑĢ
ĠÑģ Ð¸Ð´
Ð¶ ÐµÐ½
ĠÐº ÑĢÐµÐ¿
ĠÐ´ÐµÑĤ ÑıÐ¼
ĠÑĤÒ±ÑĢÒĵÑĭÐ½ Ð´Ð°ÑĢÑĭÐ½ÑĭÒ£
ĠÐ½Ð°Ð»Ð¾Ð³ Ð¾Ð²
ĠÒĽÐ°ÑĤ ÐµÑĢ
ĠÑĪÐ°ÑĢ ÑĪÑĭ
ĠÒĽÑĭÐ·ÑĭÒĵ ÑĥÑĪ
Ñĥ ÑģÐ°
ĠÒļ Ð°Ð»Ð°
ĠÐ½Ð¾Ð¼ Ð¸Ð½
ĠÐ°ÑģÑĤ ÑĭÐ½Ð´Ð°
Ġd aily
ĠÑĤÐµÐ¿ Ð»Ð¾
6 3
ĠÐºÐµÐ· ÐµÐºÑĤÐµ
ĠÐ½ÐµÑĦ ÑĤÐµ
ÑĤ Ð°ÒĽ
ĠÐ¿ÑĢÐ¾ÑħÐ¾Ð´ ÑıÑĤ
ĠÐ²ÐµÑĩ ÐµÑĢÐ¾Ð¼
ĠÐ¾ÒĽ ÑĥÑĪÑĭÐ»Ð°ÑĢÑĭ
Ġ6 3
ÑĸÐ¼Ð´ÐµÑĢ ÑĸÐ½
ĠÐ¾ÑģÐ°Ð´ ÐºÐ¾Ð²
Ð·Ð°Ð¿ Ð°Ð´
ĠÒĽÐ°Ð¹ÑĤÐ° Ð´Ð°Ð½
ĠÐĹ Ð°Ð²
ĠÑĤÐ°ÑĥÐ°ÑĢ Ð»Ð°ÑĢ
ĠÐĿÑĥÑĢ Ð»Ð°Ð½
ĠÓĻÐºÑĸÐ¼ Ð´ÑĸÐ³Ñĸ
ĠÑĢÐµÑģÑĥÑĢ Ñģ
ĠÐ·Ð°ÑĢ ÑıÐ´
Ð¿ ÐµÐ»Ñĸ
ĠÑĤÑĢÐ°Ð² Ð¼
ĠA pp
ĠÐ¶ÑĭÐ» Ð´ÑĭÒĵÑĭÐ½Ð°
ĠÒĽÑĭÐ·Ð¼ÐµÑĤ ÐºÐµ
ĠÐ¼Ò¯Ð´ Ð´ÐµÐ»ÐµÑĢ
ĠÐ¿Ð¾Ð» Ð°Ð³
ĠÐ¿Ð¾ Ð¾Ð±ÐµÑī
ĠÑĪÐ°ÑĢÑĤ ÑĤÑĭ
ĠÐł ÐľÐļ
ĠÐ³Ð»Ð°Ð² Ð½ÑĭÐµ
ĠÐĺ Ð²Ð°Ð½
ÑĢÐµÐºÑĤ Ð¾ÑĢ
ĠÐºÐ¾Ð¼Ð¿ÐµÐ½ ÑģÐ°
ÐŁ ÑĢÐµÐ·Ð¸Ð´ÐµÐ½ÑĤ
6 2
Ð»ÐµÐ½ Ð½Ð¾Ð¹
ĠÐ°Ð³ ÑĢÐ¾
ĠÐ°Ð¿ÑĢ ÐµÐ»Ðµ
ĠÐ² ÑĬ
ĠÑĤÓĻÐ¶ÑĸÑĢÐ¸Ð± ÐµÑģÑĸ
Ð¾ Ð¸Ð´
ĠÐŁ Ð°ÑĤ
ÐµÐ»ÑĮ Ð³
Ñı ÑĤÐ°
ĠÒĽÒ±ÑĢÑĭÐ» ÒĵÑĭÐ»Ð°ÑĢ
ĠÐŁÐ¾Ð´ ÑĢÐ¾Ð±
ĠÑĢÐ°ÑģÑĤÐ² Ð¾ÑĢ
ĠÐ¡ Ð¾Ð·
ĠÐ±ÑĢÐ¸ Ð³
ĠÑĤÑĢÐ¾ Ðµ
Ġcom m
Ðĵ Ð£
ĠÐ²Ð»Ð°ÑģÑĤ ÐµÐ¹
ÐĲ Ð¯
ÑĤÐ°ÑĢ Ð´Ð°Ð½
ĠÒĽ Ð¾Ð¶
ĠÐ§ÐµÐ¼ Ð¿Ð¸Ð¾Ð½
ĠÐ¿ÑĢÐ¾ Ð´Ð°Ð²
ĠÑĪ Ó©Ð¿
ÑĤ ÑĥÑĢ
Ġd iv
ĠÐ¾Ð± ÑģÑĤÐ°Ð½Ð¾Ð²
Ð´Ð° ÒĵÑĭÐ½ÑĭÒ£
ÐĶ ÐĲÐł
Ð°Ð¿ Ð¾Ð»
Ð± ÑĭÐ·
ĠÐ¿Ð¾ÑģÑĤÑĥÐ¿ Ð¸Ð»Ð¾
ĠÐ¼Ð°ÑĤÐµÑĢÐ¸Ð°Ð»Ð´Ð°ÑĢ Ð´Ñĭ
ĠÐ´Ð¾Ð± ÑĢÐ¾Ð²Ð¾Ð»ÑĮ
Ðł ÐµÑģÐµÐ¹
ĠÐ¸ÑģÐ¿ ÑĭÑĤ
ĠÑĥÑĩÐµÐ½ ÑĭÐµ
ĠÐ²ÑģÐµÐ¼ Ð¸
Ðł Ðļ
ĠÐ¿Ð¾ÑıÐ² Ð¸Ð»Ð¸ÑģÑĮ
Ð°ÑĢ Ñı
ĠÐĸ Ò±
ĠÑģÐº Ð°Ð½
ĠÑģÐ°Ð¼Ð¾Ð» ÐµÑĤÐ°
ĠÐ¼Ò¯ ÑĪÐµ
ĠÑģ Ð½Ð°ÑĩÐ°Ð»Ð°
ĠÑĤÐµÑħÐ½Ð¾Ð»Ð¾Ð³Ð¸Ñı ÑģÑĭ
ÑĪ ÑĸÐ½ÑĸÒ£
ÑģÑĤ Ð°Ð·
ĠÐ´Ð°Ð² Ð»ÐµÐ½Ð¸Ðµ
ĠÐ³ÑĢÐ°Ð½ Ð¸ÑĨÐµ
ĠÐ¶Ð°Ð» Ð°ÒĽ
Ð» Ð¸Ð¼
ĠÐ°ÐºÑĤ ÑĢÐ¸
ĠÑģÑĤÐ¸Ð¼ ÑĥÐ»Ð¸
Ġcon s
ĠÒ¯Ð·Ð´ÑĸÐº ÑģÑĸÐ·
ÑģÑĤ ÑĢÐ¾
ĠÐµÐ¶ÐµÐ³Ð¾Ð´ Ð½Ð¾
ĠÐ¼ÐµÑĤ Ð¾Ð´Ñĭ
ĠÐ°Ñģ Ð°Ð´Ñĭ
ĠÐ¿Ð¾ÑıÐ² Ð¸Ð»ÑģÑı
ĠÑĤÐµÑħÐ½Ð¾Ð»Ð¾Ð³Ð¸Ñı Ð»Ð°ÑĢÐ´Ñĭ
Ð»Ñı Ð»Ð¸
ya ads
493 355
ÐºÐ¾Ð² Ð¾Ð¹
ĠÐĴ Ð¾Ð¿
ĠÒĽÑĭÐ»Ð¼ ÑĭÑģ
ÐµÑģ ÐµÐ´
ĠÐ´Ð¾Ð³Ð¾Ð² Ð¾ÑĢÐ°
Ġst ud
Ġ ................................................................
ĠÐ¿Ð¾Ðº Ð¸Ð½
ĠÐĿ ÐµÐ·
ĠÐ¸ Ð½Ð¾Ð³Ð´Ð°
ĠÑĪÑĭÒĵÐ°ÑĢ Ð°Ð´Ñĭ
ĠÐ± ÑĢÐ°ÑĤÑĮ
ĠÐ¿Ð¾ÐºÐ°Ð· Ð°Ð»Ð¸
ĠÐ»ÑİÐ± Ð¾Ð²
ÐµÐ½ ÑĤÑĥ
s l
Ð» Ð¸Ñħ
Ð¸ÑĢÐ¾Ð² Ð°Ð½Ð°
ĠÐ°Ð³ ÑĢÐµÑģÑģ
ĠÐĴÐ»Ð°Ð´ Ð¸Ð¼Ð¸
ĠÒ±Ð¹ÑĭÐ¼ ÑĭÐ½ÑĭÒ£
ĠÐł ÐµÐ´Ð°
ĠÐºÓ©ÑĢ ÐµÑĢÐ¼ÐµÐ½
ĠÑĥ Ð»Ñĭ
ĠÐ°Ð½ÑĭÒĽ ÑĤÐ°Ð»
ĠÐ¿ÑĢÐ¾Ð³ ÑĢÐµÑģÑģ
ĠÐ°Ð¼ Ð°Ð»
ĠÒļÐ°Ð· Ð°Ð½
ĠÐ³Ð¾Ð²Ð¾ÑĢ Ð¸Ð»
ĠÑĦ Ð°Ð±
ĠÐ¿ÑĢÐµ Ð¾Ð´
Ð¸ Ð´Ñĭ
Ð± Ð°ÒĵÐ°Ð½
ĠÐĿÐ°Ð·Ð°ÑĢÐ±Ð°ÐµÐ² ÑĤÑĭÒ£
ĠÐ¶Ð° Ò»
Ð°ÑģÑĤ Ð°ÑĢÑĭ
ĠÒĽ ÑĭÑĤÐ°Ð¹
ĠÐĶÐµÐ½ Ð¸Ñģ
ĠÑĢÐµ Ð°Ð½Ð¸Ð¼
ĠÑĤÐ°ÒĽÑĭÑĢÑĭÐ± ÑĭÐ½Ð´Ð°
Ġ ????
ĠÐºÐ°ÑĢÑĤ Ð°ÑģÑĭ
ĠÒĽÐ°ÑĥÑĸÐ¿ÑģÑĸÐ· Ð´ÑĸÐ³Ñĸ
Ðĺ Ðľ
ĠÐ¿ÐµÑĢÐµÑĩ Ð¸Ñģ
ĠÐ´Ð¸ÑĦ ÑĦÐµÑĢÐµÐ½
ĠÐ¨ Ñĥ
ĠÐ²ÑĤÐ¾ÑĢ Ð½Ð¸Ðº
ĠÐ°Ñģ ÒĽÐ°Ð½
ĠÐº ÑĸÐ»
Ðº Ð¾Ñģ
ÑĢÐµ Ð³Ñĥ
ĠÐĲÐ½Ð´ ÑĢÐµ
Ð·Ð¸ Ð°ÑĤ
ĠÐ¿ÑĢÐ¸ Ð²ÐµÑģÑĤÐ¸
ĠÐķ ÐºÐ°ÑĤÐµÑĢ
ĠÑģÓ©Ð· Ð´ÐµÑĢÐ´Ñĸ
ÑĸÐº ÐºÐµÐ½
Ġm aterial
Ð¾Ð¿ Ð°ÑĢ
ĠÐºÒ¯ÑĪ ÐµÐ¹
ĠÐ´ÐµÐ¿ÑĥÑĤ Ð°ÑĤÐ¾Ð²
ĠÐ½Ð°Ð¼ Ð°Ð·
ĠÐŁ Ð°Ð½
ÑĪÐµÐ½ Ð¸Ð¹
ÐĲ ÑĥÑĭÐ»
ĠÐĸ ÓĻÐ½Ðµ
ĠÐ·Ð°ÑĤ ÑĢÐ°ÑĤ
ĠÐ¶ ÉĻ
ĠÑģÐ¾Ð² Ð¾ÐºÑĥÐ¿
ĠÑĢÐ°Ñģ ÑħÐ¾Ð´Ð¾Ð²
ĠÐĿ ÐµÐ¼
Òĵ ÑĭÐ»ÑĭÒĽ
ĠÑģÑĤ ÑĢÐ°ÑĪ
ĠÑĤÒ¯ Ð»ÐµÐº
Â» ;
ÑģÐµ Ñĩ
Ð¡ Ð°Ð½
ÐµÑĤ iÐ½
ĠÑģÐ°Ð½ Ð¸ÑĤÐ°ÑĢÐ»ÑĭÒĽ
ĠÐ±Ð¾Ð» ÐµÐ»ÑĮ
ĠÐ§ Ð¡
Ð°Ð»ÑĮ Ñı
ÑĢÑĭÒĽ ÑĪÐ°
ĠÐ¶Ð°Ò£ÒĵÑĭÑĢ ÑĤÑĥ
7 8
ÑĭÐ» ÑĥÐ´Ð°
Ð» Ð¾Ðº
ĠÐ¿ÑĢÐ¸ÑĪ ÐµÐ»
ĠÑĦ Ð°ÑĢÐ¼Ð°ÑĨÐµÐ²
ĠÓ©ÑģÑĸÐ¼Ð´ÑĸÐº ÑĤÐµÑĢ
ÑĪ ÐµÑĢ
ÐĳÐ°Ð» Ð°Ð»Ð°ÑĢ
ĠÐ²Ð· ÑıÑĤÑĮ
ĠÐłÐµÑģÐµÐ¹ Ð´ÑĸÒ£
ĠÐ¿ÑĥÐ½Ðº ÑĤÐ°
ÑĥÑģÑĤ ÑĢÐ¾Ð¹
ĠÐ¼ Ð°Ð¼Ð°
ĠÐĸÐµÐ½ Ñī
ÑĤÐ¸ Ð¿
ĠÐ´ÐµÐ³ÐµÐ½ Ð´Ñĸ
ĠÑģÐ¸Ð½ ÑĤÐµÐ·
ĠÐ¶Ð¾Ð»Ð°Ñĥ ÑĪÑĭÐ»Ð°ÑĢ
ĠÐ¿Ð°Ð¹Ð´Ð°Ð»Ð°Ð½ Ð°Ð´Ñĭ
ĠÐ¾Ð± Ðµ
Ð°Ð» ÒĽÑĭ
ĠÐĲ ÑģÑĭÐ»
ĠÐ²Ð· Ð³Ð»ÑıÐ´
Ð´ÑĸÐº ÑĤÐµÑĢ
ĠÑįÐºÑģÐ¿ Ð¾ÑĢ
ĠÑĩÐµÑĤÐ²ÐµÑĢ Ð³
ĠÐ¼ ÑĥÐ»ÑĮÑĤ
ĠÐļÐ°Ðº Ð¸Ðµ
ĠÐ°Ð» Ð³Ð¾ÑĢ
Ð°Ñī Ð¸Ðµ
ĠÐ°ÑĢ ÑĭÐ·
Ġpro cess
ĠÐ¶Ð¾Ð» ÒĵÐ°
ÒĽÐ°ÑĢ Ð°
ĠÑģÐµÑĢ ÐµÐ±
ĠÓ©Ò£ÑĸÑĢ Ð»ÑĸÐº
ĠÐ´Ðµ ÑĪÐµÐ²
ĠÒ±ÑģÑĭÐ½ ÑĭÐ»ÒĵÐ°Ð½
ÒĴ Ð«
Ðĺ Ðł
ĠÐ·Ð½ Ð°Ð½Ð¸Ñı
er n
ĠÐ¿ÑĢÐ¸Ð³ Ð»Ð°
ĠÐ¶Ð¾ÑģÐ¿Ð°ÑĢ Ð»Ð°Ð½ÒĵÐ°Ð½
ĠÐºÒ¯Ð½ Ð´Ñĸ
ĠÐ¶ÐµÒ£ÑĸÐ» Ð´ÐµÑĤ
Ð°ÑĤÑĤÐ°ÑĢ ÑĭÐ½
Ġ199 9
ÐµÐº Ð¸
ĠÐ¾Ð¿ ÑĢÐ°Ð²
ĠÑĤÑĥ ÑĢÐµÑĨ
T O
m p
Ð´ ÓĻÑĢ
ĠÑĤÐ°Ð» Ð°Ð¹
ĠÑĩÐ°ÑģÑĤ Ð½ÑĭÑħ
ĠÑĤÐ¸ÑĤ ÑĥÐ»
ÐµÑħ Ð°Ð»
ot h
Ð¼ Ð°Ð½Ñĭ
ĠÒĽÐ¾Ð»Ð¶ÐµÑĤ ÑĸÐ¼Ð´Ñĸ
ĠÐ°Ð» ÑĭÑģ
ĠÐĲ ÑĢÐ°Ð±
ĠÐ¼Ò± Ð½Ñĭ
Ð¾Ñĩ Ð¸
Ò° Ð»Ñĭ
Ð¾Ð¶ Ð½Ð¾
ĠÒĽ Ð¸Ñı
Ðĸ ÐµÑĤ
ĠÑģÐ¾ÑĤ Ð½Ð¸
ĠÐ»Ð¸ÑĨ Ð¾
Ð¿ÑĢÐµÐ¶ Ð½ÐµÐ¼Ñĥ
ĠÐ°Ð¶ÑĭÑĢ Ð°ÑĤ
ĠÐ¡ ÑĥÐ»ÑĤÐ°Ð½
ĠÐ¿ÑĢÐ¾Ð²Ð¾Ð´ ÑıÑĤ
ĠÒĽÒ±ÒĽÑĭÒĽ ÑĤÐ°ÑĢ
ÑĥÐ» ÐµÐ·
ÑģÑĤÐ²ÐµÐ½ Ð½Ð¾Ð¼
ĠÐ¡ÑĤÐ¾ Ð¸ÑĤ
ÐĳÐ¾Ð» Ð°ÑĪÐ°ÒĽ
Ðº ÑĤÐµ
ÐµÐ¼Ð°ÑĤ Ð¸ÐºÐ°
ĠÐµ ÑĢÐµÑģ
ĠÒĽÐ°Ð±ÑĭÐ»Ð´Ð°Ð½ Ð´Ñĭ
ĠÒĽÒ± Ñģ
l ob
ÑİÑīÐ¸Ñħ ÑģÑı
16 0
ĠÐ¡ Ñĭ
ĠÒĽÒ± ÑĢÐ°Ð¹ÑĤÑĭÐ½
ÑĢÐ° Ð´Ð¸
ĠÐľÐ¾ÑģÐº Ð²Ð°
Ðľ Ð£
ĠÐµ Ð½Ðµ
ĠÒĽÐ¾ÑģÑĭÐ¼ ÑĪ
ĠÑĢÐ°ÑģÐ¿Ð¾Ð» Ð°Ð³
ĠÐ¸ÑģÐ¿Ð¾Ð»ÑĮÐ· ÑĥÑİÑĤ
Ðł ÐµÑģÐ¿ÑĥÐ±Ð»Ð¸Ðº
Ð° Ð´Ñĥ
ĠÐ±Ó©Ð»ÑĸÐ½ ÑĸÐ¿
ÑĤÐ° Ð±Ñĭ
ĠÐ¾Ñī ÑĥÑī
ĠÐ¿Ð°ÑĢ Ð°Ð»Ð»ÐµÐ»ÑĮ
ĠÐ°Ð»Ñĥ Ð°Ð½
im it
ĠÐ±ÐµÐ»Ð³ÑĸÐ» ÐµÑĥ
ĠÑĢÐ° Ð´Ð¸Ðº
ĠÐĲ Ðļ
ĠÑĸÑĢ Ð³
ĠÐ¸Ð½ÑĤÐµÑĢÐµÑģ Ð¾Ð²
ĠÑĢÐµÑģÐ¿ÑĥÐ±Ð»Ð¸Ðº Ð°
ÑĭÐ¼ÑĭÐ· Ð´Ð°
ĠÐ¿ÑĢÐ¾Ð¸Ð·Ð¾ÑĪ ÐµÐ´
ĠÑģÐ»ÐµÐ´ ÑģÑĤÐ²Ð¸Ñı
ĠÓĻÐ´Ñĸ Ð»
ĠG roup
ĠÐ¿ÑĢÐ¸Ð·Ð² Ð°Ð»
Ñģ Ð¾ÒĽ
ĠÑĤÐ°Ð± ÑĭÑģÑĤÑĭ
Ð´ÐµÑģ Ñĥ
Ð¸Ðº Ð°Ð¼
Ġn ew
ĠÐł ÐµÑģ
ĠÑĪÐ°ÑĢ Ð°Ð»Ð°ÑĢÑĭÐ½
ÐĲ ÐĴ
r on
ĠÐ¶Ò¯Ð¹ ÐµÐ½ÑĸÒ£
ĠÑĤÐµ Ð±
ĠÐĲÐ·Ð°Ð¼ Ð°ÑĤÑĤÑĭÒĽ
ĠÑĦÐ°Ðº ÑĤÐ¾ÑĢÑĭ
ĠÐ® ÑĢÐ¸Ð¹
ĠÐĿÐµÐº Ð¾ÑĤÐ¾ÑĢÑĭÐµ
ĠÐ·Ð°Ð±Ð¾Ð»ÐµÐ² Ð°Ð½Ð¸Ð¹
ĠÐ¸ Ð´ÑĥÑĤ
ĠÐ½Ð° ÐºÐ°Ð½
ĠÐ¿ÑĢÐµÐ² ÑĭÑĪ
Ðĸ Ð¾Ð»
ÑĤ Ò±
Ð°Ñĥ ÑĭÑĪ
Ñİ ÑīÐµÐµ
Ð°Ð»Ð´Ð°ÑĢ Ð´Ñĭ
ÑĢÑĤ Ð°ÒĽ
ĠÑĤÑĥ Ð´Ð°
Ġex p
ĠÐ½Ð°ÐºÐ°Ð½ ÑĥÐ½Ðµ
Ð¾Òĵ Ð°ÑĢÑĭ
Ġf irst
ĠÐ¼Ò¯Ð» Ð´ÐµÐ¼
Ð¶ ÑĭÐ½
Ò® Ð¹
ĠÐ¸Ñģ ÑĩÐµÐ·
Ð´ ÐµÑĤÑĸÐ½
ĠÑĤÐ¸ÐµÑģ ÑĸÐ»Ñĸ
Ð¾Ð² Ð¾
ĠÐ¾ÑĢÑĤ Ð°ÑģÑĭÐ½Ð´Ð°
ĠÐ²Ñĭ ÑĢÐ°Ð±Ð¾ÑĤ
ÐŃ Ðļ
ĠÑģÐ¾Ð²ÐµÑĢÑĪÐµÐ½ Ð½Ð¾
ĠÐ¶Ð°Ð· ÑĥÑĪÑĭ
ĠÑģÑĥ ÒĵÐ°
Ðĺ Ð§
ĠÒĽÑĭÑĢÐºÒ¯Ð¹ ÐµÐºÑĤÐµ
ĠÐ¶ÑĥÑĢÐ½Ð°Ð»Ð¸ÑģÑĤ Ð¾Ð²
ĠÐ¿ÑĢÐ°Ð²Ð¾Ð¾ÑħÑĢÐ°Ð½ Ð¸ÑĤÐµÐ»ÑĮÐ½ÑĭÑħ
ĠÑĦÐ¸Ð· Ð¸ÐºÐ°
ĠÐ°Ð¹Ð½Ð°Ð» Ð°Ð´Ñĭ
ĠÑģÑĦÐµÑĢ Ñĭ
ĠÒĽÐ°Ñĥ ÑĭÐ¼
ĠÐļ Ð¸
ĠÐ½Ð°ÐºÐ°Ð· Ð°Ð½Ð¸Ñı
ĠÐºÑĸÑĪ ÐºÐµÐ½ÑĤÐ°Ð¹
ĠÐ° Ð´Ð°Ð¿
Ġre t
ĠÑģÐ¸Ð¿Ð°ÑĤÑĤÐ°Ð¼ Ð°ÑģÑĭ
ĠÐºÐ¾Ð¼Ð¼Ñĥ Ð½Ð¸ÐºÐ°
ÐµÐ½ÑĮ Ñİ
ĠÐŀ ÑĤÐµ
Ð¸ÑĢ Ð°ÑĤÑĮ
ĠÑĪÐ°ÒĽÑĭ ÑĢÑĥ
ĠÐ¿ÐµÑĢ ÐµÑĪ
ĠÑģÑĭÐ½ Ð´Ñĭ
ĠÐĸ ÑĥÑĢÐ½Ð°Ð»
ĠÑį Ð½Ð´
ĠÐ¾ Ð¼
ĠÐ¼Ð°ÑĤÐµÑĢÐ¸Ð°Ð»Ð´Ð°ÑĢ ÑĭÐ½Ð°
Ñģ Ð°ÑıÑģÐ¸
ĠÑģÑĤ ÐµÐº
ĠÑĤÐ¾Ð» ÒĵÐ°Ð½
ÑĸÑģÐ¿ ÐµÐ½
Ð³ ÑĸÐ½Ð´ÐµÐ³Ñĸ
ĠÑĪÑĭ ÒĵÐ°
ĠÑĥÐ²ÐµÑĢ ÐµÐ½
Ñį Ð¼
ĠÐ°ÑĪ ÑĭÐ»ÒĵÐ°Ð½
ĠÐ¼Ð¸Ð½ ÑĥÐ²
ĠÒĽÐ°Ð±ÑĭÐ»Ð´Ð° ÒĵÐ°Ð½
ĠÐ¢Ð¾ÐºÐ°ÐµÐ² Ð°
ĠÐĸ Óĺ
ĠÑĢÑĥÐºÐ¾Ð²Ð¾Ð´ ÑģÑĤÐ²Ð¾Ð¼
Ñİ Ð¼Ð¸Ð½
ay ev
ĠÑĢÐ°Ð¹ Ð¾Ð½Ð¾Ð²
ĠÑģÒ± ÑĢÐ°
ĠÐ·Ð° Ð´Ð¾Ð»Ð¶
a us
ĠÑģÓĻ Ð»ÐµÐ¼
ĠÐ¾Ð±ÑĬ ÐµÐ¼Ðµ
Ð¾ÑĤ Ðµ
ĠÐ¿Ð¾ÑģÐµ Ñī
ĠÓ©ÑĤÐºÑĸÐ· ÑĸÐ¿
ĠÐ· Ð½Ð°Ð½
ĠÐ¸Ð³ ÑĢÐ°ÑĤÑĮ
ĠÐ± Ð¸Ð±Ð»Ð¸
ĠÒĽÒ±ÑĢ ÒĵÐ°ÒĽ
Ð» Ð¾Ð¿
ĠÐµ Ð»Ñĸ
ÐŁ Ð¾Ð´
ĠÐµÐ½ Ð³ÐµÐ½
ÑĸÐ» Ð¼ÐµÐ³ÐµÐ½
Ð¾Ñģ Ð½Ð°Ð±
ĠÑĤÑĢÐ°Ð½ÑģÐ¿Ð¾ÑĢÑĤ Ð½ÑĭÑħ
ĠÐ¿Ð°Ðº ÐµÑĤ
Ð¢ Ó©
ĠÐ°ÑĢÑĤÑĤÑĭÑĢÑĥ ÒĵÐ°
ĠÒĽÒ±ÑĢÑĭÐ»ÑĭÐ¼ Ð´ÑĭÒĽ
ĠÐ¿ÑĢÐ¾Ð²ÐµÐ´ ÐµÐ½Ð¸Ð¸
ĠÐ°ÑıÒĽ ÑĤÐ°Ð»
ĠÓ©Ð» ÑĤÑĸÑĢ
ĠÐ¶Ð°Ñģ Ð°Ð»Ð´Ñĭ
ĠÐ¿ÑĢÐ¸Ð½ ÑıÑĤ
ĠÐºÑĸÑĢ ÑĸÑģ
ĠÐ³Ð¾Ð» Ð¾Ð»
ĠÐ¾Ð±ÑĬÐµÐº ÑĤÐ°
ĠÐ¿Ð¾Ð´Ñģ ÑĥÐ´
ĠÑģÑĥ Ð´ÐµÐ¹
Ð»Ð¸ Ð¶
ĠÐ¶ÐµÒ£ ÑĸÑģÐºÐµ
Ð¸Ñĩ Ð°
ĠÐ²Ð°Ð»Ñİ ÑĤÑĭ
Ðº ÐµÑģÑĸ
ĠÑĤ Ò±Ð¼
ĠÐºÐµÑģÑĤ Ðµ
ĠO tan
Ð¸Ð² Ð°Ñı
a u
Ð¾Ð»Ð¾Ð³Ð¸Ñı ÑģÑĭ
ĠÐľ Ð¸Ðº
Ð¸Ð² ÑĪÐ¸Ñħ
ĠÑĢÐµ ÑĦÐµÑĢ
ÐŁ Ð¤
ĠÐ¾ÑĢÑĤ Ð°Ð»ÑĭÒĽÑĤÐ°ÑĢ
ĠÐ³Ð¾ÑĢ Ð¸Ð·
ĠÐĸ Ñĥ
ĠÐºÐµÐ· ÐµÐºÑĤÑĸ
ĠÑĤÑĥÑĢÐ¸ ÑģÑĤÑĸÐº
Ġ20 25
ĠÐ¿Ð¾Ð»Ð¸ÑĤ Ð¸ÑĩÐµÑģÐºÐ¾Ð¹
ÐµÐ» Ð¸ÑĤÑĮÑģÑı
ĠÐºÐ°Ð¿Ð¸ÑĤ Ð°Ð»Ð°
Ð¿ ÐµÑģ
ĠÐµ Ñĳ
201 2
ĠÐŀÑģÑĭ Ð´Ð°Ð½
Ò° ÐĽ
ĠÐ¡ ÑĥÐ»
ĠÒĽÐ°ÑĤÑĭÑģ ÑĥÒĵÐ°
ĠÐķÑĢ Ð¶Ð°Ð½
ĠÐ¼Ð°Ð¼Ð°Ð½ Ð´Ð°Ð½Ð´ÑĭÑĢÑĭÐ»ÒĵÐ°Ð½
ÑĤÐ° Ð²
Ġd if
he me
ĠÐ½ÐµÐ¼ Ñĥ
ĠÐĲ Ð¿
ĠÐ´ÐµÐ» Ð¾Ð²Ð¾Ð¹
ĠÐ½Ð¾Ðº Ð°Ñĥ
ĠÐ½Ð°Ñĩ Ð°ÑĤÑĮ
ĠÐ²Ð¸Ð´ Ð½Ð¾
ĠÐºÓ©ÑĪ ÑĸÑĢÐ¼
ĠÐ¶ÉĻ Ð½Ðµ
ĠÐľÒ± Ð½ÑĭÒ£
ÑģÑĤÑĭ ÒĵÑĭ
ĠÐŁÐ¾Ð»Ð¸ ÑĨÐ¸Ñı
ĠÐ¶Ð¾ÒĵÐ°ÑĢ ÑĭÐ»
ĠÐ³Ð¾Ñģ Ð¾ÑĢÐ³Ð°Ð½
ĠÐŁÐ¾Ð» ÑĥÑĩ
ĠÑĢÐ°Ð· Ð³Ð¾Ð²
ĠÐ²ÐµÐ´Ð¾Ð¼ ÑģÑĤÐ²
ĠÐ¼Ð¸ÑĤ Ð¸Ð½Ð³
ĠÐ¼ÑĥÐ·ÑĭÐº Ð°Ð»ÑĭÒĽ
ÑĢÐ°Ð¼ Ð¼Ð°
ÑĥÑĪ ÐºÐ¸
Ġinform ation
Ðł Ðµ
ĠÐ¾ÒĽ ÑĥÑĪÑĭÐ½ÑĭÒ£
ĠÑģÐ°ÑĢÐ°Ð¿ ÑĤÐ°Ð¼Ð°
ĠÑģÐ¾Ð²ÐµÑĢÑĪÐµÐ½ ÑģÑĤÐ²
Ð¨ Ð°Ñħ
ÑĤÐ° ÑĥÑĪÑĭ
ĠÐ²ÐµÑĩ ÐµÑĢ
at ch
Ð¾ ÑĪÐ°
ĠÐ¿ÑĥÐ± Ð»Ð¸Ñĩ
Ð¾ Ð¸Ð½
ĠÐ½ÐµÐ¾Ð´ Ð½Ð¾ÐºÑĢÐ°ÑĤ
ĠÐ¾ÑĢÐ³Ð°Ð½ Ð°Ð¼Ð¸
Ð¾Ð»Ð¾Ð³ Ð¸
ĠÐ¢Ð¸Ð¼ ÑĥÑĢ
ĠÐŁ Ð°Ð²
Ð°ÐµÐ¼ Ð¾ÑģÑĤÐ¸
Ġint o
ĠÓ©ÑģÑĸ ÑĢÑĥ
ĠÐ¶Ò¯ÑĢÐ³ÑĸÐ· ÑĸÐ¿
ĠÐĶÐ° Ð¶Ðµ
Ò±ÑĢ Ð°ÑĤ
ÐµÐ¹ Ð½ÐµÑĢ
ĠÐĽ ÑİÐ±
ĠÐ°Ðº ÐºÑĢÐµÐ´Ð¸ÑĤ
ĠÒĽ Ð¾Ò£
ĠÐ¡ Ðļ
ĠÐ¾ÑĤ Ñģ
ĠÓĻÑĢ Ð¸Ð½Ðµ
Ð¼ÓĻ Ð´ÐµÐ½Ð¸
r it
ĠÐ¾Ð±ÑĢÐ°Ñī ÐµÐ½Ð¸Ñı
Ð½Ñĥ Ð»Ð°
ĠÐ®Ð¶ Ð½Ð¾Ð¹
r al
ĠÐ²ÑĭÑĪ Ð»Ð¸
ĠÑģÐ¾Ð¼ Ð°ÑģÑĭ
ĠÑĤÒ¯ÑģÑĸÐ½ Ñĥ
Ð°Ð¼ÑĭÐ· Ð´ÑĭÒ£
ĠÐ¶Ð°Ò£Ð°Ð»ÑĭÒĽ ÑĤÐ°ÑĢÑĭ
ĠÐļ Ð¸Ð¼
Ð¸ÑģÑĤ Ð¸ÐºÐ°Ð»ÑĭÒĽ
Ðĸ ÑĭÐ»
ĠÐ¾Ð·Ð½Ð°Ñĩ Ð°ÐµÑĤ
ĠÐ¿ÑĢÐ¸Ðº Ð°Ð·
ĠÐ¾Ð¹Ð»Ð°Ð¹ Ð¼ÑĭÐ½
ÑĭÒĽ ÒĽÐ°
ĠÑĤÐ°ÑĢ Ð°ÒĵÐ°Ð½
ĠÒĽÐ°Ð½ ÑĤ
ĠÐ¾ÐºÑĢÑĥÐ¶ Ð°ÑİÑīÐµÐ¹
ĠÐµÑĢ ÑĤÐµÒ£
ĠÐ°Ð½ÑĭÒĽ ÑĤÐ°Ð¼Ð°
gr aph
Ð»Ð°Ð½ Ñĥ
ĠÐĺ Ð¼Ð°Ð½
sc ribe
ÑĪ ÑĭÒĵ
I X
ÑĤÐ¸ÑĢÐ¾Ð² Ð°ÑĤÑĮ
ÑĦ Ð°ÐºÑģ
ĠÐ´ÐµÑģ ÑıÑĤÑĮ
ÑĤÐ° ÑĥÑĭ
ĠÐ·ÐµÑĢ Ð´ÐµÐ»
ĠÐ¾ÑģÑĤ Ð°ÑİÑĤÑģÑı
ĠÐ²Ñĭ Ð³Ð»ÑıÐ´
ĠÐ¾ÑĤÑĭÑĢ ÑĭÑģÑĭÐ½Ð´Ð°
ĠÐ¡ Ò±Ð»ÑĤÐ°Ð½
Òĵ ÑĭÐ»Ñĭ
Ð»Ð° Ñĩ
ĠÐ³ÑĢÐ°Ð½ ÑĤ
ĠÐ»Ð¸Ñĩ Ð½Ð¾
ĠÐ¿Ð¾Ð»ÑĮÐ·Ð¾Ð² Ð°ÑĤÐµÐ»ÐµÐ¹
ĠÐºÐµÑĪ ÐµÐ½Ñĸ
Ð¸Ñı Ð´Ð°ÒĵÑĭ
ÒļÐ°Ð·Ð°ÒĽÑģÑĤÐ°Ð½ Ð´Ð°
Ġad d
ĠÐ¿ Ð°Ð»ÑĮ
ĠÐ³Ð¾ÑĢÐ¾Ð´ ÑģÐºÐ¾Ð³Ð¾
ĠÑĢÐ¾ÑģÑģÐ¸Ð¹ ÑģÐºÐ¸Ð¹
ĠÐºÓĻÑģÑĸÐ¿ Ð¾ÑĢ
ĠÐ»Ð°ÑĥÐ°Ð· ÑĭÐ¼Ð´Ñĭ
ĠÑĤÐ°Ð± Ð»Ð¸ÑĨ
ĠÐ¿ÐµÑĢ ÐµÐ»
ÐĿ Ð°ÑĢ
ĠÐ¶ÐµÑĤ ÑĸÐ¿
ĠÐĲ ÑģÐºÐ°ÑĢ
iÐ½Ð´Ðµ Ð³i
ÐµÐ½ Ð´ÑĸÑĢÑĥ
ĠÑĤÐ°Ð½ ÑĭÑĤ
ÑģÑĤÐµÑĢ Ð´Ñĸ
ĠÐ°Ð²ÑĤÐ¾ Ð½Ð¾Ð¼
' )
yn c
ĠÐ½Ð°ÑħÐ¾Ð´ Ð¸Ð»ÑģÑı
ĠÐ¾ÑĢÐ³Ð°Ð½ Ð½ÑĭÒ£
ĠÐŁÑĢÐ¸ ÑĩÐµÐ¼
ĠÐ»Ð¸Ðº Ð²Ð¸
ÐĲÐ¢ Ðŀ
ĠÐ¶Ð°ÑģÑĤÐ°ÑĢ Ð´ÑĭÒ£
ĠÐºÓ©ÑĢÑģÐµÑĤ Ðµ
Ġ und
i Ð»ÐµÑĢ
ĠÐ¿ÐµÑĢ ÐµÐ±
ĠÑģÐ½Ðµ Ð³
ĠÑģÐ¸Ð¿ Ð°ÑĤÑĭ
wik ipedia
ĠÐ¾ÑĤ Ð±Ð¾ÑĢ
ĠÑĪÑĭÒĵÐ°ÑĢ ÒĵÐ°Ð½
Ð¾Ñİ Ð·
ĠÒĽÐ¾Ð» Ð´Ð°
ĠÑĸÑģ ÑĸÐ½
ÑĤÐµÑĢÐ½ Ð°ÑĤÐ¸Ð²
ĠÐł Ð¾Ð±
ĠÑģÐµÐ¼ Ð¸
ĠÐ¶Ò±Ð¼ ÑĭÑĢÑĤ
ĠÑĥ Ð´Ð°
ĠÓĻÐ± Ð´ÐµÐ½
ĠÐ¿ÑĢÐ¸Ð½ ÑıÑĤÐ¸Ñı
ĠÑĥ ÑĢÐ°Ð²
ÐķÐĿ Ð¢
Ðº Ð°Ñĥ
ÑĥÐ± ÐµÑĢÐº
ĠÐ¡ Ð°Ð±Ð°ÒĽÑĤÑĭÒ£
ĠÐºÑĢÐ°Ð¹ Ð½Ðµ
ĠÐºÓ© ÑĢÑĥÐ³Ðµ
Ð¸Ðº Ð»Ð¸Ð½
ĠÐºÐ¾Ð½ÑĤ Ð¸Ð½
ÐŁ Ð°ÑĢ
r c
ÑĪ ÑĮ
ĠÐ¾Ð¿ÑĢÐµÐ´ÐµÐ» Ð¸ÑĤÑĮ
ĠÒĵ Ð°Ð»Ð°Ð¼
ĠÐ±Ð°ÒĵÐ´Ð°ÑĢÐ»Ð°Ð¼ Ð°ÑģÑĭÐ½ÑĭÒ£
ĠÑģÓ©Ð· ÑĸÐ½
ĠÐ¡ Ð¾Ð½
ĠÐ´Ð¾Ð»Ð³Ð¾ ÑģÑĢÐ¾Ñĩ
ĠG oogle
ĠÐ²Ð¾ÑģÐºÑĢÐµÑģ ÐµÐ½ÑĮÐµ
ĠÑģÐ¾ Ð¾ÑĢÑĥÐ¶
Ð»Ð° Ð´Ð°
ĠÐµÑĤ ÑĸÐ»ÐµÐ´Ñĸ
ĠÑĤÐ°Ð½ ÑĭÑģÑĤÑĭÑĢÑĥ
ĠÐļ Ð°Ð´
ĠÐļÐ°ÑģÐ¿ Ð¸Ð¹
ĠÐ¢ Ð°Òĵ
ĠÒĽÑĭÐ· Ñĭ
ĠÑģÓ©Ð· Ð´Ñĸ
ÑĪ ÑĸÐ»ÑĸÐ³ÑĸÐ½
ĠÐ¶Ð°ÑĢÐ¸Ñı Ð»Ð°Ð½Ð´Ñĭ
ĠÑģÐ¿ ÑĥÑĤ
ĠÐ²Ñĭ ÑħÐ¾Ð´Ð°
ĠÐ¾Ð±Ñģ ÑĥÐ´Ð¸Ð»Ð¸
Ð´ Ð¾Ñģ
ĠÐ·Ð°Ð» Ð¾Ð¶
Ð¾ Ð¸Ñħ
Ð¸ÑĪ ÑĮ
ĠWhat sApp
ĠÐ°ÑĢ ÑĤÑĭÐ¿
Ð¡ ÐµÑĢ
ÑĭÐ» ÑģÑĭÐ½
ĠÐ²ÐµÑī Ð¸
ĠÐ½Ðµ ÒĵÒ±ÑĢÐ»ÑĭÐ¼
ĠÐ³Ð¾ÑģÑĤ Ð¸Ð½
ĠÐ¾Ð¿ÑĥÐ±Ð»Ð¸Ðº Ð¾Ð²Ð°Ð½
ĠÐ´ Ð°Ð¼Ð¸
ĠÑĢÐ°Ð±Ð¾Ñĩ ÐµÐ¹
p en
ĠÐĸ ÐµÐ·
ÑĥÐ»ÑĮ Ð¼Ð°Ð½
ĠÐ° Ð¶Ñĭ
ĠÐº ÑĭÑĢÐ³ÑĭÐ·
Ġs up
ĠÐ£Ð·Ð±ÐµÐºÐ¸ ÑģÑĤÐ°Ð½
ÑĨÐ¸ Ð´
ĠL iter
ĠÑĦÐ¾ÑĢÐ¼ Ð¸ÑĢÐ¾Ð²Ð°Ð½Ð¸Ñı
ĠÐºÐ¸Ñģ Ð»Ð¾
Ð»Ð¸ Ð³
ĠÐ´ÑĥÑħ Ð¾Ð²
ĠÐ½Ðµ Ð³iÐ·
II I
Ð¾Ñĩ ÐºÐ°
ĠÒĽÐ°Ð½Ð°ÒĵÐ°ÑĤ ÑĤÐ°Ð½
ĠÐ·Ð° Ð´ÐµÐ¹ÑģÑĤÐ²
ĠÐ¿Ð°Ð¹Ð´Ð°Ð»Ð°Ð½ ÑĭÐ»Ð°Ð´Ñĭ
ĠÑĢÐµÑģ ÐµÐ¹Ð»ÑĸÐº
ĠÐ¡ Ð¼Ð°
ĠÐ¿ Ð°Ð¿
ĠÐĶ Ð¾Ðº
ÑĢ Ð¸Ð»
ĠÐ´Ð°Ð¹ÑĭÐ½ Ð´Ð°Ð»
Ð¿ Ð¸Ð½
Ġ, %
ĠÐ¿ÑĢÐ¸ ÑĩÐ¸Ð½Ñĭ
ĠÐ°Ð´Ð²Ð¾Ðº Ð°ÑĤ
ĠÐķÐ²Ð³ÐµÐ½ Ð¸Ð¹
ĠÐ¿ÐµÐ½ Ñģ
ĠÐ±Ð°Ð»Ð°Ð±Ð°ÒĽ ÑĪ
ĠÐ¢ Ð°Ò£
ĠÐ´Ð°Ð¼ ÑĭÐ¿
ĠÐķ Ð³Ð¸
ĠÑģÐ¸Ð½ ÑĤ
ĠÐŀÑĤ Ðº
Ġn e
ÑĭÑģÑĤÐ°ÑĢ ÑĭÐ½
ĠÐ¼Ð¾Ð´ ÐµÐ»
ĠÑĢÐµÑĪÐµÐ½ Ð¸ÐµÐ¼
Ð¼ ÐµÑģ
ĠÐļÐ°ÑĢÐ°Ð³Ð°Ð½ Ð´Ðµ
vesti kz
ĠÐ¿Ð¾ÐºÐ°Ð· ÑĭÐ²Ð°ÐµÑĤ
ĠÐ¶ÐµÑĢ Ð´ÑĸÒ£
ĠÐ´Ð°Ð¼ Ñĭ
ĠÐ½Ð¾ÑıÐ± ÑĢÐµ
Ð¿ÑĢÐ¾ Ð¸Ð·Ð²Ð¾Ð´
ĠÑĤÐ¾Ð¿ ÑĤÐ°
ĠÐ± ÐµÐ³
ĠÐ°ÑĥÑĭÐ» ÑĭÐ½Ð´Ð°
ĠÐļÐĿ Ðĳ
ĠÐ± ÑĢ
il ity
ĠÐ³Ð¾Ð´Ð° Ð¼
ĠÐ´ Ð°Ð»Ð¸
ĠÐ±ÑĸÐ»ÑĸÐ¼ Ð´ÐµÑĢÑĸÐ½
ÒĵÐ° Ñĥ
ĠÐºÐ¾Ð¼Ð°Ð½ Ð´Ðµ
ĠÐĸ Ð°ÑģÑĤÐ°ÑĢ
ĠÐ¶Ò¯Ð¹ ÐµÑģÑĸÐ½Ð´Ðµ
ĠÐĴÐ°ÑĪ Ð¸Ð½Ð³
ÑĦ Ðµ
ĠÐĲÐ² ÑģÑĤÑĢÐ°Ð»
ĠÐ°Ð»Ð¼ Ð°Ð¹ÑĤÑĭÐ½
ĠÐ£Ð³ Ð¾Ð»Ð¾Ð²
ĠÑģÑĤÐ°ÑĤÐ¸ÑģÑĤ Ð¸ÐºÐ°
Ðº ÑĥÑİ
ĠÐ´ÐµÐ» Ð°ÐµÑĤ
ĠÐ¼ÐµÐº ÐµÐ¼Ðµ
ĠÐļÐ°Ð¶ Ð´ÑĭÐ¹
ÐµÐ» Ð³ÐµÐ½
ĠÑħÐ¸Ð¼ Ð¸Ñı
ĠÑĢÐµÐ· ÐºÐ¾
Ñĥ Ð¼Ðµ
ĠÐ·Ð½ Ð°ÐµÑĤ
ĠÐĺÑĤÐ°Ð» Ð¸Ð¸
ĠÐ¶Ð¸Ð½ Ð°Ð»ÒĵÐ°Ð½
ĠÐ¿ÑĢ Ð¸ÑĤ
ĠÐ¾ÑĤÐ½Ð¾ ÑĪÐµÐ½Ð¸Ðµ
ĠÑģÐ°Ñħ Ð°ÑĢ
ĠÐ¿ÐµÑĢÐµÐ² Ð¾Ð´
ĠÐ²Ð° Ð³Ð¾
ĠÒĽÐ°ÑģÐ¸ÐµÑĤ ÑĤÑĸ
ĠK apital
ĠÑĥÑģÑĤÐ°Ð½Ð¾Ð² Ð»ÐµÐ½Ð¾
ĠÐĳ Ð¸Ð»
ĠÐ´Ð¸ÑģÑĨÐ¸ Ð¿Ð»
ĠÐ¿Ð¾ÑĢÑĭ Ð²Ñĭ
ÑĭÒ£ Ð´Ñĭ
Ð³ ÑĸÑĢ
ĠÑĤÐµ Ð¿Ðµ
ĠÐ°ÑĢ ÑĤÑĥ
ĠÐłÐ°ÑģÑģÐºÐ°Ð· Ð°ÑĤÑĮ
ĠÐ¾ÑĤ ÐµÑĨ
ĠÐ±ÐµÑĢ ÑĥÑĪÑĸÐ½ÑĸÒ£
ĠÒĽÒ±ÒĽÑĭÒĽ ÑĤÐ°ÑĢÑĭÐ½
ĠÒĽÐ¾Ð·ÒĵÐ°Ð» ÑĭÑģÑĭ
Ð°ÑĤ Ð°Ð¹
ĠÐ°Ð¹ ÑĢÑĭÒĽÑĪÐ°
ÐµÐº ÑĤÑĸÐº
ĠÐŁ ÑĢÐ¸Ð½
ĠÐ±ÑĸÑĢ ÑĸÐºÑĤÑĸÑĢ
Ġy our
ĠÐ³Ð¾ÑģÐ¿Ð¸ÑĤ Ð°Ð»Ð¸Ð·
ĠÐĶÐµÐ¿Ð°ÑĢÑĤÐ°Ð¼ ÐµÐ½ÑĤÐ°
ĠÐºÐ¾Ð¼Ð¿ Ð¾Ð·Ð¸
Ð°ÑĤÑĤÐ°ÑĢ ÑĭÐ½ÑĭÒ£
ĠÑĤÐ¾Ð» Ñĭ
Ġt ime
ĠÐ±ÐµÑĢ ÑĸÐº
ĠÐĲ ÑĢÐ°Ð»
ĠÐº Ð¿
ĠÑĢÐµ Ð°Ð±Ð¸Ð»Ð¸ÑĤ
ĠÒ±Ð¹ÑĭÐ¼ Ñĭ
B y
ÑĢÐ¸ ÑģÑĤÐ¸
ĠÐ½Ð°Ð· ÑĭÐ²Ð°ÐµÑĤÑģÑı
ÑĩÐµÑģÐº Ð¾Ð¹
Ð¾ÑģÑĤ Ñĭ
Ðľ Ð°Ð½
ÑĢ ÑĭÐ¹
ĠÐ§ÐµÑĢ ÐµÐ·
ĠÐ¸Ð· Ð²
ĠÐ¸Ð¼Ðµ ÐµÑĤÑģÑı
ĠÐ¯ Ð½
Ð· ÐµÑĢ
ĠÐ¸Ð½Ð´ÑĥÑģÑĤÑĢÐ¸ Ð¸
ĠÐ½ Ð¾ÑĤ
Ġp ol
ĠÐµÑĪ ÑĤÐµÒ£
ĠSub scribe
re d
ĠÑĢÐµ ÑĦ
ĠÐ¿Ð¾Ð½ ÑıÑĤÑĮ
ĠÐ¼Ò± ÑĢÐ°Ð¶
Ġbe en
Ð¾Ð»Ð¾Ð³ Ð¸ÑĩÐµÑģÐºÐ¸Ðµ
ĠÐ¿Ð°ÑĢ Ðº
Ð¨ ÑĭÐ¼ÐºÐµÐ½ÑĤ
Ð¦ Ðł
ĠÐ¿Ð¾Ð·Ð¸ ÑĨÐ¸Ñı
ĠÐ¾ Ð¹ÑĭÐ¼
Ð½ Ñĸ
in es
Ð¶ ÐµÐºÐµ
ĠÐ¶Ð¸ÑĭÐ½ ÑĤÑĭÒĽ
ÑĥÑģÑĤ Ð¾ÑĢÐ¾Ð½
vestikz sport
ĠÐĲÑħÐ¼ÐµÑĤ Ð¾Ð²
ĠÐĿÐµ Ð¾Ð±ÑħÐ¾Ð´
ĠÐĳ Ð°ÒĵÐ´Ð°ÑĢÐ»Ð°Ð¼
ĠÑģÐ°Ð½ ÑĭÐ½ÑĭÒ£
ĠA d
ĠÒĽÐ¸ÑĭÐ½ Ð´ÑĭÒĽ
ĠÐ¿ ÐµÐ´Ð°Ð³Ð¾
ĠÐ¼Ó©Ð»ÑĪÐµÑĢ ÑĸÐ½
ĠÐ¾Ð´ Ð½Ð¾Ð²ÑĢÐµÐ¼ÐµÐ½Ð½Ð¾
Ð¿ÑĢÐ¾Ð´Ñĥ ÐºÑĤ
ÐµÐ² ÑĭÐ¼
ĠÐ°Ð· Ð¾ÑĤ
ĠÐ½Ð°ÑĨÐ¸Ð¾Ð½Ð°Ð»ÑĮ Ð½ÑĭÑħ
ĠÒĽÑĭÐ· Ð´Ð°ÑĢ
ÐµÑģÑĤ Ð¾Ñĩ
ĠÐ´Ð¸ Ð°Ð¼ÐµÑĤÑĢ
9 7
ĠÐºÐ¾Ð¼ Ð±Ð¸Ð½
ÐµÑĤÑĸÐ½ ÑĸÐ½
Ð¾ÑĢ ÑĥÑģ
ÑĢÐµÐ¼ ÑĸÐ·
ÐµÐ¹ ÑĤÐ¸
ĠÑģ Ð¾ÑĢÑĤ
ĠÐ¾ÐºÑĤ ÑıÐ±ÑĢÐµ
ĠÐĿÐ°ÑĨ Ð±Ð°Ð½ÐºÐ°
ĠÐĶÐ¶ ÐµÐ¹
ĠÐ¿Ð¾ÑģÐ»ÐµÐ´ Ð¾Ð²Ð°ÑĤÐµÐ»ÑĮ
ĠÑģÐµÐº ÑģÑĥ
Ð°ÑĨÐ¸Ð¾Ð½ Ð½Ð¾Ð¹
ĠÐ¾ÑĢÐ³Ð°Ð½Ð¸Ð· Ð¾Ð²Ð°Ð½
ĠÑĦÐµÐ²ÑĢÐ°Ð» Ðµ
ĠÐ¼Ð¾Ð¹ ÑĭÐ½
Ġ8 7
ĠÑĤÐµÐ»ÐµÐºÐ°Ð½ Ð°Ð»
Ð¾Ð¶Ð¸ Ð´Ð°Ð½
A S
Ð¿ ÐµÐº
ĠÐ¡ Ò±
ĠÐ²ÑĭÐ· Ð¾Ð²
ĠÐ» ÐµÐ¹
ĠÐºÐµÐ¼ ÑĪÑĸÐ»ÑĸÐº
Ð»Ð°Ð½ ÑĭÒ£
ĠÐ¨ Ð²ÐµÐ¹ÑĨÐ°ÑĢ
ĠÑĤÒ¯Ñģ ÑĸÑĢÑĥ
d ro
ĠÐ±ÑĸÐ» ÑĸÐºÑĤÑĸ
ĠÒĽ Ð¾ÑĪ
Ġin d
ĠÐ²ÑĭÑģÑĤÑĥÐ¿ Ð»ÐµÐ½Ð¸Ñı
ĠÐ¿Ð»Ð¾ÑīÐ°Ð´ ÑĮ
ĠÐ¢ Ð°ÑĤÑĮÑı
ĠÑģÐ°Ð» Ð°ÑģÑĭÐ½ÑĭÒ£
ĠÐ± Ð¾ÑĢÑĭ
Ð¸ÑĢ ÑĤÑĥ
ĠÐ¾Ð¿ÑĢÐµÐ´ÐµÐ» ÑıÐµÑĤÑģÑı
ĠÑĥÐ²Ð¸Ð´ ÐµÑĤÑĮ
ÐµÐ» ÐµÑģ
ĠÐĲÐ· Ð°ÑĤÑĤÑĭ
ĠÐ¶ÐµÒ£ ÑĸÐ¿
ĠÐ¼Ð¸Ð½ ÑĥÑĤÐµ
Ð¿ ÑĢÐ¾Ð¼
ÑĭÒĽ ÑĤÐ°Ð½
ĠÐ¿Ð¾Ð´ ÑĬ
ĠÐ¸Ð³ÑĢÐ¾ ÐºÐ¾Ð²
ĠÐ²Ð¿ ÐµÑĩÐ°ÑĤ
ÑĤÑĭ Ð²
ĠÐ´Ð°Ð»ÑĮÐ½ÐµÐ¹ ÑĪÐµÐ¼
ÑĢÐ¸ÑĤ Ðµ
ĠÐºÐ¾Ð½ÑĦÐµÑĢÐµÐ½ ÑĨÐ¸Ð¸
ĠÑĤÒ¯ Ð³ÐµÐ»
Ñį Ð»
ĠÑĢÐ°Ñģ ÑģÑĤÐ¾Ñı
ĠÐĶ ÑĸÐ½
ĠÐµ ÑģÑĤÑĸ
ÑģÑĤÐµÑĢ Ð´ÑĸÒ£
Ð°Ð½ ÑĭÐ¿
Ð´Ð°Ð¹ ÑĭÐ¼
ĠÐ¸ÑĤ Ð°Ð»ÑĮÑıÐ½
ÑģÑĤ Ð°ÑĤ
ÐµÐ½ ÑĤÐ°ÑĢ
Ðĵ ÐŁ
ĠÐº ÑĸÑģ
ĠÐ½Ð°ÑĢ ÑĭÒĽÑĤÑĭÒĽ
ĠÑĪÐºÐ¾Ð» Ñĥ
S c
ĠÐ¾ÑĢÑĭÐ½ Ð´Ð°ÑĢÑĭÐ½ÑĭÒ£
ĠÐ¼Ò¯ÑĪ ÐµÐ»ÐµÑĢÑĸÐ½ÑĸÒ£
ĠÑĪÑĭÒĵÐ°ÑĢ Ð´Ñĭ
ĠÐ°ÑĤÒĽÐ°ÑĢ Ð°ÑĤÑĭÐ½
ĠÐŃ Ð½
c es
ĠÑĦÐ¸Ð³ ÑĥÑĢ
ĠÑģ ÐµÑģÑĤ
Ðļ Ð¾ÑĢ
ĠÐ¿ÑĢÐµ ÐºÑĢÐ°ÑĤ
ÑĢÐ°Ð·Ð´ Ð¾
Ð·Ð°Ñī Ð¸ÑĤ
ĠÓĻÐ» ÑģÑĸÐ·
ĠÐŁÐ¾Ð» Ð¸ÑĨÐµÐ¹
ĠÐ¨ ÓĻ
ĠÐļÐ¾Ðº ÑĪÐµÑĤÐ°Ñĥ
ĠÐ°Ð´Ð°Ð¼ Ð·Ð°ÑĤ
ĠÐĽÑİ Ð´Ð¸
ĠÒĽÑĭÐ·Ð¼ÐµÑĤÐºÐµÑĢÐ»ÐµÑĢ ÑĸÐ½ÑĸÒ£
ĠÑģÐ¾ÑĤÑĢÑĥÐ´Ð½Ð¸ÑĩÐµ ÑģÑĤÐ²Ð¾
ĠÑĢÐµÐ³ÑĥÐ»Ð¸ ÑĢÐ¾Ð²Ð°Ð½Ð¸Ñı
ĠÑĨÐµÐ» ÐµÐ¹
ĠÑĪÐºÐ¾Ð»ÑĮ Ð½Ð¸ÐºÐ¾Ð²
ĠÑģÐ¾ ÒĵÑĭ
8 5
ĠÐ½Ð°ÑĪ Ð¸Ð¼
ĠÐºÓ©ÑĢÑģÐµÑĤ ÐºÑĸÑĪÑĸ
ĠÐ°ÑĤ ÑĭÐ½
is ia
ĠÐ° ÑĦ
ĠÐ°ÑıÒĽ ÑĤÐ°Ð»Ð´Ñĭ
ĠÐ´Ð°Ð»ÑĮÐ½ÐµÐ¹ ÑĪÐµÐ³Ð¾
ĠÐ¾ÑĤ ÑĢÐ°Ð²
ÑĭÐ»Ð¼ Ð°Ð»Ñĭ
: Â«
Ñİ ÑģÐµÑĢ
ĠÐ¼ÐµÐºÐµÐ¼ ÐµÑģÑĸ
an y
ĠÐ±ÑİÐ´Ð¶ÐµÑĤ ÑĤÑĸÐº
ÐĴ ÑĤ
Ð» Ð¸Ð½Ð°
Ð³ ÑĸÐ¼
Ð°Ñħ Ð¼ÐµÑĤ
ĠÐĸÓĺ ÐĿÐķ
ĠÐĲÐ¹ Ð´Ð°ÑĢ
ĠÐ²Ð¾Ð· Ð»Ðµ
ĠÐ²Ð¾Ð´ Ð¾Ð¹
ĠÐ»ÑİÐ´ ÑĮÐ¼Ð¸
ĠÐ·Ð°ÐºÐ»ÑİÑĩ Ð°ÐµÑĤÑģÑı
ÑĪÐµÐ¹ ÑģÑı
ĠÑĪÐºÐ¾Ð» Ð°Ñħ
ĠÐ±Ð°ÑģÑĤ ÑĭÒĵÑĭ
Ð¸ÑĢÐ¾Ð²Ð°Ð½ Ð½ÑĭÐµ
ĠÐ·Ð°Ð¿ ÑĥÑģÐº
ÑĢÐ¸ Ð±
ĠÑĸÐ· Ð´Ðµ
ĠÐ·Ð°Ð¼Ð°Ð½ ÒĵÑĭ
ĠÐļÐ¡Ðł Ðŀ
ĠÐ¿ ÑĭÐ»
ĠÐŁÑĢÐ¾ Ð´Ð¾Ð»Ð¶
ĠÐ· Ð´Ð°Ð½Ð¸Ðµ
Ġdevelop ment
ÑĢÐ° Ð¼Ð°
ĠÐ°ÑĥÐ¼Ð°ÒĽ ÑĤÑĭÒĽ
ĠÑĢÐµ Ð²
ĠÐĳ Ñĥ
Ð¢ ÑĸÐ»
ĠI m
Ð¾Ð¼Ð¸Ð½ Ð°ÐµÑĤ
ĠÐĲÐĽ Ðľ
Ð½Ð° Ð³
ÑĥÐ» Ð»Ð¸Ð½
Ðĺ Ð·
ĠÐ¿Ð¾Ñģ Ð¼Ð¾ÑĤÑĢÐµÑĤÑĮ
a ir
ĠÐ¼ Ð°ÒĵÑĭÐ½Ð°
ĠÐ¿ÑĢÐµÑģÑĤÑĥÐ¿ Ð»ÐµÐ½Ð¸Ð¹
ĠÐ¾Ò£ ÑĤÐ°Ð¹
ĠÐ¿ÑĢÐµÐ´ ÑģÑĤÐ¾Ð¸ÑĤ
ĠÐ¼ÐµÑĤÐ°Ð»Ð» ÑĥÑĢÐ³
ĠÐĲ Ðł
ĠÐ½Ð°Ð»Ð¸Ñĩ Ð¸Ð¸
Ġc ar
ĠÑĤ ÑĸÐ½
ÑĥÑĤ Ð±Ð¾Ð»
ĠÐŁÑĢÐ°Ð² Ð´Ð°
ÐºÐµÑģ ÑĸÐ½ÑĸÒ£
Ð°Ð»ÑĮ Ð½Ð¾Ð¼Ñĥ
Ð´ Ñı
ĠÐ½Ð¾Ð² Ð°Ñı
ĠÐ¿Ð¾Ð¿ ÑĥÐ»Ñı
ĠÐ´Ð°Ð² Ð»ÐµÐ½Ð¸Ñı
ÐµÑĩ ÑĮ
ĠÐłÐµÑģÐ¿ÑĥÐ±Ð»Ð¸Ðº Ð°ÑģÑĭÐ½Ð´Ð°ÒĵÑĭ
ĠÐº ÑĢÐ¸Ð¿
ĠÐ¿ÑĥÑĤÐµ ÑĪÐµ
ĠÐ¾Ð½ Ð´Ð°Ð¹
ĠÐŁ Ð°Ð»
ĠÐŀÐ¿ ÑĢÐµÐ´ÐµÐ»
ĠÑĤÑĥÑĢÐ¸Ð· Ð¼Ð°
ĠÐ±Ð¾Ð³ Ð°ÑĤ
Ð¾ÑģÑĤ Ð¾ÑıÐ½
ÑĦ Ð¾ÑĢÑĤ
ĠÐ¿ÑĢÐµÐ´ÐµÐ» Ð°Ñħ
ĠÐ²Ð»Ð° ÑģÑĤÑĮ
ĠÐłÐµÑģÐ¿ÑĥÐ±Ð»Ð¸Ðº Ð°ÑģÑĭÐ½Ð´Ð°
Ġst r
ĠÐ¶ÐµÑĢ ÑĸÐ½Ð´Ðµ
C b
ĠÐºÐµÐ· Ð´
Ð½ÐµÐ½ Ð¸Ð¸
Ð¸Ñĩ Ð½ÑĭÑħ
ĠÑĢÐ¾ Ð±
ĠÐ·Ð´Ð¾ÑĢÐ¾Ð² ÑĮÐµ
Ðĳ ÑĸÑĢÐ°ÒĽ
ĠÐ´ Ñĥ
B C
Ñĳ ÑĢ
ĠÑģÐ»Ð¾Ð² Ñĥ
Ð¸Ð² ÑĪÐ¸ÑģÑĮ
Ò£ ÑĸÐ·
ĠÐ³ Ð°Ð»
ĠÐ°Ð½ÑĭÒĽ ÑĤÐ°Ð¿
ĠÐºÐ¾ÑĤÐ¾ÑĢ ÑĭÐ¼Ð¸
Ð»Ð¸ Ð½Ñĭ
ĠÐ±Ð°ÑĢ ÑĢÐµÐ»ÑĮ
ĠÐºÐ¾Ð½ÑĤ ÐµÐ¹Ð½ÐµÑĢ
Ġ199 5
Ð¿Ð°ÑĢ ÑĤ
ĠÐļÑĭÑĢÐ³ÑĭÐ· ÑģÑĤÐ°Ð½
Ð¸ÑģÑģ Ð¸Ð¸
ĠÐ¸Ð¼Ð¿ ÑĥÐ»ÑĮ
ĠÐ±Ð¸ÑĭÐ» ÒĵÑĭ
Ġback ground
ÑĤÐ¾ ÑĢÐ°Ñı
ĠÑĤÐ°Ð» Ð°Ð±
ĠÑĤÐ°ÑĢÐ¸Ñħ ÑĭÐ½
ĠÐ¸Ð·Ð´ÐµÐ» Ð¸Ð¹
Ð¿Ðµ Ð³ÐµÐ½
ĠÐ¼ÐµÐº Ñģ
ĠÒ¯Ð¹Ð»ÐµÑģÑĤ ÑĸÑĢÑĥ
ĠÐ¿ÑĢÐ¾Ð· ÑĢÐ°Ñĩ
Ð¸Ñĩ Ð½Ð¾Ð¹
ĠÑĢÐ¾ Ð´Ð°
p age
Ñī Ð¸ÐºÐ°
ĠÐļ Ðł
ĠÐ²ÑģÑĤÑĢÐµ ÑĩÐ°
Ð¸ÑĢÐ¾Ð² Ð°Ð»Ð°
Ð¸Ð½Ð³ Ð²
ĠÐ·Ð°Ð½ÑıÑĤÐ¾ ÑģÑĤÐ¸
ĠÐ¿Ð¾Ð´ Ð²
ĠÑģÐºÐ¾ÑĢ Ð¾Ð¹
ĠÑĤÒ± ÑĤÐ°Ñģ
ĠÒĽÐ°ÑģÐ¸ÐµÑĤ Ñĸ
ĠÑģÒ±ÑĢÐ°ÒĽ ÑĤÐ°ÑĢÑĭ
ÐºÐ¾Ð½ÑĦÐµÑĢÐµÐ½ ÑĨÐ¸Ð¸
ĠÑģÐ²ÑıÐ·Ð°Ð½ Ð½ÑĭÐµ
ĠÒĽÐ°Ð±ÑĭÐ» Ð´Ð°Ð¹Ð´Ñĭ
ĠÐ¸Ñİ Ð½Ðµ
ĠÐ¢ ÓĻÑĢÐ±Ð¸Ðµ
ĠÐ¿ÑĢÐ¾Ð´Ð° Ð¶
ĠÑĤÐ°Ò£ Ð´Ð°Ð¿
ĠÓĻÐ´ÑĸÑģÑĤÐµÑĢ ÑĸÐ½
ĠÐµ Ð¶ÐµÐ»Ð³Ñĸ
ĠÐ³ÑĥÐ¼Ð°Ð½ Ð¸ÑĤÐ°ÑĢ
ĠÐ³ Ð¾ÑĢÐ¼
Ġab out
Ġ, -
Ð¾Ð· Ð°ÑīÐ¸ÑĤ
ĠÐ¿Ð¾Ð»Ð¸ÑĤ Ð¸ÐºÐ°
ĠÐĿÐ°ÑĢ Ð¾Ð´
Ī Ĵ
ĠÑĥÑģÑĤÐ°Ð½Ð¾Ð² Ð¸ÑĤÑĮ
ÑĸÐ»Ñĸ Ð³ÑĸÐ½Ðµ
ĠÐ´Ð² ÑĥÑģÑĤÐ¾ÑĢÐ¾Ð½
is m
ĠÓĻÐ»ÑĸÐ¿ Ð±Ð¸
ĠÑģÒ± ÑĢÐ°Ñĥ
ĠÑģÐ°Ð» ÑĭÑģÑĤÑĭÑĢÑĥ
ĠÑįÐ»ÐµÐ¼ ÐµÐ½ÑĤÐ¾Ð²
ĠÑģÐ²Ð¾ ÐµÐ²
ÑĤÐ°Ð½ Ð´ÑĭÑĢÑĭÐ»ÒĵÐ°Ð½
Ð¾Ð³ Ð¸
ĠÐĺ Ð²
( ()
ĠÐĺÐ½ Ð²ÐµÑģÑĤÐ¸
ĠÐ¼Ð°Ñħ Ð°Ð±Ð±Ð°ÑĤ
ÑĭÐ» ÑģÐ°
ĠÑĤÒ¯ÑĢ ÑĸÐ½Ðµ
Ðĳ ÐµÐ»
ĠÐ¾ÑħÑĢÐ°Ð½ Ñĭ
ĠÑĪÑĭÒĵÑĭÐ½ Ð´Ð°ÑĢ
ĠÐĲÐ² ÑĤÐ¾Ð¼
ĠÐĲ Ð»ÐµÐº
Ð°Ñģ ÑĭÒ£
ĠÐ¶Ð°Ð»ÒĵÐ° ÑģÑĤÑĭÑĢÑĥ
ĠÐŀÑĢ Ð´Ð°
Ð´Ñĭ ÒĵÑĭÐ½Ð°Ð½
Ð´ÐµÐ½ ÐµÒ£
ĠU FC
ÐµÐ· Ð»Ð¸
ĠÐłÐ¾Ð¼ Ð°Ð½
ame ken
ĠÑĩ Ð»ÐµÐ½Ñĭ
ĠÐ¶Ò¯ÑĢÐ³ÑĸÐ· ÑĥÑĪÑĸ
ĠÐ¶Ð°ÒĵÐ´Ð°Ð¹ ÑĭÐ½Ð°
che me
ĠÐ¶Ò¯ÑĢÐ³ÑĸÐ· ÑĸÐ»ÑĸÐ¿
ĠÐ¢Ð°Ðº Ð¸Ðµ
ĠÐ´Ð¸ÑĢÐµÐºÑĤ Ð¾ÑĢÐ¾Ð²
ĠÐ¼Ð¾ÑĢ Ñı
ya Context
yaContext Cb
ÑĥÐ» Ð¾Ð²Ð°
iv ers
Ð¼Ðµ Ñĥ
ĠÑıÐ´ ÑĢÐ¾Ð»ÑĭÒĽ
Ð¿ÑĢÐ¾ ÑĩÐµÐ¼
ĠÓ© ÑģÐµÐ´Ñĸ
ĠÑĤÓĻÑĢÑĤÑĸÐ¿ Ð¿ÐµÐ½
ĠÐĶ Ñį
ĠÐµÑĤ ÑĸÐ»Ð³ÐµÐ½
ĠÑģÓĻÑĤ ÑĤÑĸ
ĠÑĤÒ±ÑĢÒĵÑĭÐ½ Ð´Ð°ÑĢ
ĠÐ¿ÑĢÐ°Ð²Ð¸Ð»ÑĮ Ð½Ð¾
ĠÐĺÐ³Ð¾ÑĢ ÑĮ
ĠÐ½Ð°Ð¿ Ð°Ð´Ð°
ĠÑĤÑĸÑĢÐºÐµÐ» ÑĸÒ£ÑĸÐ·
ĠÐ¿Ð¾Ð³ ÑĢÐ°Ð½Ð¸Ñĩ
ĠÐ¢ÐµÐ¼ Ð¿ÐµÑĢ
ĠÐºÐµÒ£ ÐµÑģÑĸ
ĠÐ²ÐµÑģÑĮ Ð¼Ð°
ĠÐ°ÑĤÐ°Ð½ Ð´Ñĭ
ĠÐł Ð°Ð´Ð¸
ĠÑĪÐµÐºÑĤÐµ Ñĥ
ĠÑĦÐ°ÐºÑĥÐ»ÑĮÑĤ ÐµÑĤ
ĠÑĩÐ°ÑģÑĤ ÑĮÑİ
ĠÐ¿ÐµÑĢ ÐµÐ¼Ðµ
a h
ĠÐĲ ÑĤÐ°Ð¿
ĠÐ¿Ð¾ÑĤÑĢÐµÐ± Ð¸ÑĤÐµÐ»ÐµÐ¹
ĠÑĢÓ©Ð» Ñĸ
Ñı ÑĤÑĭ
Ð°ÑĪÐ° ÒĵÑĭ
Ġspe c
Ð± ÑĢÐ¸ÑĤÐ°Ð½Ð¸Ñı
ĠÑģÐºÐ¾ÑĢ Ð¾ÑģÑĤÐ¸
get Element
ĠÓĻÑĥ ÐµÐ¶
ĠÐĲÒĽ ÑĤÐ°Ñĥ
ĠÐŃ Ð½ÐµÑĢÐ³
ĠÐ¿Ð¾Ð¿ Ð°Ð»
ĠÐ²Ñĭ Ð¶
ĠÐ¿ÑĢÐ¾Ð²Ð¾Ð´ ÑıÑĤÑģÑı
ĠÑģÐ²ÑıÐ·Ð°Ð½ Ð½ÑĭÑħ
ĠÑģÑĤÑĢÑĥÐºÑĤ ÑĥÑĢÑĭ
ĠÐºÐ°Ð½Ð´Ð¸Ð´ Ð°ÑĤ
ĠÐ¾ÑĢÐ°Ð¹ Ð´Ð°
ĠÐ¢ Ð°Ð»Ð´Ñĭ
ĠÐ½Ð°Ð¿ÑĢÐ°Ð² Ð»ÐµÐ½Ñĭ
ĠÐŁ ÑĢÐ¾Ð²
ĠÐ´Ð² Ð¾ÑĢ
ĠÐķÐºÑĸ Ð±Ð°ÑģÑĤÒ±Ð·
ĠÐ¼Ð½Ð¾Ð³Ð¾ ÑĩÐ¸Ñģ
ĠÐºÐµÑĢ ÑĸÑģÑĸÐ½ÑĪÐµ
ĠÒĽÐ°Ð¹ÑĢÐ°ÑĤ ÐºÐµÑĢÑĸ
ĠÐ¼Ð¾Ð¶ÐµÑĤ Ðµ
ÑĸÐ¼Ð´ÐµÑĢ Ð´Ñĸ
Ð¶ Ó©Ð½
ĠÐ°ÐºÐ¸Ð¼ Ð°ÑĤÐµ
ĠÐ·Ð°Ð½Ð¸Ð¼ Ð°ÐµÑĤÑģÑı
ĠÑģÐ¾ Ð¿ÑĢÐ¾ÑĤÐ¸Ð²
ĠÐº ÐµÑģÐº
ĠÐºÓ©ÑĤÐµÑĢ ÑĸÐ¿
Ð½ÐµÐ² Ð·Ð²ÐµÑĪ
Ð¾ÑĢÐ³Ð°Ð½ Ð¸Ð·Ð¼
ÑĸÐ½Ð´Ðµ Ð¿
ĠÑģÐ» ÑĭÑĪ
ĠÐ¶Ð°Ñģ Ð°ÑĢ
ĠÑĤÑĢÐµÐ±Ð¾Ð²Ð°Ð½Ð¸Ñı Ð¼
ĠÑĤÑĸÐ» Ð´Ðµ
Ð¡ Ðķ
ĠÐ¶Ð°ÒĽ ÑĤÑĭ
ĠÑģÐ¸Ð½Ð´ ÑĢÐ¾Ð¼
ĠÐķÑĢ Ð¼ÐµÐº
Ð»ÐµÑĤ Ð½ÐµÐ¹
Ð»ÐµÐ½ Ð½Ð¾
ĠÑģÐ±Ð¾ÑĢ Ð½Ð°Ñı
ĠÐ¾Ð± Ð¾ÑģÐ½Ð¾Ð²
Ð»Ðµ Ð±
ĠÑĩ ÑĥÐ¶
ĠÐ°Ð¹ Ð´Ð°
un g
ĠÐļÐ°Ð·Ð°ÑħÑģÑĤÐ°Ð½ ÑģÐºÐ¸Ð¹
ĠÒ®Ð» ÐºÐµÐ½
ĠÐ½ÓĻÑĢ ÑģÐµÐ½
ĠÐĳÐ»Ð°Ð³Ð¾Ð´Ð°ÑĢ Ñı
Ð¸ÑĨÐ¸Ð½ Ð°Ð»ÑĭÒĽ
ĠÑģÐ°Ð½ ÐºÑĨÐ¸Ð¸
ĠÐ¾ÑĤÐ´Ñĭ ÑħÐ°
ĠÐ±ÑĸÑĢÐµ Ñĥ
ĠÐ± ÐµÐ´ÐµÐ»
ĠB usiness
ĠÐ¨ ÒļÐŀ
Ð¾Ñħ Ð¸Ð¼
and ex
ĠÓĻÐºÐµÐ» ÐµÐ´Ñĸ
ĠÒĽÐ° Ð´ÑĸÑĢ
ÐĲ Ò¢
Ð¼ ÑĥÑĤ
ĠÐ¸ÑģÐ¿Ð¾Ð»ÑĮÐ· Ð¾Ð²Ð°Ð½Ð¸ÐµÐ¼
ĠÑģÐ¿Ð¾ÑĢÑĤÑģÐ¼ÐµÐ½ Ð¾Ð²
Ġin business
ĠÐº ÑĢÐ¸Ð¼Ð¸Ð½
ĠÒļ Ð°Ð¹ÑĢÐ°ÑĤ
we en
inist er
Ġs o
ĠÐ¿ÑĢÐ¸Ð±ÑĭÐ» ÑĮ
Ð¾ÑĢÐ°Ð½ Ð´ÑĥÐ¼
ĠÐ³ ÑĥÐ±ÐµÑĢ
Ð´ÐµÐ» ÐµÐ´Ñĸ
ĠÑĥÑĩ ÐµÑĤÐ°
ĠÐ³ÑĢÐ°ÑĦ Ð¸Ðº
ĠÑģÐ»ÑĥÑĩ Ð°Ð¸
ĠÐºÐ¾ÑĢÐ¿Ð¾ÑĢ Ð°ÑĤÐ¸Ð²
ĠÐ½ÐµÐ·Ð°Ð²Ð¸Ñģ Ð¸Ð¼Ð¾ÑģÑĤÐ¸
Ð¼Ñĥ Ð½Ð¸Ðº
ĠÐ¾Ð´ Ð¾Ð±ÑĢ
ĠÐ±Ð¾Ð»ÑĮÑĪ Ð¸Ð¼
ĠÐ±ÑĸÑĢ ÑĪÐ°Ð¼Ð°
Ð¾Ð» Ð°ÑĢ
ĠÐ¶Ð°Òĵ ÑĭÐ½Ð´Ð°
Ñİ Ð½
ĠÐ±ÐµÐ·Ð¾Ð¿Ð°Ñģ Ð½Ð¾ÑģÑĤÑĮ
ĠÐ¾ÑĢ Ð´ÐµÐ½
ĠÐĿÓĻÑĤÐ¸Ð¶ ÐµÑģÑĸÐ½Ð´Ðµ
ĠÐ´Ð¾Ð±Ñĭ ÑĩÐ¸
ĠÑĤ Ð°Ð·Ð°ÑĢ
ÑĭÐ¿ ÑĤÑĭ
ĠÒĽÒ±ÑĢ Ð±Ð°Ð½
Ð² Ð¾Ðµ
ur ing
ĠÐĲÐ»ÐµÐºÑģÐ°Ð½Ð´ ÑĢÐ°
Ġ199 1
ĠÐ¿ÑĢÐµ ÑģÐ»ÐµÐ´
ĠÐ°ÑĥÐ´ Ð¸ÑĤÐ¾ÑĢ
ĠÐĲ Ð¼ÐµÑĢÐ¸ÐºÐ°Ð½
Ð¿Ð¾Ð» Ð¸ÑĤ
ÐµÑĤÑĸÐ½ ÑĪÐµ
g t
ĠÐ¿ÑĢÐ¾Ð³Ð½Ð¾ Ð·Ð¸
ĠÑĪÑĭÒĵÐ°ÑĢ ÑĥÒĵÐ°
Ð¸ÑĤÐµÐ»ÑĮ Ð½Ð¾Ð¼
ĠÑĤÐ¾ÑĢ Ð¶Ðµ
ĠÐŁ ÐµÐº
iz ation
ĠÐ¶Ð°ÑĢ Ð½Ð°Ð¼
ÐķÒ£ Ð±ÐµÐº
ĠÐ·Ð°ÑĢ Ð°Ð·
ÓĻÑĢ ÑĸÐ¼
ĠÑĩÐµÐ¼Ð¿Ð¸ Ð¾Ð½Ð°
ĠÐ½Ð°Ñģ ÐºÐ¾Ð»ÑĮÐºÐ¾
ĠÑĤÐ¾Ð» ÑĤÑĭÑĢ
ĠÑĢÐ°ÑģÑĤ ÐµÑĤ
Ð¾Ð¹ ÑĭÐ½
ĠÐ³Ð»Ð°Ð² Ð½ÑĭÑħ
ĠÑģÑĭÑĢ ÑĮÑı
ĠÐ¾ÑĢÐ³Ð°Ð½ Ð¸ÐºÐ°Ð»ÑĭÒĽ
ĠÐ½Ð°Ð·Ð² Ð°Ð½Ð¸Ðµ
ĠÐ§ ÐµÑħ
ĠÐ¾ÑĢÑĤÐ°Ð»Ñĭ ÒĵÑĭÐ½Ð´Ð°
ĠÐ¶ÑĸÐ±ÐµÑĢ Ñĥ
Ñĩ ÐµÐ½
Ð¾Ð³ Ð°
ĠÐ² ÑħÐ¾Ð´Ð¸ÑĤ
Ġ199 7
ĠÐ°ÑįÑĢÐ¾Ð¿ Ð¾ÑĢÑĤÑĥ
ĠÐºÐ°Ðº Ð¸Ð¼
ĠÐ¿Ð¾ Ð¶ÐµÐ»
Ð± ÑĸÐ·
ĠÐ´Ð¾ ÑĪ
ĠÐµ Ð³Ñĸ
ĠÐ£Ð¿ÑĢÐ°Ð² Ð»ÐµÐ½Ð¸Ñı
ĠÐ¿ÑĢÐ¸Ñĩ Ð°ÑģÑĤ
Ð¸Ñģ Ð»Ð°Ð²
ĠÒĽÒ±ÒĽ ÑĭÐ»Ñĭ
ÑĭÒ£ÑĭÐ· Ð´Ð°ÑĢ
ĠÒļ Ð°Ð¶
ĠÒĽÐ¾Ð¹ ÑĭÐ»Ð´Ñĭ
ĠÐ¾Ð½ Ðº
ĠÑı Ð¿Ð¾Ð½
ĠÐ½Ð°ÑħÐ¾Ð´ Ð¸Ð»Ð¸ÑģÑĮ
ĠÐĳÐ°ÑĤ ÑĭÑĢ
ĠÐ·Ð° ÐµÐ¼
Ð°Ð» ÐµÐ¹
ĠÑĸÑģÐºÐµÑĢ Ð»ÑĸÐº
ĠÐºÑĥÐ»ÑĮ ÑĤÑĥ
Ð¡ ÐµÐ¼
Ð¢ Ð«
ĠÐł Ðķ
Ð°Ð¹ Ð¼ÑĭÐ·
oc i
ĠÐ± ÐµÐ¶
ĠÐĶ Ð¾Ð¼
ĠÐ±Ð°Ð» Ð°Ð½
ĠÐ¶Ð°Ò£Ð° Ð´Ð°Ð½
ĠÐµÑĤÑĥ Ñĸ
ĠÐ¶Ð¾Ð» ÑĭÐ¼ÐµÐ½
ĠÐ¿ÐµÑĢÐ² Ð°Ñı
ÐĶ Ð¶
Ð½Ð¸Ð¼ Ð¸
ĠÐ½ÐµÐ´ Ð¾Ð¿
ĠÐºÑĢÐ¸Ð· Ð¸ÑģÐ°
ĠÐ´ÐµÑĢÐµÐº ÑĤÐµÑĢÐ´Ñĸ
ĠÐľÒ±Ñħ ÑĤÐ°ÑĢ
Ġb et
ĠÐ² Ð¼ÐµÑĪ
ĠÐ¤ Ð¸Ð·
ÑģÑĤÐ²ÐµÐ½ Ð½ÑĥÑİ
ĠÐ°ÒĽ Ð¸
ĠÐ°Ð²Ð³ÑĥÑģÑĤ Ðµ
ĠÑĪÓĻ ÐºÑĸÑĢÑĤ
K az
Ð¾Ñģ Ð¾Ð¼
ĠÐºÐ°ÑĢ ÑĤÐ¾
ĠÑĪÐ¸ ÑĢÐ¾Ðº
ur rent
Ñı ÑīÐµÐ³Ð¾
ĠÑįÐºÐ¾Ð½Ð¾Ð¼Ð¸Ðº Ð°Ð½ÑĭÒ£
ĠÒĽÐ°ÑĤÑĭÑģ ÑĥÑĪÑĭ
ĠÑģÐ²Ð¾ ÐµÐ¼Ñĥ
ĠÑģÐ¾Ð±ÑģÑĤÐ²ÐµÐ½ Ð½Ð¾ÑģÑĤÐ¸
Ð¾Ñģ Ð°
Ð¢ Ð°Ðº
ĠÐ°ÑĢ Ñĭ
ÑİÑī Ð¸Ð¼Ð¸
Ġb ut
ĠÐ¿Ð¾Ð»ÑĥÑĩ ÐµÐ½Ð¸Ðµ
ĠÑĨÐµÐ½ Ðµ
ĠÐ²ÑĢÐ° ÑĩÐ°
ĠÐ¼Ð¸ÑĢÐ¾Ð² ÑĭÑħ
ĠÐ¾ÒĽ ÑĭÒĵÐ°Ð½
Ġ6 6
ĠÐĴÑĤÐ¾ÑĢ Ð¾Ð¹
ĠÐ¶Ð¸Ð½ Ð°Ð¿
ĠÐ²ÑĭÐ¿Ð¾Ð»Ð½ ÐµÐ½Ð¸Ñı
ĠÐ¼Ð¸Ð³ ÑĢÐ°Ð½
ĠÐŁ ÐµÑĢÐµÐ´
ĠÑģÐ¾Ð± ÑĢÐ°Ð»
ĠÐ± Ò¯ÑĢ
a ult
ĠÑģÐ¾Ð·Ð´Ð°Ð½ Ð¸Ð¸
ÐĶ Ðł
ĠÐ³Ð¸ Ð³Ð¸
ĠÐ¿ÑĢÐ¾ÑĨÐµÑģ ÑģÑĭ
ĠÐ¸ÑģÐ¿ ÑĢÐ°Ð²
ĠÐ²ÑĭÑıÐ² Ð»ÐµÐ½Ð¾
ĠÐºÐ°ÑĦ Ðµ
ÐŁ Ð°Ð²Ð»Ð¾Ð´Ð°ÑĢ
Ð¾ÑĢ Ð»ÑĭÒĽ
ĠÑĸÐ· Ð´ÐµÐ¿
ĠÐ±Ð°ÒĵÑĭÑĤ ÑĤÐ°ÒĵÑĭ
ĠÐ¸ ÐµÐ³
ĠÐļÑĢÐ°Ñģ Ð½Ð¾
ĠÑĤÒ± ÒĽ
ĠÑĢÐ°Ð· Ð³Ð¾Ð²Ð¾ÑĢ
ĠÐ¼ÐµÐ· Ð³ÑĸÐ»
ĠÐ¿ÐµÐ½ÑģÐ¸Ð¾Ð½ Ð½ÑĭÑħ
ĠÐºÐ°Ð¶ ÐµÑĤÑģÑı
ÑģÑĭÐ· Ð´ÑĭÒĽ
Ð³ ÐµÐ»ÑĮ
Ð¸ÑĤ ÐµÑģÑĮ
ĠÑģÐ°Ñĥ Ð°ÑĤ
ĠÐ¾Ð±Ð²Ð¸Ð½ ÐµÐ½Ð¸Ñı
ĠÐµÑĢÐµÐ¶ ÐµÐ»ÐµÑĢ
ĠÐ¢ÓĻÑĥÐµÐ» ÑģÑĸÐ·Ð´ÑĸÐº
ĠÐ¨ Ð°Ð»
ĠÐľÒ± Ð½Ñĭ
ĠÐŁÐ°ÑĢ Ð»Ð°Ð¼ÐµÐ½ÑĤÐ°
ĠÐ¶Ð¸Ð» ÑĭÑħ
ĠÐĵÐ»Ð°Ð² Ð½ÑĭÐ¹
ĠÒĽÐ°ÑĢ Ð°ÑĪ
ĠÐ°Ð¹ÑĭÑĢÐ¼Ð° ÑĪÑĭÐ»ÑĭÒĽ
ĠÑħÐ¾Ðº ÐºÐµ
Ð°Ð½ Ð½Ð¾Ð³Ð¾
ĠÑĢÐ°Ð·Ð² Ð¸Ð²
ĠÑĤÐ°Ð¿ÑģÑĭ ÑĢÑĥ
ĠÐºÑĸÑĢ ÑĸÐ¿
ĠÒĽÐ°Ð±ÑĭÐ»Ð´Ð° ÑĥÒĵÐ°
ĠÐ¶Ð°Ñģ Ð°ÒĽ
Ð°Ð´ ÑĨ
Ðŀ Ñģ
ĠÒ±ÑĢ Ð¿
ĠÐ» Ð¸Ð·
Ð¿ÐµÑĢÐ² ÑĭÑħ
ĠÑĸÑģ ÑĸÐº
ĠÐ°ÑĥÑĢÑĥ Ð»Ð°ÑĢ
ĠÐ²ÑĭÑĪ Ð»Ð°
ĠÑĨÐ¸ ÑĢ
ĠÐ¶Ð¸Ð½Ð° ÒĵÑĭ
Ð¾Ñģ Ñĥ
Ð± Ð¾Ð½
ĠÒĵÐ¸Ð¼Ð°ÑĢ Ð°ÑĤ
Ñģ Ð°Ð¿
ĠÐ¶Ð°Ð½ Ð°ÑĢ
f l
ĠÐ²Ð°Ð¶ Ð½ÑĭÑħ
ĠÐĿÑĥÑĢÑģÑĥÐ»ÑĤÐ°Ð½ Ð°
Ġv is
ĠÑĤÐ°Ò£ Ð±
ĠÐ±ÑĥÐ´ ÑĥÑīÐµÐµ
Ð· Ñĥ
ĠÐ¿ Ð¸Ðº
ĠÐ¿Ð¾ ÑħÐ¾Ð¶
ĠÐ²Ð°Ð¶ Ð½ÑĭÐµ
ĠÑģÒ±ÑĢÐ°Ð½ ÑĭÑģ
ĠÐ½Ð°Ð·Ð² Ð°Ð»Ð¸
k s
ĠÐ³Ð»Ð°Ð² Ðµ
ĠÐ³ÑĢÑĥÐ¿Ð¿ Ñĥ
ĠÐ±Ð°Ð· Ñĭ
Ġs ol
ĠÐºÒ¯Ð½ Ð½ÑĸÒ£
ĠÐ¿Ð¾ Ð½Ñı
Ðº Ð°Ð»
s rc
Ð± ÐµÐ·
ĠÐ¶ÐµÐ»ÑĤÐ¾ÒĽÑģÐ°Ð½ Ð´Ð°ÒĵÑĭ
ĠÐĳ Ò±ÑĢÑĭÐ½
ĠÑĤÐ°Ð± Ð°
ĠÐŀÒĽ ÑĥÑĪÑĭÐ»Ð°ÑĢÐ´ÑĭÒ£
ĠÐĿÐ°ÑĨÐ¸Ð¾Ð½Ð°Ð»ÑĮ Ð½ÑĭÐ¹
ĠÑĤ ÑĥÑĪ
ĠÐ± Ð¾Ñİ
Ð³ Ð°ÑĤ
ĠÐĸÐ°ÑĢ Ð½Ð°Ð¼Ð°
ĠÐ¿ÑĢÐ¸ Ð³Ð¾ÑĤÐ¾Ð²
ĠÐºÐµÐ» Ñĥ
ĠÐ´ÑĢÑĥÐ³Ð¾ Ð³Ð¾
Ð°ÑĤÐµÐ» Ñİ
ĠÐºÐ¾ÑĢÐ¿ ÑĥÑģ
ĠÐºÐ»ÑĥÐ± Ñĭ
ĠÐ±Ð°ÑģÑĤ ÑĭÑģÑĭ
ĠÐ¾Ð±ÑıÐ·Ð°Ð½ Ð½Ð¾ÑģÑĤÐ¸
ĠÑģÐ¾ ÑĩÐµÑĤ
ĠÐ±Ð°Ð» Ð°Ð¼
Ð»Ñĭ Ð¹
ĠÑĥÑĩÐ°ÑģÑĤ Ð¾Ðº
ĠÐ²Ð¾ÑĪ Ð»Ð¸
ĠÐĳÐ°Ð¹ Ð»Ð°Ð½ÑĭÑģ
ÒĵÐ°Ð» Ð¸ÐµÐ²
ÑĭÒĵ ÑĭÐ½Ð´Ð°ÒĵÑĭ
8 6
ĠÒĽÐ¾ÑĢ ÑĭÐ½
ĠÐ°Ð· Ð°Ð¹
ĠÐ¤ Ð¾ÑĢ
ĠÐĳ Ð¸Ð·Ð½ÐµÑģ
ĠÑĤÐµÐ¾ÑĢÐ¸Ñı ÑģÑĭ
ĠÑģÑĥÐ±ÑĬÐµÐºÑĤ Ð¾Ð²
at ure
ĠÐ³Ð¾ ÑĢÐ°Ð·Ð´Ð¾
Ð°Ð½ Ð¸ÐµÐ¹
ĠÐµÑĢÐµÐºÑĪÐµÐ»ÑĸÐº ÑĤÐµÑĢÑĸÐ½
ĠÐ¼ÑĸÐ½Ð´ÐµÑĤ ÑĤÐµÑĢÐ´Ñĸ
ĠÐ¿Ð¾Ð»ÑĥÑĩ Ð°ÑĤ
ĠÐ°Ð¹ ÑĤÐ°Ð¼
ĠÐ¼Ð¾Ð¹ ÑĭÐ½Ð´Ð°
ĠÐºÐ¾Ð½ÑĤ Ð°ÐºÑĤ
Ñī ÐµÐ¹
ÑĨÐ¸Ð¾Ð½ Ð½Ð¾Ðµ
ĠÑħÐ¾Ðº ÐºÐµÐ¹
ĠÑĪÐ°ÑĢÑĥ Ð°
ĠÐ·Ð² ÐµÐ·
ĠÐĵÐµÐ½Ð½Ð°Ð´ Ð¸Ð¹
ĠÐ¿Ð¾Ð» Ð½Ð¾Ð¹
ĠÐ½Ð°ÑĪ Ñĥ
Ñĩ Ð¸Ð½
ĠÐ¿ÑĢÐ¾Ð±Ð»ÐµÐ¼ Ñĥ
ĠÐ»ÐµÑĤ Ð¾Ð¼
ĠÐ±ÐµÑĤ ÑĸÐ½Ðµ
ÐºÐ¾ÑĢ Ð³Ð°Ð½
ĠÐ± Ð°Ð·Ð°ÑĢ
ĠÐ±ÑĸÑĢ ÑĸÐºÑĤÑĸ
ÒĴ ÐĲ
ĠÐ¾Ñĩ Ð¸ÑģÑĤ
ĠÐĺ ÑģÐº
ÑĸÐ»ÐµÑĢ Ð´ÑĸÒ£
ÐŃ Ð»ÐµÐºÑĤ
ĠÑįÐºÑģÐ¿Ð»ÑĥÐ°ÑĤÐ° ÑĨÐ¸Ñİ
ÐµÑģ i
ĠÐ·Ð½Ð°Ð½ Ð¸Ð¹
ĠÐ´ÓĻÑĢÐµÐ¶ ÐµÑģÑĸ
ĠÐ¡ Ð°Ð»ÑĭÒĽ
ĠÓĻÐ½ ÑĪÑĸ
ĠÐ¼ÐµÐ´Ð¸ÑĨÐ¸Ð½ ÑģÐºÐ¾Ð³Ð¾
ĠÐĲÐ½ Ð³
ĠÑģÑĥÐ±Ð± Ð¾ÑĤÑĥ
ĠÑĤÐ²Ð¾ÑĢ ÑĩÐµ
ĠÑģÐ» ÑĥÑħ
ĠÐĿ ÑĥÐ¶
ĠÐľ Ð°ÑĪ
ĠÑĤÓĻÑģ ÑĸÐ»Ñĸ
ĠÐ¸Ð½ÑĨÐ¸ Ð´ÐµÐ½
ĠÓ© ÑģÑĤÑĸ
ĠÐ¸Ð½ÑĦÐ»Ñı ÑĨÐ¸Ð¸
ĠÐºÐ¾Ð»Ð¾Ð½ Ð¸Ð¸
80 9
ĠÑĦ ÐµÐ½
ĠÐĺÐ½Ð´ Ð¸Ð¸
ĠÐ¼ Ð°Òĵ
ur al
ĠÐķ Ð¼
ĠÑĤÐµÑĢÑĢÐ¸ÑĤÐ¾ÑĢ Ð¸
ÑĨ ÐµÐ½ÑĤÑĢ
Ġ% .
ĠC l
ĠÐ±ÑĸÑĢ Ð»ÑĸÐ³Ñĸ
Ð¸ÑĤÐµÐ»ÑĮ Ð½ÑĭÐ¼Ð¸
ĠÐ° Ð½Ð¾
ĠÐ¿Ð»Ð°Ð½ Ðµ
ĠÐ²ÑĭÑģÐ¾Ðº Ð¸Ð¹
ĠÑģÐ¿ ÑĢÐ¾ÑģÐ°
ĠÐºÒ¯ÑĪ ÐµÐ¹ÑĤÑĥ
ĠÑĩÐµÐ¼Ð¿Ð¸ Ð¾Ð½Ð¾Ð²
ĠÐ±ÐµÐ½Ð· Ð¸Ð½
Ð°ÑĤÑĤÐ°ÑĢ ÒĵÐ°
Ð´ Ð¸ÐµÐ²
ĠÑģÑĤÑĢÐ¾ Ð³Ð¾
ĠÐ¸Ð½ÑģÑĤÐ¸ÑĤÑĥ ÑĤÐ°
ĠÐºÓ©Ð·ÒĽÐ°ÑĢ Ð°Ñģ
ĠÐ¼ Ð°Ð¶Ð¸Ð»Ð¸ÑģÐ°
ÑģÑĤÐ² Ð¾Ð²Ð°Ð»Ð¸
ÑģÑĤ Ð¾ÑĢÐ¾Ð½
ĠÐ¿ÑĢÐ¸Ñĩ ÐµÐ¼
Ð°ÑĤÑĭÐ½ Ñĭ
ÑĤÐ¸ Ð½Ñĭ
Ð¾Ð» Ð³Ð¾
ĠÐ´Ð¾Ñģ ÑĢÐ¾Ñĩ
ĠÐ°Ð½ÑĤ Ð¸Ðº
ĠÐ³Ð¾ÑģÑĥÐ´Ð°ÑĢÑģÑĤÐ²ÐµÐ½ Ð½ÑĭÐµ
ĠÐŁÑĢÐµÐ´ÑģÐµÐ´ Ð°ÑĤÐµÐ»ÑĮ
ĠÑĢÐµÐ¹ÑĤ Ð¸Ð½Ð³Ðµ
Ġpe ople
app end
ĠÐ ©
Óĺ Ñĥ
Ð°Ð· Ð°Ð½
ĠÐĳ Ð°Ð±
ĠÐ²ÐºÐ»ÑİÑĩ Ð°ÐµÑĤ
Ñħ Ð¾Ð´Ðµ
ĠÐłÐµÑģÐ¿ÑĥÐ±Ð»Ð¸Ðº Ðµ
Ġc os
al s
ĠÑĤÐ°Ð± ÑĭÐ»Ð´Ñĭ
ĠÑĤÒ± ÑĢÐ°
ĠÐĲ ÑĢÑĭ
Ð»ÐµÐ½ Ð½Ð¾Ð³Ð¾
ĠÐ¾ÑĤÑĭÑĢ ÒĵÑĭÐ·
Ġ et
ĠÐ¾ ÑĢÐ°Ð¼
ĠÐ²ÑĭÑıÑģÐ½ Ð¸Ð»Ð¾ÑģÑĮ
ĠÐ·Ð° Ð´
ĠÑĤÐ¾Ð² Ð°ÑĢÐ¸
ĠÐŁÐ¾Ð´ ÐµÐ»Ð¸ÑĤÑĮÑģÑı
ĠÐ¶Ð°ÑĢ ÑĭÑģ
ĠÒ±Ð¹ÑĭÐ¼ Ð´Ð°ÑĢÑĭÐ½ÑĭÒ£
ĠÑĤ ÑĢÐ°ÐºÑĤ
Ð¸Ð½ Ð³Ñĸ
ĠÐľ ÐĺÐĲ
ĠÐºÓ©Ð¿ ÑĪÑĸÐ»ÑĸÐ³Ñĸ
ĠÐ¾ÑĢÑĤÐ°Ð½ ÑĭÒ£
Ġw ere
ĠÑģ Ð¼ÐµÑĪ
ĠÐ·Ð½Ð° ÑİÑĤ
ĠÑĤÒ¯Ñģ Ñĥ
ĠÐ¢ ÐŃ
Òĵ Ð°Ð»Ñĭ
ĠÐ¶ÐµÑĤ Ðµ
ĠÐŃ Ð¼
ĠÑĤ Ñī
ĠÐĲÐ± ÑĭÐ»Ð°Ð¹
ÐµÐ» Ð»Ñı
ĠÒĽÐ°ÑĤÐ°ÑĢ ÑĭÐ½Ð´Ð°
ĠÐµÐ» ÑĸÐ½ÑĸÒ£
ĠÑĤÐ¾ÑĢÐ³ Ð¾Ð²ÑĭÑħ
ÑĥÐ» Ð»Ð°
ĠÐºÓĻÑģÑĸÐ¿Ð¾ÑĢÑĭÐ½ Ð´Ð°ÑĢ
Ð¸ÑĤÐµÐ»ÑĮ ÑģÑĤÐ²Ð¾
ĠÒĽÐ°ÑĤ ÐµÐ»ÑĸÐº
Ð±ÑĥÑĢ Ð³Ðµ
ĠÐ¢ Ð¾ÒĽ
Ð¸Ð» ÐµÐ½
Ð½Ð¾Ð² Ð°Ð½Ð¸Ñı
ĠÐºÐ¾Ð» ÐµÐ±
ĠÐ²Ð¾Ð´ Ð¾
ĠÑģÐ¾Ð¾ÑĤÐ²ÐµÑĤ ÑģÑĤÐ²ÑĥÐµÑĤ
ĠÐ¿Ð°Ñģ Ð¿Ð¾ÑĢÑĤ
ĠÐ± ÐµÑģÐµ
ĠÑĤÐ°Ðº Ð¾Ð¼
ĠÐ¢ Ðĸ
ĠÐ¢ÐµÐ¼Ð¸ÑĢ ÑĤÐ°Ñĥ
ĠÑĪ ÑĸÐ½
ĠÐ¶ÐµÑĤÐº ÑĸÐ»ÑĸÐº
ĠÐ¶Ð¾Ð± Ð°Ð»Ð°ÑĢÐ´Ñĭ
par ent
ĠÐļÐ°ÑĢÐ°Ð³Ð°Ð½ Ð´Ð¸Ð½
ĠÐ¿Ð°ÑĢÑĤ Ð¸ÑıÑģÑĭ
ĠÐ¶Ð°ÑĢÐ¸Ñı Ð»Ð°Ð´Ñĭ
ĠÐ±ÑĸÑĢÐµ Ð³ÐµÐ¹
ĠÐ½Ð°Ð¼ÐµÑĢ ÐµÐ½Ñĭ
ĠÑĦÐ¸ÑĢ Ð¼
ĠÐ¼ÑĸÐ½ Ð´ÐµÑĤÑĸÐ½
ĠÐ¶Ð¸Ð² ÐµÑĤ
ĠÐ´Ð¾Ðº ÑĤÐ¾ÑĢÑĭ
ĠÒĽÒ±Ð» Ð°ÒĽ
ĠÐºÐ¾Ð½ÑĦÐ»Ð¸Ðº ÑĤ
ĠÐ¾ÑĢÐ½ ÑĭÐ½Ð´Ð°
ĠÐļÑĥÐ± ÐºÐ°
ĠÐ±Ð¾Ð» ÑĥÑĭÐ½
Ð± Ð°Ð¹Ð´Ñĭ
ĠÐ¶Ð°Ñģ Ð°Ð½Ð´Ñĭ
ĠÑĪÑĭÒĵÐ°ÑĢ ÑĭÐ»ÒĵÐ°Ð½
ĠÐ¿Ð¾ ÑģÐ»
ĠÐ¾Ñģ Ð²Ð¾
ÐĴ Ðļ
ĠÐ²ÐµÐ´ ÐµÑĤ
ĠÑĦÐ¾ÑĢÐ¼ Ð°ÑĤÐµ
Ð» Ð°ÑĤÑĥ
ĠÒ±ÑģÑĭÐ½ ÑĭÐ»Ð°Ð´Ñĭ
ÑĪÐ°ÑĢÑĥÐ°ÑĪ ÑĭÐ»ÑĭÒĽ
ÑĥÐ±ÐµÑĢÐº ÑĥÐ»ÐµÐ·
Ð½Ð°Ñģ Ð¸Ð»
ĠÐ³ÐµÐ½ÐµÑĢ Ð°Ð»
ĠÐº Ð¾Ð²
ĠÐ´Ð°ÑĢ ÑĭÐ½Ð´Ñĭ
ÑĢÐ¾ ÑĪÐµÐ½
ĠÑĤÑĸÐ» ÑĸÐ½Ðµ
ĠÐµÐºÐµÐ½ Ð´ÑĸÐ³Ñĸ
ĠÐ¾ÑĤÑĭÑĢ ÑĭÑģÑĭ
m an
ĠÑĦÐ°ÐºÑĤÐ¾ÑĢ Ð»Ð°ÑĢ
ÑĦÐ¸Ð½ Ð³Ðµ
f ind
ÑĢÐµ Ð´Ð°
Ð»ÑĸÐº ÑĤÑĸÒ£
ĠÐºÐ¾Ð¼Ð¿ Ð¾Ð·
Ð°Ð¶ Ð´Ñĭ
old id
Ð¸ÑĢÑĥ ÑİÑĤÑģÑı
ĠÑĤÐ°ÑĢ Ð°Ð»ÒĵÐ°Ð½
Ð°Ð»Ð°Ð½ ÒĵÐ°Ð½
ĠÐ¿Ð»Ð°Ð½ Ñĭ
ĠÐºÐ¾Ð½ÑĤ ÑĢÐ°Ðº
ĠÐ¼Ð°Ð¼ Ð°Ð½Ñĭ
ĠÑħÑĥÐ´ Ð¾Ð¶
ĠÑģÐµÐ»ÑĮ ÑħÐ¾Ð·
ĠÐ²ÑĭÑĢÐ¾Ñģ Ð»Ð¸
ĠÐ¾Ð±ÐµÑģÐ¿ÐµÑĩ ÐµÐ½Ð¸Ñİ
ĠÐĶÐ°Ð½Ð¸Ñı ÑĢ
Ñģ iÐ·
ÑıÑī Ð¸Ðµ
ĠÐ±Ð¾Ð» Ð°ÑĪÐ°ÒĵÑĭ
ĠÐºÓ©ÑĢ Ð¼Ðµ
ĠÐĳ ÑĸÐ»
ĠÐĲÐ±Ð°Ð¹ Ð´ÑĭÒ£
Ġh is
ĠÑģÑĩÐ¸ÑĤ Ð°Ñİ
ĠÐ¢ Ð°Ð¿ÑģÑĭÑĢ
ĠÐ¼Ð¸ÑĢÐ¾Ð² Ð¾Ð³Ð¾
Ð¸Ð² ÑĪÐ¸ÑħÑģÑı
ĠÐ¾ÒĽÑĥÑĪÑĭÐ»Ð°ÑĢ ÒĵÐ°
ĠÐ¿ ÐµÑĪÐµ
ĠÐ¿Ð¾Ð´ Ð¾ÑĢÐ¾Ð¶
ĠÒ±Ð¹ÑĭÐ¼ Ð½ÑĭÒ£
ĠÐĵ ÑĢÐ¸
ĠÐ¾ÑĤÐ½Ð¾ÑĪÐµÐ½ Ð¸Ñİ
ĠÐºÐ¾ ÑĢÐ°Ð±
ĠÐ¾Ðº ÑĢÑĥ
Ð°ÑīÐ¸Ñħ ÑģÑı
ĠÐ²ÐµÐ´Ð¾Ð¼ ÑģÑĤÐ²Ð¾
b lock
Ð´ÐµÐ» Ð°
ĠÑģ Ð¸Ð½Ð¾
Ð´ÑĸÒ£ ÑĸÐ·
ĠÐ¶Ð°ÒĽ ÑĤÐ°
ĠÐ¼ÓĻ Ð¼
ĠÐ±ÑĸÐ»ÑĸÐ¼ ÑĸÐ½
Ð¿ ÑĢÐ°ÐºÑĤ
ĠÒĽÐ°ÑĢ Ð°Ò£ÑĭÐ·
ĠÐºÐ°Ð¶Ð´ Ð¾Ð¼
ĠÐ³Ð¸Ð± ÐµÐ»Ð¸
ĠÐĶ ÐµÐº
C olor
ĠÐ¼ÐµÑĤ Ð¾Ð´Ð°
ÒĽÑĭÐ· Ð¼ÐµÑĤ
ĠÐºÐ»Ð¸Ð½ Ð¸ÐºÐ°Ð»ÑĭÒĽ
ĠÐ°Ð²Ð¸Ð°ÐºÐ¾Ð¼ Ð¿Ð°Ð½Ð¸Ð¸
ĠI V
ĠÐº Ð¸ÑĢ
Ġ6 2
ĠÐµÑĪ ÒĽÐ°ÑĪÐ°Ð½
ĠÑĢÐ°Ð·ÑĢÐµ ÑĪ
ĠÑģÐ¾ÑģÑĤÐ°Ð² Ð¸Ð»Ð¸
ÑĢÐµ Ðµ
ĠÑĤÑĢÐµÐ½ Ð¸ÑĢÐ¾Ð²
ĠÐ°Ð¹ÑĭÑĢÐ¼Ð° ÑĪÑĭÐ»ÑĭÒĵÑĭ
Ð½ Ð¸Ð¸
Ð°Òĵ ÑĭÐ½ÑĭÒ£
ĠÑįÐº Ð²
ĠÑĤÐ¾Ð» Ð¼Ð°ÒĵÐ°Ð½
ĠÐĲÐĽÐľ ÐĲÐ¢Ð«
ĠÐ¾ÑģÐ¾Ð± ÐµÐ½Ð½Ð¾ÑģÑĤÐ¸
ĠÐºÐµÐ» Ð¼ÐµÐ¹Ð´Ñĸ
ĠÐ±ÐµÑĤ ÑĸÐ½Ð´Ðµ
res ident
Ðŀ Ð½
ĠÒĽÐ°Ð¼ÑĤ ÑĭÐ»ÒĵÐ°Ð½
Ð¶ Ð°Ò£
Ð¾Ð» Ð¾Ð¶
ĠÑģÐ¾Ð¾ÑĤÐ²ÐµÑĤÑģÑĤÐ² ÑĥÑİÑīÐ¸Ðµ
Ġin cre
Ð³ ÐµÐ¼ÐµÐ½
ĠÑĤÐ°Ð± ÑĥÒĵÐ°
ĠÐ¼Ð°Ñģ ÑģÐ°
ĠÐ¸Ð½Ð´ Ð¸Ðº
ĠÒĽÒ±ÑĢÑĥ ÒĵÐ°
ĠÐ¿ÑĢÐµ Ð¾Ð±ÑĢÐ°Ð·
ÑģÑĤÐ°ÑĢ Ð´ÑĭÒ£
ĠÐ½Ð°Ð¿Ð¾Ð¼Ð½ Ð¸Ð»
Ð±Ð°Ð± ÑĭÐ½ÑĭÒ£
ĠÐºÓ©ÑĢ Ð´Ñĸ
ĠÐ¼Ð°ÑĢÑĪÑĢÑĥ ÑĤ
ĠÐ°Ð½ Ð°ÑģÑĭ
Ð³ ÑĥÐ»ÑĮ
Ð´ÑĸÑĢ ÑĸÑģÑĤÑĸÐº
ĠÐ²Ð¾Ð· Ð²ÑĢÐ°ÑĤ
ĠÑĢÐµÐ°Ðº ÑĨÐ¸Ð¸
. ;
ĠÐ± Ð¸ÑĤ
ĠÐ¶ Ð¶
ĠÐ¾ÒĽ ÑĭÑĤ
Ðº Ð°Ð»Ð°ÑĢ
Ð½Ð¸Ðº Ð°Ñħ
ĠÐ·Ð° Ð´Ð°Ð½
ĠÐ²ÑĭÐ· ÑĭÐ²Ð°ÐµÑĤ
rel ap
ĠÑĤÓ©ÑĢÐ°Òĵ Ð°ÑģÑĭÐ½ÑĭÒ£
ĠÐ´Ð¾ÑĢ Ð¾Ð³Ð¾
g ov
ĠÐĸ Ð°Ð¹
ĠÑĢÐ°Ð· ÑĢÐ°Ð±Ð°ÑĤÑĭÐ²
ĠÐºÐ°Ð·Ð°Ñħ ÑģÐºÐ¾Ð³Ð¾
ĠÐ´ÐµÐ» Ð°ÑİÑĤ
ĠÑįÑĤÐ°Ð¿ Ð°
ĠÓ©ÑĢÐºÐµÐ½ Ð¸ÐµÑĤ
ĠÑĤÐ°ÒĽ ÑĤÐ°
ĠÐ¿Ð¾Ñģ Ð¾Ð»ÑĮ
ĠÐ¼Ð¾Ð´ÐµÑĢÐ½Ð¸Ð· Ð°ÑĨÐ¸Ð¸
ĠÐļ Ð¾Ñģ
ĠÐ¼ Ð¾ÑģÐºÐ¾Ð²
ĠÐ» ÐµÐ´
ÑĢÐ¾Ð² Ð°Ð½Ñĭ
ĠÐ±ÑĸÑĤÑĸÑĢ Ð³ÐµÐ½
ÒĽ Ð°Ð¹Ð´Ð°
ĠÐ¾Ð±Ñī ÑĥÑİ
ĠÐĺÑģÑĤ Ð¾ÑĩÐ½Ð¸Ðº
Ð¾ÑģÑĤÑĮ Ñİ
ĠÐ±Ð¾Ð»ÑĮ ÑĪÐ¸Ñħ
ĠÐ¼ÐµÐ³ Ð°Ð¿Ð¾Ð»
ĠÐ½Ò±ÑģÒĽ Ð°ÑģÑĭ
ĠÑĥ Ð´ÐµÑĢÐ¶
ĠÐ¼Ò¯ Ð¼Ðº
ĠÐºÑĢÐµÐ´Ð¸ÑĤ Ð¾Ð²
ĠÐ±Ð¸Ð· Ð½
h over
ĠÑģÓ©Ð¹ Ð»
ĠÑĤÒ±Ð¶ÑĭÑĢÑĭÐ¼ Ð´Ð°Ð¼
Ġc or
ÐµÑĤÑĸÐ½ ÐµÐ½
ĠÐµ Ð´ÓĻ
ĠÐ¢Ò¯ÑĢÐº Ð¸Ñı
ĠÑįÐº Ð¾Ð»Ð¾Ð³Ð¸Ð¸
Ð°Ð´Ñĭ ÑĢ
ĠÐĶ Ð¾Ð¿
ĠÐ¾ÑĩÐµÑĢÐµÐ´ Ð½Ð¾Ð¹
ĠÒļÐ°ÑĢÐ° ÑĪÐ°
ĠÐ½Ð°Ð¿ÑĢÑı Ð¶
Ð» ÑĭÐ»ÑĭÒĽ
Ð¾ ÑĢÐ°Ð¼Ð¸
ĠÒļ Ò±Ð»
ÐµÑħ Ð°ÑĤÑĮ
ĠÑĤÑĸÐ» Ð´ÑĸÐº
ĠÐ¸ÑģÐ¿ Ð°Ð½
ĠÐ²ÐµÑĢÐ½ÑĥÑĤÑĮ ÑģÑı
ĠÐ±Ò± ÒĽÐ°ÑĢÐ°Ð»ÑĭÒĽ
ĠÐ´ÐµÐ² ÑıÑĤÑĮ
ĠÑĩÐµÐ»Ð¾Ð²ÐµÑĩ ÐµÑģÐº
ĠÐ°Ð¹ ÒĵÐ°
Ð°Ðº Ð¾Ð²Ð°
ÑĤÐ°ÑĢ Ð¼Ð°ÒĽ
ĠÐĲÑĥ ÑĢÑĥ
ÐµÐ¹ Ð»Ñĸ
ĠÐ°ÑĤÒĽÐ°ÑĢ ÒĵÐ°Ð½
ĠÐĲÐºÐ¾ÑĢ Ð´Ñĭ
Ð± Ð»ÐµÐ¼
Ñģ ÑĸÐ½Ð´Ðµ
ĠÐºÓ©ÑĢÑĸÐ½ ÑĸÑģÑĸ
ĠÑĪÐ°ÑĢ Ð°Ð»Ð°ÑĢÐ´Ñĭ
y andex
ĠÒĽÐ°ÑĤ ÑĭÑģÑĭ
ĠÑĢÐµ ÐºÐ¸
ÑģÑĭÐ½ Ð¾Ð²
Ðľ Ð°ÑĤ
ĠÑĨÐµÐ½ÑĤ ÑĢÐ¾Ð²
ÑĢÐ¾ Ð·Ñĭ
ĠÐ¼Ò±ÒĽ Ð¸ÑıÑĤ
ÑĤÐ°ÑĢ ÑĭÐ¼ÐµÐ½
ĠÐºÐµÐ»ÑĸÑģÑĸÐ¼ ÑĪÐ°ÑĢÑĤ
ĠÐ² ÑģÐ»ÐµÐ´
iÐ»i Ðº
Ð¾ÑĢÑĭ ÑĤÑĭÐ½Ð´Ñĭ
ĠÑĤÐ¾ ÒĵÑĭÐ·
ĠÐ°ÐºÑĤÐ¸Ð² Ð½Ð¾ÑģÑĤÐ¸
ĠÐ¸ÑĤÐ¾ Ð³Ð¸
c x
ĠÐĿ Ð°Ñģ
ĠÑģ ÑĢÐ¾Ñĩ
iÐ» Ð³ÐµÐ½
ÑĥÑĢ Ð½Ð¾Ð³Ð¾
ĠÑĥÐ°ÒĽÑĭÑĤ ÑĭÐ½Ð´Ð°
ĠÐļÐ¾Ð½ÑģÑĤÐ¸ÑĤÑĥ ÑĨÐ¸Ñı
ÑģÐµÐºÑĢÐµÑĤ Ð°ÑĢÑĮ
ĠÑį ÑĤÐ°Ð¶
ÐĨ Ò¢
ĠÐ°Ð´ ÑĢÐµ
ĠÑĤÐ¾Ð» ÑĤÑĭÑĢÑĥ
ĠÐ¼Ð°Ñģ Ð»Ð¸Ñħ
ĠÐ¸Ð½ Ðº
ĠÓ©Ò£ÑĸÑĢ Ð»ÐµÑĢ
Ġ9 8
Ð¾ÑĢ ÑĢÑĥÐ¿
Ð¡ ÐĿ
ĠÐĲÑģ ÒĽÐ°ÑĢ
ĠÐ¿ ÐµÑĪ
ĠÓĺÐ± ÑĸÐ»
ĠÐ¼Ð°Ð¼Ð°Ð½ Ð´Ð°ÑĢÑĭ
Ġn o
ĠÐ²Ñĭ Ð³Ð¾Ð´
ĠÐ·Ð² ÐµÐ·Ð´
ĠÑĸÑĢÑĸÐº ÑĤÐµÑĥ
ĠÐ¾ÑĤÐ±Ð°Ñģ ÑĭÐ»Ð°ÑĢ
ĠÐºÐ¾Ð¼Ð¼ÑĥÐ½Ð¸ÐºÐ° ÑĨÐ¸Ð¹
ĠÑįÐºÑģÐ¿ÐµÑĢÑĤÐ¸Ð· Ñĭ
ĠÑįÑĦÐ¸ ÑĢÐµ
ĠÐµÐ» Ð´ÐµÐ³Ñĸ
ĠÐ¾Ð±Ð¾ÑĢÑĥÐ´ Ð¾Ð²Ð°Ð½Ð¸Ðµ
ĠÐ¿Ð¾Ð· Ð¸ÑĤÐ¸Ð²
ĠÐļÐ¾Ð½ ÑĤ
ĠÐ¿ÑĢÐµ Ð¿Ð°ÑĢÐ°ÑĤÑĤÐ°ÑĢ
ĠÑģÑİ Ð¶ÐµÑĤ
ĠÐ¾Ð² Ð¾Ñī
Ð¢ Ò±ÑĢ
Ð¸Ð¼ ÑĭÐ¼
ĠÑģÒ± ÑĢÐ°Ð¿
ĠÐ¼ÓĻÐ»ÑĸÐ¼ ÐµÑĤÑĸÐ½ÑĪÐµ
ĠÐ¡Ð¾Ñİ Ð·Ð°
Ð»Ñİ ÑģÑĤ
ĠÐ² Ð°Ð½
ĠÐµ ÐºÐµÑĥ
ÐĲ ÑĤ
ĠÐ¶Ò¯ÑĢÐ³ÑĸÐ· ÑĸÐ»Ð´Ñĸ
ĠÑĤÐ°ÑĢÐ¼Ð°ÒĽ ÑĪ
ĠÐ¿Ð¾Ð´Ð³Ð¾ÑĤÐ¾Ð² ÐºÐµ
ĠÐ°Ð± Ð¾Ð½
ĠÐ¼Ð°ÐºÑģÐ¸Ð¼ Ð°Ð»ÑĮÐ½Ð¾
ing s
Ð°ÑĤÑĭÐ½ Ð°Ð½
ĠÑģÓ©Ð· Ð´ÑĸÐº
Ó©ÑĢ Ñĸ
Ġh igh
ĠÐ¼Ð½Ð¾Ð¶Ðµ ÑģÑĤÐ²Ð¾
Ð» ÑĥÑĪ
ĠÑģÑĤ ÑĥÐ´
ĠÑĤÐµÑĢÑĢÐ¾ÑĢ Ð¸Ð·Ð¼
ĠÑħÐ°Ð±Ð°ÑĢ Ð»Ð°Ñĥ
ĠÓ©Ð»ÑĪÐµ Ñĥ
Ð¢ Ðĸ
ĠÐ¾ÐºÐ°Ð·Ð°Ð» Ð°ÑģÑĮ
Ð¾Ð»Ð¾Ð³ Ð¸ÑĩÐµÑģÐºÐ¾Ð¹
ĠÐ´Ð¾ÐºÑĥÐ¼ÐµÐ½ ÑĤÐ°
Ð´Ñĸ ÑĢÐµÐ´Ñĸ
ĠÐ¶Ó©Ð½ ÐµÐ»
w o
ĠÐºÐ¾Ð¼Ð¿Ð°Ð½Ð¸Ñı Ð»Ð°ÑĢ
ĠÒĽÐ°Ð¶ÐµÑĤ ÑĤÑĸÐ»ÑĸÐ³Ñĸ
ĠÓĺÐ´Ñĸ Ð»ÐµÑĤ
ĠÐ»Ñİ Ð±Ñĭ
ĠÐ¾ÑĤÐº Ð»ÑİÑĩ
Òĵ Ð°Ð¼
Ð»ÑĸÐº ÑĤÑĸ
Ġ7 3
ĠÐ·Ð°Ð´ÐµÑĢÐ¶ Ð°Ð½Ñĭ
Ġi ÑĪ
ĠÐºÐ²Ð°ÑĢÑĤÐ¸ ÑĢÑĥ
! "
ĠÐ¸Ð· Ð´Ð°Ð½Ð¸Ñı
ĠÐ± ÑĥÑĤ
ĠÐ½Ðµ Ð¾Ð¶Ð¸Ð´Ð°Ð½
ĠÐ³Ð¾ÑĢÐ¾Ð¶ Ð°Ð½
ĠÐĵ Ð¾Ð²Ð¾ÑĢ
Ð¡Ð°Ð¼ ÑĢÑĥÐº
ĠÐ¼Ð¾Ð»Ð¾Ð´ Ð¾Ð¹
ĠÑĢÐµÑĤ ÑĤÐµÐ»
ĠÐĸ Ð°ÑĥÐ°Ð¿
Ð°ÑĨÐ¸Ð¾Ð½ Ð½Ð¾Ð³Ð¾
ĠÐ¿ÓĻÐ½ ÑĸÐ½ÑĸÒ£
ĠÐľ ÐłÐŁ
= ,
ĠÐº ÓĻÐ¼
ĠÐ½ÐµÐ¿Ð¾ÑģÑĢÐµÐ´ ÑģÑĤÐ²ÐµÐ½Ð½Ð¾
ĠÓ©Ð· ÑĸÐ¼
Ð³Ð¾ Ð´Ð°
ĠÑĤÒ±ÑĢÒĵÑĭ Ð´Ð°
Ġsa id
Ð¶ Ð°ÑĥÐ°Ð¿
ĠÑģÐ°Ð¹ÑĤ ÑĭÐ½Ð´Ð°
ĠÑĤÐ°ÑģÑĤ Ð°Ð¿
Ð°Ð· Ð¸
Ð¸Ð¹ ÑģÐºÐ¾Ð¼
ĠÐĴ Ð°Ð¶
ĠÐ±Ð°Ð¹Ð»Ð°Ð½ ÑĭÑģÑĭ
ĠÐ½ÑĭÑģ Ð°Ð½Ñĭ
14 22
Ġe conom
Ð¸Ð¼ ÐµÑĤ
os s
Ð½ Ð°Ð»Ñĭ
ĠÐ±ÑİÐ´Ð¶ÐµÑĤ ÑĤÐµÐ½
und efined
ĠÐ¸ Ð»
ĠÑģÑĩÐ¸ÑĤ Ð°ÐµÑĤÑģÑı
ĠÐ²ÐµÐ»Ð¾Ñģ Ð¸Ð¿
u le
ĠÐ¸Ð½ÑĦÐ»Ñı ÑĨÐ¸Ñı
ĠÑģÒ¯Ð¹ ÐµÐº
ĠÐŁ Ð¦Ðł
ĠÐ¸ÑģÐ¿Ð¾Ð»ÑĮÐ· ÑĥÐµÑĤÑģÑı
ĠÐºÐ¾Ð½ÑĦÐ»Ð¸Ðº ÑĤÐ°
ĠÐ°Ò£ ÒĵÐ°ÑĢ
ĠÑĥÐ²ÐµÐ»Ð¸Ñĩ ÐµÐ½Ð¸Ñı
ĠÐ¿ÑĢ Ð¸ÑıÑĤ
ĠÐ¸Ð¼Ð¼ÑĥÐ½ Ð¸ÑĤÐµÑĤ
ĠN a
ĠÑĥÐ´ Ð¾ÑģÑĤÐ¾Ð²ÐµÑĢ
Ñį ÑĦÑĦ
ÑĥÐ» Ðµ
ĠÐ¿ÐµÑĢ ÐµÐ¼
ĠÑĦ Ð¸ÑĤ
13 64
ĠÑĤÐµÐ± Ñı
ĠÐĹ ÐļÐŀ
ĠÐ±ÑĸÐ» Ð¼ÐµÐ¹
Ð¾Ò£ ÒĵÐ¾Ð»
} }
ĠÐ¼Ð°Ð³Ð°Ð· Ð¸Ð½
ĠÓĻÐ´Ñĸ Ð»ÐµÑĤ
m in
Ð¼ Ð°Ð¼
Ġ __
ĠÐ°ÑĢ ÑĤÐ°Ð´Ñĭ
S cheme
ĠÒĽÐ°Ð» Ñĥ
ĠÑģÐ¾ÑĨÐ¸Ð°Ð»ÑĮ Ð½ÑĭÐµ
ĠÐ¼Ð°Ð» Ð¾Ð³Ð¾
ĠÑĤÒ¯ Ð±
Ġstick To
Ġinsert Position
Ġinsert After
Color Scheme
ĠÑĥ Ð¿ÑĢÐ¾
ĠÐ¿ÑĢÐ¸ÑĢÐ¾Ð´ Ð½ÑĭÑħ
ĠÐ¿Ð¾ Ð´Ð°Ð²
Ð°Ð¼ ÐµÑĢ
ĠÐ¡ Ð¿Ð°Ñģ
ĠÐ¸ÑģÐ¿ Ð¾Ð»Ð½ÐµÐ½
ĠÑģÑĤ Ð¸
ĠÒĽÐ°ÑģÐ¸ ÐµÑĤÑĤÐµÑĢÑĸÐ½
99 77
ĠÐ¾ÑģÐ²Ð¾Ð± Ð¾Ð´
ĠÐ¿ÑĢÐµ ÑģÐµÑĩ
Ð±Ñĸ ÑĢÐµ
7 9
ut e
as es
ÐĲÑģÑĤÐ°Ð½ Ñĭ
ÑĢÐ¾ÑģÐ» Ð¾
ÑĨ ÐµÑĤ
ÑıÑĤ Ð¸
ĠÐ»Ð°Ñĥ ÑĢÐµ
ĠÑĨÐ²ÐµÑĤ Ð°
ĠÑįÐºÑģÐ¿Ð»ÑĥÐ°ÑĤ Ð°ÑĨÐ¸Ð¸
ĠÑĤÒ¯Ð¹ ÑĸÐ½
ĠÐ±Ð°ÒĵÑĭÑĤ ÑĤÐ°ÑĢÑĭ
ĠÐļ Ðķ
ĠÐ¾Ð±Ñģ ÑĥÐ¶Ð´ÐµÐ½
Ġ6 1
ĠÐŀÐ» Ð¸Ð¼Ð¿Ð¸Ð¹
Ð¶ ÑĸÐº
ĠÐŀ ÑģÐ¿
ĠÐĶ ÐµÐ¹
ĠÐ´ÑĭÐ± ÑĭÑģ
ĠÐ¿Ð¾Ð´ Ð¿
160 1364
cx uf
1422 9977
1601364 14229977
160136414229977 809
ĠÐ°Ð»ÑĮ ÑĤÐµÑĢÐ½Ð°ÑĤÐ¸Ð²
ĠÒĽÒ±Ð±ÑĭÐ» ÑĭÑģ
ĠÐ½ ÐµÐ¹ÑĤ
Ð¶Ð°Ð½ Ð¾Ð²Ð°
fer ence
ĠÐľ Ð¾Ð¶Ð½Ð¾
ĠÒĽÐ°ÑĢ Ð°ÒĵÐ°Ð½
ĠÐĽÑĥ ÐºÐ°
ÐµÐ½ÑĤ Ð³ÐµÐ½
ĠÑģÐ°ÒĽ ÑĤÐ°Ð»Ð°Ð´Ñĭ
n ext
ĠÐ» Ð¸ÑģÑĤ
Ñħ Ð²Ð°ÑĤ
ĠÑĤÓĻÑģÑĸÐ» Ð´ÐµÑĢÑĸ
ĠÓ©Ð½ÐµÑĢÐºÓĻÑģÑĸÐ¿ ÑĤÑĸÐº
i Ð½ÐµÐ½
ĠÐ¡ ÐļÐŀ
ĠÒĽÐ¾ÑģÐ¿ Ð°ÒĵÐ°Ð½Ð´Ð°
Ġ199 0
ĠÐ¾ÑĤÐºÑĢÑĭ ÑĤÐ¾
Ġres ult
ÐĨÐĨ ÐĨ
ĠÐ¾Ð· ÑĭÒĽ
ĠÐľÓĻÐ¶ ÑĸÐ»ÑĸÑģ
Ð¾ÑĤ ÐµÑħÐ½
Ð°Ð»ÑĮ Ð½Ð¾ÑģÑĤÑĮ
ÑĤi Ò£
ĠÐ´Ð°ÒĵÐ´Ñĭ Ð»Ð°ÑĢÑĭÐ½
y l
ĠÐ½Ð°ÑģÐµÐ» ÐµÐ½Ð¸Ðµ
P h
ĠÐ¾ÑĤÐ½Ð¾Ñģ Ð¸ÑĤÑģÑı
ÐĶ Ð°Ð¼
ĠÐ¢ Ð°Ñģ
ÐµÑĢ Ð´ÑĸÒ£
ĠÐ²ÑĭÐ¸Ð³ ÑĢÐ°Ð»
ĠÐ·Ð¾Ð» Ð¾ÑĤÐ¾
ĠÐ°Ð»ÑĭÐ½ ÑĭÐ¿
ÑĤÑĸ ÑģÑĸ
ĠÑĥÑģÐ¸Ð» Ð¸Ñı
ÑĤÑĭÒ£ ÑĭÐ·
ĠÐ²ÑħÐ¾Ð´ ÑıÑĤ
ĠÐ¸Ð½ÑģÑĤÐ¸ÑĤÑĥÑĤ ÑĭÐ½ÑĭÒ£
Ð¾ÑĤ Ð¾Ð²
ÑĤ Ð¾Ð»
ĠÐ¶Ð°Ð½ ÑĢ
ÐµÐ»ÑĮ Ð½Ð¾Ð³Ð¾
ot o
Ð¶ ÑĭÐ»ÑĭÒĽ
ĠÐµÐ½Ðµ Ð´Ñĸ
ĠÑĥÑĩÐ°ÑģÑĤ ÐºÐµ
Ð¸Ðº ÑĤÐµÑĢ
ĠÐ´ÓĻÑĢ ÑĸÐ»ÑĸÐº
ĠÐºÐµÐ» ÑĸÐ½
c er
ĠÐ´ÐµÐ²Ð¾Ñĩ ÐºÐ¸
ĠÐºÐ¾Ð½ÑĨÐµÐ½ÑĤ ÑĢÐ°ÑĨÐ¸Ñı
Ð´ÐµÐ¹ ÑģÐ¾ÒĽ
ĠÐļÐ°Ð·Ð°ÑħÑģÑĤÐ°Ð½ ÑģÐºÐ¾Ð¹
ĠÐ±Ð°Ð¹ Ð»ÑĭÒĽ
Ð³ Ð¾Ð»
ĠÑĪÐµÑĪÑĸÐ¼ ÑĸÐ½
ĠÐ¼Ð°ÑĤÑĩ ÐµÐ¹
ĠÑįÐºÑģÐ¿ Ð¾ÑĢÑĤÐ°
Ð¸ÑĩÐµ ÑģÑĤÐ²Ð¾
ĠÐ¸Ñİ Ð»Ðµ
Ġ7 9
ĠÑģÐ»Ð¾Ð¶ Ð½Ð¾ÑģÑĤÐ¸
ĠÑĢÐ°Ð·Ð± Ð¸ÑĢ
ĠÐ°ÑĤ Ð°Ðº
ÒļÐ°ÑĢÐ° ÒĵÐ°Ð½Ð´Ñĭ
ĠÑģÐºÐ°Ð· Ð°Ð»Ð¸
l ength
ĠÐĶ ÐµÑĢ
ĠÑĦÐ¾ÑĢÐ¼ Ñĥ
ĠÐºÐµÑĤ ÐµÑĤÑĸÐ½
ĠÐ³Ð¾Ð»Ð¾Ð» ÐµÐ´
ĠÐºÐµÐ»ÑĸÑģ ÑģÓ©Ð·
ÐºÑĤ ÑĸÐº
ÐµÐ» Ð»
ĠÐ¿Ð¾ Ð¿ÑĢÐ¾
Ð¾ ÑĨÐµÐ½
ĠÑģÐµÐ± ÐµÐ±
ĠÐ³Ð°ÑĢ Ð°Ð½ÑĤ
ĠÑĢÐ°Ð·ÑĢÐ°Ð±Ð¾ÑĤ ÐºÐ¸
ĠÐ²ÑĭÑģÑĤÑĥÐ¿ Ð¸Ð»
ĠÐ»ÑĮ Ð³Ð¾ÑĤ
ĠÐ¿Ð¾Ð¼ Ð¾Ð¶ÐµÑĤ
ĠÒ® Ð½Ð´Ñĸ
ĠP D
ĠÒļÐ°Ð½ Ð´Ð°Ð¹
Ð³Ð°Ð» Ð¸ÐµÐ²
ĠÐ½Ð°Ð³ÑĢÐ° Ð´
ĠÒĽÑĭÑĪ ÒĽÑĭÐ»Ñĭ
ĠÐ¨ Ð²Ðµ
ĠÐ¸ Ð¼Ð¸
ĠÐºÑĢÑĥÐ¿ Ð½ÑĭÐµ
ĠÐ´Ð¾ÑģÑĤ Ð°ÑĢ
re at
ĠÑĪÑĭÒĵÐ°ÑĢÐ¼Ð° ÑĪÑĭÐ»
ĠÐĲÐ³ÐµÐ½ÑĤ ÑģÑĤÐ²Ð°
ĠÐĶ ÓĻÐ»
ĠÐ°Ð±ÑģÐ¾Ð»ÑİÑĤ Ð½Ð¾
ĠÐ°Ñĥ Ð·
ĠÐ·Ð°Ð½ ÑıÐ»
Ð¾ ÑĦÑĦ
Ġ7 8
ÑĢÐ¾Ð½ Ð´Ñĭ
ĠÐ±Ð»Ð°Ð³Ð¾ ÑĤÐ²Ð¾ÑĢ
ÑĢÐ¾Ð²Ð°Ð½ Ð¸Ñİ
ĠÐ·Ð°ÐºÐ¾Ð½Ð¾Ð¿ÑĢÐ¾ ÐµÐºÑĤ
ĠÐ°Ð» Ð°Ð¹Ð´Ð°
ĠÐ¿ Ð»ÑİÑģ
Ðŀ Ðĳ
ĠÐ¢Ò±ÑĢ ÒĵÑĭÐ½
ĠÐľ Ð°ÑĢÑĤ
ĠÐºÐµÐ» ÑĥÑĸ
ĠÐ±Ð°ÒĵÐ´Ð°ÑĢÐ»Ð°Ð¼ Ð°Ð»ÑĭÒĽ
ic t
ĠÐ¾Ð±ÑĢÐ°ÑĤ Ð¸ÑĤÑĮÑģÑı
ĠÑģÐ°Ð»ÑĤÐ°Ð½ Ð°ÑĤÑĤÑĭ
ĠÑĢÑĥÐ± Ð»ÑĮ
ĠÑģÑĩÐ°ÑģÑĤ Ð»Ð¸Ð²
ĠÐ²ÑĭÑģÑĤÑĥÐ¿ Ð°ÐµÑĤ
ĠÐ¿Ð¾ Ð½Ð¸Ð¶
ĠÐ¸ÑģÐ¿Ñĭ ÑĤÐ°Ð½
ĠÐ¾ÑģÐ¾Ð± ÐµÐ½
ĠÐ¶Ð°Ð±Ð´ÑĭÒĽ ÑĤÐ°Ñĥ
ÐĶ Ð¡
Ġa p
ĠÐ·Ð½ Ð°ÑĤÑĮ
ĠÑĥÐ½Ð¸ÑĩÑĤÐ¾ Ð¶
ĠÐºÐ¾Ð¼Ð¿ Ð°Ð½Ð¸ÐµÐ¹
ĠÐ¼ÐµÐ¼Ð»ÐµÐºÐµÑĤ ÑĤÐµÑĢ
Ð»Ñİ Ð±
ĠÐ¿Ð°ÑĤ ÑĪ
M L
Ð´Ñĭ Ð»ÑĭÒĵÑĭ
ĠÑĦÐ¸Ð· Ð¸ÑĩÐµÑģÐºÐ¸Ñħ
ĠÐµÑģÐµ Ð±Ñĸ
ĥ £
Ġd ep
ĠÑģÑĢÐ¾ ÐºÐ°
ĠÐ¿Ð°ÑĨÐ¸ ÐµÐ½ÑĤÐ°
ĠÓĻÑĢÐµÐº ÐµÑĤÑĸ
ĠÐ½Ð°ÑģÐµÐ»ÐµÐ½ Ð½ÑĭÑħ
Ð°Ð´Ð° ÐµÑĤ
ĠÐ±Ð°Ñģ Ð¿Ð°
ÑĤ Ð¸ÑħÐ°Ð½
ĠÐ» ÐµÐºÑģ
ĠÑģÐµÑĤ ÑĮ
ĠÐĲ Ð½Ð°
Ðµ Ð´Ñĭ
Ð°Ð¿ Ð°Ð·
Ð´ÐµÑĤ ÑĤÐµ
ÒĽÐ°Ð· Ð°Ð½
Ð¸Ð¿ Ð»Ð¾Ð¼
ÑģÑĤÑĸ ÑĢÑĥ
ĠÐ²Ð¾ ÐµÐ½Ð½Ð¾Ð¹
ĠÐ¸ Ñī
Ð¾Ð² Ð°Ð²
ĠÑģÐ¿ÐµÑĨÐ¸Ð°Ð»ÑĮ Ð½ÑĭÑħ
ĠÐĺ ÓĻ
l ink
ĠÑĢÐµÐ´Ð°ÐºÑĨÐ¸Ñı Ð´Ð°
ĠÐ±ÑĸÑĢ ÑĸÐ½Ðµ
ĠÑģÐ½Ð¸Ð· Ð¸ÑĤÑĮ
ĠÐ¼Ð°ÒĽÑģÐ°ÑĤ ÒĽÐ°
ÐµÐ»ÑĮ Ð½ÑĭÑħ
ĠÐ¾ÑĤÐºÑĢÑĭÑĤ Ð¸Ñı
ĠÐµÐ´ÓĻ ÑĥÑĸÑĢ
ĠÑĢÑĥÐºÐ¾Ð²Ð¾Ð´ ÑģÑĤÐ²Ð°
A ll
Ð±ÑĥÐ´ ÑĮ
ĠÐ¸Ð½Ð²ÐµÑģÑĤ Ð¾ÑĢ
ĠÐ¿ÑĢÐ°ÐºÑĤ Ð¸ÐºÐµ
Ð¿ ÑģÐ¸Ñħ
ĠÐ¸Ð½ÑĤÐµÑĢÐµÑģ Ñĭ
ĠÐĽ ÐµÐ²
Ñı Ð´Ñĥ
ĠÑĤÑĸÐ» ÑĸÐ½ÐµÐ½
lob al
Ò® ÑĪ
ĠÐµÐ»Ð´ÐµÑĢ Ð´Ðµ
ĠÑı Ñģ
ĠÐļÑĢ ÑĭÐ¼
ĠÒĽÐ¾ÑĢ ÑĭÒĽ
ĠÑĪÐ¸ÐºÑĸÐ· Ð°ÑĤ
ĠÐºÐ°Ð·Ð°ÑħÑģÑĤÐ°Ð½ ÐµÑĨ
Ð¾Ñĩ Ð½Ð¾Ð¼
Ð± ÐµÐ¹Ð´Ñĸ
ĠÐ¼Ð°ÑĥÑģÑĭÐ¼ Ð´Ð°
ĠÒĽÑĭÐ·Ð¼ÐµÑĤÐºÐµÑĢÐ»ÐµÑĢ Ð´ÑĸÒ£
a e
od y
ĠÐ°Ð¿Ð¿Ð°ÑĢÐ°ÑĤ Ð°
ĠÐ²Ð¾ÑģÐ¿ Ð¾Ð»ÑĮÐ·
Ġ199 3
Ġc allback
ĠÑĢÑĥ Ðº
ĠÐ¿Ð¾Ð´Ñĩ Ð¸Ð½
ĠÐ²Ñĭ Ð¹
ĠÐ¾ÐºÐ°Ð· Ð°Ð½Ð¸Ñı
ĠÑģÐ°ÑĢÐ°Ð¿ ÑĤÐ°Ð¼
ĠÑĪÑĭÒĵÐ°ÑĢ Ð°ÑĤÑĭÐ½
ĠÑĸÑģÑĤÐµ ÑĥÐ³Ðµ
ĠÑģÐ°Ñı ÑģÐ°ÑĤÑĭÐ½
ĠÐ¶ÐµÐ»ÑĤÐ¾ÒĽÑģÐ°Ð½ Ð´Ð°
ÑģÑĭÐ· Ð´Ð°Ð½Ð´ÑĭÑĢÑĥ
ĠÑģÓ©Ð· Ð´ÑĸÒ£
ĠÐ½ÐµÐ¾Ð´Ð½Ð¾ÐºÑĢÐ°ÑĤ Ð½Ð¾
ĠÐ½Ð°Ñĩ Ð½ÐµÑĤÑģÑı
Ð¼Ð°Òĵ ÑĭÐ½Ð´Ð°ÒĵÑĭ
ĠÐļÓ©Ð¿ ÑĤÐµÐ³ÐµÐ½
Ðķ ÑģÐ»Ð¸
ÑĤÐ° Ð±Ð°
ĠÐºÐ°ÑĤ Ð°ÑģÑĤÑĢÐ¾ÑĦ
ĠÐ±Ð¾Ð» Ð°ÑĤ
ĠÐľ Ð°Ð¼Ð°Ð½
Ðľ ÐĲ
Ð¶ Ð´Ñĭ
ĠÐ±Ð¸ ÑĸÐºÑĤÑĸÐ³Ñĸ
ĠÐ°Ð¹Ð¼Ð°ÒĽ ÑĤÐ°ÑĢ
ÐµÐ» ÐµÐ²
ĠÑĢÐµÑģÑĥÑĢ ÑģÑĭ
ĠÐ¶Ð°ÑģÑĭÑĢ ÑĭÐ½
Ð»ÑĭÒĵ ÑĭÐ¼ÐµÐ½
ĠÐĿ ÐĲÐ¢Ðŀ
ĠÑĭÐ½ÑĤÐ°Ð» Ð°Ð½Ð´ÑĭÑĢÑĥ
ĠÐ¢ÑĥÑĢ ÐºÐ¼ÐµÐ½
ĠÐ¿Ð¾ÑĢ Ð½Ð¾
ĠÑĢÐµÐ°Ð»Ð¸Ð· Ð°ÑĨÐ¸Ñİ
Ð°Ð» Ð¸ÑĤ
Ð¼ ÐµÐ´Ñĸ
ĠÐ·Ð°Ò£Ð½Ð°Ð¼ Ð°Ð»ÑĭÒĽ
ÑĪ ÐºÐ¸
Ð¾ÑĢÑĥ ÑģÑģ
Ð¾Ð» ÐµÐ·
ĠÑĥÐ¿ÑĢÐ°Ð² Ð»ÐµÐ½Ð¸Ð¸
ÑĢÐ¾Ð² Ð°Ð»
ĠÑģÑĩ ÐµÑĤÐ°
ĠÐ°ÑĥÐ´Ð°ÑĢ Ð¼Ð°
ĠÒĽÐ¾Ð·ÒĵÐ°Ð» ÑĤÒĽÑĭÑĪ
713 8
ĠÐ·Ð°Ò£ Ñĭ
ĠÒĽÐ°Ð± ÑĭÐ½
ĠÐ¸Ð´ ÑĤÐ¸
ĠApp le
ĠÐ½Ð°ÑĢÐ¾Ð´ Ñĥ
k p
Ð´ÑĭÑĢ ÒĵÑĭÑĪ
ĠÑĥÐ² Ð¾Ð»
ĠÐ¿ÑĢÐµÐ²Ñĭ ÑĪÐ°ÐµÑĤ
ĠÑģÑĤ Ð¾Ð»ÑĮÐºÐ¾
ĠÑįÑĦÑĦÐµÐºÑĤÐ¸Ð² Ð½Ð¾ÑģÑĤÑĮ
ĠÐ¼Ð¾Ð³ Ð»Ð°
ÑĢÑĥ ÐµÑĤÑģÑı
ĠÑįÐºÑģÑĤ ÑĢÐµÐ½
58 7138
Ð½Ð¸ Ð±ÑĥÐ´ÑĮ
Ð¾Ð² Ñĥ
ÑĤÐ¾ÑĢÑĭ Ñħ
KZ T
ĠÒĵÐ°ÑģÑĭÑĢ Ð´Ð°
ĠÐ±ÑĥÐ´ Ñĥ
Ð¾Ð´Ð° ÒĽ
ĠÒĽÐ°ÒĵÐ°Ð· Ð´Ð°ÑĢ
ĠÐ°Ð»Ñĥ Ð´ÑĭÒ£
ĠÐ±Ð¸Ð» ÐµÑĤ
ĠÐ¿Ð»Ð°Ð½ Ð°
ĠÑģÐ»ÑĥÐ¶ Ð±Ð°
ĠÐĽ Ð°ÑĤ
âĢĿ .
ĠÐŀÑĩ ÐµÐ½ÑĮ
ÑĮ ÐµÑĤ
ĠÑģÐº Ð°Ð½Ð´
ĠÑģ ÐµÐ´
ĠÐŀ ÒĽÑĭÑĤÑĥ
Ð¾Ð» Ñİ
ĠÐ°Ñĥ Ðº
ĠÑĦÐ°Ðº ÑĤÑĭ
ĠÐ³ ÑĢÐ¾Ð¼
Ġ199 2
ĠÑģÑĥ ÑĭÒĽ
Ġ ),
ĠÐ°ÑĢÑħÐ¸ÑĤ ÐµÐºÑĤ
ĠÐ½ Ð¾ÑĢÐ¼Ð°
ĠÐĵ ÑĢÐµ
ĠÑĤÐ°Ð± Ð°Ð´Ñĭ
t u
ĠÑĤÒ¯ Ðº
j s
ĠÐ´ÑĢÑĥÐ³Ð¾ Ðµ
i y
ĠÐ² Ð·ÑĭÑģÐº
ÑĨÐ¸ÐºÐ» Ð¾Ð¿ÐµÐ´
ĠÐ´ÐµÒ£Ð³ÐµÐ¹ ÑĸÐ½Ðµ
ĠÑĤÑĢÐ°Ð² Ð¼Ñĭ
ĠÑģÐ°ÒĽ ÑĤÐ°Ð»ÒĵÐ°Ð½
Ñĥ ÑĭÐ·
ĠÓĻÐ·ÑĸÑĢ Ð»ÐµÐ½
ĠÐ¤ Ð¸Ð»Ð¸
ĠÑģÐ¿ÐµÑĨÐ¸Ð°Ð»ÑĮ Ð½Ð¾
s By
Ð¾ÑĢ ÑĦ
ĠÐ²ÑģÑĤÑĢÐµÑĩ Ñĥ
ĠÐºÒ¯Ð¼ ÑĸÑģ
getElement sBy
ĠÐµ Ð³ÑĸÐ½
ĠÑĢÐ°Ð·Ð² ÐµÐ´
ĠÐ¼Ò¯Ð³ÐµÐ´ ÐµÐº
Ð¼ ÑĭÑģÐ°Ð»Ñĭ
ĠÑĨ Ð¸Ð»Ð¸Ð½
ĠÐ²ÑĭÑĢÐ¾Ñģ Ð»Ð°
ĠÒĽÒ±ÑĢÐ°Ð»Ð´Ð°ÑĢ ÑĭÐ½ÑĭÒ£
ĠÑģÐ¾ÑħÑĢÐ°Ð½ Ð¸ÑĤÑĮ
ĠÐ·Ð°Ð¼ÐµÑģÑĤ Ð¸ÑĤÐµÐ»ÐµÐ¼
ÐĲÐ· Ð°Ð¼
Ð¸ÐºÐ¸ Ð¿ÐµÐ´
ĠÑĦÐµÑĢ Ð¼ÐµÐ½ÑĤ
Ð´ÑĸÑĢ ÑĸÐ¿
ĠÐ¼Ò±ÒĽ ÑĤÐ°Ð¶
ĠÐ¸Ð½ÑĤÐµÐ³ÑĢÐ° ÑĨÐ¸Ð¸
Ð°Ð»Ñĭ Ðº
ĠÐ´Ð°Ð» ÐµÐºÐ¾
ĠÐ´Ð° ÑİÑĤ
ĠÐ±Ð°ÑĢ ÑĭÑģÑĭ
ĠÓĻÑĢ ÒĽÐ°ÑĪÐ°Ð½
ĠÐ²Ð¾Ð´ Ð¸ÑĤÐµÐ»Ñı
ĠÒĽÐ°ÒĵÐ¸Ð´ Ð°Ð»Ð°ÑĢÑĭÐ½
ĠÐ¾ÐºÑĢÑĥ Ð³Ñĸ
Ð°ÑĨÐ¸Ñı ÑģÑĭÐ½ÑĭÒ£
ĠÑĥÑģÑĤÐ°Ð½Ð¾Ð² Ð»ÐµÐ½Ñĭ
ĠÓ©ÑĤÐºÑĸÐ· ÑĥÐ³Ðµ
ÒĽÐ°ÑĢ Ñĥ
Ġor gan
ĠÐ°Ð·Ð°Ð¼ Ð°ÑĤÑĭ
Ð¶ÑĭÐ» Ð´ÑĭÒĽ
ĠÐ¡ Ð»Ð¾Ð²
ĠÐ°ÑĤ Ð°ÒĽÑĤÑĭ
ĠÐ³Ð¾ÑĢ Ð½ÑĭÑħ
ĠÑĤÐ°Ðº ÑĥÑİ
ĠÐ¨ Ð°Ð¹
qu ote
ĠÐļ ÑģÑĤÐ°ÑĤÐ¸
ĠÐĲÐ± Ð°Ñı
ĠÓ© ÐºÑĸÐ½
ĠÑĤÐ°Ð¹ Ð¿
ĠÐµ Ð´ÑĸÐº
ĠÐ¾Ð±ÑıÐ·Ð°ÑĤÐµÐ»ÑĮ ÑģÑĤÐ²
ĠÑįÐ¿ Ð¸Ð´ÐµÐ¼
Ġ18 0
Ð¶ Ð°Òĵ
ĠÐ®Ð¶ Ð½Ð¾
ĠÐ·Ð°ÑģÑĤ ÑĢÐ¾Ð¹
G G
Ð²ÐµÐ´ Ð¾Ð¼
ÐĲÐº ÑĤÐ¾Ð±Ðµ
ĠÐ²Ð¸Ð´ Ð¸Ð¼
ĠÓ©Ð¼ÑĸÑĢ ÑĸÐ½
ĠÐ¼ÐµÐ¹ ÑĸÑĢ
ĠÐ¿Ð¾Ð´ÐµÐ» Ð¸Ð»ÑģÑı
ĠÓĺÑĥ ÐµÐ·Ð¾Ð²
ĠÐ²ÑĭÑıÐ² Ð¸Ð»Ð¸
ĠÐ² Ð²ÐµÑģÑĤÐ¸
ĠÐ´ÓĻÑĢÐµÐ¶Ðµ Ð´Ðµ
ĠÑĢÐ¾ Ð´Ð¸Ð½
ÑģÐ» Ð¾Ð¶
ĠÐŃ Ð»ÑĮ
ĠÐ¿Ð°ÑĢ Ð»Ð°Ð¼
Ġ13 0
iqu e
ĠÐ³ Ð³
Ġret urn
ĠÑĤÒ± Ð½
ĠÐµÐ» Ð´ÐµÑĢÑĸ
ĠÐ¿Ð¾Ð·Ð² Ð¾Ð½
Ġthe y
ĠÑĤÑĢÑĥÐ´ Ð¾
ĠÐ¼Ð°ÒĽÑģÐ°ÑĤ ÑĤÑĭ
ĠÓĻÑĢ Ð´Ð°Ð¹ÑĭÐ¼
Ðĳ Ðļ
ĠÑĥÑĤÐ²ÐµÑĢÐ¶ Ð´Ð°ÐµÑĤ
Ð¿ Ð°Ð¹ÑĤÑĭÐ½
ĠÐ¿Ð¾ÐµÐ´ Ð¸Ð½Ð¾Ðº
: -
ĠÐ°ÑĢ Ð½Ð°Ð»
Ð» Ð°Ðº
ĠÑĤÑĥÑĢÐ½Ð¸ ÑĢÐµ
ÑĢÐµÑģ ÑĥÑĢ
ĠÑĸÑĪ ÑĸÐ½ÐµÐ½
ĠÐ¼ÐµÑĢÐµÐ¹ ÑĤÐ¾Ð¹
ĠÐ¡ Ð¸Ð½
ĠÑģÒ±ÑĢÐ°ÒĽ ÑĤÐ°ÑĢÒĵÐ°
ÐµÐ´Ð¸ Ð°
ĠÐ²Ð° Ð³Ð¾Ð½
ĠÐŀ ÑĦÐ¸ÑĨÐ¸Ð°Ð»ÑĮ
ĠÑĢÐ°Ð±Ð¾ÑĤÐ¾ Ð´
Ð±Ñĭ ÑĢÐ°
ĠÑģÐ¿ÐµÑĨÐ¸ ÑĦ
ĠÑģÐ¿ÐµÐºÑĤ Ð°Ðº
Ġ% ,
ĠÐŁ ÐµÑĤÐµÑĢ
ĠÐ¾ÑĢÑĭÐ½ Ð´Ð°ÑĢ
ĠÐ¡ ÑĤÐ°Ð»
Ð¼ ÐµÑĢÑĤ
ĠÐ¿ÑĢÐµÐ´Ð»Ð°Ð³ Ð°ÐµÑĤ
ĠÐ¼ÑĥÑģ ÑĥÐ»ÑĮÐ¼Ð°Ð½
Ġg roup
ĠÐ°Ð¼ Ð±ÑĥÐ»
it s
ĠÐĲÑģ ÑħÐ°ÑĤ
ĠÐķÐ» Ð±Ð°ÑģÑĭÐ½ÑĭÒ£
ĠÐ¾ÒĽÐ¸Òĵ Ð°Ð»Ð°ÑĢ
ĠÐ°Ð²ÑĤÐ¾Ð¼ Ð°ÑĤÑĤÑĭ
ĠÐ¿ÑĢÐ¾Ð²Ð¾Ð´ Ð¸ÑĤ
ad io
ĠÑģÓ©Ð· ÑģÑĸÐ·
ĠÐĺ Ð³
ĠÐ±Ð°Ñģ Ð°
ĠÑĥÑĩÐ° ÑģÑĤÐ²Ð¾Ð²Ð°ÑĤÑĮ
an n
ĠÑįÐ¿ Ð¸Ð·
ÐµÐ»ÐµÐ½ Ð³ÐµÐ½
Ð´ Ò£
ru ct
ĠÐ¶Ò¯Ð¹ ÐºÐµ
ĠÐ´ Ò±
ĠÐ¾Ð±ÑīÐµ ÑģÑĤÐ²Ðµ
ĠÐ¾Ð± ÑĢÑĥ
ÑĤÑĢÐ°Ð½ ÑģÐ¿Ð¾ÑĢÑĤ
Ġ7 4
ĠÑģÐ¾ÑģÑĤÐ¾Ñı Ð»ÑģÑı
ĠÐ¿Ð»Ð¾Ñħ Ð¾
el s
ĠÐĲÐ»ÑĮÐ²Ð°ÑĢ ÐµÑģ
ĠÐŁ ÑĢÐ°ÐºÑĤ
ĠÐ¿Ð¾ÑĢÐ°Ð¶ ÐµÐ½Ð¸Ðµ
Ñĩ ÐºÐ¸
Ð°Ð´ ÑĮ
ÐĶ ÑĢÑĥÐ³Ð¸Ðµ
ĠÐ³ÑĢÐ°Ð¼ Ð¾ÑĤ
ĠÐ¢ ÐľÐĶ
........ ....
ĠÐ¸ÑģÐºÐ»ÑİÑĩ ÐµÐ½Ð¸ÐµÐ¼
ĠÐ¿Ð¾Ð» Ð¸ÐºÐ»Ð¸Ð½
Ð±Ð¸ Ð¾ÑĤ
ĠÐ´Ð°Ð¼Ñĥ ÑĭÐ½
ĠÑĥÑī ÐµÑĢ
Ñĩ ÐµÐ¹
ĠÑģÐ¾ÑĤÑĢÑĥÐ´ Ð½Ð¸ÐºÐ°Ð¼Ð¸
ĠÐµÐºÐµ ÑĥÑĸ
ĠÐ°ÑĪ ÒĽÐ°Ð½
Ð°Ð»ÑĮ Ð´ÑĭÒĽ
ĠÐ±ÑĸÐ» ÑĸÐ¿
ĠÐ» Ð¾ÑĪÐ°
ÓĻÑĢÐµÐº ÐµÑĤÑĤÐµÑĢ
ĠÐ·Ð°Ñģ Ð»ÑĥÐ¶
ĠÐ°Ð¼Ð±ÑĥÐ» Ð°ÑĤÐ¾ÑĢ
Ð¢ ÑĥÑĢ
Ð¼ Ò¯
ĠÐ½Ð°ÑĥÒĽ Ð°Ñģ
ĠÐ¾Ñģ Ð²Ðµ
Ðķ ÐºÑĸ
ĠÐ¿Ð¾ÑģÑĤÐµÐ¿ ÐµÐ½Ð½Ð¾
Ð°Ñģ ÒĽÐ°Ð½
Ġ} )(
ĠÐ¿Ð°Ð¼ÑıÑĤ Ð¸
Ġch ar
ĠÐŀ Ð»Ð°ÑĢÐ´Ñĭ
ĠÐºÐ¾Ð½ ÑģÑĤÑĢÑĥÐºÑĤ
ÑĢÐ¾ ÑĢÐ°
ĠÐºÐ¾ÑĢ Ð¸Ð´
ĠÐ½Ð°Ð» Ð¾Ð³Ð¾
ÑĢÑĤÐ°ÒĽ ÒĽÐ¾ÑĢ
ÑģÑĤÑĭÑĢ ÑĭÐ»ÒĵÐ°Ð½
ĠÐ¿ÑĢÐ¾ÑĤÐ¸Ð² Ð¾ÑĢ
ĠÐ¼Ð°Ð»ÑĮ ÑĩÐ¸ÐºÐ°
ĠÐ½Ð°ÑĢ Ð°Ð·
ĠÐ·Ð°Ð¼Ð°Ð½ Ð´Ð°
ĠÐºÑĥÐ¿ Ð¸ÑĤÑĮ
ĠÐ±ÐµÐ· ÑĢÐ°Ð±Ð¾ÑĤ
ÑĸÐ»ÑĤ ÐµÐ¼
ĠÐ¼ iÐ½
ĠÐºÐµÑĢÐµÐº ÑĤÑĸÐ³ÑĸÐ½
ĠÐ¡Ð¾Ð¾Ð±Ñī Ð°ÐµÑĤÑģÑı
ÑĸÒ£ Ðµ
Ó©Ð½ÐµÑĢ ÐºÓĻÑģÑĸÐ¿
ĠÐ¼ Ðº
ĠÐ±ÑĥÐºÐ² Ð°Ð»ÑĮÐ½Ð¾
ĠÐĿÐµ Ð³ÑĸÐ·
ĠÐ±ÑĢÐ¸ ÑĦÐ¸Ð½Ð³Ðµ
ĠÐ³Ð¾Ð²Ð¾ÑĢ Ñı
ĠÐ¼ÐµÒ£Ð³ÐµÑĢ Ñĥ
ĠÐľÓĻÑģÐºÐµ Ñĥ
ÑĥÑİÑī Ð°Ñı
ÑĦ Ð°Ð»ÑĮ
ĠP r
in ner
ÐłÑĥ ÑħÐ°Ð½Ð¸
ÑĢÐµÐ½ Ð¸Ñİ
ĠÐ¾Ð± ÑĭÐ³
ĠÐ¾Ð±ÑģÐ»ÑĥÐ¶ Ð¸Ð²Ð°Ð½Ð¸Ñı
ĠÐ¶ÐµÑĤ ÑĸÐ»
ĠÐ¼ Ð»Ð°Ð´
ĠÑįÐºÑģÐ¿ ÐµÐ´Ð¸
ĠÑģÐ¾ÑģÑĤÐ°Ð² Ð»ÑıÑİÑĤ
ĠÓĻÐ»ÐµÐ¼ Ð´Ðµ
Ð¸Ñħ Ð°Ð½Ð¾Ð²
ust om
ĠÐł Ð¸Ð¼
ĠÐ·Ð°Ð² ÐµÐ´ÐµÐ½Ð¸Ñı
ĠÐłÐµÐ´Ð° ÐºÑĨÐ¸Ñı
ĠÒĽÐ°ÑĥÑĸÐ¿ÑģÑĸÐ· Ð´ÑĸÐ³ÑĸÐ½
ĠÑĤÐ°ÒĵÐ°Ð¹ ÑĭÐ½Ð´Ð°Ñĥ
y p
Ì Ĩ
ri es
ĠÐĴ Ð»Ð°ÑģÑĤÐ¸
T ime
ĠÐĲ Ð¢
Ð¸ÑıÑĤ ÐºÐµÑĢÐ»ÑĸÐº
ĠÑĥÑĩÐ°ÑģÑĤ ÐºÐ°
ĠÐ¾ÑĦ Ð¸ÑĨ
Ð¦ ÐĺÐ¯
ĠÐ¶ÐµÑĤÐºÑĸÐ»ÑĸÐº ÑģÑĸÐ·
ĠÐ¥ Ð°Ð¼
ĠÐ³Ðµ Ð¾Ð³ÑĢÐ°ÑĦ
ĠÑĤÐ¸ÑĸÐ¼Ð´Ñĸ Ð»ÑĸÐ³Ñĸ
Ð» Ð°Ð¹ÑĤÑĭÐ½
ĠÐľ ÑĭÑĢÐ·
ĠÐºÐ²Ð°Ð´ÑĢÐ°ÑĤ Ð½ÑĭÑħ
Ð°ÑĢ ÑĤÐ°
ĠR ep
ĠÒĽÐ¾Ð¹ ÑĭÐ»Ð°Ð´Ñĭ
ĠÑģÐµÑĢÐµÐ´ Ð¸Ð½Ðµ
ĠÒ±ÑģÑĤÐ°Ð½ ÑĭÐ¼
ÑĥÐ¼ÐµÐ½ ÑĤ
ĠÐĵ Ð¾Ð½
ĠÒĴ Ð°Ð»ÑĭÐ¼
ĠÐľ ÐµÐºÑģ
ĠÐľ Ð°Ð¶Ð¸Ð»Ð¸ÑģÐ°
ĠÐ¼ Ð¾Ðµ
ĠÐ±Ð¾Ð¹ ÑĭÐ½Ð´Ð°ÒĵÑĭ
Ð°Ð» Ð¾Ð¼
ĠÐ°ÑĥÑĢÑĥ Ð´ÑĭÒ£
ĠÐ¼Ò¯Ð¼ÐºÑĸÐ½Ð´ÑĸÐº ÑĤÐµÑĢÑĸ
ĠÐºÓĻÑģÑĸÐ¿Ð¾ÑĢÑĭÐ½ Ð½ÑĭÒ£
ÑģÐºÐ¾ÑĢ Ðµ
Ð°ÑĤÑĤÑĭ ÒĵÑĥ
ĠÐ¡ÑĤ ÑĢÐ°ÑĤÐµÐ³
ĠÐ³Ð¾Ð²Ð¾ÑĢ Ð¸Ð»Ð¸
ĠÐ±Ð¾Ð»Ð¼ Ð°Ð¹
ĠÐŀ Ð»ÐµÐ³
ĠÐºÐµÐ´ÐµÐ½ Ð´ÑĸÐº
ĠÑģÑĤÐ¾Ð»Ðº Ð½ÑĥÐ»
ĠÐ´ ÐµÑģÐµ
o le
Ġst ate
ĠÑĥÐ² ÐµÐ´Ð¾Ð¼
ĠÐ°ÑĢÑĤ Ð¸ÑģÑĤ
ÐĽ Ð«Òļ
ĠÐµÑģ ÑĸÑĢÑĤ
ĠÒļÐ¾ÑĢ ÒĵÐ°Ð½
ĠÑģÓĻÑĥÐ» ÐµÑĤ
ÐĨ ÐĹ
ĠÐ¾Ð± ÐµÐ·
Ðĸ Ð°ÒĽ
ĠÐ°ÑĢÑĤÑĭÒĽ ÑĪÑĭÐ»ÑĭÒĽ
ĠÐµÑģÐºÐµÑĢ ÑĤÑĥ
ĠÐ¸ÑģÐ¿ Ð¾Ð»Ð½Ñı
ÑĢÐµÐ³Ñĥ Ð»Ð¸
ĠÐ¾ÑĤÐº ÑĢÑĭÑĤÑĮ
O H
Ð¸Ð» Ñĭ
ĠÐĳ Ð¾Ð¹
ĠÑĪÐµÐº Ð°ÑĢÐ°
ĠÐĸ ÐŀÐŀ
ÑĸÐº ÑĤÐµÑĢ
ĠÑĪ Ðµ
ĠÐ¨ Ð°Ð¼
ĠÐ°ÑģÐ¿ Ð°Ð½
ĠÐ¢Ó© ÑĤÐµÐ½ÑĪÐµ
ĠÒĽÐ¾Ð¹ Ð½Ð°Ñĥ
7 4
ĠÐ¸Ð· Ð½Ð°ÑģÐ¸Ð»
ĠÑģÐ¼Ð°ÑĢÑĤ ÑĦ
ĠÐ²Ð· ÑıÐ»
Ð¾Ð»Ð¾Ð³ Ð¸ÑĩÐµÑģÐºÐ¾Ð³Ð¾
ĠÐ¿Ð» Ð°ÑĤÑĭ
Ġ1 10
ĠÐĲ ÑĢÐ°Ð²
Ð¾Ð¶ Ð°ÑĢ
ĠÐ¾Ð±Ð»Ð°ÑģÑĤ Ð½Ð¾Ð¹
ĠÐ¿ÑĢÐ¾Ð¸Ð·Ð²Ð¾Ð´ ÑģÑĤÐ²Ñĥ
Ð°ÑĤÐµÐ»ÑĮ Ð½ÑĭÐ¼
ĠÒĽÐ°Ð¹ÑĭÑĢ ÑĭÐ¼Ð´ÑĭÐ»ÑĭÒĽ
ĠÐ¼ÐµÐºÑĤÐµÐ¿ ÑĤÐµÑĢ
Ð½Ð°Ð³ ÑĢÐ°Ð¶
create Element
ĠÐ¾ÑĤÐ»Ð¸Ñĩ Ð¸Ðµ
ĠÑĢÐµÑĪÐµÐ½ Ð¸Ñİ
ĠÐ²ÑĭÐ¿ ÑĥÑģÑĤ
ĠÑħÐ°Ð±Ð°ÑĢ Ð´Ð°ÑĢ
S B
ÒĽ Ð¾Ð½
ĠÑĤÑĢÐµÐ± ÑĥÑİÑĤ
ĠÐłÐµÐ· ÑĥÐ»ÑĮÑĤ
Ð´ÐµÐ½ ÑĤÐ¸
ĠÐĲÑģÑģ Ð¾ÑĨÐ¸
Ù Ħ
Ġ8 8
Ðł Ð£
ĠÐ¡Ð¾ Ð¾ÑĤÐ²ÐµÑĤ
ĠÐŁÐ¾ÑĤ Ð¾Ð¼
ĠÐĳ ÑĥÐ»
ĠÐĿÐ¸ÐºÐ¾Ð» Ð°Ð¹
ĠÐ»Ð¸ÑĨÐµÐ½Ð· Ð¸Ñı
ÐĲ Ðĸ
ĠÐ½ÑĥÐ¶ Ð½Ñĭ
ĠÐĶÐ¸Ð¼ Ð°ÑĪ
ĠÐ±ÑĭÐ» ÑĤÑĭÑĢ
ĠÐĺÐ½ ÑĦ
ĠÐ¿ÑĢÐµÐ¿ ÑıÑĤ
ĠÐķ ÑģÐºÐµÑĢÑĤÑĥ
ĠÐ¼ÐµÑħÐ°Ð½ Ð¸ÐºÐ°Ð»ÑĭÒĽ
ĠÐŁÐ°ÑĢ Ð¸Ð¶
ĠÐºÐ¾Ð½ÑĨ ÐµÑĢ
ĠÐ¼Ð°ÑĪ Ð¸Ð½Ñĥ
ĠÐ¸ Ð¼Ð°Ð½
ĠÐ¿Ð¾ÑģÑĢÐµÐ´ ÑģÑĤÐ²Ð¾Ð¼
ĠÐ¿Ð¾ ÑıÑģ
he d
ĠÑģÐ»ÑĥÐ¶ Ð±
ÐºÑĸÐ¼ ÐµÑĤÑĸ
ĠÐ¿Ð°ÑĢ ÐºÐ¾Ð²
ÑĭÑģÑĤÐ°ÑĢ ÑĭÐ½ÑĭÒ£
ĠÐ¿ÐµÑĢÐµÐ½ ÐµÑģ
s ize
iÐ»i Ð¼
ĠÑĤÒ±Ð»Òĵ Ð°Ð»Ð°ÑĢÒĵÐ°
ĠÑģÐ°Ð½Ð¸ÑĤÐ°ÑĢ Ð½Ð¾
Ġd es
ĠÒĽÐ°Ð»ÑĭÐ¿ÑĤÐ°Ñģ ÑĥÑĭ
ÐŃ ÐºÐ¾Ð½Ð¾Ð¼
Ð½Ð¾ÑģÑĤ ÑıÑħ
ĠÐºÒ¯ÑĪ ÑĸÐ½Ðµ
ĠÐ¼Ð°ÑĤÐµÑĢÐ¸ Ð°Ð»Ð´Ñĭ
ĠÐ¿Ð¾Ð·Ð¸ ÑĨÐ¸Ñİ
ĠÑĤÐµÑĢ Ð°Ðº
ĠÐ¼Ð½Ð¾Ð³Ð¾ Ð´ÐµÑĤ
ĠÑģÐ¾ ÒĽÑĤÑĭ
ĠÐ·Ð°ÐºÐ»ÑİÑĩ ÐµÐ½Ð¸Ñı
ĠÐºÑĸÑĢ ÐµÑĤÑĸÐ½
ĠÐ¿ÑĢÐ¸Ð¼ÐµÐ½ ÐµÐ½Ð¸Ðµ
ĠK Z
ĠÑģÓĻ Ð»
ĠÓĻ Ð·
ĠÑģÐ¿Ð¸ÑĢ ÑĤ
ĠÐ¢ Ð¸
ĠÐ°ÑįÑĢÐ¾Ð¿ Ð¾ÑĢÑĤ
Ñį Ð»ÑĮ
ĠÐ¾Ð¶ Ð¸Ð´
ĠÑĤÒ¯ÑĢ Ð»ÐµÐ½
ĠÐ¾ÑģÑĭ Ð´Ð°Ð½
Ä ±
ĠÐ¿ÑĢÐµÐ¼ Ð¸Ð¸
ĠÐĲÐ» Ð°ÑĤÐ°Ñĥ
Ð± Ð°Ð±Ñĭ
ĠÒĽÐ°Ð»ÑĭÐ¿ÑĤÐ°Ñģ Ñĥ
ĠÐĲ ÑĪ
ĠÐ´Ð¾Ð» Ñİ
a j
ĠÐ¿ÓĻÐ½ ÑĸÐ½ÐµÐ½
ĠÐ½ÐµÐ´ ÐµÐ»ÑĮ
ĠÑĤÐ°Ð¿ÑģÑĭÑĢ Ð´Ñĭ
ĠÐ¿ÑĢÐ¾ÑĤÐ¸Ð²Ð¾ Ð´ÐµÐ¹ÑģÑĤÐ²Ð¸Ñİ
ÑĢÐ°ÒĽ ÑĤÑĭ
ĠÐº ÑĥÐ»
ĠÐºÒ¯Ð¹ ÑĸÐ½Ð´Ðµ
Ð¶ ÑĥÑĢ
ĠÐºÓ©Ð¿ ÑĸÑĢ
ĠÑģÑĢÐ°Ð² Ð½
Ð°Ð² ÐºÐ°Ð·
ĠÐ¼Ð°ÑĤÐµÑĢÐ¸Ð°Ð» Ð´Ð°ÑĢÑĭ
ĠÐĵÑĢÑĥÐ· Ð¸Ð¸
ĠÐºÐ°Ð½Ð´Ð¸Ð´ Ð°ÑĤÐ¾Ð²
ĠÐ±ÑĸÐ»ÑĸÐºÑĤ ÑĸÐ»ÑĸÐ³ÑĸÐ½
ĠÑĢÐ¸ ÑģÐºÐ°
Ð¸ ÒĵÐ°
ĠÐľÑĥÐ¶ ÑĩÐ¸Ð½Ð°
ĠÐ¾ÑĢÐ³Ð°Ð½Ð¸Ð· Ð¼Ð°
ĠC H
ĠÑģÐµÑĢÐ´ ÑĨÐ°
ĠÐ¶Ò±Ð¼ÑĭÑģÑĤÐ°ÑĢ ÑĭÐ½ÑĭÒ£
Ðº Ò¯Ð½
Ġth an
ĠÐ± ÑĥÐ»
ĠÐ¿ÑĢÐ¾Ð´ Ð²Ð¸Ð¶
K A
ĠÐ¾Ñģ Ð½Ð°
ÑĦÐ¸Ð»ÑĮ Ð¼
ĠÐ²Ð¿ÐµÑĢ ÐµÐ´
ĠÐ¸Ð·Ð²ÐµÑģÑĤ Ð½ÑĭÐ¹
ĠÐ¢ ÑĭÐ½
ĠÐ±Ð°Òĵ Ð°Ð»
ÐĲÐ¡ Ð«
ĠÑĤÐ°Ð»Ð°Ð¿ ÑĤÐ°ÑĢÑĭÐ½
Ġm in
ĠÑģÐ°Ð» ÒĽÑĭÐ½
ĠÑĤÐ¾ÒĽÑĤ Ð°ÑĤÑĥ
ĠÐļ Ð¢Ðļ
ĠÑģÐ¸Ð¿Ð°ÑĤ ÑĤÐ°Ð»Ð°Ð´Ñĭ
ĠÐ´ÐµÑĤ ÑģÐºÐ¸Ñħ
ĠÒĽÐ°Ð» Ð°Ð»Ð°ÑĢ
Ð´ÑĭÑĢ Ð´Ñĭ
ĠÑĤÐ¾Ð¿ ÑĤÑĭÒ£
ĠÐ¿ÑĢÐ°Ð·Ð´ Ð½Ð¸Ðº
Ð¾Ð´ Ð¸
Ð±Ñĭ ÑĢÐ¾Ð¹
ĠÐ¼ÑĸÐ½Ð´ÐµÑĤ ÑĤÐµÑĢÑĸÐ½
Ġstick y
ĠÑĤÒ±ÑĢ ÒĵÑĭÐ·
ÐµÑģ Ð¸
Ð» Ð¸ÑıÑĤ
Ð¸Ðº Ð°Ð½Ñĭ
ĠÐ´Ð¸ÑĦÑĦÐµÑĢÐµÐ½ ÑĨÐ¸
ĠÒļ Ð¾Ð½
ĠÑĤÓ© Ð½
ĠÑĥ Ð½Ð¸Ð²ÐµÑĢÑģ
Ñģ Ð°Ð¹ÑĤ
ĠÐ¾Ð± Ð¾Ð³
ĠÐ±ÑĢÐ¸ ÑĦ
ĠÐ½Ð°Ñĩ Ð°Ð»Ð°ÑģÑĮ
ĠÐŁÑĢÐ°Ð²Ð¸ÑĤÐµÐ»ÑĮ ÑģÑĤÐ²Ð°
ĠÐ²ÑĥÐ· Ð¾Ð²
ÐĿ Òļ
ÑĤ ÑĢÐ°ÑĦ
iz ed
ĠÐ¼Ó©Ð»ÑĪÐµÑĢ Ð»ÐµÐ¼
ĠÐ¿ÑĢÐ¸Ð³ Ð»Ð°Ñģ
ÑĤ ÑĸÐ»
Ð¡ Ð°Ð±Ð°ÒĽ
ĠÐ¸Ð·Ð± ÐµÐ¶Ð°ÑĤÑĮ
ĠÑĢÐ°Ð·ÑĢÐµ ÑĪÐµÐ½Ð¸Ñı
Ġth ere
ĠÐºÐ»Ð¸Ð¼ Ð°ÑĤ
ĠÑĦÑĥÑĤÐ±Ð¾Ð» Ð¸ÑģÑĤ
ĠÐ¼Ð¾Ð· Ð³Ð°
ĠÐ¿Ð¾ÑĢ Ð¾Ð´
ĠÐ¸ÑģÐ¿Ð¾Ð»Ð½ ÐµÐ½Ð¸Ñı
ĠÐ±ÑĸÑĢÑĤ ÑĸÐ½Ð´ÐµÐ¿
Ñģ ÑģÐµ
ĠÐ¿ÐµÑĢÐµÑģ ÐµÑĩ
ĠÐ¾Ð±Ð»ÑĭÑģ ÑĭÐ½Ð´Ð°ÒĵÑĭ
ĠÐ¶Ð°Ò£ Ð°ÑĢÑĤÑĥ
ĠÐ½Ð° Ð¿Ð°
ĠÐ¶ÐµÐ» ÑĥÐ´
ĠÐ¿ÑĢÐµ Ð±
ĠÐĲÐ² ÑĤÐ¾
ĠÐ¿ÑĢÐ¾Ð¸Ð·Ð²Ð¾Ð´ ÑģÑĤÐ²Ðµ
ĠÐ±Ó©Ð» ÑĸÐ¼Ð´ÐµÑĢ
ĠÐĳ ÐµÑĤ
ĠÐ¿ÑĢÐ¾ÑĨÐµÐ´ ÑĥÑĢ
Ġd et
ĠÑĥÐ±Ð¸Ð¹ ÑģÑĤÐ²Ðµ
ĠÐ¤ ÐµÑĢ
ĠÐ¿ÑĢÐ¾Ð´ ÑİÑģÐµÑĢ
Ð»Ñİ ÐºÐ¾
ĠÐŀÐ»ÑĮ Ð³Ð°
ĠÐĽ Ð¸Ð²
ĠÐ°ÑĢ Ð·Ð°Ð½
ĠÐ¼ ÐµÑģ
ĠÓ©Ð¼ÑĸÑĢ Ð´Ðµ
ĠÐµÐ¼ Ð´ÐµÐ»
ĠÐ¼ÓĻÐ½ ÑĸÐ½Ð´Ðµ
ĠÐ¿ÑĢÐ¾Ð´ÑĥÐº ÑĨÐ¸Ñİ
ĠÐĴ ÐŀÐĹ
Ð´ÐµÐ½ÑĤ Ð¾Ð²
ĠÐ°ÒĽÑĪ Ð°Ð»Ð°Ð¹
ĠÐĹ ÐµÐ»ÐµÐ½
ĠÑĪ Ð°ÑĤ
Ð¶ Ð°Ð¿
Ð°Ñĥ ÑĭÐ»
ĠÐ¿ÑĢÐ¾ Ð½Ð¸Ðº
ĠÑĤÑĸÐ» ÐµÐº
Ð¾Ð· ÒĵÐ°Ð»
ĠÑģÒ± ÑĢÐ°Ð´Ñĭ
ĠÐ¼Ð°ÒĵÑĭÐ½ Ð°ÑģÑĭ
ÑĢÑĥ ÐµÐ¼
ĠÐ¿ÑĢÐµÐ´ÑģÑĤÐ°Ð² Ð»Ñı
ĠÑħ ÑĢÐ¾Ð½
ĠÐ´ÐµÒ£Ð³ÐµÐ¹ ÑĸÐ½Ð´Ðµ
ĠÐ°ÑĤÒĽÐ°ÑĢ Ñĥ
ĠÑĤÒ±ÑĢ Ð´Ñĭ
Ġc o
ĠÐŁÑĥÑĤ Ð¸Ð½Ð°
ĠÐĺÑĢÐ°Ð½ Ð°
ĠÐŀÐ± ÑĬÐµÐ¼
ĠÒĽÐ°ÑĤÑĭÐ½ Ð°ÑģÑĭ
Ð³ÑĸÐ½ ÐµÐ½
ĠÐ¾Ð±ÑĬÑıÑģÐ½ Ð¸Ð»
ĠÑĢÑĥÐºÐ¾Ð²Ð¾Ð´ Ð¸ÑĤÐµÐ»ÐµÐ¹
i ence
Ð³Ñĸ ÑģÑĸ
ĠÐ¿Ð¾Ð» Ð½Ð¾Ð¼
ĠÐĽ Ð¸ÑĤ
Ò¯ÑĢÐ³ÑĸÐ· ÑĥÑĪÑĸ
ĠÐ¢ÐµÐ¼Ð¿ÐµÑĢ Ð°ÑĤÑĥÑĢÐ°
ĠÐ¿ÑĢÐµÐ´ÑĥÑģÐ¼Ð°ÑĤÑĢÐ¸Ð² Ð°ÐµÑĤ
ĠÑĥÑĩ Ð°ÑīÐ¸ÑħÑģÑı
ĠÐ¶ÑĭÐ»Ð´Ð°Ð¼ Ð´ÑĭÒĽ
ĠÐ³ÐµÐ½ÐµÑĢ Ð°Ð»ÑĮÐ½ÑĭÐ¹
ĠÐ¡Ð¾ ÐµÐ´Ð¸Ð½
ĠÐ°Ð»ÑĭÐ½ Ð°ÑĤÑĭÐ½
ĠÐ¾ÑĤ ÑĨÐ°
ĠÐ²ÑĤÐ¾ÑĢ Ð¾Ðµ
ĠÐ¡ Ò±ÑĢÐ°ÒĽ
ĠÐ»Ð°Ð¹ ÑĭÒĽÑĤÑĭ
Ñĥ Ð¹
ĠPol isia
ĠÐ¿Ð¾ Ð´Ð°
ĠÐ¸Ð½ÑĦÑĢÐ° ÑģÑĤÑĢÑĥÐºÑĤÑĥ
ĠÐ¶Ð¾Ð± Ð°Ð½Ñĭ
Ð°ÑİÑī Ð¸ÐµÑģÑı
ĠÐ¾Ð´ Ð¸Ð½Ð¾
ĠÐ¾ÑģÑĤ ÑĢÐ¾Ð²
ĠÐ¨ ÑĭÒ£
ĠÐ½Ð° ÑĪÐµ
ÑĤÐ¾Ð² Ð°Ð»
ĠÐ·Ð°ÐºÐ»ÑİÑĩ Ð¸Ð»
ÐĿÐµ Ð³ÑĸÐ·Ð³Ñĸ
Ð¼ÐµÐ½ ÑĤÐ°
ĠÑģÓĻ Ð½
ot a
Ð¸Ð½ ÐºÐ°
ÑģÑĤÐ²ÐµÐ½ Ð½ÑĭÐ¼Ð¸
ĠÐ¾ÑĤÑĭÑĢ Ð´Ñĭ
ĠÐ¼Ð°Ðº ÑĢÐ¾
Ð¾Ñģ ÑĦÐµÑĢ
Òļ Ð¾ÒĵÐ°Ð¼
ĠÑģÑĢÐ¾ ÐºÐ¾Ð¼
ĠÑĤ Ð¼ÐµÐ½
ÑĤ ÑĭÐ»ÑĭÒĵÑĭÐ½
ĠÐ±Ð°Ð» Ð°Ð½Ñģ
ĠÐ±Ð°ÑģÒĽÐ°ÑĢÑĥ Ð´ÑĭÒ£
Ð±ÑĸÑĢ Ñĸ
Ġprodu ct
Ġwith out
ĠÐ²Ð¾Ð¿ ÑĢÐ¾ÑģÐ°
ĠÐ¿ÑĢÐµÐ´ÑĥÐ¿ ÑĢÐµÐ´
ĠÑĥÐ¶ ÐµÑģÑĤÐ¾Ñĩ
ĠÐ¶Ò¯ÑĢ Ð³iÐ·
ĠÐ±Ð»Ð°Ð³Ð¾ Ð¿Ð¾Ð»ÑĥÑĩ
ÑıÑī Ð¸Ð¹
Ġg en
ĠÐ³ÑĢÐ¾Ð· Ð¸ÑĤ
ĠÐ¢Ó©ÑĢÐ°Òĵ Ð°ÑģÑĭ
ĠÐ± Ð°Ðº
ik e
ĠÐ¸ÑģÐºÑĥÑģ ÑģÑĤÐ²Ð°
ĠÑįÐºÐ¾Ð½Ð¾Ð¼ Ð¸ÐºÑĥ
ĠÐ¾ÒĽ ÑĪÐ°Ñĥ
Ð¾ÑĤÐ¾ Ðº
ĠÐ±ÑĸÐ»ÑĸÐº ÑĤÑĸÐ»ÑĸÐº
ĠÐĳÓ©Ð» ÑĸÑģÑĥ
ĠÐ²Ñĭ Ð²Ð¾Ð·
ĠÑĤÓĻÑĢÐ±Ð¸ ÐµÑģÑĸ
ĠÐºÒ¯ÑĪ ÑĸÐ½
ĠÑģÐ¾Ð· Ð´Ð°Ð²
ĠÐķÐĿ ÐŁÐ¤
ĠÐĿÒ±ÑĢ Ð»Ð°Ð½
Ðŀ Ò£ÑĤÒ¯ÑģÑĤÑĸÐº
ĠÐºÐ°ÑĢ ÑĤÑĭ
ĠÐ±Ð¸ Ð´Ð°Ð¹
ĠÐ¨ ÐµÑĢ
ĠÓĺ Ð·ÑĸÑĢ
Ð¼ ÐµÑģÐµ
ĠÑĤÒ¯ ÑģÐ¿
ĠÑģÐµÑĢÑĸÐºÑĤÐµ ÑģÑĤÑĸÐº
ĠÐĺÑģÐ¿ Ð°Ð½Ð¸Ð¸
ĠÐ´ Ò¯ÑĢ
Ġ7 1
ĠÐº ÐµÑĥ
ĠÑģÓĻÑĤ ÑĤÐµ
ĠÐ¶Ð¸Ð· Ð½ÐµÐ½
ĠÐ¿Ð¾Ð²ÑĭÑģ Ð¸ÑĤÑĮ
ĠÐ»Ð¸Ð´ÐµÑĢ Ð°
Ð´ÑĸÑĢ ÑĸÐ»Ð³ÐµÐ½
ÑĨÐ¸Ð¾Ð½ Ð½ÑĭÐ¼
is e
Ð¶ Ð¸ÑĤ
ĠÐ¸Ð½ÑĤÐµÑĢÐµÑģ Ð½ÑĭÐµ
Ð´Ð°ÑĢ ÑĤ
ĠÑħÐ²Ð°ÑĤ Ð°ÐµÑĤ
ĠÐºÓ©Ð· Ð³Ðµ
ĠÑĤÒ±ÑĢ Ð¼ÑĭÑģ
ĠÐ¾Ð½Ñĭ Ð¼ÐµÐ½
ĠÐ²Ð¾Ð· Ð½Ð°Ð³ÑĢÐ°Ð¶
S t
ĠÐ°ÒĽ Ñĭ
ĠÐ¼Ð¾ÑĢ Ðµ
ĠÐĲ ÑģÐ°Ð½
ĠÐ°Ð³ ÑĢÐµÐ³
Ð»Ð°Ð½ Ð°Ð´Ñĭ
ĠÐºÓ© ÑĢÐµÐ´Ñĸ
ĠÐĲ ÑĪÑĭÒĽ
ÑĥÑĩ Ð°ÑģÑĤ
Ġb as
ÑĥÐ½ Ð°Ð¹
ĠÑģÐ»ÑĥÐ¶ Ð±Ðµ
ĠÐ¼ ÑıÑģÐ°
ĠÐ¼ Ð½ÐµÐ½Ð¸Ñı
ĠÐ¼ÑĥÐ¶Ñĩ Ð¸Ð½Ñĥ
Ð¢ Ðĺ
ÑĭÐ· Ñĭ
ĠÒļ Ð°Ò£
Ð°ÑİÑī ÑĥÑİ
ĠÒļÐ°Ð·Ð°ÒĽ ÑĤÑĭÒ£
Ñĥ ÑĢÑĥ
ĠÑĢÐ¾ÑģÑģÐ¸Ð¹ ÑģÐºÐ¸Ðµ
ÐĲÒļ Ð¨
ĠÐ±Ð°Ñģ ÑĭÐ¼Ð´ÑĭÒĽ
Ð»Ñı Ð½Ð´
ĠÐ±ÑİÐ´Ð¶ÐµÑĤ Ð½ÑĭÑħ
Ð¸ÑĢÐ¾Ð²Ð°Ð½ Ð½Ð¾Ð¹
ĠÓ©Ð¼ÑĸÑĢ Ð´ÑĸÒ£
ob ile
ĠÑĤÑĢÐµÐ± ÑĥÐµÑĤÑģÑı
ĠÐ±ÑĸÐ· Ð´Ðµ
ÑĭÐ² Ð°ÑĤÑĮÑģÑı
Ð¿ ÑĢÐµÐ¼ÑĮÐµÑĢ
ĠÐ± ÐµÑĤÑĸ
ĠÐ²Ð¾Ð² ÑģÐµ
ĠÐ¿Ð¾Ð³Ð¾ Ð´Ð°
ĠÐ°ÑĥÐ´Ð°Ð½ ÑĭÐ½Ð´Ð°ÒĵÑĭ
ĠÐ¿ÑĢÐ¾ Ðº
ĠÐ¶Ð°ÑĤ ÑĤÑĭÒĽ
ĠÐ¾ÑģÑĤ Ð°Ð»ÑģÑı
Ð° Ð´Ð°Ð½
ĠÑĪ Ð°Ð¼Ð°
Ð¼Ð¸Ð½Ð¸ÑģÑĤÑĢ Ñĸ
ÐµÑģÑĤ ÑĢ
ĠÒĽÐ°Ð»ÑĭÐ¿ÑĤÐ°Ñģ Ð°Ð´Ñĭ
ĠÑĤÓ©ÑĢ ÑĤÑĸÐ½ÑĪÑĸ
ÑĨÐ¸Ð¾Ð½ Ð½ÑĥÑİ
ĠÐµÑģÐµÐ¿ ÑĤÑĸ
Ð½ Ð¸ÑģÑĤ
ĠÐ³ÑĢÐ°Ð¶Ð´Ð°Ð½ Ð°Ð¼
Ñģ ÑĸÐ¼Ð´ÑĸÐº
ĠÐºÓ©ÑĢÑģÐµÑĤÐºÑĸÑĪ ÑĤÐµÑĢÑĸ
ĠÐ¼Ð°ÒĽÐ°Ð» Ð°Ð»Ð°ÑĢ
Ð¡ Ð°ÑĢ
ĠÐ± ÐµÑģÑģ
Ð¿ Ð»Ð°ÑĤ
ĠÐ¿Ð°Ð» Ð°ÑĤÑĭ
ĠÐ°Ð¹ Ð¼Ð°ÒĵÑĭ
Ð´Ðµ ÑĥÐ»ÐµÑĢ
Ġ7 6
Ð¾Ð½ ÑıÑĤ
ĠÐ´ÐµÐ¹ ÑģÑĤÐ²ÑĥÐµÑĤ
ĠÑģÐ¾Ð²ÑĢÐµÐ¼ÐµÐ½ Ð½ÑĭÑħ
ĠÐĳ ÐĲÐ¡
â ĥ£
ĠÑĦÐ¸Ðº Ñģ
ĠÐ¾ÑĩÐµÑĢÐµÐ´ Ð¸
ĠÐļÓ©Ðº ÑĪÐµÑĤÐ°Ñĥ
ĠÑĥ Ð»ÑĮ
ĠÓ©Ð·Ð³ÐµÑĢ ÑĥÑĸ
ÑĭÑģ ÒĽÐ°Ð½
ĠÑģÑĸÒ£ ÑĸÑĢÐ³ÐµÐ½
Ð½Ð¸ÑĨ ÐµÐ¹
ĠÑĪÐµÐ± ÐµÑĢÐ»ÑĸÐº
ĠÑħÐ¾ÑĤ ÐµÐ»Ð¸
N ode
ĠÑĦÐ¾Ñģ ÑĦÐ¾ÑĢ
ĠÑģÐ°Ð» Ð°ÑģÑĭÐ½Ð°
ĠÐ¾ÑĢ Ð°Ð»
ĠÐ´ÐµÑģÑıÑĤ Ð¸
ĠÒļ ÐĲÐĹÐĲÒļ
b es
Ð«ÐĿ ÐĶÐĲ
ĠÐ½ Ð¸ÑĤ
ĠÐŁÐ¾Ð´ Ð¿Ð¸
ĠÑĢÐµ Ð°Ð³
ÑĭÑĤ Ð¶Ð°Ð½
ĠÐ¶Ò¯ÑĢÐ³ÑĸÐ· Ð³ÐµÐ½
ĠÓĻÐº ÐµÑģÑĸ
ĠÐ¦ ÐµÐ»ÑĮ
Ð¼Ò± Ñħ
ĠÐ¶Ð¸Ð² ÑĥÑĤ
ĠÐ¢ÑĢÐ°Ð¼ Ð¿Ð°
ĠÐļ ÑĢÐµÐ¼
Ð± Ð°Òĵ
ĠÐ±Ð¸ÑĢ Ð¶Ðµ
ĠÐļÑĭÑĢÐ³ÑĭÐ· ÑģÑĤÐ°Ð½Ðµ
ĠÑģÑĤÐ¾ÑĢ Ð¾Ð½Ðµ
ĠÐ±ÑĸÐ» Ð´ÑĸÑĢÑĥ
ĠÑĸÑĪ ÐµÐº
ÑĤ ÓĻÑģÑĸÐ»
ĠÐ°Ð¹ ÑĭÑĢÑĥ
ÒĽ ÑĭÑĤ
ĠÐ¸Ð½Ð²ÐµÑģÑĤÐ¸ ÑĨÐ¸Ð¸
ĠÒ±Ð¹ÑĭÐ¼Ð´Ð°ÑģÑĤÑĭÑĢ ÑĭÐ»ÒĵÐ°Ð½
ĠÐ±Ð°Ð½ ÐºÑĤÑĸÒ£
ĠÐĲÐ² ÑĤÐ¾ÑĢÑĭ
ÑĢÐ¸Ð· Ð¼
ĠÑĤÐ°ÑĥÐ°ÑĢ Ð»Ð°ÑĢÐ´Ñĭ
Ð¾Ð² Ð°Ð»Ð¸ÑģÑĮ
Ð³ ÑĸÐ»ÑĸÐº
Ð¸Ð½ ÐºÐ¸
ĠÒĽÐ¾Ð»Ð´Ð°Ð½ ÑĭÑģÑĤÐ°ÒĵÑĭ
ĠÑĤÑĢÑĥÐ´ Ð½Ð¾
Ġ ....
ĠÐ¿ÑĢÐ¾ÑĨ ÐµÑģÑĸÐ½Ð´Ðµ
ĠÑĥÑīÐµÑĢ Ð±Ð°
Óĺ Ð»ÐµÐ¼
ĠÐ¶Ð°ÑĤÑĭÑĢ Ð¼ÑĭÐ·
ĠÐŁ Ð¾Ð³
Ð¢ Ð¾Ð±
ĠÐºÐ¾Ð½ ÐµÑĨ
Ð³ÐµÐ½ ÑĸÒ£
ĠÒ±Ð¹ÑĭÐ¼Ð´Ð° ÑģÑĤÑĭÑĢÐ°Ð´Ñĭ
ĠÐ² ÐµÐºÑĤÐ¾ÑĢ
ĠÑģ Ð·
ĠÐ±Ð°Ð½Ðº ÑĤÐµÑĢ
ĠÐļ Ð°
ĠÑģ Ð°ÒĵÐ°Ð½
ĠÐ¼Ð°Ñģ ÑģÑĭ
iÐ½ ÑĪi
ĠÐ¶Ð¾ÑģÐ¿Ð°ÑĢ ÑĭÐ½
ĠÑĤÑĸÐ· Ð±ÐµÐº
ÑĸÑĢ ÑĸÐ»Ð³ÐµÐ½
ÒĽÒ±Ð» Ð¾Ð²
ÑĦ Ð°ÑĤ
ÑģÑĤÑĭ ÑĢÐ°
ĠÐŀ Ð¼Ð°ÑĢ
Ġt e
ĠÐ¶Ð°ÒĽ ÑģÑĭÐ»ÑĭÒĽ
ĠÐŀÒĽ ÑĥÑĪÑĭÐ»Ð°ÑĢ
act er
ĠÐ¾ÑĢ Ð´Ð°
ĠÐ¸Ð½Ð´ ÐµÐºÑģ
Ð¢ Ð°Ð±
ĠÐ¾ÑĦÐ¸ÑĨÐ¸Ð°Ð»ÑĮ Ð½Ð¾Ð¼
ĠÐ¾Ð±ÑĢÐ°Ñī ÐµÐ½Ð¸Ðµ
ĠÐĲÐ½ Ð°ÑĤ
ĠÐ¿Ð¾Ðº Ð»Ð¾Ð½
Ð°ÑĤÐµÐ»ÑĮ ÑģÑĤÐ²Ð¾
ĠW e
ĠÐ´Ò¯Ð½Ð¸Ðµ Ð¶Ò¯Ð·ÑĸÐ»ÑĸÐº
ĠÐ¾ÑĢÑĭÐ½ Ð´Ð°ÑĢÑĭÐ½Ð´Ð°
ĠÐ¿ÑĢÐ¾ÑĪ Ð»Ð¾
ĠÓĻÐºÑĸÐ¼ Ð´ÑĸÐº
ĠÐ°Ð¹Ð½Ð°Ð»ÑĭÑģ Ð°ÑĤÑĭÐ½
ĠÐ½ÓĻÑĢ Ñģ
ĠÑģÐ´ÐµÐ» Ð¾Ðº
ĠÐ¼Ð°ÒĽ Ò±Ð»
ĠÑĥÐ± ÐµÐ´
ĠÑĢÐ°Ñģ ÑħÐ¾Ð´
ĠÐ³Ð¾ÑĢÐ¾Ð´ Ñĥ
ĠÑħÐ¾ÑĤ Ð¸Ð¼
ĠÐ½Ð°Ð¼ÐµÑĢ ÐµÐ½
ĠÐ¼ÐµÐºÑģ Ð¸ÐºÐ°Ð½
ÐĲ ÐĶ
ĠÐ¾Ð½ Ð´Ð°ÒĵÑĭ
ĠÒĽÐ¾ÑĢÒĵÐ° ÑĥÒĵÐ°
Ð°Ð¹ ÑģÑĭÐ·
ĠÐ¡ Ð°ÒĽ
ĠÑĨÐ¸ÑĦ ÑĢÐ»ÑĭÒĽ
ĠÐ¦ Ð·
ĠÒ°Ð»Ñĭ Ð±ÑĢÐ¸ÑĤÐ°Ð½Ð¸Ñı
y pe
ĠÐ¾Ð±ÑĢÐ°ÑĤ Ð¸Ð»Ð¸ÑģÑĮ
parent Node
ÑĪÑĸÐ»Ñĸ Ð³ÑĸÐ½ÑĸÒ£
ĠSp ort
Ðº ÑĥÑĤ
Ġund er
ĠÑĤÑĸÑĢÐºÐµÐ» Ð´Ñĸ
Ġc ol
ĠÐ¶ Ð´ÐµÑĤ
ĠÑģÒ¯ Ð·
ĠÑĤÒ¯ Ð±ÐµÐ³
ĠÐ¡ÑĤ Ð°ÑĤ
ĠÑĤÐ°Ð»Ð°Ð¿ ÑĤÐ°ÑĢÑĭ
Ð´ÐµÑĢ ÑĸÐ½ÐµÐ½
ĠÐ¿ÑĢÐµÐ´ÑģÑĤÐ°Ð² Ð»ÐµÐ½Ñĭ
ĠÐº Ð¾ÑĪ
ĠÐºÑĸÑĤÐ°Ð¿ ÑħÐ°Ð½Ð°
ĠÐ¶Ð¸ ÑĭÑĢÐ¼Ð°
ĠÑĢÐ°Ð·ÑĬ ÑıÑģÐ½
ĠÑģÐµÐºÑĤÐ¾ÑĢ Ðµ
ĠÑģÐ¸ ÑĭÑĢ
Ð±Ðµ Ð³ÐµÐ½
ĠÑĤÑĥÑĭÐ½Ð´Ð° ÒĵÐ°Ð½
ĠÑįÐ»ÐµÐºÑĤ ÑĢÐ¸ÑĩÐµÑģÐº
ĠÐĵ ÑĢÐ°Ð½
ĠÐºÓ©ÑĪ Ñĥ
Ð¾Ð½ Ð°Ð»
ĠÐ¼Ð°ÑģÑģ Ð¸Ð²
ĠÐ¸Ð³ÐµÑĢ Ñĥ
7 6
T A
ĠÑģÐ² ÐµÑĢÑħ
ĠÑģÐ¾Ð± ÐµÑģÐµÐ´
ĠW orld
ĠÑĪÐºÐ¾Ð» Ð°
ÐµÑĢ ÑĭÐ²
ĠÐ¼Ð°ÑĢÐ°Ð¿Ð°ÑĤ ÑĤÐ°Ð»Ð´Ñĭ
Ð¸Ñĩ Ð½Ð¾Ð³Ð¾
ÑĭÑģÑĤÐ°ÑĢ ÒĵÐ°
ĠÐ°ÑģÐ¿ ÐµÐºÑĤ
ÐĿ Ð°Ñĥ
ÐĳÒ¯Ð³ÑĸÐ½ Ð³Ñĸ
Ð°Ð»Ð°ÑĢ ÑĭÐ¼ÐµÐ½
ĠÐ°Ð¿ Ð°ÑĤ
ĠÒĽÐ°ÑĢ ÑģÐ°Ò£
ĠÐĿÐµÐ· Ð°Ð²Ð¸Ñģ
ĠÐºÐ°Ð¶Ð´ Ð¾Ð¼Ñĥ
Ð±Ò±ÑĢ ÑĭÑĪ
Ð¼ Ð°Ð´Ñĭ
ĠÐ¿ÑĢÐ°Ð·Ð´ Ð½Ð¸Ñĩ
ĠÐ²Ð¾Ð·Ð±ÑĥÐ¶Ð´ÐµÐ½ Ð¾
ĠÐĲÑĢ ÑĭÑģ
ĠÐ¼ÐµÑħÐ°Ð½ Ð¸Ð·
ĠÐŁÐ°Ð¹ Ð´Ð°Ð»Ð°Ð½
ĠÒ¯ÑģÑĤ ÐµÐ¼
Ð¸Ð´ÐµÐ¼Ð¸ Ð¾Ð»Ð¾Ð³Ð¸ÑıÐ»ÑĭÒĽ
ĠÐĿÐ°ÑĤ Ð°Ð»ÑĮÑı
ĠÑģÐ°Ð» ÑĭÐ¼
Ñĥ Ð°
ĠÐ¿Ð°ÑĢ Ñĥ
ĠÐ¼Ð¸ÐºÑĢÐ¾ Ð¾ÑĢÐ³Ð°Ð½Ð¸Ð·Ð¼
Ð°Ñħ Ð°ÑĢ
ĠÐ¶Ð°ÑĢ ÒĽÑĭÐ½
Ġk n
ĠÐºÓ©Ð± ÐµÐ¹ÑĤÑĥ
ĠÐ» ÐµÐ³ÐµÐ½
ĠÐ½ÐµÐ¾Ð± ÑĭÑĩ
ĠÐ¶Ò¯Ðº ÑĤÐµÑĥ
ĠT V
Ð´Ð° ÐºÑĤ
ĠÐ¶Ð°Òĵ ÑĭÐ¼ÑģÑĭÐ·
ĠÑĤÒ¯ÑģÑĸÐ½ ÑĸÐºÑĤÑĸ
ĠÐŁÑĢÐ¾ Ð³ÑĢÐ°Ð¼
Ð°Ð»Ð° ÒĵÐ°Ð½
ĠÑģÑĤÐ¾ÑĢ Ð¾Ð½Ð°
ĠÑģÑĥÐ¼ Ð¼Ðµ
ĠÑĥÐ·Ð½ Ð°ÑĤÑĮ
ĠÐ½Ð°Ð¿ Ð¸ÑĤ
ĠÑĥÑĩÐµÐ± Ð½ÑĭÑħ
ĠÐ¾Ð±Ñģ ÑĥÐ´
ĠÐ¢Ò± Ò£ÒĵÑĭÑĪ
201 1
i ew
ĠÐ±ÐµÑĢ ÑĥÑĪÑĸÐ»ÐµÑĢ
ÑĢÐ°Ð¼ ÑĭÐ½
l ate
ĠÐļ ÑĥÐ»ÑĮ
ĠÐ±ÑĭÑģÑĤ ÑĢÐµÐµ
ĠÒĽÐ¾Ñģ ÑĭÐ»Ð´Ñĭ
ĠÐ¶Ð°ÑĢ Ð½Ð°Ð¼Ð°
ĠÑĩÐ¸Ð½Ð¾Ð² Ð½Ð¸ÐºÐ¾Ð²
ĠÑĸ ÑģÑĤÑĸ
ĠÐł ÐµÐ´
ĠX VI
ÑĭÑĢ Ð»Ñĭ
Ġc enter
ĠÑĢÑĥ ÐºÐ°Ñħ
ĠÐ¾ÑĢÐ³Ð°Ð½ Ð°Ñħ
ĠÐ¸Ð¼Ðµ ÑİÑĤÑģÑı
ĠÐºÐ¾Ð½ÑĨ Ñĥ
ĠÑģÐ¾Ð¾Ð±Ñī Ð°ÑİÑĤ
ÓĻÑĢ Ð±Ð¸
ĠÑĤ ÑĢÐ°ÑĤ
Ðļ Ò¯Ð½
ĠÐ¿Ð¾Ð¼ Ð¸Ð¼Ð¾
ĠÐ¿ÑĢÐ¾ÑĨÐµÐ´ ÑĥÑĢÑĭ
s p
ĠÐ¤ Ð¸Ð»
ĠÑĤÐ°ÑĢÑĤ ÒĽÐ°Ð½
ÐµÐ³ ÑĸÐ½
ĠÐĴÐ¾Ð· Ð¼Ð¾Ð¶Ð½Ð¾
ĠÐ´ Ð»Ð¸Ð½
ĠÐ³ÑĢÐ°Ð½ Ð¸ÑĨÑĥ
ĠÑģÐ°Ð½ ÐºÑĨÐ¸Ñı
==== ====
ĠÐ¶ÑĭÐ» ÒĽÑĭ
ĠÐºÐ¾Ð¾Ð¿ÐµÑĢ Ð°ÑĤÐ¸Ð²
ĠÑħÐ¾ÑĤ ÑĮ
ĠÐ´Ð¾ÑģÑĤ Ð¾Ð¹
Ñĭ ÑģÐºÐµÑĢ
ĠÐĳ ÑĥÑĢ
ov a
ĠÐµÑĪÑĤÐµÒ£ Ðµ
ef ault
ĠÐ±Ð°ÒĽÑĭÑĤ ÑĤÑĭ
ÑĪÑĭÐ»Ð°ÑĢ ÒĵÐ°
Ð½ ÑĭÐ½
ĠÐ¿Ð¾ÐºÐ°Ð· Ð°ÑĤÑĮ
Ð°ÑĢ ÒĵÐ°
Ġbet ween
Ò£ ÑĸÐ»
ĠÑĩÐµÐ¼Ð¿Ð¸ Ð¾Ð½Ð¾Ð¼
ĠÐ¼ÐµÑĤÐ¾Ð´ Ð¾Ð²
ÑĪÐ° ÒĵÐ°
ĠÐ¸Ð½ÑĦÐµÐº ÑĨÐ¸ÐµÐ¹
ĠÐºÐµÐ¼ ÑĸÐ½Ð´Ðµ
ĠÐ¶Ð°ÑĢ ÑĭÐ¼
ĠÒĽÑĭÑģÒĽÐ° ÑĪÐ°
ĠÑĤÑĸÑĢ ÐºÐµ
ĠÐķ ÑģÐºÐµ
ĠÓ©Ð½Ð´ÑĸÑĢ ÑĸÑģÑĸ
ĠÒĽÐ°Ð±ÑĭÐ» Ð´Ð°Ð¿
Ġmaterial s
ĠÑĦÑĥÐ½ Ð´Ð°
ĠÑĤÒ±ÑĢÐ¼ ÑĭÑģÑĤÑĭÒĽ
ĠÐ¿ÑģÐ¸Ñħ Ð¸ÐºÐ°Ð»ÑĭÒĽ
ĠÐ¿Ð¾Ð± Ð»Ð°Ð³Ð¾Ð´Ð°ÑĢ
ĠÐ¿ÑĥÐ±Ð»Ð¸Ðº Ð°ÑĨÐ¸Ð¸
ĠÒĽ Ð¾Ò£ÑĭÑĢ
ÑıÑī ÐµÐ¹
ĠÐ¼ÐµÑģÑĤ Ñĥ
ark et
ĠÐ¿ÑĥÐ½Ðº ÑĤÐ°Ñħ
ĠÐ´ÐµÑģÑıÑĤ ÐºÐ¸
ĠÐµÐ»ÑĸÐ¼ÑĸÐ· Ð´ÐµÐ³Ñĸ
Ġ ................................
Ð¢ ÐµÐ¼
ĠÐĳ ÐµÑģ
ÐµÐ¼ ÐµÐ½ÑĤ
ĠÐ¿ÑĢÐ¸Ð² ÑĭÑĩ
ĠÐĸ Ð°Ðº
ĠÓ© ÑĤÐµÑĥ
ĠÐ¿Ð¾ÑıÐ² Ð¸Ð»Ð¾ÑģÑĮ
Ñħ Ð°Ð¹
ĠÓ©ÐºÑĸÐ» Ð´ÐµÑĢÑĸÐ½ÑĸÒ£
ĠÐµ Ñħ
ĠÐ¿ÑĸÑĪ ÑĸÐ½
ĠÐ¢Ð°Ð»Ð´Ñĭ ÐºÐ¾ÑĢÐ³Ð°Ð½
ĠÐŀÐ´ Ð½Ð°
Ð¾Ð¼ Ð¸Ð½Ð°
ĠâĢ ĭ
ĠÑģÑĭ Ð³ÑĢÐ°
Ð³ ÑĢÐµÑģÑģ
ĠÐ¼iÐ½ Ð´ÐµÑĤ
ĠÐ¿Ð¾ÑģÐ¾Ð± Ð¸Ðµ
ĠÐ°Ð¹ Ð´Ð°Ð½
ĠÐ¾Ñĩ ÐºÐ¾Ð²
ĠÐ¨ ÐµÑĪ
ĠÐ±Ð°ÑĤ ÑĭÑģ
ĠÐ´ÐµÐ²Ð¾Ñĩ ÐºÐ°
ĠÐĶ ÑĥÐ±
ĠÐ¾ÑĤÐºÐ°Ð·Ð°Ð» ÑģÑı
ĠÑĤÐµÐ¼ÑĸÑĢ Ð¶Ð¾Ð»
off set
ĠÒ¯Ð¹ ÑĸÐ½Ðµ
ĠÑħÐ°ÑĤ ÑĤÐ°Ð¼
ĠÐºÓ©ÑĪ ÑĸÐ¿
ĠÒĽÐ°Ð±ÑĸÐ» ÐµÑĤÑĤÐµÑĢÑĸÐ½
Ð»Ð¾ Ñħ
ĠÑģÐº ÑĢÑĭÐ²
ĠÐŁ Ð¾Ð²
ĠÐŀ Ò£
ÐĿ Ð¾Ð²
our ce
ĠÐºÐ¸Ñģ Ð»Ð¾ÑĢ
Ð± ÐµÐºÑĤÑĸÒ£
ĠÐ±Ð°ÑĢ Ð»ÑĭÒĵÑĭÐ½
ĠÐ¤ Ð¾ÑĢÐ¼
7 3
Ġ8 9
eth od
ĠÑİ ÑģÑĤÐ¸
ĠÐĲÐ»ÐµÐº ÑģÐµ
ĠÐĴÐ»Ð°Ð´Ð¸Ð¼Ð¸ ÑĢÐ°
ĠÐ¶Ð°Ñģ Ð°Ð¼
ĠÒĽÒ±ÑĢÐ°Ð¼ ÑĭÐ½Ð´Ð°ÒĵÑĭ
ĠÐ¡Ð°Ñı ÑģÐ°ÑĤ
ĠÑģÐ¾ÑĤÑĢÑĥÐ´ Ð½Ð¸Ðº
ĠÐĶ ÐµÐ»Ð¾
ĠÑģÓ©Ð¹ Ð»ÐµÑģ
Ðľ Ð¡
ĠÐĲÑĢÐ¼ÐµÐ½ Ð¸Ð¸
ĠÐ¿ÑĢÐ¾ÑĨÐµÑģÑģ Ñĥ
u es
Ġ <
ĠÐ¿ÑĢÐµÐ´ÑģÑĤÐ°Ð² Ð¸ÑĤÐµÐ»Ñı
ĠÐ±Ð°ÑģÑĪ ÑĭÐ»
ĠÐ½ÐµÐ´Ð²Ð¸Ð¶ Ð¸Ð¼Ð¾ÑģÑĤÐ¸
ĠÐļ Ó¨
ĠÓĺÐ¹ ÐµÐ»
ÒĴ ÐĲÐĿ
Ð½Ð°Ñĩ Ð°Ð»ÑĮÐ½Ð¾
ĠÑģÐ°Ð» Ð°ÑģÑĭÐ½
ĠÐ°Ð» ÑİÐ¼Ð¸Ð½
ÐµÐ½ Ð´Ð°ÑĢ
ĠÐ¸Ð¼ Ð¿Ð¾ÑĢ
ĠÐķ Ð½
ĠÑģ Ð°ÑĤÑĭ
ĠÐ¾Ð³ÑĢÐ°Ð½Ð¸Ñĩ ÐµÐ½Ð¸Ð¹
ĠIn ternational
ĠÐķ ÑĪ
20 10
ĠÐ¾Ð±ÑīÐµ ÑģÑĤÐ²Ð¾
ĠÐ¾ÑĢÑĥÐ¶ Ð¸Ðµ
ĠÐĸÐµÑĢ Ð³ÑĸÐ»ÑĸÐºÑĤÑĸ
ĠÐĹ Ð°Ð¹
ĠÑĤÒ±ÑĤÑĭÐ½ Ñĥ
ĠÐĲÐ½ ÑĤÐ¾Ð½
ĠÐ½ Ò±ÑģÒĽÐ°
ĠÐ»Ð¸Ñĩ Ð½Ð¾Ð³Ð¾
i i
ĠÐ¶ÑĸÐ±ÐµÑĢ Ð³ÐµÐ½
m od
ĠÑĦÐ¾ÑĢÐ¼ Ð°ÑģÑĭ
ĠÐĶ ÓĻÑĢÑĸ
ĠÐľÐ°ÒĽ Ð°Ð»
ĠÐ¿ Ð»Ð°
ĠÑħ Ð°Ð´
ĠÐ´ÐµÐ¼Ð¾Ð½ ÑģÑĤÑĢÐ¸
ĠÑĤÓĻÑĥÐµÐ» ÑģÑĸÐ·Ð´ÑĸÐº
ĠÐ¢Ð°ÑĤÑĮÑı Ð½Ð°
ĠÐ¿Ð¾ÑģÑĤÑĢÐ¾ Ð¸ÑĤÑĮ
ĠÐ¿ÑĢÐ¸ÐµÐ· Ð¶
ĠÑĤÐ¸Ð³ÑĸÐ· ÐµÐ´Ñĸ
ĠÐ» Ð¸Ð³
ĠÐŁÑĢÐ°Ð²Ð¸ÑĤÐµÐ»ÑĮ ÑģÑĤÐ²Ð¾
ĠÐ¼ÐµÐ¶Ð´ÑĥÐ½Ð°ÑĢÐ¾Ð´ Ð½ÑĭÐ¹
Ð¶Ðµ ÑģÑĤÐ¸
ĠÐ¿Ð°ÑĤ ÑĢÑĥ
ĠÒļÐ¾Ñģ ÑĭÐ¼ÑĪÐ°
rand om
ĠÐ£Ñĩ ÐµÐ½
ĠÐ¦ÐµÐ½ÑĤ ÑĢÐ°
ĠÑĤÐµÐ°ÑĤ ÑĢÐ°
ĠÐ¿Ð¾Ð² ÐµÑģÑĤ
ĠÑĤÐ°Ð· Ð°Ð»Ð°Ñĥ
ĠÑĪ Ð°Òĵ
ĠÑĥ ÑĢÐ°Ð½
Ñī Ð°
ĠÑģÐ´ÐµÐ» ÐºÐ¸
Ð± Ð°Ð·
ÑĨ Ð¾Ð¼
ĠÐ±ÑĥÐ´ ÑĥÑīÐµÐ³Ð¾
ĠÐ¢Ó© Ð¼ÐµÐ½
ĠÑģÓ©Ð½ Ð´ÑĸÑĢÑĥ
ĠÐ½ÐµÐ± Ð¾Ð»ÑĮ
ĠÐ¶ ÑĸÐ¿
ĠWB A
ĠÐ±ÐµÑĤ Ð¾Ð½
ĠÑĤÐ¾Ð»ÑĭÒĽ ÑĤÐ°Ð¹
ĠÓ© ÑĪ
Ð±Ðµ Ñİ
ĠÐ±Ð»Ð°Ð³Ð¾ Ð¿ÑĢÐ¸ÑıÑĤ
Ð¨Ð°Ñħ ÑĤÐµÑĢ
ĠÑĢÐµ ÑĩÐ¸
ĠÐ²Ð¾Ð·Ð¼Ð¾Ð¶ Ð½Ð¾ÑģÑĤÐµÐ¹
ĠÐ²Ð¾Ð¿ÑĢÐ¾Ñģ Ñĥ
ĠÑįÐº Ð¾Ð»Ð¾Ð³Ð¸Ñı
ĠÐ¾Ð´ Ð½Ð¾Ð¼Ñĥ
ĠÐ¶Ð°Ð± ÑĭÒĽ
, ,
Ð¾Ð½ Ð¸
ĠÐ¿ÑĢÐ¾Ð¸Ð·Ð²Ð¾Ð´ Ð¸ÑĤÐµÐ»ÐµÐ¹
Ðŀ ÑĢÑĤÐ°ÒĽÒĽÐ¾ÑĢ
ĠÐ±Ð¾ÑĢ ÑĤÑĥ
ĠÓ©ÑĤÐºÑĸÐ· Ð³ÑĸÑĪ
ĠÐļ Ð¸ÐµÐ²
ĠÐ¾ÑģÑĤ Ð°Ð»ÑĮÐ½ÑĭÐµ
7 2
ĠÐ¶ÑĭÐ½ ÑĭÑģÑĤÑĭÒĽ
ĠÐ°Ð¹Ð¼Ð°ÒĽ ÑĤÐ°
ĠÐ± Ð»Ñİ
Ð¸ÑĢÐ¾Ð²Ð°Ð½ Ð½Ð¾Ð³Ð¾
O S
ĠÐ¿Ð¾Ð´ Ð½
ĠÐ¢ ÑĢÐ¸
Ġ14 0
Ġ url
Ð°Ð¿ ÒĽÑĭ
[...]
