{"<|endoftext|>":0,"<|padding|>":1,"!":2,"\"":3,"#":4,"$":5,"%":6,"&":7,"'":8,"(":9,")":10,"*":11,"+":12,",":13,"-":14,".":15,"/":16,"0":17,"1":18,"2":19,"3":20,"4":21,"5":22,"6":23,"7":24,"8":25,"9":26,":":27,";":28,"<":29,"=":30,">":31,"?":32,"@":33,"A":34,"B":35,"C":36,"D":37,"E":38,"F":39,"G":40,"H":41,"I":42,"J":43,"K":44,"L":45,"M":46,"N":47,"O":48,"P":49,"Q":50,"R":51,"S":52,"T":53,"U":54,"V":55,"W":56,"X":57,"Y":58,"Z":59,"[":60,"\\":61,"]":62,"^":63,"_":64,"`":65,"a":66,"b":67,"c":68,"d":69,"e":70,"f":71,"g":72,"h":73,"i":74,"j":75,"k":76,"l":77,"m":78,"n":79,"o":80,"p":81,"q":82,"r":83,"s":84,"t":85,"u":86,"v":87,"w":88,"x":89,"y":90,"z":91,"{":92,"|":93,"}":94,"~":95,"¡":96,"¢":97,"£":98,"¤":99,"¥":100,"¦":101,"§":102,"¨":103,"©":104,"ª":105,"«":106,"¬":107,"®":108,"¯":109,"°":110,"±":111,"²":112,"³":113,"´":114,"µ":115,"¶":116,"·":117,"¸":118,"¹":119,"º":120,"»":121,"¼":122,"½":123,"¾":124,"¿":125,"À":126,"Á":127,"Â":128,"Ã":129,"Ä":130,"Å":131,"Æ":132,"Ç":133,"È":134,"É":135,"Ê":136,"Ë":137,"Ì":138,"Í":139,"Î":140,"Ï":141,"Ð":142,"Ñ":143,"Ò":144,"Ó":145,"Ô":146,"Õ":147,"Ö":148,"×":149,"Ø":150,"Ù":151,"Ú":152,"Û":153,"Ü":154,"Ý":155,"Þ":156,"ß":157,"à":158,"á":159,"â":160,"ã":161,"ä":162,"å":163,"æ":164,"ç":165,"è":166,"é":167,"ê":168,"ë":169,"ì":170,"í":171,"î":172,"ï":173,"ð":174,"ñ":175,"ò":176,"ó":177,"ô":178,"õ":179,"ö":180,"÷":181,"ø":182,"ù":183,"ú":184,"û":185,"ü":186,"ý":187,"þ":188,"ÿ":189,"Ā":190,"ā":191,"Ă":192,"ă":193,"Ą":194,"ą":195,"Ć":196,"ć":197,"Ĉ":198,"ĉ":199,"Ċ":200,"ċ":201,"Č":202,"č":203,"Ď":204,"ď":205,"Đ":206,"đ":207,"Ē":208,"ē":209,"Ĕ":210,"ĕ":211,"Ė":212,"ė":213,"Ę":214,"ę":215,"Ě":216,"ě":217,"Ĝ":218,"ĝ":219,"Ğ":220,"ğ":221,"Ġ":222,"ġ":223,"Ģ":224,"ģ":225,"Ĥ":226,"ĥ":227,"Ħ":228,"ħ":229,"Ĩ":230,"ĩ":231,"Ī":232,"ī":233,"Ĭ":234,"ĭ":235,"Į":236,"į":237,"İ":238,"ı":239,"Ĳ":240,"ĳ":241,"Ĵ":242,"ĵ":243,"Ķ":244,"ķ":245,"ĸ":246,"Ĺ":247,"ĺ":248,"Ļ":249,"ļ":250,"Ľ":251,"ľ":252,"Ŀ":253,"ŀ":254,"Ł":255,"ł":256,"Ń":257,"ĠÐ":258,"Ð°":259,"Ðµ":260,"ÑĤ":261,"Ð½":262,"Ð¾":263,"ÑĢ":264,"Ñģ":265,"Ñĭ":266,"Ð»":267,"Ð¸":268,"Ð´":269,"Ñĸ":270,"Ð¼":271,"Ñĥ":272,"Ðº":273,"Ð²":274,"ÒĽ":275,"Ð·":276,"Ð¹":277,"ÑģÑĤ":278,"Ð°Ð½":279,"Ð³":280,"ÐµÐ½":281,"Ñı":282,"Ð¿":283,"Ð°ÑĢ":284,"ĠÐ¿":285,"ĠÑģ":286,"Ð±":287,"ÐµÑĢ":288,"Ð°Ð»":289,"ĠÐ±":290,"ÑĪ":291,"ĠÑĤ":292,"ĠÐº":293,"Òĵ":294,"ĠÐ¾":295,"ÑĮ":296,"Ò£":297,"ĠÐ¶":298,"ĠÐ²":299,"ÐµÑĤ":300,"ÑĭÐ½":301,"Ñĩ":302,"Ñħ":303,"Ð°ÑĤ":304,"ĠÐ°":305,"ĠÐ¼":306,"ĠÐ½":307,"Ð¾Ð²":308,"Ð¾Ð»":309,"ĠÐ´":310,"Ð´Ð°":311,"Ð´Ñĭ":312,"ĠÒĽ":313,"ÑĢÐ°":314,"ÐµÐ»":315,"ÑĸÐ½":316,"Ð¶":317,"ĠÐ¸":318,"Ð½Ð¾":319,"Ð¾ÑĢ":320,"ÑĢÐµ":321,"Ò±":322,"ÑĨ":323,"Ó©":324,"ÓĻ":325,"Ð½Ñĭ":326,"Ð°Ñģ":327,"Ð¸Ñı":328,"ÑĭÐ»":329,"Ò¯":330,"Ð¸ÑĤ":331,"Ð´Ñĸ":332,"Ñİ":333,"ÑĢÐ¾":334,"ÐµÐº":335,"ÐµÐ¼":336,"Ð°Ð¼":337,"ÐµÑģ":338,"ÑĭÒĽ":339,"Ð°Ð¹":340,"ĠÐ¿Ð¾":341,"Ð°Ð·":342,"Ð¾Ð¼":343,"Ð¸Ð½":344,"ĠÐµ":345,"Ð³Ð¾":346,"Ð´Ðµ":347,"ĠÐ½Ð°":348,"Ð¾Ð½":349,"ĠÐ·":350,"ÑĦ":351,"Ð¸Ðº":352,"ÐµÐ¹":353,"Ð°ÒĽ":354,"Ð¸Ð»":355,"ĠÐ³":356,"ÑĤÐ¾":357,"ÑĸÐ»":358,"ÑģÐº":359,"ĠÑĥ":360,"ÑĢÑĥ":361,"ĠÐĲ":362,"ÑĤÑĭ":363,"Ñī":364,"Ð°Ðº":365,"Ð¾Ð¹":366,"ĠÐļ":367,"Ñį":368,"ÑĭÑģ":369,"Ð¸Ð¼":370,"ÑĤÐ°":371,"Ð¸Ðµ":372,"ÑģÑĤÐ²":373,"ÒĵÐ°Ð½":374,"ĠÐ¡":375,"Ð¾Ð´":376,"ÑĸÑĢ":377,"ÑĭÐ¼":378,"ĠÑĩ":379,"ÑĨÐ¸":380,"ÑģÑĤÐ°Ð½":381,"ĠÓ©":382,"ÑĸÐº":383,"Ð½Ðµ":384,"ÑģÑı":385,"ÑĸÐ¼":386,"Òļ":387,"ÒĵÑĭ":388,"ĠÑģÐ¾":389,"ÐµÐ´":390,"ĠÑį":391,"ÑĭÒ£":392,"ÒĵÐ°":393,"ĠÑĪ":394,"ĠÐ¾Ð±":395,"ĠÐ¿ÑĢÐ¾":396,"Ð´Ð°ÑĢ":397,"Ð³Ñĸ":398,"ĠÐ±Ð¾Ð»":399,"ĠÑĢÐ°":400,"Ġ-":401,"ĠÐ½Ðµ":402,"Ð°Ñĥ":403,"ÑĭÐ·":404,"âĢ":405,"Ð¾ÑĤ":406,"..":407,"ÑĢÐ¸":408,"Ġ2":409,"Ġ1":410,"ĠÐĳ":411,"Ð¾Ñģ":412,"ĠÐŁ":413,"ĠÐľ":414,"Ð»Ð°":415,"Â»":416,"ÑĸÒ£":417,"Ġ(":418,"Â«":419,"ÑĭÐ¿":420,"ÑĤÐµÑĢ":421,"ÑĭÐ½Ð´Ð°":422,"Ð°Ð±":423,"Ð³Ðµ":424,"ĠÐŀ":425,"ĠÐĴ":426,"ĠÐ¾ÑĤ":427,"ÐĲ":428,"ĠâĢ":429,"Ð¸Ð²":430,"ĠÂ«":431,"ĠÐ¢":432,"Ð¾Ð±":433,"ÐµÐ»ÑĮ":434,"Ð°Ð¿":435,"ÑĥÑĢ":436,"ĠÑģÑĤ":437,"Ð°Ñı":438,"ĠÐºÓ©":439,"Ð¸Ð¹":440,"ĠÓĻ":441,"ÑĭÑĢ":442,"ĠÐ¶ÓĻ":443,"Ð¸Ñħ":444,"ÑĤÐµ":445,"ĠÒļ":446,"ÐµÐ²":447,"Ð³ÐµÐ½":448,"Ð°Ñħ":449,"ĠÐ¶ÓĻÐ½Ðµ":450,"Ð¸Ð·":451,"Ð¸Ñĩ":452,"ÑĤÐ°ÑĢ":453,"ĠÑĢÐµ":454,"ÑĸÐ·":455,"ĠÐĿ":456,"ĠÐ»":457,"Ð°Ð²":458,"Ð¼ÐµÐ½":459,"ÐµÐ·":460,"Ð¾Ð³":461,"Ð¸Ð¸":462,"Ð´Ð°Ð½":463,"ĠÐ´Ðµ":464,"ÑģÑĤÐ¸":465,"Ð½ÑĭÑħ":466,"ÑĢÐ¾Ð²":467,"ÑĭÐ½ÑĭÒ£":468,"ÐµÐ½Ð¸Ñı":469,"Ð´ÑĭÒ£":470,"ÑĤÑĸ":471,"Ð»Ð°ÑĢ":472,"Ð°Ð»ÑĭÒĽ":473,"ĠÑĦ":474,"ĠÐł":475,"ĠÐ°Ð»":476,"Ð»Ñı":477,"Ò±ÑĢ":478,"Ð¸Ñģ":479,"ĠÒ¯":480,"Ð°ÑģÑĤ":481,"ĠÐ¾ÑĢ":482,"Ð°Ð»ÑĮ":483,"ĠÐ¿ÑĢÐµ":484,"Ð´ÐµÑĢ":485,"Ð°Òĵ":486,"Ð»Ð¸":487,"Ð°ÑĤÑĮ":488,"Ð½Ð¾Ð¹":489,"Ð´ÐµÐ½":490,"Ð°Ð´Ñĭ":491,"ÑĢÐ°Ð½":492,"ĠÑĩÑĤÐ¾":493,"Ðļ":494,"Ð¡":495,"ÑĸÐ½Ð´Ðµ":496,"Ò±Ð»":497,"Ð½Ð¾Ð³Ð¾":498,"ĠÑħ":499,"ÑĭÐ½Ð°":500,"ÑģÐ¿":501,"Ġ\"":502,"Ð¾Ð¶":503,"Ð¸ÑģÑĤ":504,"Ġ20":505,"ÐºÐ¾":506,"ĠÐ¼ÐµÐ½":507,"Ð°Ò£":508,"ÑĥÐ»":509,"ĠÐĶ":510,"ÑĪÐ°":511,"ÑģÑĭ":512,"ĠâĢĵ":513,"ÑĭÑģÑĤ":514,"ÑģÐµ":515,"ĠÐ¸Ð·":516,"ÑĨÐ¸Ñı":517,"ÑĤÑĥ":518,"ĠÐĸ":519,"in":520,"Ð¾Ð·":521,"ÐµÑģÑĤ":522,"Ð¾Ðº":523,"ÑĥÑĤ":524,"ĠÐ¿ÑĢÐ¸":525,"Ð½ÑĭÐµ":526,"ÑİÑĤ":527,"Ò¯ÑĢ":528,"ÑĸÐ½ÑĸÒ£":529,"Ð°Ð»Ð°ÑĢ":530,"Ðŀ":531,"Ð»ÑĭÒĽ":532,"ĠÐ¿ÐµÑĢ":533,"Ð¼ÐµÑĤ":534,"ĠÐ¸Ð½":535,"ÑĸÐ¿":536,"Ð¾Ð³Ð¾":537,"ĠÐķ":538,"ĠÐ°ÑĢ":539,"Ð°Ð»Ñĭ":540,"ÑĢÐ°Ð²":541,"Ð°Ð·Ð°ÒĽ":542,"Ð½Ð¾Ð¼":543,"Ð½Ð¸Ðº":544,"ÑĥÑĪ":545,"Ð¾Ð»ÑĮ":546,"Ð»Ðµ":547,"Ð´ÑĭÒĽ":548,"ĠÐ±ÑĸÑĢ":549,"er":550,"ÐµÐ½Ð¸Ðµ":551,"Ð¢":552,"Ġt":553,"ÑĨÐ¸Ð¸":554,"ĠÐ°Ð¹":555,"Ð»ÐµÐº":556,"Ð½ÑĭÒ£":557,"Ð°ÐµÑĤ":558,"Ð¾Ð¿":559,"ÑĥÐ±":560,"ĠÐ¶ÑĭÐ»":561,"Ð°Ð·Ð°Ñħ":562,"ÐµÑģÐº":563,"Ð´ÑĸÒ£":564,"Ð½ÑĭÐ¹":565,"ÑıÑĤ":566,"ĠÐ¿Ð¾Ð»":567,"on":568,"ÐºÑĤ":569,"Ġ.":570,"ÑĥÑİ":571,"Ð¸ÑĤÑĮ":572,"ÐµÐ½ÑĤ":573,"Ð´Ð°Ð¹":574,"ÒĽÐ°":575,"ĠÑĤÐµ":576,"ÑĪÐµ":577,"ĠÐ·Ð°":578,"ĠÒ±":579,"Ð¼Ð°":580,"ÑģÑĤÑĮ":581,"ĠÐ¿Ð¾Ð´":582,"ĠÐ±Ð°Ñģ":583,"ÑĸÑģ":584,"Ðľ":585,"ÐºÐ°":586,"Ð¶Ðµ":587,"ÑĥÐ´":588,"ĠÐ±ÐµÑĢ":589,"Ð°Ð·Ð°ÑħÑģÑĤÐ°Ð½":590,"ĠÐºÐ¾Ð¼":591,"ÑĸÐ½Ðµ":592,"Ð½Ð°":593,"ĠÑĢÐ°Ð·":594,"ĠÓ©Ð·":595,"ĠÐĺ":596,"Ðł":597,"Ð½ÑĭÐ¼":598,"ĠÒĽÐ°ÑĢ":599,"ÐºÐ¸":600,"ÐĿ":601,"ĠÒĽÐ°Ð»":602,"Ð°ÑģÑĭ":603,"Ð¾ÑĢÑĭ":604,"Ð½Ð¸":605,"ĠÒĽÒ±":606,"ĠÑģÐ²":607,"ÐºÐµ":608,"an":609,"Ð°ÑĤÑĭÐ½":610,"ĠÐ±Ð°ÑĢ":611,"....":612,"ĠÐ°Ñĥ":613,"ÑĥÑĩ":614,"Ð»Ð°Ð½":615,"Ð°Ð½Ð¸Ñı":616,"Ð°ÑĤÑĭ":617,"ÑīÐµ":618,"Ðĳ":619,"ĠÑĢ":620,"ĠÐ²Ñĭ":621,"Ð¸ÑĤÐµÐ»ÑĮ":622,"ÑģÐ»":623,"ĠÐ¿ÑĢÐµÐ´":624,"ÐºÐµÐ½":625,"ÑĤÐ°Ð½":626,"ĠÐĲÐ»":627,"\",":628,"Ð»ÐµÐ½":629,"ÑĭÑĤ":630,"he":631,"00":632,"Ðķ":633,"ÑĭÒĵ":634,"Ð°Ð»Ð¸":635,"ĠÐºÐµÐ»":636,"Ð¾Ð´Ð°":637,"ĠÐºÒ¯":638,"ĠÑģÐ»":639,"en":640,"ÑĤÑĸÐº":641,"Ġ3":642,"Ð¾Ñĩ":643,"Ð³ÑĸÐ·":644,"Ð°Ð¶":645,"Ð´Ñĥ":646,"Ð½Ð°Ð»":647,"Ò±Ð¼":648,"ÑĤÐ¸":649,"ĠÑģÐ¿":650,"ĠÐĵ":651,"Ð¸ÑĩÐµÑģÐº":652,"st":653,"at":654,"Ó©Ð»":655,"ÑĤÑĭÒĽ":656,"ĠÑĤÐ°Ðº":657,"ÐŁ":658,"Ð¸Ð»Ð¸":659,"Ð°Ð·Ð°ÒĽÑģÑĤÐ°Ð½":660,"Ð°Ð»Ð°":661,"ĠÒ¯ÑĪ":662,"or":663,"Ð´ÐµÐ»":664,"ÑĤÐ¾Ð¼":665,"ĠÐºÐ¾Ð½":666,"Ġ,":667,"ÐµÒ£":668,"ĠÒĽÑĭÐ·":669,"ÑģÑĤÐ²ÐµÐ½":670,"Ð¾ÑģÑĤ":671,"Ð´Ð°Ð¼":672,"ĠÑı":673,"ÑĥÐ¶":674,"ĠÑįÑĤÐ¾":675,"ÑħÐ¾Ð´":676,"ĠÐ±ÑĭÐ»":677,"ĠÐºÐ¾ÑĤ":678,"ÑģÐ°":679,"ÑģÑĤÐ²Ð°":680,"Ð³Ð°Ð½":681,"ĠÐ¿ÑĢ":682,"ÐµÐ´Ñĸ":683,"ĠÓ":684,"ĠÐºÓ©ÑĢ":685,"ĠÑĤÒ¯":686,"Ð»Ð¸Ðº":687,"Ð¿Ð°ÑĢ":688,"ĠÐ±Ð¾Ð¹":689,"ĠÐļÐ°Ð·Ð°ÑħÑģÑĤÐ°Ð½":690,"Ð°Ð¼Ð¸":691,"Ð¼Ðµ":692,"Ðĺ":693,"ĠÐ¶Ò¯":694,"Ð¸ÑĨ":695,"ÒĽÐ°Ð½":696,"Ð½Ð¾ÑģÑĤÐ¸":697,"ĠÐ¼ÓĻ":698,"ĠÐºÐµÐ·":699,"Ð¾Ð»Ð¾Ð³":700,"ĠÐ¶Ò±Ð¼":701,"ÐµÑĢÑĸ":702,"ÐĶ":703,"Ð´ÑĸÐº":704,"Ð°ÑĪ":705,"ĠÐ´Ð°":706,"Ġ201":707,"ĠÐ¶Ð°Ñģ":708,"Ð¸Ñİ":709,"ĠÐ´Ð»Ñı":710,"ĠÒ¯ÑĪÑĸÐ½":711,"ÐµÐºÑĤ":712,"ÑĭÐ²":713,"ĠâĢĶ":714,"Ð¸Ð´":715,"ĠÐ¾ÒĽ":716,"ÑĭÐ½ÑĪÐ°":717,"ÑĥÐ±Ð»Ð¸Ðº":718,"ÐµÑģÐ¿":719,"le":720,"ÑģÑĤÐ°Ð²":721,"ĠÐ¾Ð¿":722,"ÑĥÐ¿":723,"ÑģÐºÐ¾Ð¹":724,"ÑĤÐ°Ð»":725,"ĠÐ´ÐµÐ¿":726,"ÐµÑĤÑĸÐ½":727,"ÑĤÑĭÒ£":728,"ĠÑĨ":729,"ÐµÐ³":730,"ĠÑĸ":731,"ĠÐ£":732,"Ð¸ÑĢÐ¾Ð²":733,"ĠÒĽÐ¾Ð»":734,"ÐºÐ°Ð·":735,"ĠÐ¨":736,"al":737,"Ð°Ð´":738,"ĠÐ¾Ñģ":739,"ĠÐ±ÑĸÐ»":740,"re":741,"20":742,"ÐĴ":743,"ĠÐºÐ°Ðº":744,"ĠÑģÐ°Ð»":745,"Ð½Ð°Ñı":746,"ĠÒĽÐ°ÑĤ":747,"Ð°ÐµÐ²":748,"ÑĢÐµÐ´":749,"Ð·Ð¸":750,"Ð½Ð¾Ðµ":751,"ĠÒļÐ°Ð·Ð°ÒĽÑģÑĤÐ°Ð½":752,"Ð»ÐµÐ¼":753,"ÑĢÐ°Ð·":754,"ÑĪÑĸ":755,"ĠÑĤÑĥÑĢ":756,"ÑĨÐ¸Ð¾Ð½":757,"ĠÐ´Ð¾":758,"Ð¸ÑĢ":759,"Ð°ÑĢÑĭ":760,"ÐµÑĤÑģÑı":761,"ÑĢÐ°Ð¼":762,"ÑĬ":763,"ÐµÐ±":764,"Ġo":765,"Ð¾Ð²Ñĭ":766,"ÐµÑĩ":767,"Ð»Ñĸ":768,"ÐºÑĸ":769,"it":770,"ÓĻÑĢ":771,"ĠÒĽÑĭÐ·Ð¼ÐµÑĤ":772,"Ðĸ":773,"ĠÐ²ÑģÐµ":774,"Ð½Ð¾ÑģÑĤÑĮ":775,"Ð³ÐµÑĢ":776,"Ð¸Ð½Ð°":777,"ĠÐ±Ð¾Ð¹ÑĭÐ½ÑĪÐ°":778,"Ġ4":779,"ĠÑĥÑĩ":780,"Ð°ÑĢÑĤ":781,"Ġ5":782,"Ð»ÐµÑĢ":783,"ĠÐĹ":784,"Ð½Ð¾Ð²":785,"ĠÐ´ÐµÐ¹":786,"Ð´Ð°Ð»":787,"Ð½Ñı":788,"Ð°Ð½Ñĭ":789,"Ġthe":790,"Ð¾Òĵ":791,"ĠT":792,"Ð»ÐµÐºÐµÑĤ":793,"ĠÑĢÐ°Ð±":794,"ÐµÐ¶":795,"ÐµÐ¼Ð»ÐµÐºÐµÑĤ":796,"ĠÐŃ":797,"ĠÑģÑĥ":798,"ÑģÑģ":799,"ĠÐ°Ð²":800,"ĠÐ¤":801,"ĠÐ´Ð¾Ð»":802,"Ð°ÑİÑĤ":803,"ÑĢÐ°ÑĤ":804,"ĠÐ±ÑĥÐ´":805,"Ð¾ÑĢÐ¼":806,"ÐºÑĸÐ½":807,"ĠÓ©ÑĤ":808,"ĠÐ¼Ò¯":809,"ĠÐ¾Ð½":810,"ÐµÐµ":811,"ÑģÐµÑĤ":812,"ÐĽ":813,"ĠÐ°ÒĽ":814,"ÐµÑĪ":815,"ĠÐ°Ð´Ð°Ð¼":816,"ÑĭÑģÑĭ":817,"ar":818,"Ð¾Ñı":819,"Ġc":820,"ÑĭÐ½Ð´Ð°ÒĵÑĭ":821,"ĠÒĽÒ±ÑĢ":822,"Ð¸Ð»ÑĮ":823,"Ð¸ÑĤÐµÐ»":824,"ÑĤÑĭÑĢ":825,"ÑĭÐ»Ð°ÑĢ":826,"Ð³Ð¸":827,"ĠÑĤÒ¯ÑĢ":828,"ÒĽÐ°ÑĢ":829,"Ð¸Ð½Ð¸ÑģÑĤ":830,"ĠÐ²Ð¾Ð·":831,"ĠÑĤÑĥÑĢÐ°Ð»Ñĭ":832,"ÑĢÐ°ÒĽ":833,"Ð±ÐµÐº":834,"Ð¾Ðµ":835,"ĠÐ³Ð¾Ð´Ð°":836,"Ġp":837,"ĠÐ¶Ð°Òĵ":838,"Ð°ÑĤÐµÐ»ÑĮ":839,"ÑĥÑĭ":840,"ÑģÑĤÐ²Ð¾":841,"ÐµÑĢÑĤ":842,"ĠÐ°ÑĤ":843,"ĠÐ¾Ð±Ð»Ð°":844,"ÐµÑģÑĸ":845,"Ð»ÑĸÐº":846,"ÑĸÐ»ÑĸÐº":847,"Ġa":848,"ÑĢÐµÐº":849,"Ð»Ñĭ":850,"Ð´Ð°ÒĵÑĭ":851,"Ð¾Ð±Ñī":852,"ÑĤÐ°Ð¼":853,"ÑĭÐ½Ð°Ð½":854,"ĠÒ":855,"ion":856,"ĠÐ±Ó©Ð»":857,"ĠÐ±Ð°Ð¹":858,").":859,"Ð³ÑĸÐ½":860,"ÑĭÐ»Ñĭ":861,"Ð»Ñİ":862,"ĠÐ¾ÑĢÐ³Ð°Ð½":863,"ĠÐºÐ¾ÑĤÐ¾ÑĢÑĭ":864,"ĠÑĤÐ°ÑĢ":865,"ÐºÐ¾Ð²":866,"ĠÑĢÐ¾":867,"ĠÐºÐ¾Ð¼Ð¿":868,"ÑĥÐ½":869,"ĠÐ±Ð°ÑģÑĤ":870,"ÓĻÑģ":871,"ĠÐ¿Ð°Ð¹":872,"Ó©Ð·":873,"\":":874,"ĠÐ¾Ð´":875,"ÑĭÑģÑĤÑĭ":876,"ĠÐ¶ÐµÑĤ":877,"Ð¾ÑĢÑĤ":878,"ÐµÐ¿":879,"is":880,"ÑĥÐ»ÑĮ":881,"Ð¨":882,"ĠÑĤÐ°Ð±":883,"Ð°Ð¹Ð´Ñĭ":884,"ĠÒĵ":885,"ĠÐĽ":886,"Ð¸ÐºÐ°":887,"ÐºÑĥ":888,"ĠÑģÐ¾Ð¾Ð±Ñī":889,"Ð¸ÐºÐ°Ð»ÑĭÒĽ":890,"ÐµÑģÐµ":891,"........":892,"Ð°Ð½Ð¸Ðµ":893,"ÐµÐ½ÑĮ":894,"ÑĥÒĵÐ°":895,"ĠÐĲÐ»Ð¼":896,"ÑĤÑĭÐ½":897,"ĠÓĺ":898,"Â»,":899,"ÑĸÐ»Ñĸ":900,"Ġof":901,"kz":902,"ĠÐ´Ð¸":903,"Ð¼Ð¸":904,"ĠÐ¶Ð°ÑĤ":905,"ĠÓ©Ð½":906,"ÑĤÐ¾ÑĢ":907,"ÑİÑī":908,"ĠÐµÐ¼":909,"Ð¼Ð°Ð½":910,"Ð±Ñĭ":911,"Ð¸ÑģÑĮ":912,"ÐµÑĢÐµÐº":913,"Ð¸ÑıÐ»ÑĭÒĽ":914,"ÑĭÐ»ÑĭÒĽ":915,"ĠÐ³Ð¾Ð´":916,"ĠÐºÒ¯Ð½":917,"Ð°ÑĢÐ°":918,"ÐµÐ»ÐµÑĢ":919,"ĠÐ±ÐµÐ»":920,"Ð°ÑĤÑĤÐ°ÑĢ":921,"ĠÐºÓ©ÑĢÑģÐµÑĤ":922,"ÑģÑĭÐ½":923,"Ð«":924,"ĠÑĤÒ±":925,"Ð¾ÑĤÐ¾":926,"Ð¸ÑĢÑĥ":927,"ÑĢÐµÐ¼":928,"ĠÐ½ÐµÐ¼":929,"Ġs":930,"ÑģÐºÐ¾Ð³Ð¾":931,"Ð´ÐµÐ½ÑĤ":932,"ÐºÐ¾Ð½Ð¾Ð¼":933,"ĠÐ¶Ò±Ð¼ÑĭÑģ":934,"ĠÑĤÒ±ÑĢ":935,"Ð¾Ð²Ð°":936,"ĠÐ´Ð²":937,"\":\"":938,"Ð»Ð°Ð²":939,"ÑĭÐ¼ÐµÐ½":940,"es":941,"ÐµÑģÐ¿ÑĥÐ±Ð»Ð¸Ðº":942,"ĠÑĤÓ©":943,"ĠÐµÐ»":944,"ĠÐ¿ÑĢÐ°Ð²":945,"ÑĭÑĪ":946,"ĠÑģÑĤÑĢÐ°Ð½":947,"Ð°ÑĨÐ¸Ñı":948,"ĠÐ¶Ò¯ÑĢ":949,"ĠÑĪÑĭÒĵ":950,"Ð°ÑģÑĭÐ½ÑĭÒ£":951,"ÑĭÐ»ÒĵÐ°Ð½":952,"\",\"":953,"ĠÐŁÐ¾":954,"ĠÐ¥":955,"ĠÑįÐº":956,"ĠÓĻÑĢ":957,"Ð°ÐµÑĤÑģÑı":958,"ĠÐ¿ÑĢÐ¾Ð²":959,"ÑĭÐ»ÑĭÐ¼":960,"Ð´ÐµÑĤ":961,"ĠÐ¼ÐµÐ¼Ð»ÐµÐºÐµÑĤ":962,"ĠÐ¶ÐµÑĢ":963,"ĠÐłÐµÑģÐ¿ÑĥÐ±Ð»Ð¸Ðº":964,"ĠÐ¾ÑĤÑĭÑĢ":965,"ĠÑĤÑĥ":966,"ÑĢÑı":967,"ĠÐ²Ð¾":968,"ĠÐºÐ¾ÑĢ":969,"ic":970,"ĠÐ±Ð¾Ð»Ð°Ð´Ñĭ":971,"Ð¿ÑĢÐ°Ð²":972,"Ð£":973,"Ġ6":974,"Ġ19":975,"Ð¾ÒĽ":976,"Ð½ÑĥÑİ":977,"ÐĨ":978,"ĠÐ³Ð¾Ñģ":979,"ÑĪÐµÐ½":980,"Ð´ÐµÐ¹":981,"ĠÐ±Ð¾Ð»ÑĭÐ¿":982,"ÑĤÐ°Ñĥ":983,"ed":984,"ĠÐµÐ³Ð¾":985,"ĠÐ¼Ð°ÑĤ":986,"ĠÑĤÐµÑĢ":987,"Ð±Ð°ÐµÐ²":988,"ĠÐ·Ð°Ðº":989,"ĠÑģÐ²Ð¾":990,"ĠÑĢÐ°Ñģ":991,"Ð¸ÐµÐ¼":992,"ĠÐ¶Ð¾Ð»":993,"),":994,"ĠÑĢÑĥ":995,"ĠÐ±Ð°Ð»":996,"ĠÐ¶Ð°ÒĵÐ´Ð°Ð¹":997,"ĠÑĤÐµÑħ":998,"ĠÐĿÐ°":999,"ent":1000,"ÂŃ":1001,"ÐµÐ´Ð°":1002,"Ð°ÑĨÐ¸Ð¸":1003,"ĠÐ¾Ð±Ð»":1004,"ĠÐ¶Ð°ÑĢ":1005,"Ð°ÒĵÑĭ":1006,"ĠÑģÐ°Ð¼":1007,"Ð¾Ð»ÑĮÐºÐ¾":1008,"Ð±Ð¸":1009,"ĠA":1010,"ÑħÐ°Ð½":1011,"ĠÐ±Ð°Òĵ":1012,"ÑĢÑĥÐ³":1013,"ĠÒĽÐ°Ð¹":1014,"ĠS":1015,"ĠÑĤÐ¸":1016,"ĠÐĲÐ»Ð¼Ð°ÑĤÑĭ":1017,"ÑĢÐµÑĤ":1018,"ÐµÑĢÐ¸":1019,"Ð¹ÑĭÐ¼":1020,"ĠÐ³Ð¾ÑĢ":1021,"ro":1022,"ĠÐ¶Ð°Ò£":1023,"Ð°Ð³":1024,"ÑĥÑģ":1025,"Ġ7":1026,"ĠÒĽÐ°Ð±":1027,"Ġf":1028,"ÐºÑĸÐ¼":1029,"ÑĢÐ°Ñģ":1030,"ĠÐ±Ð¾Ð»ÑĮ":1031,"ÑĭÐ»Ð°Ð´Ñĭ":1032,"ad":1033,"ĠÐ¾Ð±ÑĬ":1034,"ĠÐ±Ò±Ð»":1035,"Ð»Ð°Ð¼":1036,"ĠÐ½ÐµÐ³ÑĸÐ·":1037,"ĠÐ°Ðº":1038,"ĠÐ§":1039,"Ð»Ð¾":1040,"ĠÐ¾Ð»Ð°ÑĢ":1041,"ĠÑĤÐµÐ½":1042,"ĠÐ´Ð°Ð¼":1043,"ĠÐ¾Ð¹":1044,"ÑĢÐµÐ½":1045,"Ð»ÐµÐ½Ð¸Ñı":1046,"Ð²ÐµÑĤ":1047,"Ð¸Ð»Ð°":1048,"ÑĢÐ°Ð¶":1049,"Ġin":1050,"ĠÐ¿Ð¾Ñģ":1051,"ĠÐ¼Ð¾Ð¶":1052,"ĠÐ¶Ð°Ð·":1053,"ĠÐ¸Ð½ÑĦ":1054,"ĠC":1055,"ĠÐ´ÐµÐ³ÐµÐ½":1056,"Ð´Ð¸":1057,"ĠÑĢÐµÑĤ":1058,"ĠÐµÒ£":1059,"ÑĤÑĸÒ£":1060,"Ġw":1061,"Ð¿ÐµÑĢ":1062,"Ð¸Ð±":1063,"ĠÐ´ÐµÐ»":1064,"ÑģÐ»ÐµÐ´":1065,"ĠÐ¼ÐµÑģÑĤ":1066,"ĠÐ¶Ð°Ð»":1067,"ĠÐ¼Ð»":1068,"ĠÑĤÐ°ÐºÐ¶Ðµ":1069,"Ð¿Ð°ÑĢÐ°ÑĤ":1070,"Ð¾Ð²Ð¾ÑĢ":1071,"ÑĥÐ´Ð°ÑĢ":1072,"ÑĭÑħ":1073,"am":1074,"Ð¼ÐµÑĢ":1075,"ĠI":1076,"ÐµÐºÑĤÐµ":1077,"ĠÐĳÒ±Ð»":1078,"Ð²ÐµÑĢ":1079,"Ð¸Ð¼Ð¾":1080,"ĠÐ¾Ð±Ð»Ð°ÑģÑĤÐ¸":1081,"Ðĵ":1082,"ĠÑĤÐ°Ð»":1083,"ÒĽÑĭ":1084,"Ð¸ÑĤÑģÑı":1085,"ĠÒĽÐ¾ÑĢ":1086,"ĠÐºÐµÐ¹":1087,"Ġ8":1088,"ĠÑģÐ°Ð½":1089,"ÑĤÐ°Ð¿":1090,"ÑģÐµÑĢ":1091,"Ð½Ð¸Ð¼":1092,"...":1093,"ÑģÐºÐ¸Ð¹":1094,"Ð»Ð°Ñģ":1095,"ÑĸÐ¼ÐµÐ½":1096,"ÐºÐµÑĢ":1097,"Ð¼ÐºÑĸÐ½":1098,"Ġd":1099,"ĠÐ°Ð·":1100,"ĠÒ¯Ð¹":1101,"ÑģÑĸÐ·":1102,"ĠÑįÐºÐ¾Ð½Ð¾Ð¼":1103,"ÑĢÐ¾Ñģ":1104,"ĠÑĤÒ¯Ñģ":1105,"ag":1106,"ÑĥÐ³Ðµ":1107,"ĠÑģÓĻ":1108,"Ð´Ð°ÑĢÑĭ":1109,"ĠÑįÑĤÐ¾Ð¼":1110,"ĠÐ¿ÑĢÐ¾ÑĨ":1111,"ÐµÐ»Ð¾Ð²":1112,"ĠÐ±Ð°Ð¹Ð»Ð°Ð½":1113,"ĠÐ½ÐµÐ¼ÐµÑģÐµ":1114,"Ð·Ð°":1115,"ĠÒĽÐ¾Ñģ":1116,"ĠÑģÐ°Ð¹":1117,"Ġb":1118,"Ð¿ÑĢ":1119,"ÑĸÐ½ÐµÐ½":1120,"ĠÐ½Ð°Ñĩ":1121,"Ð°Ð½ÑĭÒ£":1122,"ÑĸÐ¼Ð´Ñĸ":1123,"Ð¸ÑĤÐµÑĤ":1124,"ĠÐ¼Ò±":1125,"ĠÐ¼Ò¯Ð¼ÐºÑĸÐ½":1126,"ĠÑģÐ¾Ð²":1127,"ĠÐ¾Ð½ÑĭÒ£":1128,"Ð»ÐµÑĥ":1129,"ĠÒĽÐ°Ð½":1130,"ĠÑĸÑĪ":1131,"ÑĸÐ»Ð³ÐµÐ½":1132,"Ð½ÑĭÐ¼Ð¸":1133,"Ġm":1134,"ĠÐ¿ÑĢÐ¸Ð½":1135,"ĠÐ¸Ð»Ð¸":1136,"Ð½ÐµÐ½":1137,"Ð¾Ð½Ñĭ":1138,"ĠÐļÐ°Ð·Ð°ÑħÑģÑĤÐ°Ð½Ð°":1139,"and":1140,"ĠÑĤÐµÐ½Ð³Ðµ":1141,"Ð¸Ð½Ð³":1142,"ÑĸÐ»ÐµÑĢ":1143,"Ð½Ð°Ñĩ":1144,"Ð°ÑĤÐµÐ»":1145,"Ġ10":1146,"ÑĨÐ¸Ð°Ð»ÑĮ":1147,"Ð¾ÑģÑĮ":1148,"Ð»ÐµÑĤ":1149,"ĠÐ½Ð°Ñģ":1150,"ÑģÑĤÑĭ":1151,"Ð½ÐµÑĢ":1152,"ĠÑĤÑĭÑģ":1153,"ĠÐ³Ð¾ÑģÑĥÐ´Ð°ÑĢ":1154,"Ð¿Ñĭ":1155,"ĠÐ¾Ð»":1156,"ĠÐºÓ©Ð¿":1157,"Ð¿ÐµÐ½":1158,"ĠÑĩÐµÐ»Ð¾Ð²":1159,"ÑģÐ¸":1160,"ĠÑĤÑĸÐ»":1161,"ĠÐ±ÐµÐ·":1162,"Ð´Ð°Ñĥ":1163,"ĠÐ¼Ð°ÒĽ":1164,"Ð¸ÐºÐ¸":1165,"ĠÐ±ÑĥÐ´ÐµÑĤ":1166,"ĠÓ¨":1167,"Ð°ÑĤÑĥ":1168,"ut":1169,"ing":1170,"ÑĢÑĥÐ¿":1171,"ĠÐ¼ÐµÑĢ":1172,"ĠÐ¿Ð¾Ð»ÑĥÑĩ":1173,"ÑĭÐ¹":1174,"Ð»ÐµÐºÑĤ":1175,"om":1176,"ĠÐ´Ð°Ð½":1177,"ĠÑĤÐµÐ¼":1178,");":1179,"ÐµÐ»Ðµ":1180,"ÐºÑĸÐ·":1181,"ÑĥÐ»ÑĮÑĤ":1182,"ĠÒĽÐ¾Ð»Ð´Ð°Ð½":1183,"Ð¼ÑĸÑĢ":1184,"ĠÐ½Ð¾":1185,"ĠÐ½Ð°Ð·":1186,"ÑģÑĤÐµÑĢ":1187,"ĠÐ¸ÑģÐ¿":1188,"ĠÐ°ÑĢÒĽ":1189,"ĠÐµÑģÐµ":1190,"22":1191,"ĠÐºÐµÑĢÐµÐº":1192,"ĠÐ¿ÑĢÐ¾Ð¸Ð·":1193,"ÐĹ":1194,"ĠÐ»Ñİ":1195,"ĠÐ½Ð°ÑĢ":1196,"ĠÐºÐ¾Ð»":1197,"Ġ9":1198,"Ð´ÑĸÑĢ":1199,"ĠK":1200,"ĠÐ¶Ð°ÒĽ":1201,"ÑģÑĤÐ°Ð½Ð¾Ð²":1202,"ĠÑĪÐ°ÑĢ":1203,"Ġ0":1204,"ĠÐ±Ð¾Ð»ÒĵÐ°Ð½":1205,"ĠÑĢÐ°Ð·Ð²":1206,"Ð°Ð½Ð¸Ð¸":1207,"ct":1208,"ĠÐ¿Ð¾ÑģÑĤ":1209,"Ð°ÒĵÐ°Ð½":1210,"ĠÐ±ÑĸÐ»ÑĸÐ¼":1211,"ol":1212,"ĠÑĤÐµÐº":1213,"ÑĨÐ¸Ñİ":1214,"ĠÐ¶Ò¯Ð¹":1215,"ÑĪÑĭ":1216,"ĠÑĩÐµÐ»Ð¾Ð²ÐµÐº":1217,"iÐ½":1218,"Ð¾Ð½Ð°":1219,"Ð²Ð¾Ð´":1220,"Ð°ÑģÑĭÐ½":1221,"ÑĮÑİ":1222,"Ð½ÑĭÒĽ":1223,"ĠÑģÑĢÐµÐ´":1224,"ĠÑĪÑĭÒĵÐ°ÑĢ":1225,"ÒĵÑĭÐ½":1226,"ĠÐ´ÐµÐ¹ÑĸÐ½":1227,"ĠÐµÐ¼ÐµÑģ":1228,"ĠÑĤÐ¾Ð»":1229,"ÑĢÐµÐ¼Ñı":1230,"ÑĸÐ½Ð´ÐµÐ³Ñĸ":1231,"ĠÒĽÐ°Ð¶":1232,"Ð¸Ð³":1233,"ĠÑģÓ©Ð·":1234,"ĠÑģÐ¾Ð±":1235,"ÑĸÐ¼ÑĸÐ·":1236,"as":1237,"ĠÐ¼ÐµÐ´":1238,"ĠÑĤÐ¾":1239,"ĠÐ¿Ð°ÑĢ":1240,"ĠÐ¿ÐµÑĢÐ²":1241,"ÑĢÐ¸ÑĤ":1242,"ĠÐ¾ÑģÑĭ":1243,"__":1244,"ĠÐ¾ÑĢÑĭÐ½":1245,"Ð¶Ð°Ð½":1246,"il":1247,"ÑģÐ°ÑĤ":1248,"ĠÐ³Ð¾Ð´Ñĥ":1249,"id":1250,"ÑĤÐµÐ½":1251,"ĠÐ¸Ñħ":1252,"ÑĭÐµ":1253,"ĠÐ¾Ñĩ":1254,"ĠÒ±Ð¹ÑĭÐ¼":1255,"un":1256,"Ò£Ð³":1257,"Ð¸Ð½Ð¸ÑģÑĤÑĢ":1258,"ĠÑĩÐµÐ¼":1259,"Â».":1260,"Ð°Ð½Ð´":1261,"ĠÐ¶ÑĭÐ»Ñĭ":1262,"ĠÐ·Ð°Ð¿":1263,"Ð¸ÑĤÑĥ":1264,"ÑıÐ²":1265,"ÑĤÐµÑĢÑĸ":1266,"ÑģÐºÐ¸Ñħ":1267,"ÐµÐ³Ð¾":1268,"ĠÐºÐ¾ÑĤÐ¾ÑĢ":1269,"ÑĭÑģÑĤÐ°ÑĢ":1270,"Ð±Ð°Ð¹":1271,"ÒĵÐ°Ð»":1272,"Ð¿Ð¸":1273,"ĠÒĽÐ°Ð¶ÐµÑĤ":1274,"ÑıÐ·":1275,"ĠÒĽÐ°Ð¼":1276,"ĠÐ¶ÐµÐ»":1277,"ĠÒ±Ð»":1278,"ur":1279,"ĠÑģÐ¾ÑģÑĤÐ°Ð²":1280,"Ð±ÑĸÑĢ":1281,"ÐµÐ½Ð¸Ð¸":1282,"ĠÐ¼ÐµÑĤ":1283,"ĠÐ¶Ð¾Òĵ":1284,"Ò¯Ð¹":1285,"Ð±Ðµ":1286,"ÑĢÑĥÐ´":1287,"Ð¼Ð°ÒĽ":1288,"Ð»ÑİÑĩ":1289,"Ó©Ð½":1290,"et":1291,"ĠÐ°Ð½ÑĭÒĽ":1292,"ĠÑģÐº":1293,"ĠÐ²ÑĢÐµÐ¼Ñı":1294,"Ð°Ð±Ð°ÑĢ":1295,"\":\"\",\"":1296,"us":1297,"Ð°ÒĽÑĭÑĤ":1298,"Ð¾ÑĪ":1299,"ÑĦÐµÑĢ":1300,"ÑĭÑĤÑĥ":1301,"Ð´ÐµÐ³Ñĸ":1302,"Ð°Ð¼Ð°Ð½":1303,"ÐµÐ¶Ð´Ñĥ":1304,"ĠÐ·Ð°Ð²":1305,"Ð½ÐµÐ¹":1306,"ÑĥÑĪÑĭÐ»Ð°ÑĢ":1307,"ĠÑģÐ¾ÑĤ":1308,"ÑĥÑĸ":1309,"Ð°ÑĤÑĮÑģÑı":1310,"ÑĥÐ¼":1311,"ĠÐ»Ð¸":1312,"Ð²Ð°ÑĢ":1313,"Ð¾Ð³Ð´Ð°":1314,"ĠÐ´Ð¾Ð»Ð¶":1315,"Ġ15":1316,"ĠÐ´ÓĻ":1317,"ĠÑģÐ°ÒĽ":1318,"ĠÒ¯Ð»":1319,"Ð¾Ð»ÑĮÐ·":1320,"ÑĤÐ¾Ð²":1321,"ĠÑģÐµÑĢ":1322,"ĠÐ°ÑĢÒĽÑĭÐ»Ñĭ":1323,"ĠÐ¼ÐµÐ¼Ð»ÐµÐºÐµÑĤÑĤÑĸÐº":1324,"Ð´Ð°Ð»Ð°Ð½":1325,"Ġâ":1326,"ĠÐµÐ½":1327,"ÑĤÑĸÐ½":1328,"ÑıÑĤÑĮ":1329,"ĠÑģÐµÐ±":1330,"ĠÐ°ÑĥÐ´Ð°Ð½":1331,"ĠÐ±Ð°Ð½":1332,"ĠÐ¾Ðº":1333,"Ð¾ÑĢÐ¼Ð°":1334,"ÑģÐºÐµ":1335,"ĠÐ¶Ð°Ð½":1336,"ÑĤÑĤÑĭÒĽ":1337,"Ð½ÑĸÒ£":1338,"ĠÐ¿Ð¾ÑĢ":1339,"Ð°ÑģÑĭÐ½Ð´Ð°":1340,"Ð¾Ð²Ð°Ð½Ð¸Ñı":1341,"ĠB":1342,"ĠÑĤÓĻ":1343,"ĠÑĢÐ°Ð±Ð¾ÑĤ":1344,"ĠÑĢÐµÐ·":1345,"ĠÐ±ÐµÑĢÑĥ":1346,"ÑģÑĤÑĸ":1347,"ĠÐ¸Ð¼":1348,"Ð¸Ð¼Ð¸":1349,"ĠÑĤÐµÒ£":1350,"Ð²Ðµ":1351,"Ð¤":1352,"ÑıÑģ":1353,"ÐµÐ½Ñĭ":1354,"ĠÑħÐ°Ð»ÑĭÒĽ":1355,"ÑģÑĤÐ°Ð½Ð°":1356,"ÑĩÐ¸":1357,"ÑĥÑģÑĤ":1358,"Ð¸Ð¿":1359,"ĠÐºÐµÑĤ":1360,"ĠÐ·Ð°Ò£":1361,"ĠÐ´ÑĢÑĥÐ³":1362,"ĠÐ±ÐµÐ»Ð³":1363,"ĠP":1364,"ĠÐ°Ð»Ð°":1365,"Ð»Ð°Ñĥ":1366,"ĠÐ¼Ñĭ":1367,"ÑģÑĤÑĸÐº":1368,"ak":1369,"Ð°ÑģÑĮ":1370,"ĠÐ»ÐµÑĤ":1371,"Ð´ÐµÑĢÑĸ":1372,"ĠÒ°":1373,"Ġ=":1374,"ÑĢÐµÐ±":1375,"ĠÑģÐ¼":1376,"ÑĥÑħ":1377,"ÐµÐºÐµ":1378,"Ð´ÑĭÑĢ":1379,"ĠÐ¿Ð°Ð¹Ð´Ð°Ð»Ð°Ð½":1380,"ĠÑĤÐ¾Ð¼":1381,"ÑĢÐ°Ð±":1382,"ÑĢÐ°ÑĦ":1383,"ÑĢÐ°Ð´Ñĭ":1384,"ÑģÑĤÐ¾Ñı":1385,"ĠÐ±Ò±":1386,"Ð´Ð°ÑĢÐ´ÑĭÒ£":1387,"Ġ/":1388,"ĠÐ¾ÑĢÑĤ":1389,"Ð´Ð¸Ð½":1390,"ĠÐµÐºÐµÐ½":1391,"ĠÐ¶Ò¯ÑĢÐ³ÑĸÐ·":1392,"Ñĳ":1393,"Ð½Ð°ÑĢ":1394,"ÐºÐ¾Ð¼":1395,"ĠÐ½Ð°ÑĪ":1396,"ĠÐ°Ð¹ÑĤ":1397,"ĠÐµÑĤ":1398,"ĠÐ¿ÐµÐ½":1399,"ÑĨÐ°":1400,"el":1401,"Ð¾ÑģÑģ":1402,"Ð¾Ð²Ð°Ð½":1403,"ÑģÑĭÑĢ":1404,"ĠÑģÐ¾Ð»":1405,"ĠÑģÑĩ":1406,"Ð¾Ð»Ð¾Ð³Ð¸Ñı":1407,"Ð°Ð»Ð¸Ð·":1408,"Ð´ÐµÑģ":1409,"ĠÐ±ÑĭÐ»Ð¾":1410,"Ð´ÐµÑĢÐ¶":1411,"ĠÐŀÐ»":1412,"Ð¥":1413,"ĠÑĤÓĻÑĢ":1414,"Ð½Ð¸Ðµ":1415,"Ð°ÐµÐ¼":1416,"Ð½ÐµÑģ":1417,"ĠÐ¿Ð¾Ð¼":1418,"ÑĢÐ¾Ð¿":1419,"Ð½Ð¸ÐºÐ¾Ð²":1420,"ÑİÑĤÑģÑı":1421,"ĠÒĽÐ¾Ð¹":1422,"ÑĩÐµ":1423,"ĠÐºÐ¾ÑĤÐ¾ÑĢÑĭÐµ":1424,"Ð°ÑĤÐ¸Ð²":1425,"ÑĸÑģÑĸ":1426,"ĠÐ½Ð¾Ð²":1427,"Ð¾ÒĵÐ°Ð¼":1428,"ĠÐ¼Ð°ÑĤÐµÑĢÐ¸":1429,"ÓĻÑģÑĸÐ¿":1430,"ĠÑĥÐ¶Ðµ":1431,"ĠÐ´ÐµÑĤ":1432,"Ð°ÑĤÐ°":1433,"Ð°ÑıÐ²":1434,"Ð¸Ð»Ð»Ð¸":1435,"Ð·Ð¸Ð´ÐµÐ½ÑĤ":1436,"Ð½Ð°Ð½":1437,"ac":1438,"ĠÑĢÐ°Ð±Ð¾":1439,"ÑģÐ»Ð¸":1440,"ĠÐ¿ÐµÑĢÐµÐ´Ð°":1441,"ĠÐ¾ÑĢÐ³Ð°Ð½Ð¸Ð·":1442,"Ġ200":1443,"ĠÑĤÐ¾Ð¿":1444,"ĠÐºÐµÐ¹ÑĸÐ½":1445,"ÑģÐ¾Ð²":1446,"ĠÒĽÐ°Ð·Ð°ÒĽ":1447,"Ġ}":1448,"ĠÑĤÐ°Ð¿":1449,"ÑĢÐ°Ð¹":1450,"ĠÐ¢Ð°Ðº":1451,"Ð·Ð²":1452,"ÑģÑĸ":1453,"ĠÐ¯":1454,"ĠÐ±Ð¾Ð»ÐµÐµ":1455,"ĠÐ¸Ð½ÑĤÐµÑĢ":1456,"Ð·Ñĭ":1457,"ex":1458,"ĠÑıÐ²":1459,"ĠÐ³Ð»Ð°Ð²":1460,"Ð°Ð´Ð°":1461,"19":1462,"ĠÐµÑĢ":1463,"Ð½Ð¾ÑģÑĤ":1464,"Ġand":1465,"ĠÐ°ÑĪ":1466,"ÑĢÑĭ":1467,"ĠÐ²Ð¸":1468,"ĠÐ·Ð°ÑıÐ²":1469,"ÑģÐµÐ»":1470,"Ð±ÐµÑĢ":1471,"ÐµÑģÐºÐ¾":1472,"ĠN":1473,"ĠÐºÐµÒ£":1474,"ĠÐ±Ð°ÑģÒĽÐ°":1475,"ĠÐ¾Ð±ÑĢÐ°Ð·":1476,"ÐµÐ»Ð¸":1477,"ÑĥÑİÑī":1478,"ĠÐ¶Ðµ":1479,"Ð¾Ð²ÑĭÑħ":1480,"ĠÐŁÑĢÐµ":1481,"ÑĤÐ°ÑĢÑĭ":1482,"Ð´ÐµÑĥ":1483,"\".":1484,"Ħĸ":1485,"ĠM":1486,"ĠÐ¶Ð°Ò£Ð°":1487,"ĠÐ¿ÑĢÐ¾Ð³":1488,"ĠÑģÐ¾Ð·":1489,"ew":1490,"ÐµÑĤÑĤÐµÑĢ":1491,"ÐŃ":1492,"ĠÐ°ÐºÑĤ":1493,"ÑĤÐµÑĥ":1494,"ÑĭÐ»Ð´Ñĭ":1495,"ĠÑĤÐ¾Ð»ÑĮÐºÐ¾":1496,"ĠÐ¶Ð¾ÒĽ":1497,"ĠÒĽÐ°Ð·":1498,"ĠÐ°Ð»Ñĥ":1499,"Ð»ÐµÐ½Ð¸Ðµ":1500,"ÑģÐºÐ°Ð·":1501,"ĠÐ¶Ò¯Ð·":1502,"Ð½Ð°Ðº":1503,"Ð°Ò£ÑĭÐ·":1504,"ĠÐ¼ÑĸÐ½":1505,"ĠÐºÐ°Ð·Ð°ÑħÑģÑĤÐ°Ð½":1506,"ÑĢÐµÐ¼ÐµÐ½":1507,"Ð°ÑİÑī":1508,"ÐºÑĥÑĢ":1509,"ĠÐºÓ©Ð·":1510,"ation":1511,"ĠÑĤÐµÑħÐ½":1512,"Ð½ÐµÐ¼":1513,"ĠÐµÑģÐµÐ¿":1514,"ĠÐ¶Ð°Ñĥ":1515,"ĠÐ·Ð°ÑĢ":1516,"ay":1517,"ĠÐ´Ð¾Ð¼":1518,"ÐºÐ¾Ð¹":1519,"ÑĤÐ¸Ð²":1520,"ĠÐ¶Ó©Ð½":1521,"ĠÐ±Ð°Ð¹Ð»Ð°Ð½ÑĭÑģÑĤÑĭ":1522,"od":1523,"Ġh":1524,"ĠÑĥÑģÐ»":1525,"ĠÑĥÑĩÐ°ÑģÑĤ":1526,"ÑĢÐ¾Ð¼":1527,"ĠÑĥÐ°ÒĽÑĭÑĤ":1528,"ĠÑįÐ»ÐµÐºÑĤ":1529,"Ð°Ð»Ð´Ñĭ":1530,"Ð¾ÑĢÐ°":1531,"Ġn":1532,"ĠÑģÐ»ÑĥÑĩ":1533,"ÑĢÐ¾Ð½":1534,"ĠÑħÐ°Ð±Ð°ÑĢ":1535,"ĠÑĤÐ°Ð½":1536,"Ð¾Ð´Ðµ":1537,"ĠÐ²Ð¾Ð¿":1538,"ĠÐ¼ÐµÐ¶Ð´Ñĥ":1539,"ÑĢÐµÐºÑĤ":1540,"ÑģÑĭÐ·":1541,"ÐµÐ»ÑĸÐº":1542,"ÑģÑĤÐ²Ñĥ":1543,"ÑĭÐ¼ÑĭÐ·":1544,"Ð¶ÐµÑĤ":1545,"ĠÐ±Ð¾Ð»Ð´Ñĭ":1546,"az":1547,"ĠÐµÐºÑĸ":1548,"ÑĮÑı":1549,"Ð¸ÑıÑĤ":1550,"ĠÐłÐ¾ÑģÑģ":1551,"................":1552,"ĠÐ¿ÑĢÐµÐ´ÑģÑĤÐ°Ð²":1553,"ĠÐ¼Ð°ÑĢ":1554,"Ð´ÑĭÑĢÑĥ":1555,"ĠÑĸÑģ":1556,"ĠÑĩÐ°ÑģÑĤ":1557,"ĠÐŁÑĢÐ¸":1558,"Ð±Ð¾ÑĢ":1559,"im":1560,"ĠÑĢÐ°Ð·Ð²Ð¸ÑĤ":1561,"Ð¼Ð¾ÑĤ":1562,"10":1563,"ĠÐ´ÐµÐ½":1564,"ĠÐ±ÑĸÐ·":1565,"ĠÑĤÐ°Ð¼":1566,"ĠÐ³Ð°Ð·":1567,"ĠÑįÐºÑģÐ¿":1568,"ĠÐ³Ð¾Ð²Ð¾ÑĢ":1569,"ĠÐ¿Ð¾ÑģÐ»Ðµ":1570,"ĠÐ¾ÑģÐ½Ð¾Ð²":1571,"ÑģÐºÐ°Ñı":1572,"Ð¾Ð´Ñĭ":1573,"ÑĢÐ°Ð»":1574,"ÑĸÐ»Ð´Ñĸ":1575,"ÑģÐºÐ¾Ð¼":1576,"Ð¸Ð»ÑģÑı":1577,"ĠÐŀÐ±":1578,"ĠÐłÐļ":1579,"ĠÐ¼Ð¸Ð½":1580,"ÑĨÐ¸Ð¹":1581,"ĠÐ¼Ð¸Ð»Ð»Ð¸":1582,"Ð¾Ð½Ðµ":1583,"ÐºÐ°Ð·Ð°Ð»":1584,"ĠÒĵÑĭÐ»ÑĭÐ¼":1585,"Ð¸ÑģÑĤÐµÐ¼":1586,"ĠÐĲÒĽ":1587,"ĠÐ¼ÐµÐºÑĤÐµ":1588,"Ð¼Ñĥ":1589,"gr":1590,"ĠÑĦÐ°Ðº":1591,"Ð½Ð°Ð»ÒĵÐ°Ð½":1592,"ĠÓ©Ð¼ÑĸÑĢ":1593,"ÑĥÑĪÑĭ":1594,"ĠÐ¼Ð¾Ð¶ÐµÑĤ":1595,"Ð¸ÑĩÐµÑģÐºÐ¾":1596,"ĠÐ°Ð½":1597,"Ġto":1598,"ĠÑģÑĭÐ½":1599,"ĠÒĽÐ°Ñĥ":1600,"ÑĢÐµÐ¶":1601,"ĠÐ±Ð°ÑģÒĽÐ°ÑĢ":1602,"Ð»ÐµÑĥÐ¼ÐµÑĤ":1603,"ÑĢÐ´":1604,"ĠâĦĸ":1605,"ÐºÐµÑģ":1606,"ÑģÑĤÐ²Ðµ":1607,"ĠÐ¿Ð¾Ð²":1608,"ĠÑģÐ¾Ò£":1609,"ĠÑģÒ±":1610,"ÑģÐµÐ½":1611,"Ð¼Ð¾Ð¶":1612,"Ġ12":1613,"ĠÐ²ÑĭÐ¿":1614,"Ð¾Ñī":1615,"ĠÑıÐ²Ð»Ñı":1616,"Ð°Ð±Ð°ÒĽ":1617,"Ð·Ð¸Ð´ÐµÐ½":1618,"Ð½Ð¸ÐºÐ¸":1619,"ÑıÑĩ":1620,"ĠF":1621,"Ð¾Ð»Ð¾Ð²":1622,"Ġ{":1623,"ÑĦÐ¸":1624,"Ð¾Ð»Ð½":1625,"ĠÐºÐ¾Ð½ÑĤ":1626,"ÐµÐ³Ðµ":1627,"ĠÐºÐ°ÑĢ":1628,"Ð¿ÑĢÐ¾":1629,"ĠÑģÐ»ÐµÐ´":1630,"ĠÐ±Ð¸":1631,"ÑĪÑĸÐ»ÑĸÐº":1632,"ÑģÑĭÐ»":1633,"ĠÐ¼Ð¾Ð»":1634,"ĠÐ¿ÑĢÐ¾Ð´":1635,"ÑģÐºÐ¸Ðµ":1636,"ĠÑĪÐµÑĪ":1637,"ĠÒĽÒ±ÒĽ":1638,"ÑĪÐ¸Ñħ":1639,"ĠÓĻÐ´Ñĸ":1640,"Ð°ÒĽÑĭÑĢ":1641,"ĠÑĥÐ²":1642,"ĠÐ¼Ð°Ñģ":1643,"ĠÐŃÑĤÐ¾":1644,"ĠÑĩÑĤÐ¾Ð±Ñĭ":1645,"ÑĭÒĽÑĤÑĭ":1646,"ĠÑĦÐ¾ÑĢÐ¼":1647,"Ð»ÑĸÐ¼":1648,"ĠÒĽÐ°Ð±ÑĭÐ»":1649,"ĠÐ¾ÑĤÐ½Ð¾":1650,"Ð°ÑģÑĭÐ·":1651,"Ð°ÑĤÐ¾ÑĢ":1652,"ÑģÑĤÑĭÑĢÑĥ":1653,"ĠÐ±Ñĸ":1654,"ĠÐ°ÒĽÐ¿Ð°ÑĢÐ°ÑĤ":1655,"ĠÐ¾Ð½Ð¸":1656,"ĠÒĽÐ¾ÒĵÐ°Ð¼":1657,"ÒĵÐ°ÑĪ":1658,"ÑĢÐµÐ´ÐµÐ»":1659,"ĠÐºÑĸ":1660,"ĠÒĽÐ°ÑĤÐ°ÑĢ":1661,"Ġ)":1662,"ÒĵÐ°Ð½Ð°":1663,"ÑĪÐµÐ½Ð¸Ñı":1664,"oo":1665,"ĠÐļÐ°Ðº":1666,"ĠÐ¼Ð¾Ð³":1667,"Óĺ":1668,"ÐµÐ½ÑĤÐ°":1669,"ÑıÐ¼":1670,"ĠÐ°ÑĢÐ½Ð°Ð»ÒĵÐ°Ð½":1671,"Ġ11":1672,"ÑĨÐµÐ²":1673,"ÑıÐ´":1674,"ĠÑģÐ¿Ðµ":1675,"ÐµÑģÑģ":1676,"ÐµÐ»Ñĸ":1677,"ĠÑĤÐ¾Ð³Ð¾":1678,"ÑĨÐ¸Ð¾Ð½Ð°Ð»ÑĮ":1679,"ÑĭÑĤÑĮ":1680,"ÑħÑĢÐ°Ð½":1681,"ĠÒĽÐ°Ð»ÑĭÐ¿":1682,"ĠÐ±Ð°ÒĵÐ´Ð°ÑĢ":1683,"ĠÐ´Ð¾ÑģÑĤ":1684,"ÑĢÑĤ":1685,"ĠÑĦÐ¸Ð½":1686,"ĠÐ´Ð¾Ð»Ð»Ð°ÑĢ":1687,"ÒĽÑĤÑĭ":1688,"ĠÐ¿Ð»Ð°Ð½":1689,"Ð¸ÑĩÐµÑģÐºÐ¸Ñħ":1690,"Ð¸ÐµÑĤ":1691,"ĠÐ¼Ð¸":1692,"ÐµÑĢÑģ":1693,"ĠÒĵÐ°Ð½Ð°":1694,"ĠÑģÐ¸ÑģÑĤÐµÐ¼":1695,"ÑĭÑģÑĤÑĭÒĽ":1696,"Ð½Ð°Ð¹":1697,"Ð°ÑĤÑĤÑĭ":1698,"Ð±Ð°":1699,"ÐºÐ°Ñħ":1700,"Ð»Ð°Ð´":1701,"ĠÐ¶Ð¾ÒĵÐ°ÑĢÑĭ":1702,"ÑĥÑīÐµ":1703,"ĠÐ¸Ð³":1704,"ÑĸÐ»ÐµÐ´Ñĸ":1705,"ÑĤÑĸÐ¿":1706,"Ð»ÐµÑĥÐ¼ÐµÑĤÑĤÑĸÐº":1707,"ĠD":1708,"ĠÐ¿ÐµÑĢÐµÐ´Ð°ÐµÑĤ":1709,"ĠÐļÐ°Ð·Ð°ÑħÑģÑĤÐ°Ð½Ðµ":1710,"Ð°Ð»Ð°ÑĢÑĭ":1711,"ĠÐ¾Ð¿ÐµÑĢ":1712,"ÑĸÐ¼Ð´ÐµÑĢ":1713,"ÑĤÐ°Ð»ÒĵÐ°Ð½":1714,"ĠÐ±ÑĭÐ»Ð¸":1715,"ÐµÐ½Ð¸Ð¹":1716,"Ð¸ÑĩÐµ":1717,"Ð»Ð°ÑĤ":1718,"ter":1719,"ĠÐ¦":1720,"ÑĭÐ½Ð´Ñĭ":1721,"ĠÐ·Ð°Ð¼":1722,"ĠÓĻÐºÑĸÐ¼":1723,"ĠÐµÑģÑĤÑĮ":1724,"ĠÑģÐ»Ð¾Ð²":1725,"ĠÐ¿ÑĢÐ¾Ð±":1726,"Ð°Ð»Ð´Ð°ÑĢ":1727,"ÐµÐ¹Ð´Ñĸ":1728,"ĠÐ¼Ð¸Ð½Ð¸ÑģÑĤÑĢ":1729,"ĠÐ¸Ð½ÑĦÐ¾ÑĢÐ¼Ð°":1730,"ĠÑĢÐ°Ð¹":1731,"ĠÐ¼ÓĻÑģÐµÐ»":1732,"ÑĨÑĭ":1733,"ÐµÐ»ÐµÐ½":1734,"ĠÐ¼Ð»Ð½":1735,"Ð±Ð°Ñģ":1736,"ĠÑģÐµÐ¼":1737,"Ð°Ð¼Ð°":1738,"ot":1739,"Ð²ÐµÑģÑĤ":1740,"Ð¾Ð½Ð´Ð°Ð¹":1741,"Ġ18":1742,"ĠÐµÑīÐµ":1743,"ĠÐ·ÐµÑĢÑĤ":1744,"ÐºÑĢÐ°":1745,"ĠE":1746,"ÐµÑħ":1747,"ĠÐ¾Ð±ÑīÐµ":1748,"ĠÐ¾ÒĽÑĥ":1749,"ĠÐ±Ð°ÒĵÑĭ":1750,"ĠÑĤÑĢÐ°Ð½":1751,"Ð½ÑĥÑĤ":1752,"Ð¶Ð¸":1753,"Ð°Ð·Ð°ÑĢ":1754,"Ġre":1755,"21":1756,"ĠÑĸÑģÑĤ":1757,"ÑģÐ»ÑĥÐ¶":1758,"ĠÐ°Ð»Ð¼":1759,"ÑĨÐµÐ½":1760,"ow":1761,"ews":1762,"ĠÑģÐ°Ñı":1763,"ĠÑĢÐ°ÑģÐ¿":1764,"201":1765,"ĠÐµÐµ":1766,"Ð°Ð»Ð¾":1767,"ĠÐ¾ÑĤÐ¼ÐµÑĤ":1768,"ĠÐŀÐ½":1769,"Ò°":1770,"Ð¢ÐĲ":1771,"ĠÐ¿ÑĢÐ¸Ð¼":1772,"ĠÑĤÐ°Ò£":1773,"ĠÐ°Ð¿":1774,"ĠÐ½ÐµÐ¾Ð±":1775,"ĠÑģÑĤÐ°Ð½":1776,"Ð¾Ð»Ð¾Ð³Ð¸ÑıÐ»ÑĭÒĽ":1777,"ĠÐ°ÑĢÐ°Ñģ":1778,"ĠÐĺÐ½":1779,"Ð¸ÐµÐ²":1780,"ĠÐ½ÐµÐ´":1781,"ÐºÐµÐ»":1782,"Ð°Ð¹ÑĤÑĭÐ½":1783,"Ð¸ÑĤÑĮÑģÑı":1784,"Ð¹ÑĤ":1785,"ÑĥÐ½Ðº":1786,"ĠÐºÐ»":1787,"ĠÑĤÒ¯ÑģÑĸÐ½":1788,"Ð°Ð½ÑĤ":1789,"Ð¸ÑĤÐµÐ»ÐµÐ¹":1790,"Ð½Ð¸ÐºÐ°":1791,"ĠÐºÐ¾ÑĤÐ¾ÑĢÑĭÐ¹":1792,"ĠÒĽÐ°ÑĤÑĭÑģ":1793,"ĠÐ±Ð°ÑĢÐ»ÑĭÒĽ":1794,"Ð°Ð¼Ð±":1795,"ĠÑĤÐ°ÑĢÐ¸Ñħ":1796,"ĠÐ°Ð¹Ð½Ð°Ð»":1797,"ĠÐ²ÑģÑĤ":1798,"ĠÐ±Ð°ÑģÑĪ":1799,"ĠÐ¾ÑĢÑĤÐ°":1800,"ĠÑģÓĻÐ¹":1801,"ÐĲÐ»":1802,"ĠÐ·Ð°Ð½":1803,"ÑģÐµÐ¼":1804,"Ð»Ð°ÑĢÐ´ÑĭÒ£":1805,"ÐµÐ½Ð°":1806,"Ġ30":1807,"ĠÑįÑĤ":1808,"Ð½ÐµÑĤ":1809,"Ð°Ð½Ð°":1810,"ĠÒ±ÑģÑĭÐ½":1811,"ÒĵÑĭÐ·":1812,"ĠÐľÒ±":1813,"ĠÓ©ÑĤÐºÑĸÐ·":1814,"ĠÑĢÐ°ÑģÑģÐºÐ°Ð·":1815,"ÐµÑģÑı":1816,"Ð¿Ð¸Ñģ":1817,"Ð¾Ð²Ð¾Ð¹":1818,"Ð±Ñĸ":1819,"Ð°ÑģÑĤÐ°ÑĢ":1820,"Ð¸ÑĩÐµÑģÐºÐ¾Ð¹":1821,"ÐµÑģÑĸÐ½":1822,"ig":1823,"Ð´Ð½Ñı":1824,"ĠÐ´Ð¸ÑĢÐµÐºÑĤ":1825,"ĠÑĢÐµÐ·ÑĥÐ»ÑĮÑĤ":1826,"ĠÐĿÐ¾":1827,"ÐºÑĸÐ»":1828,"Ð½Ð¾Ð¼Ñĥ":1829,"ĠÑģÐµÐ½":1830,"Ġ14":1831,"ĠÐĲÐº":1832,"ÑģÑĥ":1833,"ĠÐ¿ÑĢÐ¾Ð¸Ð·Ð²Ð¾Ð´":1834,"ĠÑĤÑĸÑĢ":1835,"ÑİÐ´":1836,"ĠÐĿÑĥÑĢ":1837,"ĠÐ±Ð°ÒĵÐ´Ð°ÑĢÐ»Ð°Ð¼":1838,"Ġ'":1839,"ÑĩÐ°Ñģ":1840,"ĠÐ±Ò±ÑĢ":1841,"ÐµÐ³Ð¾Ð´Ð½Ñı":1842,"ĠÑģÑĤÑĢÐ¾":1843,"ĠÐ²ÑĭÑģ":1844,"ÑıÑĤÐµÐ»ÑĮ":1845,"ĠÐ±Ð¾Ð»ÑģÐ°":1846,"ĠÑĥÐ³":1847,"ĠÐ¿Ð¾Ð»Ð¸":1848,"ĠÐ´Ð¾Ðº":1849,"ĠÑįÑĤÐ¾Ð³Ð¾":1850,"ĠÐ¸ÑģÑĤ":1851,"Ð°ÑİÑĤÑģÑı":1852,"ĠÐ¼ÑĸÐ½Ð´ÐµÑĤ":1853,"Ð´ÑĭÒĽÑĤÐ°Ð½":1854,"ĠÐ¶Ð¾Ð±":1855,"ĠÐºÐ°":1856,"ĠÑģÐ¿Ð¾ÑĢÑĤ":1857,"Ð²ÐµÑģÑĤÐ¸":1858,"ĠÐµÑĤÑĥ":1859,"ĠÐ¿Ð¾ÑģÐ»ÐµÐ´":1860,"ĠÐ·Ð°Ð±":1861,"ĠÑĩÐ¸Ñģ":1862,"ĠÑĨÐµÐ½ÑĤ":1863,"ĠÐ²Ð·":1864,"ÑĤÒ¯":1865,"ĠÐµÑĢÐµÐº":1866,"Ġ16":1867,"ul":1868,"ĠÐ±Ð¾Ð»ÑĮÑĪ":1869,"ĠÐ²Ð¾Ð·Ð¼Ð¾Ð¶":1870,"Ð¾ÑģÑĤÐ¸":1871,"ve":1872,"ĠÑĢÐµÑģ":1873,"ĠÓ©ÑĤÐµ":1874,"ÐµÐ½Ð¸Ñİ":1875,"ĠÐ¿ÑĢÐ¾ÑĪ":1876,"Ð´ÐµÐ¼":1877,"Ð½Ð¾Ð³":1878,"Ð¾ÑģÐ¿Ð°ÑĢ":1879,"ĠÐºÓĻÑģÑĸÐ¿":1880,"Ġ13":1881,"Ð¼ÐµÑģÑĤ":1882,"ÑĭÐ»Ð°Ñĥ":1883,"ĠR":1884,"ĠÒ®":1885,"ĠÐ¾ÑĤÐº":1886,"ĠÑģÐ¾Ð¾Ð±ÑīÐ°ÐµÑĤ":1887,"ab":1888,"os":1889,"Ð±Ð¾Ð»":1890,"ĠÐ¿Ð¾Ð¿":1891,"ÑĢÐ°Ð¶Ð´Ð°Ð½":1892,"ÑĪÐµÐ½Ð¸Ðµ":1893,"ĠÐ²ÐµÐ´":1894,"ĠÐ¿ÑĢÐ¸Ð²":1895,"Ð»Ð¸Ñĩ":1896,"ĠÐ´ÐµÐ½ÑĮ":1897,"Ð¸Òĵ":1898,"Ð½Ð¸Ð¹":1899,"ÑĢÐ°Ñĥ":1900,"ĠÐ½ÓĻ":1901,"Ð°Ð»Ð°Ñĥ":1902,"ĠÑĢÐµÐ³Ð¸":1903,"Ġg":1904,"ĠÐºÐµÐ»Ð³ÐµÐ½":1905,"Ð¨ÐĲ":1906,"Ð°ÑĢÐ°Ð»ÑĭÒĽ":1907,"ÐºÐ¾Ð»":1908,"ÑģÑĤÐ¾":1909,"ĠÐ±Ð¸Ð·":1910,"ĠÐ¾Ð»Ð°ÑĢÐ´ÑĭÒ£":1911,"ĠÒļÐł":1912,"ÑĤÐµÑĢÐ´ÑĸÒ£":1913,"Ð°ÑģÑĭÐ½Ð°":1914,"Ð¸Ð½Ðµ":1915,"ĠÐ¶ÐµÐºÐµ":1916,"ÑĥÑī":1917,"ÐµÐ¹ÑĩÐ°Ñģ":1918,"Ġ17":1919,"ĠÐ±ÑĥÐ´ÑĥÑĤ":1920,"ÐµÑĤÐ°":1921,"Ð°Ð²Ð»":1922,"ÑĭÑģÑĭÐ½Ð´Ð°":1923,"ĠÐĲÐ½":1924,"ĠÐ¸ÑģÐ¿Ð¾Ð»ÑĮÐ·":1925,"ÑĦÐ¾ÑĢÐ¼":1926,".,":1927,"Ð»Ð°ÑĢÑĭ":1928,"ÑĢÐ°ÐºÑĤ":1929,"ĠÑĢÐµÑģÐ¿":1930,"ÑĸÐ½ÑĪÑĸ":1931,"ĠÐ½Ð°ÑħÐ¾Ð´":1932,"ĠÐ°ÑĢÑĤ":1933,"Ð¿Ð¾Ð»":1934,"ĠÐ±ÑĭÑĤÑĮ":1935,"um":1936,"ĠÐ¼Ð»ÑĢÐ´":1937,"ĠÐ´ÐµÐ¹ÑģÑĤÐ²":1938,"ĠÑİ":1939,"ĠÐ¼ÑĭÒ£":1940,"ĠÑģÐµÐº":1941,"ĠÐĲÐ·":1942,"ĠÐ¶Ð°ÑģÐ°Ñĥ":1943,"ÑĮÐµÑĢ":1944,"ĠÐ¼ÐµÐºÑĤÐµÐ¿":1945,"ate":1946,"Ð¾Ð²ÑĭÐµ":1947,"Ð°Ð»ÒĵÐ°Ð½":1948,"ÑĸÐ¼Ñĸ":1949,"ĠÐ½ÐµÐ³ÑĸÐ·Ð³Ñĸ":1950,"Ġi":1951,"ÒļÐ°Ð·Ð°ÒĽÑģÑĤÐ°Ð½":1952,"ĠÐ±Ò¯":1953,"ĠÐ½ÐµÐ¾Ð±ÑħÐ¾Ð´":1954,"ĠÑģÑĤÑĢÐ°Ð½Ñĭ":1955,"ĠÐ±Ð¾Ð»Ð°ÑĤÑĭÐ½":1956,"ĠÐ°Ð²ÑĤÐ¾Ð¼":1957,"ĠÐ°ÐºÑĤÐ¸Ð²":1958,"ĠÐ¼Ð°Ò£ÑĭÐ·":1959,"ĠÑĸÑĪÑĸÐ½Ð´Ðµ":1960,"Ð¸Ð¶":1961,"Ð½ÐµÑĢÐ³":1962,"stan":1963,"Ð¸ÑģÑģ":1964,"ĠÐ´Ð¾Ð±":1965,"ĠÐŀÑģÑĭ":1966,"ĠÐ»Ð¸ÑĨ":1967,"ĠÒĽÒ±ÒĽÑĭÒĽ":1968,"ÐµÑĤÑĸ":1969,"ÑıÐ±":1970,"ĠÐ¿ÑĢÐ¸Ð·":1971,"Ò£Ð³ÐµÐ¹":1972,"ĠÐ¿Ð°ÑĢÑĤ":1973,"ĠÓĻÐ»ÐµÑĥÐ¼ÐµÑĤÑĤÑĸÐº":1974,"ĠÐºÐµÐ·Ð´Ðµ":1975,"Ð½Ð¸Ð²":1976,"ĠÑģÓĻÐ¹ÐºÐµÑģ":1977,"Ġe":1978,"ĠÒĽÒ±ÑĢÑĭÐ»":1979,"Ġ25":1980,"ĠÑģÐ¾ÑĤÑĢÑĥÐ´":1981,"Ð¸ÑĢÐ¾Ð²Ð°Ð½":1982,"Ġ+":1983,"Ð¸ÑĩÐµÑģÐºÐ¾Ð³Ð¾":1984,"Ð´Ð°Ð²":1985,"ĠÐ°Ð²ÑĤÐ¾":1986,"ĠÐ¶Ð°ÑĥÐ°Ð¿":1987,"ĠÐ¾Ð½Ñĭ":1988,"ĠÐłÐµÑģÐ¿ÑĥÐ±Ð»Ð¸ÐºÐ°ÑģÑĭÐ½ÑĭÒ£":1989,"ĠÐ±Ð°ÒĵÑĭÑĤ":1990,"ĠÐ¶Ð°Ð¹":1991,"ÑĭÒ£ÑĭÐ·":1992,"ÑĭÐ½Ð´Ð°Ð¹":1993,"âĢĿ":1994,"ĠÐ¶Ð°ÑĤÒĽÐ°Ð½":1995,"Ð¸Ð»Ð¸ÑģÑĮ":1996,"Ð¼Ñĭ":1997,"ĠÑĢÐµÑĤÑĸÐ½Ð´Ðµ":1998,"ĠÐ¶Ð¾ÑģÐ¿Ð°ÑĢ":1999,"ĠÐ³ÑĢÐ°Ð¶Ð´Ð°Ð½":2000,"ĠÐ´ÐµÒ£Ð³ÐµÐ¹":2001,"ĠÐ¶Ò¯Ð·ÐµÐ³Ðµ":2002,"ĠÐ²Ð¾Ð´":2003,"Ð¼Ð°ÑĤ":2004,"ĠÑĩÐµÑĢ":2005,"Ġl":2006,"ĠÐºÐµÐ·ÐµÒ£":2007,"ÑĪÐµÐ³Ð¾":2008,"ĠÐ¿ÑĢÐ¾Ð±Ð»ÐµÐ¼":2009,"ĠÐ³Ð¾ÑģÑĥÐ´Ð°ÑĢÑģÑĤÐ²ÐµÐ½":2010,"ÑĥÐ¼ÐµÐ½":2011,"ĠÐ¾ÑģÑĤ":2012,"ĠÐ°ÑĥÑĭÐ»":2013,"ĠÐ±Ð°Ð»Ð°Ð»Ð°ÑĢ":2014,"ĠÐ²Ð¸Ð´Ðµ":2015,"ĠÐ´Ð°Ð¹":2016,"ÑĤÐ¾Ð¼Ñĥ":2017,"ĠÐ¤Ð¾ÑĤÐ¾":2018,"Ð¾Ð»Ð¶":2019,"ÑĤÑĭÐ¿":2020,"ĠÐļÐ¾Ð½":2021,"Ð¾ÑĢÐ¸Ð¸":2022,"ÑĪÑĭÐ»ÑĭÒĽ":2023,"ĠÑĢÐµÑģÐ¿ÑĥÐ±Ð»Ð¸Ðº":2024,"ĠW":2025,"ĠÐºÑĥÑĢ":2026,"ĠV":2027,"Ð¾ÑĢÐ¾Ð²":2028,"ĠÐµÐ½Ð³ÑĸÐ·":2029,"ĠÑĥÑĢÐ¾Ð²":2030,"ĠL":2031,"ĠÐĲÐ¹":2032,"ĠÑĢÑĭÐ½":2033,"ĠÐ¼Ð¾Ð¶Ð½Ð¾":2034,"ÐµÐ½Ð½ÑĭÑħ":2035,"Ð»ÑĮ":2036,"ĠÐ¶Ð°Ð»Ð¿Ñĭ":2037,"Ð¾Ð½Ð°Ð²":2038,"Ð´i":2039,"ĠÒ±Ð¹ÑĭÐ¼Ð´Ð°":2040,"ĠÐ¼ÐµÐ´Ð¸ÑĨ":2041,"ĠÐ¼ÐµÐº":2042,"Ð¯":2043,"ĠÐ¶Ð¸":2044,"Ð¿Ð»":2045,"ÑİÐ´Ð¶ÐµÑĤ":2046,"ĠÐºÐµÐ·ÑĸÐ½Ð´Ðµ":2047,"ĠÐ¾Ð¿ÑĢÐµÐ´ÐµÐ»":2048,"Ð»ÐµÑĢÑĸ":2049,"ÒĽÑĭÐ½":2050,"ĠÑĤÐµÐ»":2051,"ĠÐ´Ð°Ð¼Ñĥ":2052,"ĠÑĤÐ°Ñĥ":2053,"ĠÓ©Ò£":2054,"Ð³ÐµÐ½ÑĤ":2055,"ĠÐ³ÑĢÑĥÐ¿":2056,"ĠÑĤÐ¾ÑĢ":2057,"Ð¾Ð½Ð¾Ð²":2058,"ĠÐ±Ð°ÒĽ":2059,"ĠÐ³Ð´Ðµ":2060,"ĠÐ¾Ð³":2061,"ĠG":2062,"ÑĸÒ£ÑĸÐ·":2063,"ĠÐ¡Ð¨ÐĲ":2064,"ĠÐ°Ð»ÑĭÐ¿":2065,"ĠÐ¿ÑĢÐµÐ´Ð¿ÑĢ":2066,"Ó¨":2067,"ÑĤÐµÑĢÐ´Ñĸ":2068,"Ð»Ð¾Ð¶":2069,"ĠÑģÐ°Ñĥ":2070,"ĠÐ¿ÑĢÐ¾ÑĤÐ¸Ð²":2071,"Ð°ÑģÑĤÑĭ":2072,"ont":2073,"ĠÑģÐ°Ð¿":2074,"Ð¿Ð°":2075,"ĠÐ¸Ð¼Ðµ":2076,"ÐµÐ½Ð¾":2077,"ÑĤÐ°Ð¼Ð°ÑģÑĭÐ·":2078,"Ð³ÑĸÐ½ÑĸÒ£":2079,"ĠÐ¾ÑĢÐ½Ð°Ð»":2080,"ĠÑģÐ¾Ð¾ÑĤ":2081,"ÑĸÑĢÐ³Ñĸ":2082,"Ð¾Ð½Ð¾":2083,"ht":2084,"ĠÐ²Ð¾Ð¿ÑĢÐ¾Ñģ":2085,"ĠÑĩÐµÐ¼Ð¿Ð¸":2086,"ÐµÑģÐ¿ÐµÑĩ":2087,"ÑĤÐ¸Ð¶":2088,"ĠÑĤÓ©Ð¼ÐµÐ½":2089,"ÑĤÐ°Ñģ":2090,"ĠÐ²ÑĭÑģÑĤ":2091,"ÐºÐ¾Ð²Ð¾Ð´":2092,"ĠÐ°Ð·Ð°Ð¼":2093,"ĠÑĪÐ°ÑĢÑĥ":2094,"ĠÒļÐ°Ð·":2095,"ĠÐŁÑĢÐ¾":2096,"04":2097,"Ġis":2098,"ÑģÑĭÐ½ÑĭÒ£":2099,"Ð³Ñĥ":2100,"ĠÑĤÑĭÑģÑıÑĩ":2101,"Ð¾Ð²Ð°Ð½Ð¸Ðµ":2102,"ĠÐ¶ÑĭÐ»ÒĵÑĭ":2103,"Ð°ÑĤÐµ":2104,"Ð¾Ð½Ð°Ð²Ð¸ÑĢÑĥ":2105,"ÑģÐºÐµÑĢ":2106,"ÑĢÐ°Ð±Ð¾ÑĤ":2107,"ĠÑģÑĭÑĢ":2108,"ĠÐ¿ÑĢÐ¾Ð³ÑĢÐ°Ð¼":2109,"Ð½Ð°ÑĢÐ¾Ð´":2110,"ĠÐ±ÐµÐ¹":2111,"ĠÑģÑĤÐ¾Ð»":2112,"ĠÐ¶Ð¸Ð·":2113,"ĠÐ±Ð¾Ð»Ð¼":2114,"Ð¸ÑĤÐµÐ»Ð¸":2115,"ĠÐ°Ñı":2116,"ĠÑģÐ°ÑĤ":2117,"ĠÐ°Ð´":2118,"Ð´ÐµÐ½Ð¸Ñı":2119,"ĠÒĽÐ°Ð¼ÑĤÐ°Ð¼Ð°ÑģÑĭÐ·":2120,"ĠÐ¿Ð¾ÐºÐ°Ð·":2121,"ÑĤÐ°Ð¹":2122,"ĠÐºÐ¾Ð¼Ð¿Ð°Ð½Ð¸Ñı":2123,"ĠÐ²ÐµÑĢ":2124,"ĠÐķÑĢ":2125,"ĠÐ¡Ð¾":2126,"Ð´Ð¾Ð²":2127,"ĠÐ±ÐµÑĤ":2128,"ĠÐ½Ð°Ð¿ÑĢÐ°Ð²":2129,"ÑĪÑĭÐ»Ð°ÑĢ":2130,"Ð°ÑģÑĭÐ¼":2131,"Ð´ÑĸÑĢÑĥ":2132,"ĠÐłÐ¾ÑģÑģÐ¸Ð¸":2133,"ĠÐ¶Ð¸Ð½":2134,"ÑĥÑĢÐµÑĤ":2135,"ĠÐºÒ¯ÑĪ":2136,"ÐµÐ¼Ðµ":2137,"ĠÐºÐ¾Ð³Ð´Ð°":2138,"Ð¾ÑģÐ¾Ð±":2139,"Ð¸Ð½Ñĭ":2140,"ÑģÐ°Ð½":2141,"ÐµÑĢÐº":2142,"ĠÐ½Ð¸Ñħ":2143,"ĠÐ¿Ð¾Ñĩ":2144,"ÑĥÐ·":2145,"ĠÐĨ":2146,"ÐµÐºÑĤÐ¸Ð²":2147,"ÑĭÐ»Ð¼":2148,"ĠÐºÐ¸":2149,"ĠH":2150,"ĠÐ²Ð¾Ñģ":2151,"Ð¸ÑĤÐµÐ»Ñı":2152,"ĠÐ¿ÑĢÐµÑģÑģ":2153,"ÑĭÐ»ÑĭÐ¿":2154,"Ð³Ð°":2155,"Ð°Ð»ÑģÑı":2156,"ĠÐ°ÑĤÐ°":2157,"Ġth":2158,"ÐµÐ»ÐµÑĢÑĸ":2159,"ÑĢÑĥÐ·":2160,"ĠÓĻÐ»ÐµÐ¼":2161,"ĠÐµÐ´Ñĸ":2162,"ĠÐ¾ÑĤÑĭÑĢÑĭÐ¿":2163,"ĠÑıÐ²Ð»ÑıÐµÑĤÑģÑı":2164,"Ð°Ð½Ñģ":2165,"Ð¾Ð¼Ñĥ":2166,"ĠÐ¿Ð°Ð¹Ð´Ð°":2167,"ĠÐĲÑĢ":2168,"ÐµÐ»Ð¸Ñĩ":2169,"ĠÐ¿Ð¾Ð»Ð¸ÑĤ":2170,"ÑģÑĤÑĢÑĥ":2171,"ĠÐ±Ð¸Ð·Ð½ÐµÑģ":2172,"ÑģÑĤÐ°":2173,"ĠÐ´Ð°Ð¼ÑĭÑĤÑĥ":2174,"ĠÐ¼ÓĻÐ»ÑĸÐ¼":2175,"ĠÑģÑĥÐ´":2176,"ĠÐ¿Ð¾Ð¼Ð¾Ñī":2177,"ĠÑģÑĤÐ¾ÑĢ":2178,"ĠÐ¸Ñİ":2179,"Ð½Ñĥ":2180,"ÑĭÒĵÑĭÐ½":2181,"ĠÐºÐ°Ð¶":2182,"ĠÐµÒ£Ð±ÐµÐº":2183,"ĠÑģÐ¾ÑģÑĤÐ¾Ñı":2184,"ĠÐ°Ð»Ð´":2185,"ĠÐºÐ¾Ð½ÑĨ":2186,"ĠÑĥÐ¿ÑĢÐ°Ð²":2187,"ĠÐ²ÑģÐµÑħ":2188,"ÑĭÑģÑĭÐ½ÑĭÒ£":2189,"ĠÑĤÐ°Ð»Ð°Ð¿":2190,"ÑĤÐµÐ»":2191,"ÑģÐ¸Ñħ":2192,"Ð°Ð»Ð¸ÑģÑĮ":2193,"ĠÐ¾ÑĤÐ²ÐµÑĤ":2194,"th":2195,"ĠÐ¶Ñĸ":2196,"Ð°Ð¼ÐµÐ½":2197,"Ġ*":2198,"ÑĭÐ»Ð°ÑĤÑĭÐ½":2199,"Ð¼ÐµÐº":2200,"ĠÐ°ÑģÑĭ":2201,"ĠÐ²ÑĤÐ¾ÑĢ":2202,"Ð½Ð¸Ð²ÐµÑĢÑģ":2203,"ĠÐ°Ð»ÒĵÐ°Ð½":2204,"ĠÐ³Ð¾ÑĢÐ¾Ð´Ð°":2205,"Ð»Ð°ÑĢÐ´Ñĭ":2206,"ĠÐ¾Ð½Ð°":2207,"ĠÐŀÑĤ":2208,"Ð¾Ð²Ð°ÑĤÑĮ":2209,"ĠÐ¿ÑĢÐ¾ÑĦ":2210,"ĠÐ¶ÐµÐ½":2211,"ÐµÑĤÑĭ":2212,"ÓĻÐ½":2213,"ÑĪÐ¸Ð¹":2214,"ch":2215,"Ð°Ð·Ð°ÑĢÐ±Ð°ÐµÐ²":2216,"ÑĤÐ°ÑĢÐ´ÑĭÒ£":2217,"ĠÐ¾Ð±ÐµÑģÐ¿ÐµÑĩ":2218,"ĠÒĽÒ±ÑĢÐ°Ð¼":2219,"ÐµÐ½Ð¸ÐµÐ¼":2220,"ÓĻÑĢÑĸ":2221,"ĠÑĢÐ°Ð½":2222,"ĠÐ·Ð½Ð°Ñĩ":2223,"ĠÐ±Ð°ÑģÑĤÐ°Ð¿":2224,"ĠÑĥÑģÐ»Ð¾Ð²":2225,"Ð°Ð»ÑĮÐ½Ð¾Ð¹":2226,"ÑģÐ°Ñĥ":2227,"ĠÐ¾ÑĩÐµÐ½ÑĮ":2228,"ĠÐ¶ÐµÒ£":2229,"ĠÐļÓ©":2230,"ÑĢÐ°Ñī":2231,"ÑģÑĤÐ°ÑĢ":2232,"ĠIn":2233,"ĠÐ½Ð°Ð¼":2234,"Ð³Ð¾Ð²":2235,"ĠÐ¼Ð°Ð¼Ð°Ð½":2236,"ĠÐ¿ÑĢÐ¾Ð´Ñĥ":2237,"ĠÑĤÒ±ÑĢÒĵÑĭÐ½":2238,"ĠÐ¾ÑĢÐ½":2239,"ĠÐºÓ©ÑĪ":2240,"Ð±ÐµÐ½":2241,"ĠÐ±ÑİÐ´Ð¶ÐµÑĤ":2242,"Ð¿Ðµ":2243,"ĠÑĢÐ¾Ð´":2244,"ĠÒĽÐ°ÑĢÐ¶":2245,"ÐµÑĢÐ²":2246,"Ð¸ÑĪ":2247,"ĠÐ½ÐµÑģ":2248,"ÐµÐ»Ñı":2249,"ĠÐ±Ð¾Ð»ÑĥÑĭ":2250,"ĠÐºÐ¾ÑĢÐ¾Ð½Ð°Ð²Ð¸ÑĢÑĥ":2251,"ĠÑĤÒ±Ð»":2252,"ĠÐ¼Ðµ":2253,"ÐµÐ¼Ñĥ":2254,"ĠÐ·Ð°ÑĤ":2255,"Ð»ÐµÐ´":2256,"ĠÐ´Ð¾Ð¿":2257,"11":2258,"ĠÐ¼Ð°ÒĽÑģÐ°ÑĤ":2259,"ÑĢÐ¾Ð¹":2260,"ÐĻ":2261,"ÑĥÑĢÑĭ":2262,"ĠÒĽÐ°ÑĤÑĭÑģÑĤÑĭ":2263,"Ð´Ð°ÑĢÐ´Ñĭ":2264,"ir":2265,"ĠÐºÐ¾":2266,"Ġ24":2267,"ĠÑģÐ»Ð¾Ð²Ð°Ð¼":2268,"ĠÐ½Ð°Ð´":2269,"ĠâĢľ":2270,"Ð¸Ð»Ð¾":2271,"ĠÐ¸Ñģ":2272,"Ð°Ð¼ÑĭÐ·":2273,"ÑĸÑĪ":2274,"Ð´Ð°ÑĢÑĭÐ½ÑĭÒ£":2275,"ĠÑĤÐ°Ð±ÑĭÐ»Ð°Ð´Ñĭ":2276,"ĠÐ±Ð»":2277,"ÑģÑĤÑĥÐ¿":2278,"ĠÓ©ÑĤÐºÐµÐ½":2279,"ĠÐ°Ð»Ð°Ð´Ñĭ":2280,"ÑĥÐ»ÑĤÐ°Ð½":2281,"ĠÐŁÐ¾Ð´":2282,"ik":2283,"ĠÐºÒ¯Ð½Ñĸ":2284,"____":2285,"ment":2286,"Ð»ÐµÐºÑģ":2287,"ĠÐķÐ²":2288,"ĠÐĲÒļ":2289,"ap":2290,"ĠÐ±Ñĭ":2291,"ĠÐµÑģÐ»Ð¸":2292,"ĠÐ°ÐºÐ¸Ð¼":2293,"ÑĢÐµÑģ":2294,"ÑĥÑģÐº":2295,"Ð°ÒĵÑĭÐ½":2296,"akh":2297,"ĠÑĤÐ°Ð¿ÑģÑĭÑĢ":2298,"ĠÐ°Òĵ":2299,"Ð¸Ð½ÑģÐºÐ¾Ð¹":2300,"ru":2301,"ĠÐ½ÑĥÐ¶":2302,"ĠÐ¶ÑĭÐ»Ð´ÑĭÒ£":2303,"Ð¸Ð»Ð°ÑģÑĮ":2304,"ĠÓ©Ð·Ð³ÐµÑĢ":2305,"ÑĦÑĦ":2306,"ĠKaz":2307,"ÑĥÐº":2308,"ĠÑģÐ¾Ð¾ÑĤÐ²ÐµÑĤ":2309,"Ð°ÒĽÑĤÑĭ":2310,"ĠÐ½Ð¾ÑĢÐ¼":2311,"ÑĭÒĵÑĭ":2312,"ÐµÑĥ":2313,"ĠÐ¸ÑģÐº":2314,"ÑĭÑģÒĽÐ°":2315,"Ð¸ÑĤÐµÐ»ÑĮÐ½Ð¾":2316,"ĠÑĢÑĥÐºÐ¾Ð²Ð¾Ð´":2317,"ĠÐķÐ»":2318,"ĠÒĽÐ°Ð½Ð´Ð°Ð¹":2319,"ĠÐ±ÑĭÐ»Ð°":2320,"Ð¸Ð½Ñĥ":2321,"ĠÐ®":2322,"ĠÐ°ÑĥÑĢÑĥ":2323,"Ð²ÐµÐ´":2324,"ĠÐ¾Ð±Ð»ÑĭÑģÑĭ":2325,"ĠÑģÐ´ÐµÐ»":2326,"ÑĸÑĢÑĸ":2327,"ĠÐ²ÑĢÐµÐ¼ÐµÐ½":2328,"Ð¾Ð´ÐµÑĢ":2329,"ĠÒ¯Ð»ÐºÐµÐ½":2330,"ĠÐ¿ÑĢÐ¾Ð²ÐµÐ´":2331,"Ð½Ð¸Ð²ÐµÑĢÑģÐ¸ÑĤÐµÑĤ":2332,"Ð°Ð»Ð°ÑĢÐ´Ñĭ":2333,"Ð¸Ð·Ð¼":2334,"ÑĤÐµÑĢÑĸÐ½":2335,"ÑĢÐ°Ñı":2336,"ÑĭÐ»ÑĭÒĵÑĭ":2337,"ÐµÐ´Ð°Ð³Ð¾":2338,"ction":2339,"ĠÒ±ÑģÑĤ":2340,"ĠÑĢÐµÐ¶":2341,"ĠÐ½ÓĻÑĤÐ¸Ð¶":2342,"Ð½Ð¾ÑģÑĤÑĮÑİ":2343,"ĠÐºÐµÐ»ÐµÐ´Ñĸ":2344,"ĠÐļÐ¾Ð¼":2345,"ĠÐ½Ð°Ð»":2346,"ĠÐ¶Ð°ÒĵÐ´Ð°Ð¹Ð´Ð°":2347,"ĠÑģÐ¸ÑĤÑĥ":2348,"Ð°Ð»Ðµ":2349,"ÑĸÐºÑĤÑĸ":2350,"ĠÑģÐµÐ·":2351,"ĠÑģÐ¾ÑĨÐ¸Ð°Ð»ÑĮ":2352,"Ð½Ð°ÐºÐ¾":2353,"ĠÓĻÑģÐµÑĢ":2354,"ĠÐ¶Ð°ÑĤÑĭÑĢ":2355,"Ð¸ÑĩÐµÑģÐºÐ¸Ðµ":2356,"Ð°Ð»Ð°ÑĢÐ´ÑĭÒ£":2357,"ÑģÐµÐ´":2358,"ĠÐºÐ°ÑĤ":2359,"ĠÐ¶ÐµÑĤÐºÑĸÐ·":2360,"ĠÐ°ÑģÑĤ":2361,"Ð¾ÑĢÐ¾Ð¶":2362,"ĠÐ¾Ð¹ÑĭÐ½":2363,"ĠÐ¿Ð¾Ð±":2364,"ÑĥÑĢÐ½Ð°Ð»":2365,"ÑĢÐµÐ´Ð¸ÑĤ":2366,"ĠÐºÐ°ÑĩÐµ":2367,"ĠÑįÐ½ÐµÑĢÐ³":2368,"',":2369,"ĠÑĥÑĤ":2370,"ĠÑĢÐ°Ð±Ð¾ÑĤÐ°":2371,"ĠÐºÐ¾Ð¼Ð°Ð½":2372,"ĠÐ¾Ð´Ð¸Ð½":2373,"Ð¸ÑĤÐµ":2374,"ĠÒĽÒ±Ð¶":2375,"ĠÒĽÐ¾ÑĢÒĵÐ°":2376,"ĠÐ¿Ð¾Ð´Ð´ÐµÑĢÐ¶":2377,"ÑĤÑĸÑĢ":2378,"ÑĢÑĭÐ²":2379,"ĠÐŁÐ¾Ñģ":2380,"Ð»Ð°Ð³Ð¾":2381,"Ð¸ÐºÐ¾Ð²":2382,"ĠÑĪÐ°ÑĢÑĥÐ°ÑĪ":2383,"Ð¾Ð»Ð¾":2384,"ĠÑĤÒ¯ÑĢÐ»Ñĸ":2385,"Ð¾Ð½Ð´ÑĭÒĽÑĤÐ°Ð½":2386,"Ġst":2387,"ĠÐ°ÑĤÒĽÐ°ÑĢ":2388,"Ġ100":2389,"ĠÐ½ÐµÑģÐº":2390,"ÑģÑĤÐ²Ð¾Ð¼":2391,"Ð¶Ð°Ð¹":2392,"ĠÒļÐ°Ð·Ð°ÒĽ":2393,"ÑĥÐ´Ð°":2394,"ÑĭÐ¼Ð´Ñĭ":2395,"ÑĤÐ°ÑĢÐ´Ñĭ":2396,"ĠÐ½ÐµÑĤ":2397,"ĠÐŁÑĢÐµÐ·Ð¸Ð´ÐµÐ½ÑĤ":2398,"Ð»ÑĸÐ³Ñĸ":2399,"Ð§":2400,"ÐµÐºÑĸ":2401,"ĠÐ°Ñģ":2402,"ĠÐ¸Ð·Ð¼ÐµÐ½":2403,"//":2404,"Ð¾ÑĢÑĤÐ°":2405,"ĠÓ©Ð½Ð´ÑĸÑĢ":2406,"ĠÒĽÑĥ":2407,"ĠÐ¶Ð°ÒĽÑģÑĭ":2408,"Ġ...":2409,"ĠÑĦÑĥÐ½Ðº":2410,"ĠÐ´Ò¯":2411,"ĠÒ±Ð»ÑĤÑĤÑĭÒĽ":2412,"ÑģÑĤÑĢÐ°Ð½":2413,"ĠÐ¿ÑĢÐµÐ·Ð¸Ð´ÐµÐ½":2414,"ÑĢÐ¾Ð»":2415,"ext":2416,"ĠÐ¸Ð½Ð²ÐµÑģÑĤÐ¸":2417,"Ġ2020":2418,"ce":2419,"ĠÑģÐµÐ³Ð¾Ð´Ð½Ñı":2420,"Ð°ÒĽÑĭ":2421,"ĠÑĢÐ°Ð±Ð¾ÑĤÑĭ":2422,"Ò±ÒĽ":2423,"ÑĸÐ»ÐµÑĤÑĸÐ½":2424,"ÑĢÐ°Ñħ":2425,"let":2426,"Ġ2022":2427,"ĠÐŀÐ´":2428,"ĠÐ¼Ð½Ð¾Ð³Ð¾":2429,"ĠÐĿÐµ":2430,"ÑĸÐ»ÑĸÐºÑĤÑĸ":2431,"Ġ23":2432,"Ð½ÐµÐ³Ð¾":2433,"Ġv":2434,"Ð¦":2435,"ĠÑģÐ¾Ð³":2436,"ÑĢÐ°Òĵ":2437,"Ð¾Ñİ":2438,"ĠÐĿÐ°Ð¿":2439,"ĠÐ¼Ð¾Ð³ÑĥÑĤ":2440,"ÐµÐºÑĤÑĸ":2441,"ĠÐ¼ÓĻÐ´ÐµÐ½":2442,"ÑĢÐµÐ´Ñĸ":2443,"Ð´ÐµÐ±Ð¸":2444,"ĠÓ©Ð»":2445,"Ð¾Ð¿Ð°Ñģ":2446,"âĢ¦":2447,"ĠÓ©Ñģ":2448,"ĠÐºÐµÑĪ":2449,"ĠÐºÓ©Ð»ÐµÐ¼":2450,"ĠÐĳÑĸÐ·":2451,"Ð°ÒĵÐ°":2452,"ÐºÑĸÐ½ÑĪÑĸ":2453,"ĠÑģÑĤÑĥ":2454,"ĠÒĽÐ¾Ð·":2455,"ĠÑĤÐµÑĢÑĢÐ¸ÑĤ":2456,"op":2457,"ĠÑĥÑģÑĤÐ°Ð½Ð¾Ð²":2458,"ĠÑģÐ¸Ð¿":2459,"ĠÑģÐ¾Ð½Ð´Ð°Ð¹":2460,"ĠÐ±Ð¾Ð»ÑĮÑĪÐµ":2461,"ĠÐ±ÑĸÑĢÑĸ":2462,"ĠÐ´ÐµÐ²":2463,"ĠÐ¿ÑĢÐ¾Ð´Ð¾Ð»Ð¶":2464,"ĠÐ¿ÐµÑĢÐµÐ´":2465,"ĠÐ´ÐµÐ¼":2466,"ĠÑģÑĩÐ¸ÑĤ":2467,"Ð°Ð»Ð°Ð´Ñĭ":2468,"ĠÑĢÐ°ÑģÑģ":2469,".)":2470,"ĠÐ¿ÑĢÐ¾Ð²Ð¾Ð´":2471,"ĠÐ²Ð»Ð°":2472,"ĠÒĽÐ°ÑĢÑģÑĭ":2473,"ÑģÑĤÐ¸ÑĤÑĥ":2474,"Ð¸ÑĤÐ°Ð¹":2475,"ĠKazakh":2476,"ÐµÐ½ÑĤÐ¾Ð²":2477,"12":2478,"ĠÑģÑĤÐ¾":2479,"ÑĤÐµÐ´Ñĸ":2480,"Ð¶ÐµÐ»":2481,"ĠÐ¼ÓĻÐ½":2482,"ĠÒĽÐ¾ÑĢÑĭ":2483,"ĠÐĳÑĸÑĢ":2484,"ĠÒĽÐ°ÑĥÑĸÐ¿":2485,"ÐµÑĢÐµÐ´":2486,"ĠÐĳÐ°Ñģ":2487,"Ð°ÑģÑĤÐ¸":2488,"ĠÐ´ÐµÑĢ":2489,"Ð¾ÑĢÐ¸Ñı":2490,"Ð´ÑĸÐ³Ñĸ":2491,"Ð°ÑĢÐ¸":2492,"ri":2493,"ĠÐ¾Ò£":2494,"Ġfor":2495,"Ó©Ð¹":2496,"ĠÐľÐµÐ¼Ð»ÐµÐºÐµÑĤ":2497,"ĠÑĢÐ°Ð·Ð²Ð¸ÑĤÐ¸Ñı":2498,"ÑĭÑĩ":2499,"ĠÐ¢ÑĥÑĢ":2500,"ĠÑĤÑĢÐµÐ±":2501,"15":2502,"ĠÐ´ÐµÑıÑĤÐµÐ»ÑĮ":2503,"Ð¾Ð²ÑĭÐ¹":2504,"ÑĭÐ±":2505,"ĠÐ±Ò±ÑĢÑĭÐ½":2506,"ĠÐ¿Ð¾Ðº":2507,"ĠÐ²ÑģÐµÐ³Ð¾":2508,"ĠÑĩÐµÑĢÐµÐ·":2509,"Ġ%":2510,"ÐµÐ´Ð°Ð³Ð¾Ð³":2511,"ĠÒ±Ð·":2512,"ĠÑĤÐ¾Ð»ÑĭÒĽ":2513,"ĠÑįÑĤÐ¾Ð¹":2514,"ĠÒĽÐ°Ñģ":2515,"ĠÒĵÑĭÐ»ÑĭÐ¼Ð¸":2516,"ĠÑģÐ²ÑıÐ·":2517,"ÑĤÐ°Ð´Ñĭ":2518,"ĠÐ°Ð»Ð´Ñĭ":2519,"ĠÑĤÐ°ÒĽÑĭÑĢ":2520,"ĠÐ·Ð´":2521,"ÐµÐ½ÑĸÒ£":2522,"ĠÐ±ÐµÑĢÐµÐ´Ñĸ":2523,"ÑĭÐ¼Ð¸":2524,"ĠÐ»ÑİÐ±":2525,"ĠÐ¼ÐµÑģÑı":2526,"ĠÑĤÐ°Òĵ":2527,"Ð¿Ð°ÑĢÑĤÐ°Ð¼":2528,"ĠÑĤÒ¯ÑĢÐ´Ðµ":2529,"Ð½ÐµÐµ":2530,"ÐµÐ¹ÑĤÑĸÐ½":2531,"Ġ[":2532,"ĠÐ¾ÑĢÑĤÐ°Ð»Ñĭ":2533,"Ð»Ð°Ð¹":2534,"ÑĨÐ¸ÑıÐ»ÑĭÒĽ":2535,"ĠÐ±ÐµÐ»Ð³ÑĸÐ»Ñĸ":2536,"ÐµÑĨ":2537,"ÑĥÐ»ÐµÑĢ":2538,"Ð¾ÑģÐº":2539,"ÐµÑģÑĸÐ½ÑĸÒ£":2540,"Ð°Ð»ÑĮÐ½ÑĭÑħ":2541,"ĠO":2542,"ĠÐĲÐ±":2543,"ĠÐ¼ÑĥÐ¶":2544,"ĠÐĿÐ°Ð·Ð°ÑĢÐ±Ð°ÐµÐ²":2545,"Ð°ÐºÑĤÐµÑĢ":2546,"Ġ2018":2547,"ÒĵÐ½Ð¸":2548,"Ð»ÑıÐµÑĤ":2549,"ĠÐ±Ð°Ð½Ðº":2550,"ĠÐ´ÐµÐº":2551,"ĠÐ¾Ð±Ñī":2552,"30":2553,"ĠÐ¶Ò±Ð¼ÑĭÑģÑĤÐ°ÑĢ":2554,"ÐµÐ´ÐµÑĢ":2555,"Ð³ÑĸÐ½Ðµ":2556,"ÑıÑĤÑģÑı":2557,"Ð»Ð¸Ð²":2558,"ĠÑĤÐ¾Ð½":2559,"ĠÐ¼ÐµÐ´Ð¸ÑĨÐ¸Ð½":2560,"ĠÐĶÐ¶":2561,"16":2562,"ĠÑĢÐ¾ÑģÑģ":2563,"ÑĤÐ°ÑĢÑĭÐ½":2564,"Ð½Ð¸Ñħ":2565,"Ð¸Ð½Ð¾Ð²":2566,"ĠÐºÐ¾Ð¼Ð¸ÑĤÐµÑĤ":2567,"ĠÑģÑĥÐ±":2568,"Ð°Ð»ÑĮÐ½Ð¾Ð³Ð¾":2569,"ĠÐ¾ÒĽÑĭÑĤÑĥ":2570,"ĠÐ¿ÐµÑĢÐ¸":2571,"ĠÑĥÐ²ÐµÐ»Ð¸Ñĩ":2572,"ĠÐ²Ð½Ðµ":2573,"ĠÐĲÑģÑĤÐ°Ð½Ð°":2574,"ĠÐĴÑģÐµ":2575,"ÐµÐ´Ð¸Ð½":2576,"Ð´Ð°ÑĢÒĵÐ°":2577,"ĠÐľÑĭ":2578,"Ð»ÑĭÒĵÑĭ":2579,"ĠÐ±Ð¸Ð»":2580,"ĠÐ¼Ò¯Ð¼ÐºÑĸÐ½Ð´ÑĸÐº":2581,"??":2582,"Ð°ÑĢÐ»ÑĭÒĽ":2583,"ÑĤÑĮ":2584,"ĠÒĽÐ°Ð¹ÑĤÐ°":2585,"ÑĢÐµÐ²":2586,"ĠÐ¶Ð¸Ð²":2587,"ĠÐ²Ðº":2588,"ĠÑģÐ²Ñı":2589,"ĠÐ¡ÐµÑĢ":2590,"ÐļÐ°Ð·Ð°ÑħÑģÑĤÐ°Ð½":2591,"Ð¾ÑģÑĤÐ°Ð½":2592,"ĠÑĤÐµÒ£Ð³Ðµ":2593,"ĠÐ¿Ð¾ÑĤ":2594,"ÐµÐ½Ñĸ":2595,"Ð¸ÑĨÐµ":2596,"ĠÐłÐµÑģÐ¿ÑĥÐ±Ð»Ð¸ÐºÐ°ÑģÑĭ":2597,"ĠÐ¼Ð¾Ð¼":2598,"ÐµÑģÑĸÐ½Ð´Ðµ":2599,"ĠÐ¾ÑģÐ¾Ð±":2600,"ÑĤi":2601,"ĠÑĤÐµÐ»Ðµ":2602,"ÑĤÐ°ÒĵÑĭ":2603,"Ġ26":2604,"ĠÐŀÑĢ":2605,"se":2606,"ĠÐ¿ÑģÐ¸Ñħ":2607,"ĠÐ¼Ð°ÑĪ":2608,"ov":2609,"ÐºÐµÑĢÐ»ÐµÑĢ":2610,"ĠÑģÐ°Ð±Ð°ÒĽ":2611,"Ð¸ÐºÐ°Ð½":2612,"Ð°ÑģÑĭÐ½Ð´Ð°ÒĵÑĭ":2613,"ĠÐ¾ÑĢÑĭÐ½Ð´Ð°":2614,"Ð»Ð°Ð¹Ð´Ñĭ":2615,"ĠÐ¾ÑĢÐ½Ð°Ð»Ð°Ñģ":2616,"ĠÐ³Ð¾Ð»":2617,"Ð°Ð»Ð´ÑĭÒĽ":2618,"ĠÐ°Ð½Ð°Ð»":2619,"ĠÒļÐ°ÑĢ":2620,"ÐµÐ½ÐµÑĢ":2621,"Ð³Ð¾ÑĤÐ¾Ð²":2622,"ĠÐ½Ð°Ð¿":2623,"oc":2624,"Ð°ÒĵÐ°ÑĤ":2625,"Ð¼Ð¸Ð½Ð¸ÑģÑĤ":2626,"ort":2627,"ĠÐ¼Ð°Ò£ÑĭÐ·Ð´Ñĭ":2628,"Ð¸Ð¼Ð¾ÑģÑĤÐ¸":2629,"Ò¯Ð»":2630,"ĠÑĤÐ¾ÒĽ":2631,"ĠÑĥÐ½Ð¸Ð²ÐµÑĢÑģÐ¸ÑĤÐµÑĤ":2632,"ÐµÑĤÐµÑĢ":2633,"Ġ2017":2634,"ÑĢÐ¾Ðº":2635,"tp":2636,"ĠÑĢÐµÐ°Ð»Ð¸Ð·":2637,"ind":2638,"--":2639,"ÑĤÑĭÑĢÑĥ":2640,"ÑĥÑĭÐ½":2641,"ĠÓĻÑĢÐµÐº":2642,"ĠÒĽÐ°ÑĢÐ°Ð¹":2643,"ĠÐ½ÐµÑĦ":2644,"Ð´Ð°ÑĢÑĭÐ½":2645,"ĠÑģÐºÐ°Ð·Ð°Ð»":2646,"Ġx":2647,"ĠÑģÑĥÐ¼":2648,"ĠÐ±Ð°Ð·":2649,"ÑĢÐ¸Ð·":2650,"ĠÐ³Ð¾ÑĢÐ¾Ð´":2651,"ÑģÑĤÐ²Ð¸Ñı":2652,"ĠÐ±ÐµÐ»Ð³ÑĸÐ»":2653,"ÑıÑħ":2654,"ĠÐ½Ð¸Ðº":2655,"ÑĢÐµÑĤÑĮ":2656,"ĠÐĳÐ°Ð¹":2657,"ĠÐ¿Ð¾Ð·Ð²":2658,"Ð°Ðµ":2659,"ĠÐ¼Ð°Ð»":2660,"ÑĭÐ·ÑĭÐ»":2661,"ĠThe":2662,"ĠÑıÐ½":2663,"ĠÐ²ÑģÑĤÑĢÐµ":2664,"ĠÐ½ÐµÐº":2665,"ĠÐºÓ©ÑĤÐµÑĢ":2666,"Ð´Ð°Ð¿":2667,"Ġ199":2668,"ĠÐ¸Ð½ÑĤÐµÑĢÐµÑģ":2669,"ĠÐºÐ¾Ð½ÐºÑĥÑĢ":2670,"ĠÐ¶Ð°Ð±":2671,"ads":2672,"Ð¸Ð½Ð¸ÑģÑĤÐµÑĢ":2673,"Ð½ÐµÐ²":2674,"ĠÐ°Ð»ÒĵÐ°ÑĪ":2675,"ĠÐ±Ó©Ð»ÑĸÐ¼":2676,"Ð³i":2677,"ÑĢÐ¾Ð¼Ðµ":2678,"ĠÓĻÑĢÑĸ":2679,"ĠÑģÐ¿Ð¾ÑģÐ¾Ð±":2680,"Ð°ÑĤÐ¾Ð²":2681,"ĠÐĶÐ»Ñı":2682,"Ð¾Ð½ÑĭÐ¼ÐµÐ½":2683,"Ð¼Ð°Òĵ":2684,"em":2685,"ĠÐĹÐ°":2686,"ĠÑģÐ¸Ð»":2687,"Ð±Ð°ÑģÑĭ":2688,"ĠÐ¶ÑĥÑĢÐ½Ð°Ð»":2689,"ĠÐ±Ð°ÒĽÑĭÐ»Ð°Ñĥ":2690,"Ð²Ð¾ÑĢ":2691,"ĠÐ²Ð¸Ð´":2692,"ÑģÑĤÐµ":2693,"Ð°Ñİ":2694,"ÑĢÐ¸Ð¼":2695,"ĠÐ¡Ð¾Ð»":2696,"ÑĤÒ¯ÑģÑĤÑĸÐº":2697,"ĠÐ¿ÑĢÐ°ÐºÑĤ":2698,"ĠÐ¼ÐµÐ¶Ð´ÑĥÐ½Ð°ÑĢÐ¾Ð´":2699,"ĠÑģÑĤÐ°ÑĤÑĮ":2700,"Ġ50":2701,"ĠÐ²Ð°Ð¶":2702,"ĠÑħÐ°Ð»":2703,"oog":2704,"ÑıÐ±ÑĢÑı":2705,"ÑĸÐ»ÑĸÐ³Ñĸ":2706,"Ġ22":2707,"13":2708,"ĠÐ°Ð³ÐµÐ½ÑĤ":2709,"ĠÑģÑĸÐ·":2710,"ÑĢÑĥÐ¶":2711,"://":2712,"ÑīÐµÐ³Ð¾":2713,"Ð¸Ð»Ð¾ÑģÑĮ":2714,"ÑĢÐ°Ð½Ð¸Ñĩ":2715,"ÑĪÐ¸Ðµ":2716,"Ð°Ð»Ð¸ÑģÑĤ":2717,"ĠÒĽÐ°Ð»Ð°Ð¹":2718,"Ð¼ÑĭÐ·":2719,"ĠÑģÐµÐ¹ÑĩÐ°Ñģ":2720,"ÑįÑĤÐ¾Ð¼Ñĥ":2721,"Ð³Ð¾ÑĢ":2722,"ĠÑĩÐµÐ¼Ð¿Ð¸Ð¾Ð½":2723,"ÑģÐ°ÒĽ":2724,"Ð±Ñĥ":2725,"ÐºÐ°Ð½":2726,"ÑıÑģÐ½":2727,"ÐĲÐł":2728,"ĠÐµÑĪ":2729,"ĠÐ±ÐµÐ·Ð¾Ð¿Ð°Ñģ":2730,"ĠÐ¼ÐµÑĢÐ·":2731,"ĠÑĤÑĢÐ¸":2732,"ĠÐ·Ð°Ñī":2733,"ĠÐ¼Ñĥ":2734,"ĠÐ½Ð¸":2735,"ÑĥÐµÐ»":2736,"ĠÒ°Ð»":2737,"Ð¼Ð°ÒĵÐ°Ð½":2738,"Ð½Ð°Ð¹Ñĭ":2739,"ĠÐĲÑģÑĤÐ°Ð½":2740,"ÑıÐ½":2741,"ÑģÐ¸Ð¾Ð½":2742,"ÑģÑĤÑĭÑĢ":2743,"ud":2744,"ĠÐ°Ð»ÑĭÐ½":2745,"Ð¿Ð°Ð½":2746,"ĠÐ¸Ð¼ÐµÐ½":2747,"ÐºÑĸÑĪ":2748,"ÑĤÐµÐ³ÐµÐ½":2749,"ĠÐ´Ð²ÑĥÑħ":2750,"ÑĸÑĢÐ°ÒĽ":2751,"ĠÐºÐ¾Ð»Ð¸ÑĩÐµ":2752,"Ò±ÑĢÑĭÑģ":2753,"ÑĥÑĭÐ½Ð°":2754,"ĠÐ¶Ð°ÑĢÐ¸Ñı":2755,"ÐµÑĢÐ°":2756,"ÐºÐ¾Ð½":2757,"ĠÐ´Ð²Ð°":2758,"all":2759,"ĠÑģÐ»ÑĥÐ¶":2760,"ĠÑĨÐµÐ½":2761,"ĠÐĺÐ·":2762,"ele":2763,"ĠÑħÐ¾ÑĤ":2764,"Ġ2021":2765,"Ð¾Ð»ÐµÐ²":2766,"Ġ21":2767,"Ð´ÐµÑĢÐ´ÑĸÒ£":2768,"Ð°Ð»Ð°ÑĢÑĭÐ½":2769,"ĠÐ³Ð¾ÑģÑĥÐ´Ð°ÑĢÑģÑĤÐ²Ð°":2770,"ĠÑĨÐµÐ»":2771,"ĠÑıÐ½Ð²Ð°ÑĢ":2772,"Ó©Ð»ÑĪ":2773,"ĠÐ±ÑĸÑĢÑĸÐ½ÑĪÑĸ":2774,"ĠÐľÐ°ÑĢ":2775,"ub":2776,"ĠÐºÐ¾ÑĤÐ¾ÑĢÑĭÑħ":2777,"ĠÐŀÐ½ÑĭÒ£":2778,"ĠÑģÐ²ÑıÐ·Ð¸":2779,"ĠÐ¿Ð»Ð¾":2780,"Ð°Ð»ÑĭÒĽÑĤÐ°ÑĢ":2781,"Ð¶ÑĸÑĢ":2782,"ĠÐ´ÐµÑĤÐµÐ¹":2783,"ÑĨÐ¸ÐµÐ¹":2784,"ĠÑĤÑĢÐ°Ð½ÑģÐ¿":2785,"pe":2786,"ÑĢÐ¾Ð²Ð°Ð½":2787,"cl":2788,"ĠU":2789,"ÐµÐ²ÐµÑĢ":2790,"ĠÓĻÐ¹":2791,"ÑĸÐºÑĸÑĢ":2792,"Ð¼ÐµÑĩ":2793,"ÒĴ":2794,"ĠÑģÐ°ÑĢ":2795,"ĠÐ¶ÐµÐ½Ñī":2796,"ÐºÐµÐ½ÑĤ":2797,"ĠÑĤÐ°Ð±Ð¸Òĵ":2798,"ÑĦÐ¾Ð½":2799,"ĠÑĦÐ¸Ð·":2800,"ÑĦÐµÑĢÐµÐ½":2801,"2022":2802,"ĠÑģÐ°Ð½Ñĭ":2803,"ĠKazakhstan":2804,"ĠÐ¼Ð¾Ð´":2805,"ÐµÐ½Ð½Ð¾":2806,"ĠÓ©ÑĤÑĤÑĸ":2807,"ĠÐ¸Ð·Ð²ÐµÑģÑĤ":2808,"ĠÑģÐ°ÒĽÑĤÐ°Ñĥ":2809,"ĠÐ´ÐµÐ´Ñĸ":2810,"ĠÐºÐ¾Ð¼Ð¿Ð°Ð½Ð¸Ð¸":2811,"Ð½Ð´Ð°Ð¹":2812,"ĠÑĪÐºÐ¾Ð»":2813,"ĠÐ°Ð²ÑĤÐ¾Ð¼Ð¾Ð±":2814,"ÑĥÑĪÑĸ":2815,"ĠÐ±Ò±Ð·":2816,"Ð°Ð»ÑĮÐ½Ð¾":2817,"ĠÐ¿Ð»":2818,"ĠÐ²ÑĭÑģÑĤÑĥÐ¿":2819,"Ð°ÑĨÐ¸Ñİ":2820,"ĠÑĢÐµÐ¶Ð¸Ð¼":2821,"ĠÐ´Ð°Ð¶Ðµ":2822,"ÐµÐ¼ÐµÐ½":2823,"Ð°ÑĤÐµÐ»ÐµÐ¹":2824,"ĠÓĻÐ´ÐµÐ±Ð¸":2825,"ĠÑĥÐ±":2826,"ĠÑģÐ¸Ñı":2827,"Ð½Ð¸ÐºÐ°Ð»ÑĭÒĽ":2828,"ĠÑįÑĤÐ¾ÑĤ":2829,"Ð½Ð¸ÑĨ":2830,"ÑĩÐ°":2831,"ÑĥÐ»Ñı":2832,"ĠÐºÐ¾ÑĤÐ¾":2833,"est":2834,"ĠÐ³Ð»":2835,"Ð¸ÐºÐµ":2836,"ost":2837,"ÐµÑģÐµÐ¹":2838,"ĠÐºÐ»ÑĥÐ±":2839,"ÐµÑģÑĮ":2840,"Ð¾Ð·Ñı":2841,"Ð¶ÑĸÑĢÐ¸Ð±":2842,"ÑĥÐ¼Ð°":2843,"ÑĸÑģÑĤÑĸ":2844,"Ð½ÐµÑĪÐµ":2845,"Ð°Ð²Ð»Ð¾Ð´":2846,"Ð±Ð°Ð½":2847,"ĠÐĿÒ±ÑĢ":2848,"Ð¼Ò±":2849,"ĠÐ°ÑģÑĭÑĢÑĥ":2850,"ĠÐ´Ð¾Ð»Ð»Ð°ÑĢÐ¾Ð²":2851,"ĠÑĸÐ·":2852,"ÑīÐµÐµ":2853,"ĠÐºÐ¾ÑĤÐ¾ÑĢÐ°Ñı":2854,"ÑĥÐ³":2855,"ĠÐ·Ð°Ñģ":2856,"Ð°ÐºÑģ":2857,"ain":2858,"50":2859,"ĠÐ¾Ð±ÑıÐ·":2860,"ÐµÑī":2861,"ĠÒĽÑĭÑĢ":2862,"ĠÐ¶Ó©Ð½ÑĸÐ½Ð´ÐµÐ³Ñĸ":2863,"ÑĩÐµÑĤ":2864,"ÑĤÑĭÑĢÐ°Ñĥ":2865,"ĠÑĤÐµÑħÐ½Ð¾Ð»Ð¾Ð³Ð¸Ñı":2866,"ĠÑģÑĩÐµÑĤ":2867,"ĠÐ½ÐµÐ·":2868,"Ð°Ð»ÑĮÐ½ÑĭÐ¹":2869,"Ġ28":2870,"Ð½ÑĥÐ»":2871,"ĠÐŀÑģ":2872,"ĠÑģÐ¾Ð·Ð´Ð°Ð½":2873,"ÑĢÐµÑģÐ¿":2874,"ĠÐ¿ÑĢÐ¸Ð½Ñı":2875,"ĠÓĻÐ»":2876,"ĠÐ³Ð¾ÑĤ":2877,"ÑıÑī":2878,"Ð°Ñī":2879,"ĠÂ»":2880,"ĠÒ±ÑĢ":2881,"ĠÐºÐµÐ»ÑĸÑģ":2882,"ĠÐºÐ¾Ð¼Ð¸ÑģÑģ":2883,"ĠÐºÓ©ÑĢÑģÐµÑĤÑĥ":2884,"ĠÐ¿ÑĢÐµÐ·Ð¸Ð´ÐµÐ½ÑĤ":2885,"Ġy":2886,"ĠÑĤÐ¸ÑĸÑģ":2887,"Ð°ÑĤÑĥÑĢÐ°":2888,"Ð°ÑģÐ°":2889,"ĠÐĸÐ°Ò£":2890,"ĠÐķÑģÐ»Ð¸":2891,"Ð¼Ð¸Ð½":2892,"ĠÐ±Ð¾ÑĢ":2893,"ĠÑĤÒ±ÑĢÐ°ÒĽ":2894,"Ð¸ÑıÑģÑĭ":2895,"Ð°Ð¹Ð´Ð°":2896,"ĠÐ´Ð¸ÑĢÐµÐºÑĤÐ¾ÑĢÑĭ":2897,"ĠÐ³ÑĢÐ°Ð½":2898,"ĠÑĢÐ°Ð¼":2899,"ÑĭÑģÑĤÑĭÑĢ":2900,"ĠÐ·Ð°Ð½Ð¸Ð¼":2901,"ĠÐºÐµÐ¼":2902,"ĠÐºÐµÐ·Ð´ÐµÑģ":2903,"ĠÐ¢Ð°ÐºÐ¶Ðµ":2904,"ĠÐ²Ð½ÑĥÑĤ":2905,"Ð°ÑĤÑĤÑĭÒĽ":2906,"ĠÐ°ÑĢÐ°ÑģÑĭÐ½Ð´Ð°":2907,"Ġ2016":2908,"ĠÐĲÐ²":2909,"ĠÐ¿ÑĢÐ°Ð²Ð¸ÑĤÐµÐ»ÑĮ":2910,"ĠÐ´Ð¾ÐºÑĥÐ¼ÐµÐ½":2911,"ĠÐ¾ÑĤÐ¼ÐµÑĤÐ¸Ð»":2912,"ĠÐµÑĢÐµÐºÑĪ":2913,"ĠÐ±ÐµÐºÑĸ":2914,"ĠÐ¿ÑĢÐ¾Ð¸Ð·Ð¾ÑĪ":2915,"Ġ$":2916,"ĠÑģÐ¸Ð¿Ð°ÑĤ":2917,"ĠÐ¸ÑĤÐ¾":2918,"Ð²ÐµÑĢÐ¶":2919,"ÒĽÐ¾ÑĢ":2920,"ĠÐ±Ð°Ð¹ÒĽ":2921,"ÑĤÐ°Ð»Ð°Ð´Ñĭ":2922,"ĠÑĪÐ°ÑĢÑĤ":2923,"Ð°ÑģÑģ":2924,"ÐµÐ½Ð½ÑĭÐµ":2925,"ÑĸÐ³Ñĸ":2926,"ĠÐ±ÑĸÑĢÐ³Ðµ":2927,"ĠÑģÑĤÑĢÐ¾Ð¸ÑĤÐµÐ»ÑĮ":2928,"Ð´Ð°ÐµÑĤÑģÑı":2929,"Ð²Ñĭ":2930,"ĠÑĤÐµÐ¼Ð¿ÐµÑĢ":2931,"ĠÐºÐ°Ð¿":2932,"ĠÐ½Ð°ÑĨÐ¸Ð¾Ð½Ð°Ð»ÑĮ":2933,"ĠÐłÐµÑģÐ¿ÑĥÐ±Ð»Ð¸ÐºÐ¸":2934,"ĠÒĽÐ°Òĵ":2935,"Ð°ÑģÑĭÑĢ":2936,"ĠÑģÐµÐ±Ñı":2937,"ĠÓ¨Ð·":2938,"ĠÐºÑĢÑĥÐ¿":2939,"ĠÐ±Ð°ÑĤ":2940,"ĠÒĽÐ¸":2941,"ĠÐ°ÑıÒĽ":2942,"ĠÒĽÐ°ÑĤÑĭÐ½":2943,"ĠÑĦÑĥÑĤ":2944,"ĠÑģÐ¸ÑıÒĽÑĤÑĭ":2945,"ĠÐ¾ÒĽÑĥÑĪÑĭÐ»Ð°ÑĢ":2946,"ĠÑĸÑģÐºÐµ":2947,"ÐµÐ²Ð°":2948,"Ò±Ð»Ñĭ":2949,"ÑģÑĸÐ·Ð´ÑĸÐº":2950,"ĠÐ¿Ð¾ÑıÐ²":2951,"Ð³ÐµÑĢÑĸ":2952,"ĠÐ¼Ó©Ð»ÑĪ":2953,"ĠÐ´ÐµÐ¹Ð´Ñĸ":2954,"ÑĥÐ´Ðµ":2955,"ĠÑģÒ¯Ð¹":2956,"ĠÐļÐ°ÑĢ":2957,"ÑĸÐ»ÑĸÐ¼":2958,"ÑĸÑģÑĤÑĸÐº":2959,"Ġpro":2960,"Ð¸Ð¼Ð¾ÑģÑĤÑĮ":2961,"Ð¾ÑħÑĢÐ°Ð½":2962,"ĠÐµÑģ":2963,"Ð°Ð¹ÑĤ":2964,"ĠÑģÐ²Ð¾Ðµ":2965,"ĠÐ°Ð¹ÑĤÑĥ":2966,"ĠÑĢÐ¾ÑģÑģÐ¸Ð¹":2967,"ÑħÐ¾Ð´Ð¸ÑĤ":2968,"ĠÑģÐ¾Ð²ÐµÑĢ":2969,"ÑĦÐ¸ÑĨÐ¸Ð°Ð»ÑĮ":2970,"ĠÐ¾ÑĤÐ½Ð¾ÑĪÐµÐ½":2971,"Ġ27":2972,"ĠÑģÑĤÑĥÐ´ÐµÐ½ÑĤ":2973,"ÑĥÐ´Ñĭ":2974,"ÑģÐ°ÑĤÑĭ":2975,"ĠÐ´Ð°Ð½Ð½ÑĭÐ¼":2976,"Ð¾Ð½Ñĩ":2977,"ia":2978,"ĠÑģÐ¿ÐµÑĨÐ¸":2979,"ers":2980,"ĠÑĤÐ¾Ð²":2981,"ĠÐ¿Ð¾Ð·Ð²Ð¾Ð»":2982,"ĠÑĨÐ¸":2983,"ĠÐ¼Ð¸ÑĢÐ°":2984,"head":2985,"ĠÑħÐ¾ÑĢ":2986,"ĠÐľÓĻ":2987,"ess":2988,"ĠÐ½ÐµÑģÐºÐ¾Ð»ÑĮÐºÐ¾":2989,"ÐµÑģÑĤÐ¸":2990,"Ð°ÑĨÐ¸Ð¾Ð½":2991,"25":2992,"ÑĢÐµÑģÐ¿Ð¾Ð½":2993,"ÐµÐºÑģ":2994,"ĠÐĳÑĸÑĢÐ°ÒĽ":2995,"ĠÑħÐ°Ð»ÑĭÒĽÐ°ÑĢÐ°Ð»ÑĭÒĽ":2996,"ĠÑĤÑĸÐ·":2997,"ÑĭÒĽÑĤÑĭÒĽ":2998,"Ð°Ð»Ð¾ÑģÑĮ":2999,"ĠÐ¾Ð±ÑīÐµÑģÑĤÐ²ÐµÐ½":3000,"Ð¸ÑĩÐµÑģÐºÐ¸":3001,"ĠÑģÒ¯":3002,"ĠÐ²ÑĭÐ±":3003,"Ġ2019":3004,"ĠÑģÐ²Ð¾Ñİ":3005,"Ð¸ÑĩÐµÑģÐºÐ¸Ð¹":3006,"ĠÐ°ÑĥÐ´Ð°ÑĢ":3007,"Ð±Ð°ÑĤ":3008,"ĠÓ©ÑĢ":3009,"ĠÑģÑģÑĭÐ»":3010,"âĢĵ":3011,"18":3012,"Ð´ÐµÐ½Ð¸Ðµ":3013,"Ð»ÐµÐ½Ð¸Ð¸":3014,"Ò¯ÑĢÐ»Ñĸ":3015,"Ð³Ð¸Ð±":3016,"ÑĭÐ²Ð°ÐµÑĤ":3017,"ĠÐ¾ÑĨÐµÐ½":3018,"Ð´ÐµÑĢÑĸÐ½":3019,"Ð°Ð²Ð»Ð¾Ð´Ð°ÑĢ":3020,"ĠÐ²ÑĭÐ·":3021,"ĠÑĤÑĭ":3022,"ĠÑģÐ¾Ð¾ÑĤÐ²ÐµÑĤÑģÑĤÐ²":3023,"age":3024,"Ġ});":3025,"Ð¿Ð°Ñģ":3026,"ĠÑĢÐ¸":3027,"ĠÐºÒ¯Ð¹":3028,"ĠÐ±Ð°Ð»Ð°":3029,"iÑĢ":3030,"ĠÑĤÐ¸ÑĸÐ¼Ð´Ñĸ":3031,"ĠÐ»ÑİÐ´ÐµÐ¹":3032,"Ò±Ñģ":3033,"Ð·ÑĸÑĢ":3034,"Ð¾Ð³ÑĢÐ°ÑĦ":3035,"ÑĩÐ¸Ð²":3036,"ĠÑĢÐµÑģÑĥÑĢ":3037,"ĠÐ°ÑĤÑĭÐ½Ð´Ð°ÒĵÑĭ":3038,"ĠÐĳÐ°Ð»":3039,"ÑĢÐµÐ¿":3040,"ĠÐ¿Ð°":3041,"ĠÐºÐ»Ð°Ñģ":3042,"Ð¾ÑģÑĤÐ°Ð²":3043,"for":3044,"Ð´ÐµÑģÑĮ":3045,"ĠÐ°ÑĢÐ½Ð°Ð¹Ñĭ":3046,"ÑĭÑģÐ°Ð»Ñĭ":3047,"ĠÐ¿ÑĢÐ¾ÐµÐº":3048,"Ð°Ð»ÑĮÐ½ÑĭÐµ":3049,"ĠÐ¿ÑĢÐµÐ´Ð»Ð¾Ð¶":3050,"Ð¾Ñħ":3051,"ĠÐ²ÑģÐµÐ¼":3052,"Ð»ÐµÐ½Ñĭ":3053,"ĠÒĽÐ°Ð»Ð°ÑģÑĭ":3054,"Ð°ÑĤÐµÐ»Ñı":3055,"ĠÑįÐ»ÐµÐºÑĤÑĢÐ¾Ð½":3056,"Ġ29":3057,"ÑĥÐµÑĤ":3058,"ĠÑĦÐ¾Ð½":3059,"iv":3060,"ĠÐ¶ÑĸÐ±ÐµÑĢ":3061,"ĠÐ²Ð°Ð»":3062,"ĠÐĲÑĥ":3063,"ĠÐ¿Ð¾Ð¶":3064,"ĠÐ·Ð°ÑıÐ²Ð¸Ð»":3065,"Ð»Ð°ÑĢÑĭÐ½":3066,"ox":3067,"ÑĢÐµÑħ":3068,"ÑĢÐ¸ÑģÑĤ":3069,"Ġ:":3070,"ĠÑģÒ±ÑĢÐ°ÒĽ":3071,"Ð²Ð¸Ð½":3072,"ĠÒĴ":3073,"Ð¾ÑĦ":3074,"Ð°Ð»Ð»":3075,"ĠÐ´ÑĢÑĥÐ³Ð¸Ñħ":3076,"ĠÐ¼Ð°Ð³":3077,"ĠÐ¨ÑĭÐ¼":3078,"ĠÑĩÐµÐ»Ð¾Ð²ÐµÐºÐ°":3079,"Ð»Ð¸Ñı":3080,"ĠÑĥÑģÐ»Ð¾Ð²Ð¸Ñı":3081,"ĠÑĢÐ°ÑģÑĤ":3082,"ĠÐ´ÐµÐ¿ÑĥÑĤ":3083,"ĠÐ±Ð»Ð°Ð³Ð¾":3084,"ÒĵÐ°Ð¹":3085,"ĠÑħÐ°Ð±Ð°ÑĢÐ»Ð°Ð¹Ð´Ñĭ":3086,"ĠÐ¾ÐºÐ¾Ð»Ð¾":3087,"ĠÑĢÐ°Ð¼ÐºÐ°Ñħ":3088,"ĠÐ¸Ð´Ðµ":3089,"ĠÐ·ÐµÐ¼":3090,"ĠÓ©Ð·ÑĸÐ½ÑĸÒ£":3091,"VI":3092,"ÐĲÐĿ":3093,"eb":3094,"Ð¸ÑĨÐµÐ¹":3095,"ĠÑĢÐµÑĪ":3096,"ÐºÑĸÐ¼ÐµÑĤ":3097,"Ð¾Ð¼Ð½Ð¸Ð¼":3098,"ĠÐºÑĸÑĤÐ°Ð¿":3099,"Ð½Ð¸Ð¶":3100,"Ð»Ð°Ð´Ñĭ":3101,"Ò®":3102,"ÑĢÐ¾Ð±":3103,"ĠÐ´ÓĻÐ»":3104,"com":3105,"ĠÐ¾Ð¶Ð¸":3106,"ĠÑģÓ©Ð¹":3107,"ĠÐ¿ÑĢÐ¾Ð´ÑĥÐº":3108,"ĠÐ£ÐºÑĢÐ°":3109,"Ð¸ÑĦ":3110,"Ġ#":3111,"Ð¾ÑĩÐ½Ð¾":3112,"Ð»i":3113,"ÑģÑĸÐ½":3114,"ĠÐ¼Ð¾ÑĢ":3115,"Ð´ÑĭÒĵÑĭ":3116,"Ð½Ð°Ð¼":3117,"ÑĥÐ²":3118,"ĠÐ¿ÓĻÐ½":3119,"ÐĲÐĽ":3120,"ĠÐ¼Ð¸Ðº":3121,"ĠÐ±ÑĸÑĢÐ½ÐµÑĪÐµ":3122,"ĠÐ´ÐµÐ¿Ð°ÑĢÑĤÐ°Ð¼":3123,"ĠÑĪÐµÑĤ":3124,"ĠÐ¿ÑĢÐ¾ÐµÐºÑĤ":3125,"ÑĪÐµÐ¹":3126,"Ġ2015":3127,"gram":3128,"ÐĲÒĽ":3129,"ĠÒ±Ð¹ÑĭÐ¼Ð´Ð°ÑģÑĤÑĭÑĢÑĥ":3130,"Ð¾ÑĢÑĭÐ½":3131,"ĠÑĥÑģÑĤ":3132,"ĠÐºÐ°Ð½":3133,"ĠÐµÑĤÐµÐ´Ñĸ":3134,"ĠÐ´Ð¾Ð»Ð¶Ð½Ñĭ":3135,"ĠÐŁÐ¾Ð»":3136,"Ð°Ð½Ð¸Ð¹":3137,"ÑģÐ¸Ð»":3138,"Ð°ÑĪÐ°":3139,"ĠÒĽÐ¾ÑĢÒĵÐ°Ñĥ":3140,"Ð¸Ð½Ð¸Ð¼":3141,"ĠÑĪÑĭÐ½":3142,"Ġon":3143,"Ð´ÐµÐ»ÑĮ":3144,"Ð¾Ð´ÐµÑĢÐ¶":3145,"................................":3146,"ÑĪÑĸÑģÑĸ":3147,"ĠÐ¿ÑĢÐ¾Ð¸Ñģ":3148,"ĠÑģÐµÑĤ":3149,"ĠÐ²Ð°Ðº":3150,"ĠÐ¢Ð¾Ðº":3151,"ĠÐ¼ÐµÑģÑĤÐ¾":3152,"ĠÑįÐ»ÐµÐ¼":3153,"Ð¸Ñī":3154,"Ð±ÑĭÐ»":3155,"ĠÐ½Ð°Ð±":3156,"ĠÓ©Ð·ÑĸÐ½":3157,"ÑĤÐ°ÑĢÒĵÐ°":3158,"ĠÐ¾Ð±Ð¾ÑĢ":3159,"ÐķÐł":3160,"ĠÐºÐ¾ÑĢÑĢÐµÑģÐ¿Ð¾Ð½":3161,"ĠÐºÐ²":3162,"ÐļÐŀ":3163,"ĠÐ¿ÑĢÐ¾ÑĨÐµÑģ":3164,"ÑģÐºÐ¸Ð¼":3165,"Ð´ÑĸÐ³ÑĸÐ½":3166,"ĠÑĪÑĤ":3167,"ÑĤÐ°Ð½Ð´ÑĭÑĢÑĥ":3168,"ĠÐŀÒĽ":3169,"ÑĨÐ¸ÑıÑģÑĭ":3170,"ĠÑĩÐ¸ÑģÐ»Ðµ":3171,"ĠÐ¸Ð½ÑĦÐ¾ÑĢÐ¼Ð°ÑĨÐ¸Ð¸":3172,"ĠÐ¼ÐµÐ½Ñı":3173,"ĠÑįÐºÐ¾Ð½Ð¾Ð¼Ð¸ÐºÐ°Ð»ÑĭÒĽ":3174,"ĠÐ´Ò±ÑĢÑĭÑģ":3175,"ĠÐ»ÑĥÑĩ":3176,"ĠÒĽÐ¾Ð·ÒĵÐ°Ð»":3177,"ÑĢÐ¸Ð²":3178,"ÑĸÐ»ÑĤ":3179,"ĠÐ¿ÐµÐ´Ð°Ð³Ð¾Ð³":3180,"ĠÐ¿Ð°ÑĤ":3181,"ĠÐ·Ð°ÐºÐ»ÑİÑĩ":3182,"ĠÐŀÐ´Ð½Ð°ÐºÐ¾":3183,"ÐµÑĤÐ¾Ð²":3184,"ĠÐ¿Ð¾Ð»Ð¸ÑĨÐ¸Ð¸":3185,"Ð¾ÑĤÐ°":3186,"ĠÐ¾ÑĩÐµÑĢÐµÐ´":3187,"ÑģÐºÐµÐ½":3188,"ĠÐ°ÑģÑĭÑĢ":3189,"000":3190,"ÑĢÐ°ÑĤÐµÐ³":3191,"ĠÐºÑĢÐµÐ´Ð¸ÑĤ":3192,"ĠÐ¿Ð¾Ð·":3193,"Ð°Ð·Ð°":3194,"ĠÐ¾Ð±ÑĬÐµÐºÑĤ":3195,"ĠÑģÐ°ÑĤÑĭÐ¿":3196,"Ð¼Ð¾Ð½":3197,"ĠÑģÑĢÐµÐ´ÑģÑĤÐ²":3198,"ĠÐ¿Ð¾ÑĤÑĢÐµÐ±":3199,"Ð°ÑģÑĤÑĭÑĢ":3200,"ĠÐµÐºÑĸÐ½ÑĪÑĸ":3201,"ĠÐ¿ÐµÑĢÐ¸Ð¾Ð´":3202,"ÑģÑĤÑĭÒĽ":3203,"ÐķÐĿ":3204,"ÐµÑĤÑĤÑĸ":3205,"ÑĤÐµÐ³Ñĸ":3206,"ĠÐļÐ¾ÑĢ":3207,"ĠÑĦÐ¸Ð»ÑĮ":3208,"ĠÐ¼Ð½Ð¾Ð³":3209,"ÑĥÑĸÑĢ":3210,"ÒĵÑĭÑģ":3211,"ĠÐ±Ð°ÑģÑĪÑĭÑģÑĭ":3212,"ÒĵÑĭÑĪ":3213,"ĠÑģÑĤÐ°Ð»":3214,"Ð³ÑĸÐ½Ð´Ðµ":3215,"ĠÑĦÐ¾ÑĤÐ¾":3216,"res":3217,"Ð¿Ð°ÒĽ":3218,"ĠÐ¿Ð¾Ð²Ñĭ":3219,"ĠÑģÑĤÑĢÐ°Ð½Ðµ":3220,"ĠÑģÑĭÐ½ÑĭÐ¿":3221,"ĠÐ¿Ð¾Ð³Ð¸Ð±":3222,"ĠÐ¡ÑĤ":3223,"ĠÑĤÐµÐºÑģÐµÑĢ":3224,"ĠÐ¼Ð¾Ð½":3225,"Ð´ÐµÑĢÐ´Ñĸ":3226,"ĠÐ¾Ð½Ð´Ð°":3227,"Ġr":3228,"ĠÐ·Ð°Ð²ÐµÑĢ":3229,"ĠÐ½Ð°ÑģÐµÐ»":3230,"ÑĭÑĢÐ°ÒĽ":3231,"ÑģÑĤÐ²ÐµÐ½Ð½Ð¾":3232,"ĠÑĪÑĭÒĽ":3233,"Ð»Ð¸Ð½":3234,"ĠÑģÐ¾Ð¾Ð±ÑīÐ¸Ð»":3235,"ĠÐĵÐ»Ð°Ð²":3236,"ĠÑģÐ±Ð¾ÑĢ":3237,"ĠÐ¸ÑģÑģÐ»ÐµÐ´":3238,"Ð°Ð»Ð°ÑģÑĮ":3239,"ĠÑĥÐ¿":3240,"ĠÐ¡Ð¾Ð½Ð´ÑĭÒĽÑĤÐ°Ð½":3241,"ĠÐ±Ð°ÑģÒĽÐ°ÑĢÑĥ":3242,"ĠÐ½Ð°ÑĢÑĥÑĪ":3243,"Ð¼ÑĭÐ½":3244,"ĠÐ¿ÑĥÑĤ":3245,"ĠÐļÑĢÐ¾Ð¼Ðµ":3246,"ĠÒ°Ð»ÑĤÑĤÑĭÒĽ":3247,"ĠÐ¿Ð°Ð¹Ð´Ð°Ð»Ð°Ð½Ñĥ":3248,"Ð¾ÑģÑĤÑĮ":3249,"ĠÐ¿ÑĢÐ¾ÑĪÐ»":3250,"ĠSp":3251,"ĠÐµÐºÐµÐ½ÑĸÐ½":3252,"Ð¾Ð¾ÑħÑĢÐ°Ð½":3253,"Ò»":3254,"ĠÑģÑĤÐ°ÑĢ":3255,"ĠÐ¡Ð¾Ð½ÑĭÐ¼ÐµÐ½":3256,"ĠÐºÑĤÐ¾":3257,"ĠÑģÐ²Ð¾ÐµÐ¹":3258,"ÑģÑĥÑĤ":3259,"ĠÒĽÐ°Ð»ÑĭÐ¿ÑĤÐ°":3260,"ĠÐ¼Ò¯ÑĪ":3261,"ĠÐ·Ð°ÑĤÑĤÐ°ÑĢ":3262,"14":3263,"qu":3264,"und":3265,"ÑĤÑĭÐ½Ð´Ñĭ":3266,"Ð°ÑĢÐ°ÐºÑĤÐµÑĢ":3267,"ĠÐ¾ÑĤÑĭÑĢÒĵÐ°Ð½":3268,"ĠÐ¢ÐµÐ¼":3269,"engr":3270,"ĠÐ¾Ð·":3271,"ĠÐ²Ñģ":3272,"ĠÐ¿ÐµÑĢÐµÐ²":3273,"Ð¼ÐµÑĢÐ¸ÐºÐ°Ð½":3274,"ĠÐ¾Ð±Ð»Ð°ÑģÑĤ":3275,"ĠÐ¶Ð¸Ð·Ð½Ð¸":3276,"ĠÐ´Ð¾ÑĢ":3277,"ĠÐ¾ÑĤÐ¼ÐµÑĩ":3278,"Ð°Ð»ÑĭÐ¼":3279,"ĠÒĽÐ°Ð»ÒĵÐ°Ð½":3280,"ĠÒĽÐ¾ÒĵÐ°Ð¼Ð´ÑĭÒĽ":3281,"ĠÓ©Ð½ÐµÑĢ":3282,"ĠÐłÐµÑģÐµÐ¹":3283,"ĠÑĤÑĢÐµÐ½":3284,"ĠÐ¿ÑĢÐ¸Ñĩ":3285,"ĠÑĤÓĻÐ¶ÑĸÑĢÐ¸Ð±":3286,"ph":3287,"ÑĤÐµÑĢÐ³Ðµ":3288,"ÑĤÐ¾ÑĢÐ°":3289,"ĠÐŀÐ»Ð°ÑĢ":3290,"Ð¸ÑĨÑĭ":3291,"ÑĥÐ»Ñĭ":3292,"ĠÐ¿Ð¾Ð»Ð¾Ð¶":3293,"ĠÐ¿Ð¾ÑĢÑıÐ´":3294,"ÐµÑĪÐµ":3295,"Ġbe":3296,"ĠÑģÐºÐ¾ÑĢ":3297,"ĠÐĿÐ¾Ð²":3298,"ĠÑģÑĭÑĢÑĤ":3299,"ĠÐĲÐ»ÐµÐºÑģ":3300,"ÐµÐ»ÐµÐ¹":3301,"Ð¸Ð½Ð¾":3302,"ĠÐ±Ð°ÑĢÑĭÑģÑĭÐ½Ð´Ð°":3303,"ĠÐķÐ³ÐµÑĢ":3304,"ĠÐ¾ÐºÐ°Ð·":3305,"ĠÐ¿Ð»Ð°ÑĤ":3306,"ĠÒĽÒ±ÑĢÑĭÐ»ÑĭÐ¼":3307,"ĠÐ»Ð¸Ñĩ":3308,"ĠÑĥÑģÐ¿":3309,"end":3310,"ĠÐ°Ð¹Ð¼Ð°ÒĽ":3311,"ĠÑģÐ²Ð¾Ð¹":3312,"ĠÑıÒĵÐ½Ð¸":3313,"ĠÐĿÐ°Ð¿Ð¾Ð¼Ð½Ð¸Ð¼":3314,"ÑĤÐ¾Ñĩ":3315,"ĠÓ©Ð·Ñĸ":3316,"ĠÑįÑĤÐ¸":3317,"ÑĪÑĭÐ»":3318,"header":3319,"ĠÓ©ÐºÑĸÐ»":3320,"ÑĪÐµÐ¼":3321,"ĠÑĤÓĻÑĢÐ±Ð¸":3322,"ĠÐ±ÑĸÐ·Ð´ÑĸÒ£":3323,"23":3324,"ĠÑģÑĤÐ°Ð½Ð´Ð°ÑĢ":3325,"ĠÐ¿ÑĸÐºÑĸÑĢ":3326,"ĠÒ¯ÑģÑĤ":3327,"ip":3328,"ĠÑįÑĦÑĦ":3329,"ĠÐ³Ðµ":3330,"Ð»Ð¸ÑĨ":3331,"ĠÐ²ÑĭÑģÐ¾Ðº":3332,"ĠÐ´Ð°Ð¹ÑĭÐ½":3333,"ÐµÐ½Ð½Ð¾Ð³Ð¾":3334,"ĠÐ±ÐµÐ·Ð¾Ð¿Ð°ÑģÐ½Ð¾ÑģÑĤÐ¸":3335,"ÑĩÐµÑģÐº":3336,"tps":3337,"ĠÐ½Ð°ÑģÑĤÐ¾Ñı":3338,"ĠÓĻÐ¹ÐµÐ»":3339,"Ð¼Ð¾Ð»":3340,"ĠÐ½ÑĭÑģ":3341,"ĠÑģÐ»Ð¾Ð¶":3342,"ĠÑģÑĦÐµÑĢ":3343,"Ð°Ð½Ð¾Ð²":3344,"ÐºÐµÐ½Ñĸ":3345,"ĠÐ¾ÑĦÐ¸ÑĨÐ¸Ð°Ð»ÑĮ":3346,"ĠÐĳÒ¯":3347,"ĠÐĲÑĤÑĭÑĢÐ°Ñĥ":3348,"ĠÐ¸Ð·Ð±":3349,"ĠÐ·Ð²":3350,"('":3351,"ÐµÐ´ÐµÐ½":3352,"ĠÐ´Ð¾ÑģÑĤÐ¸":3353,"ÐºÐµÑĤ":3354,"Ġ**":3355,"ĠÐºÑĸÑĢ":3356,"ĠÑĤÐ°ÒĵÑĭ":3357,"ĠÐ°ÑĥÐ´Ð°Ð½Ñĭ":3358,"ÐºÒ¯Ð¹":3359,"ĠÐŁÐ°ÑĢ":3360,"ĠÐ°Ð±":3361,"ĠÐ±Ð¾Ðº":3362,"ĠÑĭÒĽ":3363,"ĠÐ´ÐµÑĢÐµÐº":3364,"Ð´Ð°ÑĤÑĮ":3365,"Ġk":3366,"ĠÑħÐ¾Ð´Ðµ":3367,"ĠÐ·Ð°Ð¼Ð°Ð½":3368,"ĠÑĢÑĥÐ±":3369,"ĠÐ¿ÑĢÐµÐ¼":3370,"ĠÐ½ÑĥÐ¶Ð½Ð¾":3371,"Ð½Ð´Ð°":3372,"ĠÐľÐµÐ½":3373,"Ð°ÑĢÐ°Ð³Ð°Ð½":3374,"ÑĥÑīÐµÑģÑĤÐ²":3375,"ĠÒĽÑĭÑģ":3376,"ĠÐ±ÐµÐ»ÑģÐµÐ½":3377,"ĠÐ¿ÑĢÐ¸Ð¼ÐµÐ½":3378,"ĠÑģÐ¾Ð³Ð»Ð°Ñģ":3379,"ĠÑĪÐ°Ð¼":3380,"ÑĤÐ¸ÑĢÐ¾Ð²":3381,"elegram":3382,"Ð¾Ð·ÑıÐ¹":3383,"ÑģÑĤÐ²Ð¸Ðµ":3384,"ww":3385,"ĠÑĢÐµÐ·ÑĥÐ»ÑĮÑĤÐ°ÑĤÐµ":3386,"ĠÑģÑģÑĭÐ»ÐºÐ¾Ð¹":3387,"Ð³ÑĸÐ»ÑĸÐºÑĤÑĸ":3388,"Ð»Ð°Ð½ÒĵÐ°Ð½":3389,"ĠÑģÐ¿ÐµÑĨÐ¸Ð°Ð»ÑĮ":3390,"Ġ40":3391,"ĠÐ¾ÒĵÐ°Ð½":3392,"col":3393,"Ð¸ÑĢÐ¾Ð²Ð°ÑĤÑĮ":3394,"ĠÒĵÐ°ÑģÑĭÑĢ":3395,"ĠÐ´Ð°Ð²":3396,"ÐµÐ½Ð½ÑĭÐ¹":3397,"ÐµÐ·Ð´":3398,"ĠÐ´ÐµÑģ":3399,"ĠÐ°Ð¹ÑĤÒĽÐ°Ð½":3400,"Ð°ÑĤÐµÐ»Ð¸":3401,"Ð½Ð´Ñĭ":3402,"Ð½ÑĮ":3403,"ĠÑĤÑĢÐ°":3404,"ÑĤÐ¾ÒĽ":3405,"Ð³ÑĢÐ°":3406,"Ð°ÑĢÐ¾Ð²":3407,"Ð¾ÑĢÐ´Ð°":3408,"ĠÐ»Ð¸ÑĪ":3409,"ÐºÐµÐ¼":3410,"iÒ£":3411,"ĠÒ¯Ð·":3412,"Ð½Ð¸Ð·":3413,"Ó©ÑĢ":3414,"ĠÐ°Ð²ÑĤÐ¾ÑĢ":3415,"ĠÐĳÐµÐ»":3416,"ÑĢÐµÑģÑģ":3417,"ĠÑĢÐ°Ð·Ð»Ð¸Ñĩ":3418,"ÑĸÐ½ÐµÐ´Ñĸ":3419,"ĠÑĩÐ°ÑģÑĤÐ¸":3420,"ÐµÑģÑĸÐ½Ðµ":3421,"ÑĢÑĭÑĤ":3422,"ÐµÐ»Ð°":3423,"Ð´ÐµÑĢÑĸÐ½ÑĸÒ£":3424,"Ð¸ÑĤÐ°":3425,"ĠÑĢÐ°ÑģÑģÐºÐ°Ð·Ð°Ð»":3426,"ĠÐ°Ð´Ð°Ð¼Ð½ÑĭÒ£":3427,"inews":3428,"ÑĭÑģÑĤÑĭÒ£":3429,"ĠÐ¼Ð°ÑĤÐµÑĢÐ¸Ð°Ð»":3430,"ĠÐ½Ð°ÒĽÑĤÑĭ":3431,"ĠÐ¼ÓĻÐ´ÐµÐ½Ð¸ÐµÑĤ":3432,"ĠÐ°Ð¿ÑĢ":3433,"Ð°Ð½ÑģÐ¾Ð²":3434,"ist":3435,"ÐµÑĤÑĢ":3436,"ĠÐ±ÑĸÑĢÐ°ÒĽ":3437,"engrinews":3438,"ĠÐ¼Ð¾Ð¼ÐµÐ½ÑĤ":3439,"ÐĲÐ¢":3440,"ĠÐ¿Ð¾ÑģÑĤÐ°Ð²":3441,"Ð¾ÑıÐ½":3442,"ĠÐºÐ¾ÑĢÐ¾Ð½Ð°Ð²Ð¸ÑĢÑĥÑģ":3443,"ÑĭÑģÑĭÐ½":3444,"ĠÑĤÒ¯Ð·":3445,"ĠÒļÒ±":3446,"17":3447,"ĠÐ·Ð°ÐºÐ¾Ð½Ð¾":3448,"ĠÑģÐ¾Ð´ÐµÑĢÐ¶":3449,"ĠÑĩÐµÑĤ":3450,"ĠÑĤÑı":3451,"Ð°Ð½Ð´Ñĭ":3452,"ith":3453,"ĠÐ¾ÑĢÐ½Ð°Ð»Ð°ÑģÒĽÐ°Ð½":3454,"%,":3455,"ĠÐ·ÐµÑĢÑĤÑĤÐµÑĥ":3456,"ĠÐµÑĢÐµÐºÑĪÐµ":3457,"ÑĭÐ¼ÑĪÐ°":3458,"ÑĸÐ»ÑĸÐ¿":3459,"Ð¡ÑĥÐ»ÑĤÐ°Ð½":3460,"Ð¸ÑĤÐ¾ÑĢ":3461,"ĠÐ±Ð¾Ñģ":3462,"ĠÓĻÐ½":3463,"ĠÐ¼ÐµÑħÐ°Ð½":3464,"ĠÐ´ÐµÐºÐ°Ð±":3465,"ÐµÐ³ÐµÐ½":3466,"ram":3467,"ĠÐ¿Ð¾ÐºÐ°":3468,"ĠÐ°ÑĢÐ°ÑģÑĭÐ½Ð´Ð°ÒĵÑĭ":3469,"26":3470,"oday":3471,"ÑĩÐ¸ÑĤ":3472,"Ð¢ÐĲÐĿ":3473,"ĠÐ¿Ð¾Ð±ÐµÐ´":3474,"ĠÑĦÑĥÑĤÐ±Ð¾Ð»":3475,"ĠÑħÐ°ÑĢÐ°ÐºÑĤÐµÑĢ":3476,"ĠÐ²Ð¸Ð´ÐµÐ¾":3477,"Ò¯Ð½":3478,"ĠÐŁÐ°Ð²Ð»Ð¾Ð´Ð°ÑĢ":3479,"Ò¢":3480,"ĠÐ½Ð°Ð·Ð²":3481,"ĠÐĳÒ±":3482,"ĠÐ½Ð°Ð·Ð½Ð°Ñĩ":3483,"ĠÑģÐºÐ°Ð·":3484,"ÒĽÑĭÐ»":3485,"ÐºÐ¸Ñħ":3486,"ĠÐ¼Ð°Ð¹":3487,"ĠÐ¼ÓĻÑģÐµÐ»ÐµÐ»ÐµÑĢ":3488,"Ð¾Ð²ÐµÑĢ":3489,"ÑĢÐ°Ñĩ":3490,"ÑģÑĤÐ²ÑĥÐµÑĤ":3491,"ÑīÐ°Ð´":3492,"ĠÐ¶ÑĥÑĢÐ½Ð°Ð»Ð¸ÑģÑĤ":3493,"ĠÐ±Ð°ÑģÑĤÑĭ":3494,"ĠÐ¸Ðµ":3495,"ÑĮÐµ":3496,"Ð³Ð¾Ð´":3497,"ĠÐ¿ÑĢÐµÐ´ÑģÐµÐ´":3498,"ĠÐ°ÑĤÑĤÑĭ":3499,"Ð¾Ð»Ð½Ð¸ÑĤÐµÐ»ÑĮ":3500,"ĠÐ¼Ð°":3501,"ÑĢÐ¸ÑıÑĤ":3502,"ÑĤÐ°Ð±":3503,"ĠÑģÐµÐ±ÐµÐ¿":3504,"unction":3505,"ĠÐ¼Ð°Ð·":3506,"ÒĵÐ°Ð½Ð´Ð°":3507,"ĠÐ°ÑģÐ¿":3508,"ĠÓ©Ð·Ð³Ðµ":3509,"ÑĤÐ¾ÒĽÑģÐ°Ð½":3510,"Ð¾Ò£":3511,"ĠÐ¾Ð±ÑĢÐ°ÑĤ":3512,"ĠÐ°Ð»ÒĵÐ°ÑĪÒĽÑĭ":3513,"ĠÐ¾Ð»Ð°ÑĢÐ´Ñĭ":3514,"ĠÑĤÓ©Ð»":3515,"Ð¿Ð¸ÑĤ":3516,"Ð¿Ð°Ð»":3517,"ÐµÑģÑĤÐµÑĢ":3518,"ĠÐºÓ©Ð¼ÐµÐº":3519,"Ð°ÑĥÑĭ":3520,"Ð±Ð°ÐµÐ²Ð°":3521,"Ð´Ð°ÑĤÐµÐ»ÑĮ":3522,"ÐĲÐ¡":3523,"ĠÐ¿Ð¾Ð»ÑĮÐ·":3524,"Ð½ÐµÐ½Ð¸Ñİ":3525,"80":3526,"Ð°ÐºÑĤ":3527,"ĠÑĤÑĢÑĥÐ´":3528,"ĠÐ·Ð°Ð±Ð¾Ð»ÐµÐ²":3529,"if":3530,"ĠÐ¿Ð¾ÑģÑĤÑĥÐ¿":3531,"ĠÐ±Ó©":3532,"Ð¾Ð¶Ðµ":3533,"ĠÐ¾Ð³ÑĢÐ°Ð½Ð¸Ñĩ":3534,"ep":3535,"ĠÐ¢Ò¯ÑĢ":3536,"Ð½Ð¸ÑĩÐµ":3537,"ĠÐ½ÐµÐºÐ¾ÑĤ":3538,"Ð²Ð°":3539,"%.":3540,"ĠÑıÐ·Ñĭ":3541,"ĠÑĤÒ±Ð»Òĵ":3542,"ĠÑģÑĭÐ¹":3543,"ĠÑĤÐ¾ÑĢÐ³Ð¾Ð²":3544,"ĠÐŁÑĢÐµÐ·Ð¸Ð´ÐµÐ½":3545,"ÑĢÐµÐ¹":3546,"ĠÑĤÓ©ÑĢÐ°Òĵ":3547,"Ð¼Ð°Ð¹":3548,"ĠÐ¿ÑĢÐµÑģÑĤÑĥÐ¿":3549,"Ð°Ð½Ð¾":3550,"ĠÐºÐµÑĢ":3551,"Ð¼ÐµÑī":3552,"ĠÓĺÑĢ":3553,"ÑĪÑĸÐ»ÐµÑĢ":3554,"ĠÐ²ÐºÐ»ÑİÑĩ":3555,"ÑĪÑĭÒĽ":3556,"ĠÑģÑĥÑĢÐµÑĤ":3557,"Ð¸Ð²Ð°ÑĤÑĮ":3558,"ĠÓ©Ð½ÑĸÐ¼":3559,"ÐºÑĨÐ¸Ñı":3560,"ÐĲÑģÑĤÐ°Ð½Ð°":3561,"ÑĢÐ¾ÑģÑĭ":3562,"ĠÑģÐ¸Ð»ÑĮ":3563,"ÐºÐ¾ÑĢ":3564,"ĠÑģÐ»ÑĥÑĩÐ°Ðµ":3565,"ĠÑģÐ²Ð¾Ð±":3566,"ĠÐµÐ»ÑĸÐ¼ÑĸÐ·":3567,"ÐµÐ½Ð·":3568,"ĠÑģÑĤÐ¾ÑĢÐ¾Ð½Ñĭ":3569,"ÑĪÐ°ÑĢ":3570,"ĠÑģÐ»ÐµÐ´ÑĥÑİÑī":3571,"ĠÐ¶Ò¯ÑĢÐ³ÑĸÐ·Ñĥ":3572,"ĠÐ¿ÑĢÐ¾Ð²ÐµÑĢ":3573,"ĠÐ°Ð¼":3574,"ĠÐ¼Ò±ÒĵÐ°Ð»":3575,"ĠÑĥÑģÐ¸Ð»":3576,"Ð¾Ð¿ÑĢÐ¸ÑıÑĤ":3577,"Ð¿Ð°Ð¹":3578,"ĠÐºÐ²Ð°ÑĢ":3579,"ĠÐ±Ò¯Ð³ÑĸÐ½":3580,"ĠÑĥÐºÐ°Ð·":3581,"ĠÐ°ÑĤÐ°Ð¿":3582,"ĠÐ°ÑĥÑĭÑĢ":3583,"ĠÐ½Ð°Ñĥ":3584,"Ð½Ð¾Ð·":3585,"ĠÐ¼ÑĭÐ½Ð°":3586,"ĠÐ¿ÑĢÐµÐ´Ð¿ÑĢÐ¸ÑıÑĤ":3587,"ĠÐ§ÑĤÐ¾":3588,"Ð¸ÐºÑĥ":3589,"ĠÐ°Ð¹ÑĭÑĢ":3590,"ÐŀÐĿ":3591,"ÑĭÐ»Ñĥ":3592,"ĠÑģÐµÐ½ÑĤ":3593,"ÑģÐ°ÑĥÐ»ÑĭÒĽ":3594,"ĠÒĽÐ°Ð·ÑĸÑĢÐ³Ñĸ":3595,"Ð»ÐµÑĩ":3596,"ĠÑĢÐµÐ³Ð¸Ð¾Ð½":3597,"ÐºÐ¸Ð½":3598,"ĠÑĸÑĪÐºÑĸ":3599,"ĠÑħÐ¾ÑĢÐ¾ÑĪ":3600,"pl":3601,"ÐµÐºÑĤÐ¾ÑĢ":3602,"ÑģÑĭÐ¼":3603,"Ð»Ð°Ð¿":3604,"Ð¼ÑĭÑĪ":3605,"ĠÐ¿Ð°Ð¹ÑĭÐ·":3606,"ĠTelegram":3607,"ĠÐ¶ÐµÐ¼":3608,"ĠÒĽÑĭÐ·Ð¼ÐµÑĤÑĸ":3609,"ĠÑıÐ½Ð²Ð°ÑĢÑı":3610,"Ò±Ð»ÑĤÐ°Ð½":3611,"Ð¿Ð¾ÑĢÑĤ":3612,"ĠÐºÐ¾ÑĢÑĢÐµÑģÐ¿Ð¾Ð½Ð´ÐµÐ½ÑĤ":3613,"ĠÑģÑĥÑīÐµ":3614,"ÐµÐ±Ñĸ":3615,"ÐŁÐ¾ÑģÑĤ":3616,"ĠÐ½Ð°ÑģÐµÐ»ÐµÐ½Ð¸Ñı":3617,"ĠÑĢÐ°Ð´Ð¸":3618,"ĠÑĦÐ¾ÑĢ":3619,"ĠÐ¾Ð´Ð°Ð½":3620,"ĠÐ»ÐµÐ³":3621,"ĠÐºÐ°Ð¿Ð¸ÑĤ":3622,"Ð»Ñĥ":3623,"ÑģÑĮ":3624,"ĠÐ´ÑĸÐ½":3625,"Ð¾ÐºÐ¾":3626,"ĠÐ´Ð°Ð»ÑĮ":3627,"ĠÑĤÐµÑĢÑĢÐ¸ÑĤÐ¾ÑĢÐ¸Ð¸":3628,"ĠÐ¾Ð±ÑĬÐµÐ¼":3629,"ĠÑĢÐµÐ±ÐµÐ½":3630,"ÒĽÐ°ÑĤ":3631,"ĠÐºÓ©Ð±":3632,"ĠÐ·Ð½":3633,"ĠToday":3634,"ÑģÐºÐ°":3635,"Ð»ÑıÑĤÑĮ":3636,"ĠÒĽÒ±Ð¶Ð°ÑĤÑĤÐ°ÑĢ":3637,"Ð°Ð¼Ð±ÑĭÐ»":3638,"ĠÐ¡Ð°Ð¼":3639,"Ð¸ÑģÐ°":3640,"ÐĲÒļ":3641,"ĠÐ²ÑĢÐµÐ¼ÐµÐ½Ð¸":3642,"Ð°Ð½ÐµÐµ":3643,"ĠÑĢÐ°Ð±Ð¾Ñĩ":3644,"ĠÐ±ÐµÑģÐ¿":3645,"ĠÑģÐµÐ»ÑĮ":3646,"Ð²Ð°ÑĤ":3647,"ÑģÑĤÐ²ÐµÐ½Ð½ÑĭÑħ":3648,"Ð³Ð¸ÑģÑĤ":3649,"Ð¸ÑĢÐ¾Ð²Ð°Ð½Ð¸Ñı":3650,"ĠÐ·Ð°Ð´Ð°":3651,"ĠÐŁÐ¾ÑģÐ»Ðµ":3652,"ĠÐ¿Ð¾Ð´Ñĩ":3653,"Ġ..":3654,"ÑĭÐ»ÑĥÑĭ":3655,"ĠÐ°Ð´Ð°Ð¼Ð´Ð°ÑĢ":3656,"ĠÐ´Ð°Ð»":3657,"ÑĤÐµÑĢÑĸÐ½ÑĸÒ£":3658,"ĠÑģÐ²Ð¾Ð¸":3659,"ĠÑģÑĤÐ°ÑĤ":3660,"ĠÐ¾ÑģÑĥÑīÐµÑģÑĤÐ²":3661,"ÒĵÑĭÐ½ÑĭÒ£":3662,"ÓĻÑģÑĸ":3663,"ÑĤÓ©":3664,"Ð¸ÑıÐ½ÑĭÒ£":3665,"Ð³ÑĥÑģÑĤ":3666,"ĠÐ¢Ð°ÑĢ":3667,"ĠÐ¿Ð»Ð°Ð½Ð¸ÑĢÑĥ":3668,"ĠÐ¿ÑĢÐ¾ÑĨÐµÑģÑģ":3669,"nik":3670,"ĠÐºÓ©Ò£":3671,"ÐµÐ½Ð½Ð¾Ð¹":3672,"ĠÐ¶Ò¯ÑĢÐ³ÐµÐ½":3673,"ĠÐĸÐ°Ð½":3674,"ĠÒĽÒ±ÑĢÑĥ":3675,"ÑĥÐ¶Ð´ÐµÐ½":3676,"ĠÑĢÐ°Ð±Ð¾ÑĤÑĥ":3677,"ĠÒļÐ°Ð·Ð°ÒĽÑģÑĤÐ°Ð½Ð½ÑĭÒ£":3678,"ÑĸÐ¿ÑĤÑĸ":3679,"ĠÐ¸Ð½ÑĦÐµÐº":3680,"Ð½Ð¾ÑģÑĤÑĢÐ°Ð½":3681,"Ð´ÐµÐ¿":3682,"ĠÐºÐ°Ð¶Ð´":3683,"ĠÐ²Ð½Ð¸Ð¼":3684,"ÑĭÐ½Ñĭ":3685,"ĠÐĸÐ°ÑĢ":3686,"ĠÑģÐ¸ÑģÑĤÐµÐ¼Ñĭ":3687,"ÑģÐµÐº":3688,"ĠÐ¿Ð¾Ð´Ð¿Ð¸Ñģ":3689,"Ð¾ÑģÑĤÐ°Ð½Ð°Ð¹":3690,"ĠÐ´Ð¾Ð¼Ð°":3691,"ev":3692,"ĠÐºÐ¾Ð´":3693,"ĠÑģÐ¾Ð¾Ð±ÑīÐ¸Ð»Ð¸":3694,"ĠÐ´ÐµÑıÑĤÐµÐ»ÑĮÐ½Ð¾ÑģÑĤÐ¸":3695,"ĠÐľÐµÐ¼Ð»ÐµÐºÐµÑĤÑĤÑĸÐº":3696,"ĠÑģÑĭ":3697,"ĠÒĽÐ¾ÑĢÑĭÑĤÑĭÐ½Ð´Ñĭ":3698,"ĠÑĤÑĢ":3699,"ive":3700,"ĠÑĥÐ´":3701,"ĠÐºÓ©ÑĢÑĸÐ½":3702,"ÑĦÐ¸ÑĨÐ¸":3703,"ĠÐ·Ð°Ò£Ð´Ñĭ":3704,"ĠÐ´Ð°Ñĥ":3705,"ook":3706,"ÑģÐºÐµÑĢÐ¸":3707,"ĠÐ´Ð¾Ð±Ð°Ð²":3708,"ĠÐ¸Ð½Ð´":3709,"ÑĭÑģÑĤÐ°ÑĢÑĭ":3710,"ÐĳÒ±Ð»":3711,"ĠÑĤÐ°ÑĥÐ°ÑĢ":3712,"ĠÐ¾ÐºÑĤ":3713,"ĠÐ¼Ð°Ð¼":3714,"ĠÑģÐ°ÒĵÐ°ÑĤ":3715,"ity":3716,"ÑĪÐ¸Ð¼":3717,"ĠÐ¿ÑĢÐ¾ÐºÑĥÑĢ":3718,"ĠÐ¼Ð°ÑĢÑĤÐ°":3719,"ĠÐ½ÐµÐ³Ð¾":3720,"ĠY":3721,"ĠÐ½Ð¾Ð¼":3722,"ĠÑĤÑĸÐº":3723,"ĠÐĳÐ¾Ð»":3724,"ĠÐ°Ð¼ÐµÑĢÐ¸ÐºÐ°Ð½":3725,"ĠÐ´Ð¾Ð³":3726,"ĠÐ¾Ð±Ð»ÑĭÑģÑĤÑĭÒĽ":3727,"ĠÑĥÐ³Ð¾Ð»Ð¾Ð²":3728,"form":3729,"Ð»Ð°Ð³":3730,"up":3731,"Ġ2014":3732,"ĠÐ¼ÐµÑĢÐ¾Ð¿ÑĢÐ¸ÑıÑĤ":3733,"ÒĵÑĭÐ¼":3734,"ail":3735,"ĠÐ²Ð¾Ð»":3736,"ĠÒĽÐ°Ð±ÑĸÐ»":3737,"Ð¾Ð»Ð¾Ð³Ð¸Ð¸":3738,"Ð¾ÑıÐ±":3739,"ĠÐ¼Ð¸Ð»Ð»Ð¸Ð°ÑĢ":3740,"Ð»ÐµÒ£":3741,"ÑİÑīÐ¸Ñħ":3742,"ĠÐ¢Ð¾ÐºÐ°ÐµÐ²":3743,"Ð¸Ð¼Ð¿":3744,"ĠÑĢÐ°Ð·Ð¼ÐµÑĢ":3745,"ĠÐ±ÐµÐ»ÑģÐµÐ½Ð´Ñĸ":3746,"ĠÑģÑĤÑĢÐ°ÑĤÐµÐ³":3747,"ĠÒĽÐ°Ð¶ÐµÑĤÑĤÑĸ":3748,"Ð¸ÑĤÐ°ÑĢ":3749,"iÐ¼":3750,"ĠÐ´Ð¸ÑĢÐµÐºÑĤÐ¾ÑĢ":3751,"ĠÐ²ÐµÐ´Ð¾Ð¼":3752,"ĠÑĤÒ±ÑĢÒĵÐ°Ð½":3753,"ÑĸÐ¼Ð´ÑĸÐº":3754,"ĠÐµÐ´Ð¸Ð½":3755,"ĠKA":3756,"ÐºÐ°Ð¼Ð¸":3757,"ĠÐ¿ÑĢÐ¸Ð½ÑĨÐ¸":3758,"ĠÓ©Ò£ÑĸÑĢ":3759,"ĠÑģÐ°Ð¹ÑĤ":3760,"Ð±Ð¸Ðµ":3761,"ĠÐ´Ò¯Ð½Ð¸Ðµ":3762,"ĠÐ¿ÑĢÐµÐ´Ð¿ÑĢÐ¸Ð½Ð¸Ð¼":3763,"Ð¼ÐµÑģÑĤÐµ":3764,"ÑģÐºÑĥÑİ":3765,"ĠÑĦÐ¸Ð½Ð°Ð½ÑģÐ¾Ð²":3766,"ÒļÐ°Ð·":3767,"Ð¸ÑĩÐµÑģÐºÐ°Ñı":3768,"ĠÑĦÐµÐ²":3769,"ĠÑĥÐ°ÒĽÑĭÑĤÑĤÐ°":3770,"ĠÑģÑĤÐ°Ð²":3771,"ĠÒĽÐ¾Ð½":3772,"Ð°ÑİÑīÐ¸Ñħ":3773,"ÑĤÐ¾ÑĢÑĭ":3774,"ĠÐļÐ°ÑĢÐ°Ð³Ð°Ð½":3775,"Ð»ÐµÐ½Ð¾":3776,"ĠÐ¿ÑĢÐ¸Ð¼ÐµÑĢ":3777,"ĠÑĦÐ°ÐºÑĤÐ¾ÑĢ":3778,"ĠÐºÓ©Ð¿ÑĤÐµÐ³ÐµÐ½":3779,"ĠÑĥÐ¿ÑĢÐ°Ð²Ð»ÐµÐ½Ð¸Ñı":3780,"ÒĽÑĭÑĪ":3781,"ĠÑģÐ°Ð¹ÑĭÐ½":3782,"ĠX":3783,"ÑģÑĤÐµÐ¼":3784,"ĠÓĻÐ·ÑĸÑĢ":3785,"ÑĤÐµÑħ":3786,"art":3787,"ĠÐĲÐ»Ð¼Ð°ÑĤ":3788,"one":3789,"utnik":3790,"ÑĢÐ°ÑĤÑĮ":3791,"Ġwith":3792,"ĠÐĴÐ¾":3793,"Ð¸Ð²Ð°ÐµÑĤ":3794,"ÑĢÑĥÐ³Ð¾":3795,"ÑĤÐµÐ¿":3796,"ĠÐ±Ð¾Ð»Ñĥ":3797,"ĠÐ´ÐµÐ¹ÑĸÐ½Ð³Ñĸ":3798,"Ð½Ð´Ñĸ":3799,"ĠÐµÐ¼Ñĥ":3800,"ĠÑħÐ¸Ð¼":3801,"ĠÑĤÑĸÐ»Ñĸ":3802,"ĠÐ¼ÐµÒ£":3803,"ĠÐ¸Ð½Ð¾ÑģÑĤÑĢÐ°Ð½":3804,"AN":3805,"27":3806,"ĠÐ¿Ð»Ð¾ÑīÐ°Ð´":3807,"ĠÑĤÓĻÑģ":3808,"ĠÑĨÐ¸ÑĦ":3809,"ĠÒ±ÑĪ":3810,"ĠÒĽÐ°Ð»ÑĭÐ¿ÑĤÐ°Ñģ":3811,"ĠÐºÑĥÐ»ÑĮÑĤ":3812,"ĠÑĪÐµÑĪÑĸÐ¼":3813,"ĠÑĤÐµÑĩ":3814,"ĠÐ¿ÑĢÐµÐ·Ð¸Ð´ÐµÐ½ÑĤÐ°":3815,"ĠÐ°Ð·Ð°Ð¼Ð°ÑĤÑĤÐ°ÑĢ":3816,"ÐµÐ½ÑĤÑĢ":3817,"Ð°Ð»ÑĭÐ¿":3818,"ÑĭÑĢÐ³":3819,"Ð¾ÐµÐ²":3820,"ĠÐ¼ÐµÐºÐµÐ¼":3821,"ĠÑģÐ¾ÑħÑĢÐ°Ð½":3822,"Ð»Ð°Ð¹Ð½":3823,"ĠÐĹÐ°Ò£":3824,"ight":3825,"ĠÒĽÑĭÐ»Ð¼":3826,"ĠÐ¿Ð¾Ð´Ð³Ð¾ÑĤÐ¾Ð²":3827,"ĠÑģÐ½Ð¸Ð¶":3828,"ĠÑĢÐ°ÑģÐ¿ÑĢÐ¾":3829,"ĠÑģÐ¾Ò£ÒĵÑĭ":3830,"ĠÑĢÐµÑĪÐµÐ½Ð¸Ðµ":3831,"ÑįÐºÐ¾Ð½Ð¾Ð¼":3832,"ĠÐ¶Ð°ÑģÑĤÐ°ÑĢ":3833,"ĠÐľÐ¾ÑģÐº":3834,"ĠÐ¶Ð°ÒĵÐ´Ð°Ð¹Ð»Ð°ÑĢ":3835,"ĠÒĽÐ°Ð»Ð°":3836,"ĠÑĢÐ°Ð·ÑĢÐ°Ð±Ð¾ÑĤ":3837,"ÑĢÐ¾Ð·":3838,"ĠÐºÓ©Ð»ÑĸÐº":3839,"ÐµÐ¼Ð°ÑĤ":3840,"ĠÐ¢Ó©":3841,"ĠÐ²Ð½ÑĥÑĤÑĢÐµÐ½":3842,"ÐºÐ°Ð´ÐµÐ¼":3843,"ĠÐ¾Ð±ÑĥÑĩ":3844,"ÒĽÑĭÐ·":3845,"ĠTengrinews":3846,"ly":3847,"ĠÒĽÐ°ÑĢÐ°Ð¿":3848,"sc":3849,"ĠÑĤÑĢÑĥ":3850,"ĠÑĢÐ°Ð½ÐµÐµ":3851,"ĠÐ¶ÐµÑĢÐ´Ðµ":3852,"Ð»Ð¾Ð²":3853,"indow":3854,"ÑģÐ°ÑĢ":3855,"ĠÐ°Ð³":3856,"ĠÐ°Ð²Ð¸":3857,"ĠÐºÐ¾Ð½ÑĤÑĢÐ¾Ð»":3858,"ĠÐºÐ°ÑĤÐµÐ³":3859,"ĠÑģÐ¾Ð½Ñĭ":3860,"ĠÐ´Ð²Ð¸Ð¶":3861,"24":3862,"Ġ//":3863,"agram":3864,"Ð¹ÑĤÐºÐµÐ½Ñĸ":3865,"Ð¾Ð»ÐµÑĤ":3866,"ÒĵÑĭÐ½Ð´Ð°":3867,"port":3868,"ĠÐ±ÐµÑĢÑĸÐ»Ð³ÐµÐ½":3869,"ĠÐ°ÑĢÑĤÑĤÑĭÑĢÑĥ":3870,"Ð¾Ð²Ð°Ð»Ð¸":3871,"ĠÐ¾ÑĤÐ´ÐµÐ»":3872,"ÑĭÑĢÐ³ÑĭÐ·":3873,"ĠÂ":3874,"ĠÐ¾ÑĢÑĤÐ°Ð»ÑĭÒĵÑĭ":3875,"ĠÐ¼ÑĸÐ½Ð´ÐµÑĤÑĤÑĸ":3876,"ĠÐµÐ²":3877,"ĠÐ¼ÑĥÐ·Ñĭ":3878,"ĠÐ¾ÑĢÑĤÐ°Ð»ÑĭÒĽ":3879,"Ð°ÐºÑģÐ¸Ð¼":3880,"ĠÑĪÑĭÒĵÐ°ÑĢÐ¼Ð°":3881,"ĠÐ½ÐµÐ¿":3882,"ĠÑĦÐ¸Ð½Ð°Ð½Ñģ":3883,"ĠÑĢÐµÐ³Ñĥ":3884,"ĠÐºÒ¯ÑĢ":3885,"ĠÐŀÐ½Ð¸":3886,"ĠÑģÐ²Ð¾Ð¸Ñħ":3887,"ĠÐ°Ð´Ð¼Ð¸Ð½Ð¸ÑģÑĤ":3888,"ĠÐĲÐŀ":3889,"ĠÑĪÐµÐº":3890,"akon":3891,"ĠÐ³Ð¾ÑĤÐ¾Ð²":3892,"iz":3893,"ÐĸÐ¾Ð¼":3894,"ĠÐ¿ÑĢÐµÐ´Ð¾ÑģÑĤÐ°Ð²":3895,"ĠÐ¾ÑĢÐ³Ð°Ð½Ð¸Ð·Ð°ÑĨÐ¸Ð¸":3896,"ĠÑĤÐ¾Ñĩ":3897,"ĠÐĸÐ°Ð»":3898,"ĠÐ·Ð´ÐµÑģÑĮ":3899,"ĠÐ±Ð°ÑģÒĽÐ°ÑĢÐ¼":3900,"ÑĤÑĸÐ»ÑĸÐº":3901,"ĠÑįÐ¿":3902,"Ð¸Ð½Ð°ÑĢ":3903,"ÑĢÐ¾Ñĩ":3904,"stagram":3905,"ÑĢÐ°Ð·Ð´":3906,"ÑĭÐ²Ð°ÑİÑĤ":3907,"ĠÐ½Ð¾ÑıÐ±":3908,"ĠÐ¿Ð¾ÑģÑĤÑĢÐ°":3909,"ÐľÐĺ":3910,"ÑĭÐ»Ð°Ð¹":3911,"ty":3912,"ĠÐ½ÐµÐ¾Ð±ÑħÐ¾Ð´Ð¸Ð¼Ð¾":3913,"ĠÓĻÑĢÐµÐºÐµÑĤ":3914,"ĠÐ±Ð°ÒĵÐ°Ð»Ð°Ñĥ":3915,"ĠÐ±ÐµÑĢÐ´Ñĸ":3916,"ĠÐŁÑĢÐµÐ´":3917,"ĠÐ°ÒĽÐ¿Ð°ÑĢÐ°ÑĤÑĤÑĭÒĽ":3918,"ÑĤÐ°Ð»Ð´Ñĭ":3919,"ĠÐ¿ÐµÑĢÐµ":3920,"ĠÑģÐ°ÑıÑģÐ°ÑĤ":3921,"ÑĤÐµÒ£":3922,"Ð°ÑĥÒĵÐ°":3923,"ĠÐ¶Ñĥ":3924,"Ġ_":3925,"ÑģÑĤÐ¸ÑĤ":3926,"ĠÐ°ÑģÑĤÐ°Ð¼":3927,"Ð¾Ð²Ð°Ð»":3928,"Ð°ÑĤÑĤÑĭÒ£":3929,"ĠÑĢÐµÐ°Ðº":3930,"ĠÐµÑģÐºÐµÑĢ":3931,"ÒļÐ°Ð·Ð°ÒĽ":3932,"ĠÐ²ÑĭÑıÐ²":3933,"ĠÐ¿Ð¾Ð»Ð¸ÑĨÐµÐ¹":3934,"ĠÐºÐ¾ÑĤÐ¾ÑĢÐ¾Ð¹":3935,"ĠÐ¿ÑĢÑıÐ¼":3936,"ĠÑĢÐ°ÑģÐ¿ÑĢÐ¾ÑģÑĤÑĢÐ°Ð½":3937,"28":3938,"Ð½Ð¸Ñĩ":3939,"ĠÐ±Ó©Ð»ÑĸÐ½":3940,"Ð²Ð¸":3941,"ĠÐ°Ð»ÑĥÒĵÐ°":3942,"ĠÓ©Ð·Ð³ÐµÑĢÑĸ":3943,"ST":3944,"ĠÐ·Ð°Ð¼ÐµÑģÑĤ":3945,"ĠÑģÐ°ÑıÑģÐ¸":3946,"ĠÒĽÐ¸ÑĭÐ½":3947,"Ð¼Ð°ÑĤÑĢÐ¸Ð²":3948,"ĠÐĴÐ»Ð°Ð´":3949,"Ð°ÑĥÑģÑĭÐ¼":3950,"Ð»ÑĭÒĵ":3951,"ĠÒļÒ±ÑĢ":3952,"Ð¿Ð¾ÑĢ":3953,"ĠÐ¾Ð±Ñģ":3954,"ial":3955,"ĠÑĪÑĭÒĽÒĽÐ°Ð½":3956,"Ð°Ð¹ÑĭÐ½":3957,"ĠÐ¼Ð¸Ð½ÑĥÑĤ":3958,"ĠÑĤÐ¾Ð±":3959,"Ð°ÑĨÐ¸Ð¹":3960,"ĠÐ°Ð²Ð³ÑĥÑģÑĤ":3961,"ÑĢÐ¾Ð´":3962,"Ð¾Ð±ÑĢÐ°Ð·":3963,"ĠÐ¾Ð±ÑĢÐ°Ð·Ð¾Ð¼":3964,"ĠÒĽÐ¾Ð»Ð´Ð°Ñĥ":3965,"Ð¸Ð½Ð°Ð¼":3966,"ĠÐ²Ð¾Ð¹":3967,"ĠÐ´ÓĻÑĢÑĸ":3968,"ĠÐ¼ÐµÒ£Ð³ÐµÑĢ":3969,"ĠSputnik":3970,"ĠÐ¾Ð±Ð»ÑĭÑģÑĭÐ½ÑĭÒ£":3971,"Ð»Ð°Ð¼ÐµÐ½ÑĤ":3972,"ĠÐ°Ð½ÑĭÒĽÑĤÐ°Ñĥ":3973,"Ò±ÑģÒĽ":3974,"ĠÑĢÐ°ÑģÑģÐ»ÐµÐ´":3975,"ĠÐ±ÐµÑĢÐ³ÐµÐ½":3976,"ĠÐ¼ÑĥÐ¶Ñĩ":3977,"ĠÑĤÒ±ÑĢÐ°Ð´Ñĭ":3978,"ÑĭÑĤÐ°Ð¹":3979,"ass":3980,"ĠÐ¸Ð½ÑĤÐµÑĢÐ½ÐµÑĤ":3981,"ĠÐĵÐµÑĢ":3982,"Ð»Ð¾Ð½":3983,"ĠÑĨÐµÐ½ÑĤÑĢ":3984,"ÑģÑĤÐ²ÐµÐ½Ð½Ð¾Ð¹":3985,"ĠÐ±Ð°Ð¹Ð»Ð°Ð½ÑĭÑģ":3986,"ack":3987,"ĠÑģÐ¾Ð¼":3988,"ĠÐºÐµÐ»ÑĸÐ¿":3989,"pt":3990,"ĠÐ¾Ð±ÑĢÐ°Ð·Ð¾Ð²Ð°Ð½Ð¸Ñı":3991,"ĠÒĽÐ°ÑĪ":3992,"ĠÐ½ÑĭÑģÐ°Ð½":3993,"ĠÐºÐ¾Ð¼Ð¼Ñĥ":3994,"Id":3995,"ĠÐ¼Ð¸ÑĢÐ¾Ð²":3996,"ĠÐºÐ°Ð¼":3997,"ĠÐºÐ¸Ð»":3998,"ĠÐ¢Ð¾":3999,"Ð¼ÐµÐ¹":4000,"ÒĵÑĭÐ½Ð°":4001,"ĠÐ¶ÐµÑĢÐ³ÑĸÐ»ÑĸÐºÑĤÑĸ":4002,"ĠÐ¼Ó©Ð»ÑĪÐµÑĢ":4003,"Ð¶ÑĭÑĢ":4004,"Ð°Ð»Ð°ÑĢÒĵÐ°":4005,"Ð¾Ð²Ð°ÑĤÐµÐ»ÑĮ":4006,"ĠÑģÐ°Ð»ÑĭÐ½":4007,"ĠÑĦÐµÐ²ÑĢÐ°Ð»":4008,"ĠÐ»ÑİÐ´Ð¸":4009,"ĠÐ¿ÑĢÐ¾ÑģÑĤÐ¾":4010,"KZ":4011,"Ð³Ð°Ð»":4012,"clud":4013,"Ð°Ð»Ð°ÑĢÑĭÐ½ÑĭÒ£":4014,"ĠÐ¾ÑĤÐ²ÐµÑĤÑģÑĤÐ²ÐµÐ½":4015,"ĠÐ±ÑĸÑĢÐ»":4016,"ĠÐ¿Ð¾ÑĤÐµÑĢ":4017,"ĠÐ¾Ð±ÑĬÑıÐ²":4018,"ÑıÐµÑĤ":4019,"ĠÐĸÐ°Ð¼Ð±ÑĭÐ»":4020,"ÑĥÐ°ÑĢ":4021,"ĠÐ½Ð¾Ð²ÑĭÑħ":4022,"ĠÐ·Ð°ÑģÐµÐ´":4023,"ĠÐĲÐ±Ð°Ð¹":4024,"ĠÑĩÐµÑĤÑĭ":4025,"II":4026,"Ġare":4027,"ĠÐ²ÑĭÐ´ÐµÐ»":4028,"40":4029,"ĠÐºÑĥ":4030,"ĠÐ¾ÐºÐ°Ð·Ð°Ð»":4031,"âĢĶ":4032,"ĠÐ¿ÑıÑĤ":4033,"ĠÐ¼Ð°ÑĤÐµÑĢÐ¸Ð°Ð»Ð´Ð°ÑĢ":4034,"ÐŀÐŀ":4035,"Ð¸Ð·Ð°ÑĨÐ¸Ð¸":4036,"ÑĦÐ¸Ðº":4037,"ĠÑģÐ¼Ð¾Ð³":4038,"ĠÐºÐµÐ»Ðµ":4039,"ĠÑĭÐ½":4040,"Ð²Ð¾Ð»":4041,"ĠÐ·Ð°Ð»":4042,"ĠÐ³Ð¾Ð²Ð¾ÑĢÐ¸ÑĤ":4043,"ĠÑģÐ¿ÐµÑĨÐ¸Ð°Ð»Ð¸ÑģÑĤ":4044,"Ð¾Ð²Ð¾Ð³Ð¾":4045,"ĠÐĳÐµÑĢ":4046,"Ð°ÒĵÐ°Ð½Ð´Ð°":4047,"ĠÑĩÐ°ÑģÑĤÑĮ":4048,"ĠÑħÐ°Ð»ÒĽ":4049,"ÑģÐºÐ¾Ðµ":4050,"ĠÐ²Ð·Ð°":4051,"ĠÑįÑĤÐ¸Ñħ":4052,"ÑĤÐ°ÑĢÑĭÐ½ÑĭÒ£":4053,"ĠÐ½Ð°Ð±Ð»Ñİ":4054,"ÑĢÑĭÐ»":4055,"ĠÑĤÓĻÑĥÐµÐ»":4056,"ĠÑĤÑĥÑĢÐ½Ð¸":4057,"Ð¸ÑĤÑĭ":4058,"ÑĤÐ¸Ð¼":4059,"ĠÐ´ÑĢÑĥÐ³Ð¸Ðµ":4060,"ĠÑĥÑĩÐ°ÑģÑĤÐ¸Ðµ":4061,"ÑĥÑĪÑĭÐ»ÑĭÒĽ":4062,"ÐµÐ¼ÑĸÐ·":4063,"ĠÐ°Ð»Ð´ÑĭÐ½":4064,"ÑģÑĤÐ¸ÑĤÑĥÑĤ":4065,"ÑĥÐ´ÑĭÒ£":4066,"ĠÐ¶Ò¯Ð¹ÐµÑģÑĸ":4067,"Ð¼ÑĥÐ½":4068,"ĠÐ¥Ð°Ð»ÑĭÒĽ":4069,"ĠÐ¿Ð¾Ð´ÑĤ":4070,"ÐļÐ°Ð·":4071,"ĠÐ´Ð½Ñı":4072,"ÐĴÐĶ":4073,"ĠÐ½ÐµÐ³ÑĸÐ·ÑĸÐ½Ð´Ðµ":4074,"ĠÑĤÒ¯ÑĢÑĸ":4075,"ĠÐµÑĢÐµÐ¶":4076,"ĠÐ¤ÑĢÐ°Ð½":4077,"ÒĽÐ°ÑĤÑĭÐ½":4078,"Ð½Ñİ":4079,"ĠÐ½Ð¾Ñĩ":4080,"ĠÒĽÒ±ÑĢÐ°Ð»":4081,"ÐµÐ»Ð¾":4082,"ĠÑĪÑĭ":4083,"Ġht":4084,"ĠÐ¶Ð°ÑĤÐ°Ð´Ñĭ":4085,"Ð°ÑĨÐ¸ÑıÐ»ÑĭÒĽ":4086,"ĠÐ¶Ð°ÑģÐ°Ð¿":4087,"Ð½Ð´":4088,"ĠÓ©Ð·Ð°ÑĢÐ°":4089,"Ð´ÑĥÑĤ":4090,"ĠÑįÐºÑģÐ¿ÐµÑĢÑĤ":4091,"ĠÐ³ÑĢÑĥÐ¿Ð¿":4092,"ĠÑĤÒ±ÑĢÐ°ÒĽÑĤÑĭ":4093,"ĠÑĢÐ¾ÑģÑĤ":4094,"Ð½ÑıÑı":4095,"ĠÑĥÐ·":4096,"ĠÐ°Ð¹ÑĤÑĭÐ¿":4097,"ĠÐ¿ÑĢÐ¸ÑĪ":4098,"Ð³Ð¾Ð²Ð¾ÑĢ":4099,"ĠÐ¼Ð¸ÐºÑĢÐ¾":4100,"ĠÐ±ÐµÑģ":4101,"ÉĻ":4102,"ĠÑĤÐ°":4103,"ÐµÐ¹ÑĤ":4104,"ĠÐ¼Ð°Ð·Ð¼Ò±":4105,"ĠÑģÑĢÐµÐ´Ð¸":4106,"ĠÐ¿Ð¾Ð´ÑĩÐµÑĢÐº":4107,"ĠÐŃÐº":4108,"Ð½Ð¾Ðº":4109,"Ð¸Ð¼Ð¿Ð¸":4110,"ĠÐ¶ÑĭÐ»Ð´Ð°Ð½":4111,"ĠÐłÐ°Ð½ÐµÐµ":4112,"ĠÐ¿ÑĢÐ¸Ð½Ð¸Ð¼":4113,"ĠÐ´Ð¾ÑĢÐ¾Ð³":4114,"ĠÐ¼Ð¾":4115,"ÑĪÐµÐº":4116,"ĠÒĽÐ°Ò£":4117,"Ð¼ÐµÐ½ÑĤ":4118,"Ð»ÐµÐ½Ð°":4119,"ĠÐ¾Ð±ÑĢÐ°Ñī":4120,"ĠÐºÐµÑĤÐºÐµÐ½":4121,"ÑģÑĭÐ½Ð°":4122,"ĠÑĥÐ´Ð°Ð»":4123,"ÑģÐ¾Ð½":4124,"ĠÒĽÐ°ÑĢÐ¶Ñĭ":4125,"ĠÐºÐµÐ»ÐµÑģÑĸ":4126,"ÑģÑĤÑĸÒ£":4127,"Ð°ÑĤÑĭÐ²":4128,"________":4129,"ĠÑĤÑĸÑĢÐºÐµÐ»":4130,"ĠÒĽÐ°ÑĢÑĭÐ¼":4131,"ĠÒĽÐ°Ð±ÑĭÐ»Ð´Ð°Ñĥ":4132,"ĠÐĴÑĭ":4133,"ĠÐ·Ð°Ð´ÐµÑĢÐ¶":4134,"ĠÑĤÐ°Ð¿ÑģÑĭÑĢÐ¼":4135,"ÑħÐ¼ÐµÑĤ":4136,"Ð¼ÐµÐ¹Ð´Ñĸ":4137,"ĠÑĤÐµÐ»ÐµÑĦÐ¾Ð½":4138,"ĠÐ¼Ð°Ñı":4139,"Ð«ÐĿ":4140,"ĠÐºÐ¾Ð»Ð¸ÑĩÐµÑģÑĤÐ²Ð¾":4141,"ĠÐ¿ÑĢÐµÐ¼ÑĮÐµÑĢ":4142,"ĠÑĩÐ°Ñģ":4143,"ĠÑĤÐ°ÑģÑĤ":4144,"Ð°Ð»Ñĥ":4145,"Ð³ÑĸÐ¼ÐµÐ½":4146,"ĠÐºÓ©ÑĢÑģÐµÑĤÐºÑĸÑĪ":4147,"Ð°Ð±Ð¾ÑĤ":4148,"ĠÑģÐ°ÑĥÐ´Ð°":4149,"ÑĦÐ¸ÐºÐ°":4150,"ĠÐ°ÑĢÑħ":4151,"ĠÐ¶Ð¾ÒĵÐ°ÑĢ":4152,"ĠÐ°ÑıÑģ":4153,"ĠÐŁÐµÑĢÐ²":4154,"Ð±ÐµÐºÐ¾Ð²":4155,"ĠÐºÐ¾ÑĤÐ¾ÑĢÐ¾Ð³Ð¾":4156,"ĠÐ¾Ð±ÑıÐ·Ð°ÑĤÐµÐ»ÑĮ":4157,"ĠÐºÐ°Ð·Ð°Ñħ":4158,"ÐºÐ¸Ð¹":4159,"ĠÓ©ÑĤÑĸÐ½":4160,"ÑĥÑĪÑĸÐ»ÐµÑĢ":4161,"Ġ60":4162,"ĠÑĢÐ°Ð²":4163,"ĠÑģÑĥÐ´Ðµ":4164,"ĠÐ¶Ò±":4165,"sh":4166,"()":4167,"ĠÐľÐ¸Ð½Ð¸ÑģÑĤÐµÑĢ":4168,"200":4169,"Ò£ÑĭÐ·":4170,"ÑĢÐ¸Ð¹":4171,"ĠÑĢÐµÐ´Ð°":4172,"ĠÐ¾Ð´Ð½Ð¾Ð¹":4173,"ÐĲÐ»Ð¼":4174,"ÑħÐ¾Ð¶":4175,"Ġan":4176,"Ð°Ð½Ð´Ð¸Ð´":4177,"ĠÐŁÑĢÐ°Ð²":4178,"Ġcont":4179,"ĠÐĲÐ»ÐµÐºÑģÐ°Ð½Ð´":4180,"ĠÑĢÑıÐ´":4181,"ĠÑħÐ¾Ð·ÑıÐ¹":4182,"ĠÐ¼Ð°ÒĽÑģÐ°ÑĤÑĭÐ½Ð´Ð°":4183,"Ð¾ÐºÐ°":4184,"Ð¸ÑģÐº":4185,"ĠÐ½ÐµÐ¾Ð±ÑħÐ¾Ð´Ð¸Ð¼":4186,"ÐµÐ´ÐµÐ»":4187,"ĠÒĽÒ±ÑĢÐ°Ð»Ð´Ð°ÑĢ":4188,"Ð¾Ð»ÑĮÑĪ":4189,"ĠÐ·ÐµÑĢÑĤÑĤÐµ":4190,"Ð¼Ð¾":4191,"ill":4192,"ĠÐļÐ°Ð·":4193,"ĠÐºÐ¼":4194,"ĠÑĥÐ»":4195,"Ð´ÐµÐ»Ð³ÐµÐ½":4196,"Ð½Ð¾ÑģÑĤÐµÐ¹":4197,"ĠÐĳÐ°Ð½":4198,"ĠÐ¡Ð¾Ð²":4199,"ÑħÐ°Ð½Ð¸":4200,"ĠÑģÐ¸Ð½":4201,"Ð´ÐµÐ»Ñĸ":4202,"ĠÑģÐ¾Ð²Ð¼ÐµÑģÑĤ":4203,"ÐµÐ½ÐºÐ¾":4204,"Ð»ÐµÐ¶":4205,"ĠÐ´Ð¾Ð»Ð¶ÐµÐ½":4206,"ĠÒļÐ°ÑĢÐ°":4207,"ĠÐºÐ°ÑĢÑĤ":4208,"Ð»ÐµÐ¹":4209,"ĠÐķÒ£":4210,"ÑĢÐ°Ð¹Ð´Ñĭ":4211,"ĠÐ¾Ð±Ð²Ð¸Ð½":4212,"ÑĢÑĥÐ³Ðµ":4213,"ĠÐŁÐ¾ÑįÑĤÐ¾Ð¼Ñĥ":4214,"ÐµÐ½Ðµ":4215,"ĠÐ°Ð»ÑĭÐ½ÒĵÐ°Ð½":4216,"ĠÑĪÐµÑĤÐµÐ»":4217,"ĠÐ¿Ð°ÑĨÐ¸":4218,"ĠÐ¼ÐµÐºÐµÐ½":4219,"ĠÐ°Ð¿ÑĢÐµÐ»Ñı":4220,"ĠÐ¾Ð´Ð½Ð¾Ð³Ð¾":4221,"ĠÐºÓĻÑģÑĸÐ¿Ð¾ÑĢÑĭÐ½":4222,"ĠÑģÑĥÐ±ÑĬ":4223,"ĠÐ¶ÑĭÐ»ÒĵÐ°":4224,"ĠÐ¢ÓĻ":4225,"ĠÐ´ÐµÐºÐ°Ð±ÑĢÑı":4226,"ĠÐ²Ð°ÐºÑĨ":4227,"ÑıÐ»":4228,"ÑģÐ»Ð°Ð¼":4229,"ÑĢÐ°Ð¿":4230,"ĠÐºÓ©Ò£ÑĸÐ»":4231,"ĠÐºÐµÐ»ÑĸÑģÑĸÐ¼":4232,"og":4233,"ÑĨÐ¸ÑıÐ»Ð°ÑĢ":4234,"Ð¾Ð½Ð´Ð°":4235,"Ġcon":4236,"ĠÐºÐ»Ð¸":4237,"ition":4238,"Ð½Ð°ÑĢÑĥÐ¶":4239,"ÑİÐ±":4240,"me":4241,"Ð½ÑĥÑĤÑĮ":4242,"Ð´Ð°ÐµÑĤ":4243,"ĠCO":4244,"ĠÑĢÐµÑģÐ¼Ð¸":4245,"ĠÑģÐ¾ÑĢ":4246,"ĠÒĽÐ°Ð»ÑĭÐ¿ÑĤÐ°ÑģÑĤÑĭÑĢÑĥ":4247,"ĠÑĤÐ°Ð»Ð´Ð°Ñĥ":4248,"ĠÐ¼Ð°ÑģÑģ":4249,"ÑĮÑĪÐµ":4250,"ĠÑģÑĤÐ°Ð»Ð¸":4251,"ÑĭÐ¼Ð´Ð°":4252,"ĠÑĤÐ°Ò£Ð´Ð°":4253,"Ġas":4254,"ber":4255,"ĠÐ²Ð¾Ð·ÑĢÐ°":4256,"ĠÓ©Ð·Ð³ÐµÑĢÑĸÑģÑĤÐµÑĢ":4257,"ĠÐ»Ð¸ÑĪÑĮ":4258,"ĠÐ±Ð¾Ð¹Ñĭ":4259,"ĠÐ¾ÑĤÐ¿ÑĢÐ°Ð²":4260,"ÐµÐ´Ð¸":4261,"Ò£Ð³ÑĸÐ¼":4262,"ĠÐ°Ð¹ÑĤÑĤÑĭ":4263,"ĠÐ½ÐµÐºÐ¾ÑĤÐ¾ÑĢÑĭ":4264,"ĠÐ¾ÑģÑĤÐ°Ð²":4265,"ĠÑĥÑĩÐµÐ±":4266,"ÐµÑĢÑħ":4267,"ĠÑĤÐµÑĩÐµÐ½Ð¸Ðµ":4268,"ĠÐ¼Ð°ÒĽÑģÐ°ÑĤÑĭ":4269,"ĠÑħÐ°ÑĤ":4270,"ĠÐ½Ð°Ð»Ð¾Ð³":4271,"ÑģÑĤÑĢ":4272,"ĠÑĪÐ°ÒĽÑĭÑĢ":4273,"Ð°Ð¹ÑĭÐ¼":4274,"cre":4275,"Ġcom":4276,"ÑĭÐ²Ð°ÑĤÑĮ":4277,"ĠÐľÐ¸Ð½":4278,"ÐµÐ»ÐµÑĥ":4279,"ĠÐ³Ð¾Ð´Ñĭ":4280,"ÑĸÐ½ÑĪÐµ":4281,"ĠInstagram":4282,"ĠÐ·Ð°Ð²Ð¸Ñģ":4283,"Ð¡Ð¢":4284,"Ð¿Ð°ÑģÓ©Ð·":4285,"ĠÑĤÑĢÐµÑħ":4286,"ĠÐ¡ÑĸÐ·":4287,"ĠÐ²Ð¾Ð¿ÑĢÐ¾ÑģÑĭ":4288,"ÑģÑĤÐ²ÐµÐ½Ð½Ð¾Ð³Ð¾":4289,"ÑıÐµÑĤÑģÑı":4290,"ĠÐ¿Ð¾ÑĩÑĤÐ¸":4291,"ĠÑĸÑĢÑĸ":4292,"ÑĪÑĭÑģÑĭ":4293,"Ð»ÐµÐ½Ð¸Ð¹":4294,"ÐºÐ¾Ð»ÑĮ":4295,"Ð³Ð´Ð°":4296,"DA":4297,"av":4298,"function":4299,"idth":4300,"Ð°ÑĤÑĢ":4301,"ĠÐ¶Ð¸Ð²Ð¾ÑĤ":4302,"ĠÐ°ÑģÐ°":4303,"ĠÐ¡ÐµÐ¹ÑĩÐ°Ñģ":4304,"ĠÑĢÐ°Ð¹Ð¾Ð½":4305,"ĠÑĤÐ°ÒĽÑĭÑĢÑĭÐ¿":4306,"Ð¸Ð²Ð°ÑİÑĤ":4307,"ZA":4308,"ĠÑĤÐ°ÑĢÑĤ":4309,"Ð°ÑĪÐ°ÒĽ":4310,"ĠÐ²Ð»Ð°ÑģÑĤÐ¸":4311,"Ð°ÑıÐ½":4312,"Ð¸ÑĨÐ¸":4313,"ĠÐĳÐ°ÑĤ":4314,"ĠÐ¶Ð°ÑģÑĤ":4315,"ĠJ":4316,"Ð´Ð°ÑĢÑĭÐ½Ð°":4317,"ÐĲÐ»Ð¼Ð°ÑĤÑĭ":4318,"ĠÑįÑĦÑĦÐµÐºÑĤÐ¸Ð²":4319,"ĠÐ¿Ð¾Ð´Ð¾Ð·":4320,"ÑĤÐ¾Ðº":4321,"ĠÐ³Ð»Ð°Ð²Ð°":4322,"Ġ()":4323,"ĠÑĤÐ¾ÑĤ":4324,"Ð°ÑģÑģÐ°Ð¶":4325,"ĠÐ½Ð°ÑĩÐ°Ð»Ð°":4326,"ĠÓĻÑģÐºÐµÑĢÐ¸":4327,"ĠÐ´ÐµÐ»Ð¾":4328,"ÑĢÐ¾ÑĢ":4329,"ĠÐ¾ÑĤÐ½Ð¾ÑĪÐµÐ½Ð¸Ð¸":4330,"ĠÒĽÐ¾ÑģÑĭÐ¼ÑĪÐ°":4331,"ĠÐ¾ÑĢÑĭÐ½Ð´Ð°Ð»":4332,"ĠÐµÑĤÑĸÐ¿":4333,"ĠÑģÐ¾Ð½ÑĭÐ¼ÐµÐ½":4334,"ĠÒĽÐ°Ð·Ð°ÒĽÑģÑĤÐ°Ð½":4335,"ush":4336,"ĠÐ¶Ð°ÑģÐ°Ð»ÒĵÐ°Ð½":4337,"ĠÐµÑģÐº":4338,"ĠÐ¾Ð±Ð»ÑĭÑģ":4339,"ÑģÑĤÑĢÐ¸":4340,"Ð°Ð¹ÑĢÐ°ÑĤ":4341,"ĠÒĽÐ°":4342,"ĠÐ¼ÐµÐ´Ð¸ÑĨÐ¸Ð½Ð°Ð»ÑĭÒĽ":4343,"ĠÐ½Ð°ÑħÐ¾Ð´Ð¸ÑĤÑģÑı":4344,"ÑĭÐ½Ð´Ð°Ñĥ":4345,"ÒĵÑĭÑĢ":4346,"ÑĭÐ»Ð°ÑĢÑĭ":4347,"ĠÐµÐ½Ð³ÑĸÐ·Ñĥ":4348,"ĠÐµÑĤÐµÑĤÑĸÐ½":4349,"du":4350,"ĠÐ±ÐµÑĢÐµÑĤÑĸÐ½":4351,"ĠÐ»Ð¸Ð´ÐµÑĢ":4352,"ĠÐ³Ð¾Ð²Ð¾ÑĢÐ¸ÑĤÑģÑı":4353,"ĠÐ²ÐµÑģ":4354,"ĠÑĤÑĥÒĵÐ°Ð½":4355,"ine":4356,"uto":4357,"Ð²Ð¾Ð·":4358,"ÑĪÑĸÐº":4359,"ĠÐ¶ÐµÐº":4360,"Ð°ÑĥÑĭÑĢ":4361,"ĠÐ¼Ð¸Ð»Ð»Ð¸Ð¾Ð½Ð¾Ð²":4362,"ĠÐºÐµÐ¹Ð±ÑĸÑĢ":4363,"ĠÐĲÒļÐ¨":4364,"ĠÐ¶ÐµÐ»ÑĤÐ¾ÒĽÑģÐ°Ð½":4365,"Ð¸ÑĩÐµÑģÐºÐ¾Ðµ":4366,"Ð³Ð°Ð¼":4367,"ĠÑĤÐ°ÑĢÐ¸ÑħÐ¸":4368,"ĠÐºÑĥÑĢÑģ":4369,"ĠÐ´ÑĢÑĥÐ³Ð¾":4370,"ĠÐ¸Ð¼ÐµÐµÑĤ":4371,"ÑĢÐ°Ðº":4372,"ĠÐ°Ð»Ð°Ò£":4373,"ÒĽÒ±":4374,"Ð³ÐµÐ¹":4375,"ĠÐ¿Ð¾ÑĢÑĤ":4376,"ure":4377,"ĠÑĢÐ°Ð¹Ð¾Ð½Ð°":4378,"ĠÐ¸ÑİÐ½Ñı":4379,"ĠÑĤÐµÑħÐ½Ð¸ÐºÐ°Ð»ÑĭÒĽ":4380,"ĠÑįÑĤÑĥ":4381,"ĠÐ¿ÑĢÐ¾Ð¹":4382,"ÐĸÐ¾Ð¼Ð°ÑĢÑĤ":4383,"ĠÒĵÐ°Ð»ÑĭÐ¼":4384,"ĠÐ¡Ð°Ð½":4385,"ÐµÐ»Ð¸Ðº":4386,"ĠÐ·Ð´ÑĢÐ°Ð²":4387,"ÑĢÐ°ÑĨÐ¸Ð¸":4388,"ĠÐļÐ¸ÑĤ":4389,"Ð¸Ð²Ð°ÐµÑĤÑģÑı":4390,"Ð´Ð°Ð½Ð¸Ñı":4391,"ĠÐ¡Ð¾Ð½Ð´Ð°Ð¹":4392,"Ġ70":4393,"ĠÐ¾ÑĢÐ°Ð¹":4394,"ĠÐ·Ð°ÐºÐ¾Ð½Ð¾Ð´Ð°ÑĤÐµÐ»ÑĮ":4395,"Ð»ÑĸÐ³ÑĸÐ½":4396,"Ġ31":4397,"ies":4398,"ord":4399,"ĠÑģÑĤÐ°Ð½Ð´Ð°ÑĢÑĤ":4400,"Ð´ÑĭÐ¹":4401,"ĠÐ¾Ð±Ð½Ð°ÑĢÑĥÐ¶":4402,"ÑĢÐ°Ð·Ñĥ":4403,"clude":4404,"ĠÐ²ÑĭÑħÐ¾Ð´":4405,"ĠÑģÑĤÐ°Ð»Ð¾":4406,"Ð½Ð°ÐºÐ¾Ð¼":4407,"ÑĤÒ¯ÑĢÐ»Ñĸ":4408,"ĠÑĢÐ°ÑģÐ¿Ð¾Ð»":4409,"ĠÐ¾Ð½Ð»Ð°Ð¹Ð½":4410,"ĠÐ´Ð¸Ð°Ð³":4411,"ĠÑģÐ¾ÑĤÑĢÑĥÐ´Ð½Ð¸ÑĩÐµ":4412,"ÑĭÐ¼Ð´ÑĭÒĽ":4413,"ĠÑĤÑĭÒ£":4414,"ĠÑįÐºÐ¾Ð½Ð¾Ð¼Ð¸ÐºÐ¸":4415,"ÑĤÐ°Ð¼Ð°":4416,"Ð»ÐµÐ½Ð¸ÐµÐ¼":4417,"ĠÐ°Ð»Ð°ÑĤÑĭÐ½":4418,"Ġgoog":4419,"our":4420,"ĠÐ°ÑĢÐ°Ð»":4421,"ĠÐ½Ð°ÑĥÑĩ":4422,"iÐ·":4423,"Ð°ÑģÐ¿":4424,"ĠZ":4425,"ÒĵÐ°Ð½Ð´Ñĭ":4426,"ÑĸÑĤ":4427,"ĠÑĪÑĭÒĵÑĭ":4428,"ĠÐ´Ð¸Ñģ":4429,"ĠÑģÑĢÐ°Ð²":4430,"post":4431,"ÑħÐ¾Ð´Ð°":4432,"ĠÑĤÐ¸Ð¿":4433,"Ġ2013":4434,"letag":4435,"Ġgoogletag":4436,"ÑĮÑİÑĤÐµÑĢ":4437,"ÐĲÐĹ":4438,"ĠÑĢÐ°Ð·ÑĢÐµ":4439,"ĠÑĤÒ¯Ð¹":4440,"ĠÑģÐµÐ½ÑĤÑıÐ±ÑĢÑı":4441,"ĠÑįÐ»ÐµÐ¼ÐµÐ½ÑĤ":4442,"ĠÐ·Ð´Ð¾ÑĢÐ¾Ð²":4443,"ĠÐ·Ð¾ÑĢ":4444,"ÑĢÐµÑģÑĤ":4445,"ode":4446,"ĠÐķÑĥ":4447,"ÑĥÑĪÑĭÐ»Ð°ÑĢÐ´ÑĭÒ£":4448,"ÑıÐ¼Ð¸":4449,"ĠÐ¼Ð¸Ð»Ð»Ð¸Ð¾Ð½":4450,"ĠÑģÐ°Ð»ÑĭÒĽ":4451,"ĠÐ´Ð¾Ñģ":4452,"Ð°Ð»ÑĮÐ½Ð°Ñı":4453,"ĠÐ¨ÑĭÐ¼ÐºÐµÐ½ÑĤ":4454,"ÒĽÐ°Ð¹":4455,"ĠÑģÑĤÑĢÑĥ":4456,"ÑĢÑĮ":4457,"ĠÑģÐ¾ÑģÑĤÐ°Ð²Ð»ÑıÐµÑĤ":4458,"ĠÐ°ÑĪÑĭÒĽ":4459,"ĠÒĽÐ°ÑģÐ¸ÐµÑĤ":4460,"ĠÐĿÐ°ÑĨÐ¸Ð¾Ð½Ð°Ð»ÑĮ":4461,"Ð¼Ð°ÑĢ":4462,"ert":4463,"Ġ|":4464,"ÐµÑĤÑĮ":4465,"ĠÐľÑĭÑģÐ°Ð»Ñĭ":4466,"ÑĢÐ°ÑĤÐ¸Ð²":4467,"ĠÐºÐ°Ð½Ð´Ð¸Ð´":4468,"ÑĭÐ±Ñĭ":4469,"ÑĤÑĭÑģ":4470,"ĠÐ¾Ð¿Ð°Ñģ":4471,"ÑĤÐ°Ð¶":4472,"ĠÐ¾ÑĢÑĭÐ½Ð±Ð°Ñģ":4473,"ÑĪÐµÐµ":4474,"ĠÐ¼Ð°ÑĥÑģÑĭÐ¼":4475,"ĠÑģÑĢÐµ":4476,"ĠÐ¿ÑĢÐµÐ´ÑĥÑģ":4477,"ĠÐ°ÑıÑģÑĭÐ½Ð´Ð°":4478,"ÑĢÐ¸Ð´":4479,"ĠÐ²Ð¾Ð·Ð¼Ð¾Ð¶Ð½Ð¾ÑģÑĤÑĮ":4480,"ĠÐ¿Ð¸ÑĪ":4481,"ĠÒĽÐ¾Ð»Ð´Ð°Ð½Ñĥ":4482,"ĠÑģÐ¾Ð±ÑĭÑĤ":4483,"ĠÑĤÓ©ÑĢÐ°ÒĵÐ°ÑģÑĭ":4484,"ĠÐ¡ÐµÐ¼":4485,"ĠÐºÐ²Ð°ÑĢÑĤÐ¸":4486,"ĠÐ°Ñį":4487,"ĠÑģÐ¸":4488,"ĠÐ¸ÑİÐ»Ñı":4489,"ĠÐ´Ð¾ÑģÑĤÑĥÐ¿":4490,"Ð²Ð¾":4491,"ÐµÑģÑģÐ¸Ð¾Ð½":4492,"ĠÑģÑĥÑĤ":4493,"Ð´ÐµÑĢÐ³Ðµ":4494,"ĠÑģÐ¾ÑģÑĤÐ¾ÑıÐ½":4495,"ĠÑĤÐ¾Ð½Ð½":4496,"ÑĥÑĢÐ³":4497,"ĠÑģÑĥÐ´Ð°":4498,"ÑıÑİÑĤ":4499,"ĠÐ¾ÑģÑĭÐ½Ð´Ð°Ð¹":4500,"iÐ½Ð´Ðµ":4501,"Ð°ÐºÐ¾Ð½":4502,"%-":4503,"Ð´Ð°ÑİÑĤ":4504,"Ð¸ÑıÑģÑĭÐ½ÑĭÒ£":4505,"ÑĤÐ°ÑĢÑĭÐ½Ð°":4506,"ĠÑįÑĤÐ°Ð¿":4507,"ĠÑĤÑĢÐ°Ð½Ñģ":4508,"Ð¼Ð¸ÑĤ":4509,"ĠÐºÐ¾Ð¼Ð°Ð½Ð´Ð°":4510,"ĠÑĤÓĻÑģÑĸÐ»":4511,"ĠÐľÐ°Ð½":4512,"text":4513,"ĠÑħÐ°Ð½":4514,"color":4515,"Ð¼Ð¸Ð½Ð¸ÑģÑĤÑĢ":4516,"ĠÑĤÐµÑģÑĤ":4517,"out":4518,"ÑĥÐµÑĤÑģÑı":4519,"Ð»ÐµÐ½Ð¸Ñİ":4520,"**":4521,"Ð¸ÐµÐ¹":4522,"ÑĭÐ¼Ñĭ":4523,"ĠÑģÑĸÐ»ÑĤ":4524,"Ð¨Ð¡":4525,"ĠÓĻÐºÐµÐ»":4526,"Ò¯Ð·":4527,"ĠÑĪÑĭÒĵÑĭÐ½":4528,"VID":4529,"ĠÐºÐ°Ð´":4530,"ÐķÐļ":4531,"ĠÐ·Ð´ÑĢÐ°Ð²Ð¾Ð¾ÑħÑĢÐ°Ð½":4532,"ĠÒĽÐ°Ð±ÑĭÐ»Ð´Ð°Ð½":4533,"ĠÐ¶ÐµÒ£ÑĸÐ»":4534,"Ð¡Ðł":4535,"ans":4536,"ÑĢÐ°Ð¼Ð¸":4537,"ÐķÐ¢":4538,"ĠÐļÐ°ÑģÑĭÐ¼":4539,"ÓĻÑĢÐµÐº":4540,"ĠÐ¾Ð±Ð»Ð°ÑģÑĤÑĮ":4541,"35":4542,"ĠÑĥÐº":4543,"ĠÐ¸Ð¼ÐµÐ½Ð½Ð¾":4544,"ĠÑĤÐµÑĢÐµÒ£":4545,"ĠÐ¼Ð¾Ð¹":4546,"ĠÐ¼Ð½Ðµ":4547,"Ġit":4548,"ĠÐ¿Ð¾Ð¼Ð¾ÑīÐ¸":4549,"ĠÑģÐµÐ²ÐµÑĢ":4550,"ÑħÐ¾Ð´Ð¾Ð²":4551,"ĠÐ±Ð»Ð¸":4552,"Ð¾Ð·Ð¸":4553,"ĠÐ°ÒĽÑĪÐ°":4554,"Ð²Ð¸Ð¶":4555,"ÑĤÑı":4556,"ĠÑĤÓ©Ð»ÐµÐ¼":4557,"ĠÑĤÐ¾Ð¶Ðµ":4558,"ĠÐ¿ÑĢÐµÐ²":4559,",\"":4560,"Ð¼ÑĭÑĪÐ»ÐµÐ½":4561,"ĠÒĽÐ°Ð·Ð°ÒĽÑģÑĤÐ°Ð½Ð´ÑĭÒĽ":4562,"ĠÐ°Ð½Ð°Ð»Ð¸Ð·":4563,"ĠÓ©Ð½ÑĸÐ¼Ð´ÐµÑĢ":4564,"ÑĤÓ©Ð±Ðµ":4565,"Ð¾Ð´Ð°Ð½":4566,"ĠÐ½Ò±ÑģÒĽ":4567,"Ġj":4568,"Ġ2012":4569,"ÐµÑģÑĤÑĮ":4570,"ĠÐ¸Ð½ÑģÑĤÐ¸ÑĤÑĥÑĤ":4571,"ÐºÐµÑĢÐ»ÑĸÐº":4572,"ÑĥÐ»Ð¸":4573,"ĠÑģÐ¾Ð²ÐµÑĢÑĪÐµÐ½":4574,"ĠÑĪÐ°ÑĢÑĥÐ°ÑĪÑĭÐ»ÑĭÒĵÑĭ":4575,"ĠÐµÑĢÐµÐºÑĪÐµÐ»ÑĸÐº":4576,"ĠÐ°ÑĢÑĤÑĭÒĽ":4577,"fox":4578,"dis":4579,"Ð¾Ð±Ð¸Ð»ÑĮ":4580,"oun":4581,"ĠÐ´ÐµÐ½ÑĮÐ³Ð¸":4582,"oogle":4583,"ÑĭÑĢÑĤ":4584,"ĠÐ½Ð°Ð·Ð°ÑĢ":4585,"ĠÑįÐ½ÐµÑĢÐ³ÐµÑĤ":4586,"Ð»ÑıÑİÑĤ":4587,"ĠÐ·Ð°ÐºÐ¾Ð½":4588,"ĠÐ°ÑĥÐ´Ð°Ð½Ð´ÑĭÒĽ":4589,"ĠÐ³Ð¾ÑĢÐ¾Ð´Ðµ":4590,"ĠÐ¿ÐµÑĢÐ²ÑĭÐ¹":4591,"ĠÐ´Ð½ÐµÐ¹":4592,"Ð±Ð°Ð¿":4593,"ĠÓĻÑĢÐ±ÑĸÑĢ":4594,"ĠÐ½ÐµÐ±":4595,"ĠÐ±ÑĭÑģÑĤ":4596,"push":4597,"ĠÑģÐ±":4598,"ĠÐĳÐ°ÑĢ":4599,"ĠÑģÑĭÑĢÑĤÒĽÑĭ":4600,"ĠÐ¶ÑĭÐ»Ð´Ð°Ð¼":4601,"ĠÐ»ÐµÑĩ":4602,"ĠÒļÐ°Ð·Ð°ÒĽÑģÑĤÐ°Ð½Ð´Ð°":4603,"ĠÐ¼ÓĻÐ»ÑĸÐ¼ÐµÑĤÑĤÐµÑĢ":4604,"ÐĺÐĲ":4605,"ĠÐ¶Ò¯Ðº":4606,"Ð«Òļ":4607,"adfox":4608,"ĠÐ¸ÑģÐºÐ»ÑİÑĩ":4609,"ÐºÐµÑģÑĤ":4610,"Ð»ÑıÐµÑĤÑģÑı":4611,"ĠÐ´Ð¾ÑģÑĤÐ¸Ð³":4612,"ĠÐºÐµÐ»Ð´Ñĸ":4613,"ĠÐ¼Ð¸ÑĢÐµ":4614,"ĠÐ¾ÐºÑĤÑıÐ±ÑĢÑı":4615,"ĠÐ±Ð°":4616,"ĠÐľÐµÐ¶Ð´Ñĥ":4617,"Ð¼ÑĸÐ½":4618,"Ð´ÐµÐ¶":4619,"ĠÐ½Ð°ÑĢÐ¾Ð´":4620,"ĠÑĤÐ°ÑĢÐ°Ð¿":4621,"ĠÐ¿Ð¾ÑĢÑĥÑĩ":4622,"ame":4623,"ĠÐ°ÒĽÑĭÐ½":4624,"Ð¸ÑģÑĤÑĢÐ¸":4625,"Ð¾Ð½Ð´":4626,"Ð´Ð¸Ð½ÑģÐºÐ¾Ð¹":4627,"ĠÑĦÐµÐ²ÑĢÐ°Ð»Ñı":4628,"ĠÐ¼ÐµÐ½ÐµÐµ":4629,"ĠÐ¼ÐµÑĢÑĭ":4630,"ĠÐ±Ð¾ÑĢÑĮ":4631,"ĠÑģÐ²Ð¾ÐµÐ³Ð¾":4632,"ĠÐĸÐ¨Ð¡":4633,"ĠÑĥÐ»Ð¸ÑĨ":4634,"Ð»Ð¾ÑĢ":4635,"ĠQ":4636,"ĠÑĪÐ¸":4637,"ĠÒĽÑĭÐ·Ð¼ÐµÑĤÐºÐµÑĢÐ»ÐµÑĢ":4638,"ĠÑĢÐµÑĪÐµÐ½":4639,"ÐŀÐĴ":4640,"ĠÐ²ÐµÑĤÐµÑĢ":4641,"ĠÑĤÑĢÐ°Ð½ÑģÐ¿Ð¾ÑĢÑĤ":4642,"ĠÐ¶Ð¸ÑĭÐ½":4643,"ĠÐļÑĭÑĢÐ³ÑĭÐ·":4644,"ÑĢÐµÑģÐµ":4645,"ĠÓ©Ð½Ð´ÑĸÑĢÑĥ":4646,"ĠÐ¶Ð°ÒĵÑĭÐ½Ð°Ð½":4647,"Ð½Ð¸ÑĨÐ°":4648,"Ð°Ð´Ð¸":4649,"Ð¾ÑĢÐ¾Ð½":4650,"ult":4651,"ĠÐ°ÑĥÐ´":4652,"ĠÐ¶Ð°Ð±Ð´ÑĭÒĽ":4653,"ĠÐ´Ð°Òĵ":4654,"ĠÐ¶Ð°Ð¿":4655,"ĠÐ±Ð°ÑģÐ¿Ð°ÑģÓ©Ð·":4656,"ĠÑĤÐ°Ð±Ð¸ÒĵÐ¸":4657,"ĠÐºÑĢÐ°Ñģ":4658,"Ð°Ð·Ñĭ":4659,"ÑĪÐµÐ²":4660,"Ò±ÑĢÑĤ":4661,"ĠÐ¶Ð°Ð»ÒĵÐ°":4662,"ĠÑĸÑģÑĤÐµÑĢ":4663,"ÐºÐµÐ¹":4664,"ĠÐ¿ÑĢÐ¾ÐµÐºÑĤÐ°":4665,"ĠÐ¾ÑĤÐ»Ð¸Ñĩ":4666,"ĠÐļÐµÐ¹":4667,"ĠÐ¼ÐµÑĤÐ¾Ð´":4668,".-":4669,"ĠÑĤÒ¯ÑĢÐ»ÐµÑĢ":4670,"ĠÐºÐ¸Ð½Ð¾":4671,"ÐºÐµÑĥ":4672,"ĠÐ½Ð¾ÑıÐ±ÑĢÑı":4673,"ĠÐĹÐ°Ð¿":4674,"ðŁ":4675,"ĠÐ±ÐµÐ»Ð³ÑĸÐ»ÐµÐ½":4676,"Ð°Ð»Ð¾Ð²":4677,"ĠÐºÐ°Ñģ":4678,"ĠÐ¼Ð°ÑĤÑĩ":4679,"ĠÑģÐ°ÑĢÐ°Ð¿":4680,"ĠÐĲÒĽÐ¿Ð°ÑĢÐ°ÑĤ":4681,"ĠÐ²Ð¾Ð·Ð½Ð¸Ðº":4682,"ĠÐ²ÑģÐµÐ³Ð´Ð°":4683,"Ð¿ÐµÑĢÐ²":4684,"ÑĪÑĭÐ½":4685,"Ð¼Ð¾ÑĤÑĢÐµÐ½":4686,"erId":4687,"Ð¸ÑĩÐµÑģÐºÐ¸Ð¼":4688,"ĠÐ¿ÑĢÐ¾Ñģ":4689,"Ð³ÐµÑĢÐ»ÐµÑĢ":4690,"ĠÒĽÐ°ÑĢÐ°ÑģÑĤÑĭÑĢ":4691,"ĠÓ©Ð»ÐµÒ£":4692,"ĠÐ¾ÑĩÐµÑĢÐµÐ´ÑĮ":4693,"ĠÓĻÑĥ":4694,"ÐµÐ½ÑĤÑĸ":4695,"ĠÐ³ÑĢÑĥÐ¿Ð¿Ñĭ":4696,"ĠÐ¼ÐµÑģÑĤÐµ":4697,"ĠÐ°Ð³ÐµÐ½ÑĤÑĤÑĸ":4698,"ĠÑĥÑĩÐµÐ½":4699,"ĠÐ¿Ð¾ÑģÑĤÐ¾ÑıÐ½":4700,"ĠÒĽÐ°Ð»Ð´Ñĭ":4701,"ĠÑģÓĻÑĤ":4702,"Ð»Ð°ÑģÑĤ":4703,"ĠÐ½ÓĻÑĢ":4704,"Ġz":4705,"ĠÐ³ÐµÐ½ÐµÑĢ":4706,"ĠÐ¼ÑĭÑģ":4707,"ÑĪÐ¸ÑĢ":4708,"ĠÐŁÐµÑĢ":4709,"ĠÐ´ÐµÐ¹ÑģÑĤÐ²Ð¸Ñı":4710,"Ġex":4711,"ĠÑĢÐµÐ¹ÑĤ":4712,"Ð¾Ð¼ÐµÑĤ":4713,"ĠÒĽÒ±ÑĢÐ°":4714,"ĠTO":4715,"KH":4716,"ĠÐ±Ó©Ð»Ñĸ":4717,"ĠÐºÐµÑĪÐµÐ½":4718,"ĠÐ¿Ð¾ÐºÑĥÐ¿":4719,"ebook":4720,"ĠÑĤÐ°ÐºÐ¸Ñħ":4721,"ĠÑģÐ¸ÑĤÑĥÐ°ÑĨÐ¸Ð¸":4722,"ĠCOVID":4723,"ĠÑģÐµÐ¼ÑĮ":4724,"Ð»Ð°ÑĢÑĭÐ½ÑĭÒ£":4725,"Ð½ÐµÐ½Ð¸Ñı":4726,"ĠÐ¿Ð¾ÑĤÐ¾Ð¼Ñĥ":4727,"ĠÐ±ÐµÐºÑĸÑĤ":4728,"ÑĥÑĢÐ°":4729,"ĠÐºÐ¾Ð¼Ð°Ð½Ð´":4730,"ÑĥÐ»ÑıÑĢ":4731,"ĠÐĲÐ´Ð°Ð¼":4732,"ÑħÐ°":4733,"STAN":4734,"Ġthat":4735,"01":4736,"ÑĸÐ»ÑĸÐ³ÑĸÐ½":4737,"ĠÐ±ÐµÐ»Ð³Ñĸ":4738,"ĠÐ°Ð²Ð³ÑĥÑģÑĤÐ°":4739,"ĠÐ°ÑĢÐ°Ð»Ñĭ":4740,"Ð¼Ð°ÒĵÑĭ":4741,"ĠÑįÑĤÐ¸Ð¼":4742,"Ð¸Ð±Ð¾":4743,"Ġwh":4744,"ĠÐ¶ÑĭÐ»Ð´Ð°ÑĢÑĭ":4745,"ÐµÐ»ÐµÑĢÑĸÐ½":4746,"ÑĭÑģÑĭÐ½Ð°":4747,"ÑģÑĤÐ²ÐµÐ½Ð½ÑĭÐµ":4748,"==":4749,"ÑĸÐ»ÐµÑĢÑĸ":4750,"ĠÐ½Ð°ÑĪÐµÐ¹":4751,"ĠÑģÐ¾ÑģÑĤÐ¾":4752,"ÐºÑĢÐ°Ñī":4753,"ÑĸÐ»Ð´Ðµ":4754,"ĠÑĤÒ¯ÑģÐºÐµÐ½":4755,"ef":4756,"ÐºÑĸÑĢ":4757,"ZAKH":4758,"ĠÑģÐ°Ð»Ð°":4759,"ÒĽÐ¾ÑĢÐ»ÑĭÒĽ":4760,"ĠÐµÐ½Ð´Ñĸ":4761,"ĠÐ´ÓĻÑģÑĤ":4762,"ĠÐ½Ð°ÑģÑĤÐ¾ÑıÑīÐµÐµ":4763,"ical":4764,"ĠÐºÓ©Ð¼":4765,"ĠÐĸÐµÑĢ":4766,"ÑĦÐ¾ÑĢÐ¼Ð°":4767,"ĠÒĽÐ°Ð»Ð°ÑģÑĭÐ½Ð´Ð°":4768,"ÐµÑı":4769,"ĠÐ¿Ð°ÑģÑģÐ°Ð¶":4770,"ĠÐ¾Ð¿ÐµÑĢÐ°ÑĨÐ¸Ñı":4771,"ĠÑĥÑĤÐ²ÐµÑĢÐ¶":4772,"Ð°Ð²Ð¸Ñģ":4773,"ĠÐ¸ÑģÑĤÐ¾Ñĩ":4774,"UR":4775,"acebook":4776,"ĠÐ°ÐºÐ°Ð´ÐµÐ¼":4777,"Ð³Ð»Ñı":4778,"ĠÐ¿Ð¾Ð½":4779,"ĠÒĽÒ±Ð»":4780,"ĠÑģÐ°Ð»Ð°ÑģÑĭÐ½Ð´Ð°ÒĵÑĭ":4781,"ĠÑıÐ²Ð»ÑıÑİÑĤÑģÑı":4782,"ĠÐ½Ð¾Ð²Ð¾Ð³Ð¾":4783,"Ð¶Ð°Ð»":4784,"ĠÑĤÒ¯ÑĢÐ»ÐµÑĢÑĸ":4785,"ĠÒ±Ð»ÑĤ":4786,"ÑĦÐ¸Ð½":4787,"ĠÑģÒ±ÑĢ":4788,"ĠÐĸÐ¾Ð»":4789,"ĠÑĤÐ°ÐºÐ¾Ð¹":4790,"ĠÐ¿Ð¾Ð·Ð¸":4791,"Ġby":4792,"ĠÐĸÒ±Ð¼":4793,"ĠÓĻÑĢÑĤÒ¯ÑĢÐ»Ñĸ":4794,"ĠÐ¶Ð¾Ð»Ñĭ":4795,"Ð»ÐµÑĤÐ½Ð¸Ð¹":4796,"ĠÐºÑĢÐ¾Ð²":4797,"ĠÐ·Ð´ÑĢÐ°Ð²Ð¾Ð¾ÑħÑĢÐ°Ð½ÐµÐ½Ð¸Ñı":4798,"ĠÑģÑĤÐµÐ¿":4799,"ĠÓĻÒ£Ð³ÑĸÐ¼":4800,"ĠÐ½Ð°Ð·Ð°Ð´":4801,"ĠÐĿÐ¸Ðº":4802,"ĠÑĢÐµÐ·ÑĥÐ»ÑĮÑĤÐ°ÑĤ":4803,"ĠÐºÐ¾Ñģ":4804,"ĠÐ°Ð¿Ð¿Ð°ÑĢÐ°ÑĤ":4805,"ĠÐ³ÑĢÐ°":4806,"ĠÐºÐ°Ð±":4807,"ÑĪÐ°ÒĽ":4808,"ÑĭÒĵÑĭÑģ":4809,"ÑĤÐ°ÑĥÒĵÐ°":4810,"ÑģÐ°Ð´":4811,"ĠÐ´ÐµÐ²ÑĥÑĪ":4812,"ĠKAZAKH":4813,"Ð°Ð»Ð¾Ð³":4814,"ĠÐ»Ð°Ñĥ":4815,"ĠÐ¶Ð¸Ð½Ð°ÒĽ":4816,"Ð¸ÑıÐ½":4817,"ĠÓ©Ò£Ð´ÐµÑĥ":4818,"ĠÑģÐ¾Ð²ÐµÑĤ":4819,"ÑĥÐ´Ñĸ":4820,"ĠÐ²Ð»Ð¸Ñı":4821,"ĠÐºÐ°ÑĢÐ°Ð½ÑĤ":4822,"ÑĤÐ¾Ð¹":4823,"ĠÑĦÐ¸Ð»ÑĮÐ¼":4824,"ĠÐ¿Ð°Ð»":4825,"ÐµÐ´Ð¶":4826,"Ð°Ð½Ð´ÑĭÒĽ":4827,"ĠÐĶÐµÐ½":4828,"ÑģÐ¼ÐµÐ½":4829,"ĠÐ¿ÑĢÐ¸Ð»":4830,"ĠÐ±ÑĭÐ²":4831,"ÐļÐ°Ð·Ð°ÑħÑģÑĤÐ°Ð½ÑģÐºÐ¾Ð¹":4832,"ĠÐ¿ÑĢÐ¾Ð¼ÑĭÑĪÐ»ÐµÐ½":4833,"ĠÒ±Ð¹ÑĭÐ¼Ð´Ð°ÑģÑĤÑĭÑĢ":4834,"ÑģÐµÐ´Ñĸ":4835,"ĠÐļÐµÒ£":4836,"ÑĤÑĭÐ¼":4837,"ĠÐ°Ð²ÑĤÐ¾Ð¼Ð¾Ð±Ð¸Ð»ÑĮ":4838,"ÑĥÐ´ÑĸÒ£":4839,"ÑĭÒĽÑĤÑĭÑĢÑĥ":4840,"ĠÓĻÐºÑĸÐ¼Ñĸ":4841,"ast":4842,"ĠÐ½Ð°Ð¹":4843,"ĠÐºÓ©ÑĢÑģÐµÑĤÑĸÐ»Ð³ÐµÐ½":4844,"Ð½Ð¸ÐºÐ¾Ð¼":4845,"ĠÑĥÑģÐ»ÑĥÐ³":4846,"Ð¶Ð°ÑĢ":4847,"ĠÐºÐ°ÑĩÐµÑģÑĤÐ²Ðµ":4848,"ĠÐ±ÑĸÑĢÐµ":4849,"ĠÑģÑĭÐ·":4850,"ĠÐ¶Ð°ÑĢÑĭÒĽ":4851,"ÑĪÐ°Ñı":4852,"ĠÐºÐ³":4853,"ĠÐ¿ÑĢÐ¾Ð³ÑĢÐ°Ð¼Ð¼Ñĭ":4854,"ĠÐ·ÑĢ":4855,"ĠÐ²ÑģÑĤÑĢÐµÑĩ":4856,"ĠÐ¿ÑĢÐ¾Ð´Ð°":4857,"ĠÑĤÐ¾Ð¹":4858,"ĠÐ¸ÑģÑĤÐ¾ÑĢ":4859,"ĠÐ°Ð½ÑĤ":4860,"Ð£Ðł":4861,"ĠÒĽÒ±Ð½Ð´Ñĭ":4862,"ĠÐ¾ÒĽÐ¸":4863,"Ð³ÑĸÑĪ":4864,"ĠÐºÐµÐ»ÑĤÑĸÑĢ":4865,"ĠKAZAKHSTAN":4866,"Ð»ÑĭÒĵÑĭÐ½":4867,"ĠÑĤÑıÐ¶ÐµÐ»":4868,"ĠÒĽÐ°Ð±ÑĭÐ»Ð´Ð°":4869,"Ð¿Ð¾Ð½":4870,"ĠÑįÐ»ÐµÐºÑĤÑĢÐ¾":4871,"ÐµÐ½Ð¸":4872,"Ð¾Ð±ÑīÐµ":4873,"ĠÐ¼Ò±Ð½Ð°Ð¹":4874,"ÑĭÐ²Ð°ÐµÑĤÑģÑı":4875,"ĠÐ»Ð¸Ð½":4876,"ĠÑģÑĢÐ°Ð·Ñĥ":4877,"ant":4878,"Ð¶Ñĭ":4879,"ÑĥÑİÑĤ":4880,"Ð¸ÑĤÐ°Ð¹ÑĤÐµ":4881,"ĠÐ²ÑĭÑĪ":4882,"Ð´ÐµÐ¹ÑģÑĤÐ²":4883,"ĠÐ¼Ð¸Ð½Ð¸Ð¼":4884,"ĠÐ²Ð½Ð¸Ð¼Ð°Ð½Ð¸Ðµ":4885,"Ġ2011":4886,"ĠÐ²ÑĭÐ½":4887,"ÑĤÐ°ÑĢÐ´Ð°":4888,"ere":4889,"ĠÐ¿Ð¾Ð½Ð¸Ð¼":4890,"Ð¸ÑĤÐµÐ»ÑĮÐ½ÑĭÑħ":4891,"Ð´Ð°Ð»Ð¸":4892,"ÑĸÐ¼Ð½ÑĸÒ£":4893,"ÐµÑĩÐ½Ð¾":4894,"ĠÐºÐµÐ¿":4895,"rom":4896,"ĠÐ¿ÑĥÐ±Ð»Ð¸Ðº":4897,"ĠÐľÐ°ÑĤ":4898,"ĠÑĢÐµÐ°Ð»Ð¸Ð·Ð°ÑĨÐ¸Ð¸":4899,"ĠÐºÐ¾Ð½Ñģ":4900,"Ġ80":4901,"ÑħÐ°Ð½Ð°":4902,"Ġor":4903,"ĠÑģÐµÐ±Ðµ":4904,"ĠÑĤÐ¸ÑĸÑģÑĤÑĸ":4905,"Ġ35":4906,"ĠÐ³Ð¸":4907,"ĠÐ±Ð°ÑģÑĤÐ°Ð´Ñĭ":4908,"ĠÐ¾ÑĤÑĭ":4909,"Ð²Ð°Ð½":4910,"ĠÐ¡ÐµÐ³Ð¾Ð´Ð½Ñı":4911,"ÑĥÐ½ÐºÑĤ":4912,"Ð»Ð°ÑĢÒĵÐ°":4913,">>":4914,"ÐµÐ³Ð¸ÑģÑĤÑĢÐ¸":4915,"DAY":4916,"ĠÐ¿ÑĢÐ°Ð·Ð´":4917,"ĠÐ¿ÑĢÐ¸Ð½ÑĨÐ¸Ð¿":4918,"ĠÑĤÐµÑħÐ½Ð¾Ð»Ð¾Ð³":4919,"ĠÐĳÐ¸":4920,"Ð¸ÑĢÐ¾Ð²Ð°Ð½Ð¸Ðµ":4921,"ĠÐµÐ»Ð´ÐµÑĢ":4922,"ĠÐ¸ÑĤÐ¾Ð³Ð°Ð¼":4923,"Ð°Ð»ÑĮÐ½Ð¾Ðµ":4924,"ĠÐ¸Ð½Ð´Ñĥ":4925,"ĠÒĽÐ°ÑĤÑĤÑĭ":4926,"ÑĥÐ»ÑĭÒĽ":4927,"ĠÐ²Ð¼ÐµÑģÑĤÐµ":4928,"ĠTODAY":4929,"ĠÒĽÐ¾Ð»Ð´Ð°Ð½ÑĭÐ»Ð°Ð´Ñĭ":4930,"Ð½Ð¾Ñģ":4931,"ÑģÐ»ÑĥÐ¶Ð±Ð°":4932,"Ð¿Ð»Ð¾Ð¼":4933,"ĠÐ¸Ð·ÑĥÑĩ":4934,"ÒĵÐ°Ð´Ñĭ":4935,"Ð´Ð°ÑĢÑĭÐ½Ð´Ð°":4936,"ĠÐĲÑģÑĤÐ°Ð½Ðµ":4937,"ÐµÐºÑĤÐµÐ¿":4938,"ĠÐ²Ð¾ÑĤ":4939,"ĠÑĢÐ°Ð¹Ð¾Ð½Ðµ":4940,"ĠSt":4941,"ĠÐĵÐ¾Ð»Ð¾Ð²":4942,"ĠÐŀÑĤÐ°Ð½":4943,"ĠÐ¿Ð¾Ð¼Ð¾Ð³":4944,"Ð°Ð½Ð´Ð°":4945,"ĠÐ±ÑĸÐ»Ð´ÑĸÑĢ":4946,"ĠÑĤÑĸÐºÐµÐ»ÐµÐ¹":4947,"ĠÑĤÑĸ":4948,"ĠÒĵÐ¾Ð¹":4949,"ĠÒļÐ°Ð·ÑĸÑĢÐ³Ñĸ":4950,"ĠÑģÐ°Ð¹Ð»Ð°Ñĥ":4951,"ĠÒĽÐ°Ð»Ð°ÑģÑĭÐ½ÑĭÒ£":4952,"Ð¾ÐºÑĢÐ°ÑĤ":4953,"ÑĭÑģÑĤÐ°":4954,"ĠÐºÐ¾ÑĢÐ¾Ð½Ð°Ð²Ð¸ÑĢÑĥÑģÐ°":4955,"ĠÑĦÐ¸Ð»":4956,"ĠÑĤÐ°ÐºÐ¸Ðµ":4957,"ĠÑįÐ»ÐµÐºÑĤÑĢ":4958,"ÑĢÐµÐ¼ÑĮÐµÑĢ":4959,"Ð²ÐµÑĢÐ´":4960,"ĠÐ¶ÐµÑĤÐµÐº":4961,"ĠÐ¶Ð¸Ð»ÑĮ":4962,"ĠÐ¶ÐµÑĢÐ»ÐµÑĢ":4963,"ĠÑĥÑĢÐ¾Ð²Ð½Ðµ":4964,"ÑģÑĭÐ½Ð´Ð°":4965,"ĠÐ´Ð°Ð»ÑĮÐ½ÐµÐ¹":4966,"ĠÐ¿Ð¾ÑĤÐµÐ½":4967,"ĠÐºÑĢÐ¸ÑĤ":4968,"ĠÑģÐ¾Ð²ÑĢÐµÐ¼ÐµÐ½":4969,"Ð°ÑģÑĤÑĭÑĢÑĥ":4970,"Ġ;":4971,"ĠÐ¼Ð¸Ð½Ð¸ÑģÑĤÐµÑĢ":4972,"ĠÐŀÐ½Ð°":4973,"2017":4974,"ĠÐ¾ÑĤÑģÑĥÑĤ":4975,"ÓĻÐ»":4976,"ĠÐ¡ÐµÐ½":4977,"ĠÐ¾ÑĢÑĭÑģ":4978,"ĠÑĦÐ°ÐºÑĤ":4979,"45":4980,"ĠÐ¿ÑĢÐ¾Ð¸Ð·Ð²Ð¾Ð´ÑģÑĤÐ²Ð°":4981,"Ð´Ð°Ð½Ð¸Ðµ":4982,"ĠÐ²ÑĤÐ¾ÑĢÐ¾Ð¹":4983,"ĠÐºÓ©Ð»ÐµÐ¼Ñĸ":4984,"ĠÑĩÐ»ÐµÐ½":4985,"ob":4986,"Ð¾Ð»ÐµÐµ":4987,"Ð°Ð»Ð°Ð¹":4988,"Ð´ÐµÑĢÐ¶Ð°Ð½":4989,"ĠÒ±Ð·Ð°ÒĽ":4990,"able":4991,"ĠÑĤÒ¯ÑģÑĤÑĸ":4992,"ĠÑĢÐµÑĪÐµÐ½Ð¸Ñı":4993,"ĠÐ£Ð·":4994,"ĠÐŀÐ»Ð°ÑĢÐ´ÑĭÒ£":4995,"Ð°ÐºÐ¸":4996,"ĠÐļÐ¾Ð½ÑģÑĤÐ¸ÑĤÑĥ":4997,"image":4998,"Ð½Ð¸ÐºÐ°Ð¼Ð¸":4999,"ĠÐ²Ð¾Ð´Ñĭ":5000,"ÑĸÐ½Ñĸ":5001,"ĠÐ¿ÑĢÐ¸Ð±":5002,"ĠÑĢÐµÑģÐ¿ÑĥÐ±Ð»Ð¸ÐºÐ°Ð»ÑĭÒĽ":5003,"ĠÑĤÐ°ÑģÑĭÐ¼":5004,"ĠÐ²Ð½ÐµÑĪ":5005,"ĠÐ±Ð¾Ð»Ð¼Ð°Ð¹Ð´Ñĭ":5006,"ĠÑģÐ¿Ð°Ñģ":5007,"ĠÐ½Ð°Ð¿Ð¸Ñģ":5008,"ĠÐ¿Ð¾ÑĪ":5009,"ÑĢÐ¸Ð½":5010,"ĠÐ°Ð¹ÑĤÑĥÑĭÐ½ÑĪÐ°":5011,"ĠÑħÐ¾Ð»":5012,"ĠÑĩÐµÑĤÐ²ÐµÑĢ":5013,"ĠÐ¿Ð¾ÑįÑĤÐ¾Ð¼Ñĥ":5014,"ĠÐ¾ÑĢÑĭÐ½Ð±Ð°ÑģÐ°ÑĢÑĭ":5015,"Ð¶ÐµÐ½Ð¸Ñı":5016,"ĠÑģÑħ":5017,"ĠÐºÐµÑģÑĤ":5018,"ĠÐ²Ðµ":5019,"ĠÐ°Ð»Ð´ÑĭÐ½Ð´Ð°":5020,"ĠÐ¼ÐµÑĢÐµÐº":5021,"ĠÑĤÐµÐ¼Ð¿ÐµÑĢÐ°ÑĤÑĥÑĢÐ°":5022,"ĠÑĤÓĻÑĢÑĤÑĸ":5023,"ÐºÐ¸Ðµ":5024,"ÑĥÑĪÑĭÐ½ÑĭÒ£":5025,"Ġ500":5026,"ĠÐ°ÑĢÐ½":5027,"ÑģÑĤÑĢÑĥÐºÑĤ":5028,"ĠÑĥÑĢÐ¾Ð²Ð½Ñı":5029,"Ð¸Ð½Ð³Ð°":5030,"ÐºÐ°Ð¼":5031,"ll":5032,"ĠÑģÑĥÐ¿":5033,"ĠÑĤÐµÐ·":5034,"ĠÐ¼Ð°ÐºÑģÐ¸Ð¼":5035,"ĠÐ¿Ð¾Ð³":5036,"ect":5037,"ÑĢÐ¾ÑĦ":5038,"ÑĤÐ°Ñħ":5039,"ĠÑĤÐ°ÑĢÑĤÑĥ":5040,"ĠÐ¾ÑĤÐ´ÐµÐ»ÑĮ":5041,"ĠÐ³Ð¸Ð´":5042,"ĠÑįÐºÐ¾Ð½Ð¾Ð¼Ð¸ÐºÐ°":5043,"ĠÐ±ÐµÑĢÑĸ":5044,"ÑĤÐ¾Ð¿":5045,"ĠÑĪÐ°ÑĢÑĥÐ°ÑĪÑĭÐ»ÑĭÒĽ":5046,"ĠÐºÐ¾ÑĢÐ¿":5047,"Ð½Ð¸ÑĤ":5048,"ĠÑģÑĢÐµÐ´ÑģÑĤÐ²Ð°":5049,"Ð´Ð°ÑĤ":5050,"ĠÐ¿ÑĢÐ¾ÑħÐ¾Ð´":5051,"Ð¾Ð²Ð°Ð½Ð¸Ð¹":5052,"ĠÐ¸Ð½Ð½Ð¾Ð²":5053,"ĠÐ½ÐµÐ¹":5054,"ĠÐ¡ÑĢÐµÐ´":5055,"ÑĤÐ°Ð¹Ð´Ñĭ":5056,"ĠÑģÓ©Ð·Ð´ÐµÑĢ":5057,"ĠÒĽÑĭÑĪ":5058,"Ð¡ÐŁ":5059,"ÑģÑĤÐµÐ¼ÐµÐ»ÑĸÐº":5060,"iÐ»":5061,"ÐºÑĤÑĥ":5062,"ĠÐ³ÐµÐ½":5063,"ĠÐĸÐ°Ò£Ð°":5064,"Ð½Ð°Ð´":5065,"ÑĭÑģÑĥ":5066,"ĠÑĤÑĢÐµÑĤÑĮ":5067,"ĠÑĤÐ°ÑĢÐ¸ÑħÑĭ":5068,"ĠÒĽÐ°Ð·ÑĸÑĢ":5069,"ĠÐ²Ð¸ÑĢÑĥ":5070,"ĠÐ¿Ð¾Ð»Ð¸ÑĨÐ¸Ñı":5071,"ÐºÑĸÑģÑĤÐ°Ð½":5072,"ĠÐ¿ÑĢÐ¾Ð³ÑĢÐ°Ð¼Ð¼":5073,"ĠÒĽÐ¾Ñİ":5074,"ĠÐ¿ÑĢÐ¾ÑĦÐµÑģÑģÐ¸Ð¾Ð½":5075,"ou":5076,"ĠÐĲÑģ":5077,"ĠÐ¡Ð°Ñĥ":5078,"ĠÐ½Ð°Ð³":5079,"ĠÐºÑĢ":5080,"Ð¸Ð¼ÐµÑĢ":5081,"Ð¼Ð¾ÑĤÑĢÐµÑĤÑĮ":5082,"ÐµÑĤÐµ":5083,"ĠÐ¿ÑĢÐ¾Ð¿":5084,"ĠÒ®ÐºÑĸÐ¼ÐµÑĤ":5085,"ĠÓĻÐ»Ñĸ":5086,"Ð´ÑĢÐ°Ð²":5087,"ÐŀÐł":5088,"ĠÐĸÐ°Ð»Ð¿Ñĭ":5089,"ÐµÑĩÐµ":5090,"ĠÐĿÐ°Ñĥ":5091,"ĠÐĳÑĸÐ»ÑĸÐ¼":5092,"ĠÐĺÐ½ÑĤÐµÑĢ":5093,"ĠÐ¿ÑĢÐ°Ð²Ð¸ÑĤÐµÐ»ÑĮÑģÑĤÐ²Ð°":5094,"ĠÐ°Ð²ÑĤÐ¾Ð¼Ð¾Ð±Ð¸Ð»":5095,"ĠÐ±ÐµÐ¹Ð½":5096,"ĠÐ¶Ð°ÒĽÑĭÐ½":5097,"ÑĳÑĤ":5098,"ĠÑįÐºÐ¾Ð½Ð¾Ð¼Ð¸Ðº":5099,"ec":5100,"Ð¸ÐµÑģÑı":5101,"ĠÒĽÒ±ÒĽÑĭÒĽÑĤÑĭÒĽ":5102,"ĠÐ¶Ð°ÑģÐ°ÒĵÐ°Ð½":5103,"Ġat":5104,"ÐºÑĢÐ°ÑĤ":5105,"Ð¸ÑĤÐµÐ»ÑĮÐ½ÑĭÐµ":5106,"ĠÐ´Ð¾Ð³Ð¾Ð²Ð¾ÑĢ":5107,"act":5108,"ĠÐłÐ°Ñģ":5109,"ÑģÑĥÐ»ÑĤÐ°Ð½":5110,"ĠÐĲÐ»Ð°Ð¹Ð´Ð°":5111,"ĠÑįÐºÑģÑĤ":5112,"Ð¼Ð°ÒĽÑĤÐ°":5113,"ÑĤÐ¾Ð½":5114,"ÒĵÑĥ":5115,"Ð½Ð¸ÑĨÑĥ":5116,"ĠÒĽÐ°ÑĢÐ°Ð¶":5117,"Ġ000":5118,"ÑĢÐ¾Ð»ÑĮ":5119,"ĠÐĲÐ»ÑĮ":5120,"ĠÐ³Ð°ÑĢ":5121,"ÑģÐµÐ»Ðµ":5122,"ÒĽÐ°ÑĪ":5123,"ĠÑįÐºÑģÐ¿ÐµÑĢ":5124,"ĠÐłÐ°Ð·":5125,"ĠÐµÑģÐµÐ±":5126,"ĠÐ¿ÑĢÐ¾Ð´ÑĥÐºÑĤ":5127,"ÐµÐ¹Ð½ÐµÑĤ":5128,"ĠÐ¦ÐµÐ½ÑĤÑĢ":5129,"ÑĭÑģÑĤÑĭÑĢÑĥ":5130,"ÑĢÑĤÐ°Ð»ÑĭÒĽ":5131,"ÑĢÐ°Ð¼Ð¼":5132,"ÐµÐ½ÑĤÑĭ":5133,"https":5134,"ĠÑĸÑĢ":5135,"ÑİÑīÐ¸Ð¹":5136,"ĠÐ¸Ð½Ð²ÐµÑģÑĤ":5137,"ary":5138,"ĠÒļÑĭÐ·ÑĭÐ»":5139,"Ġwindow":5140,"ĠÐºÐ»Ð°ÑģÑģ":5141,"ĠÐ¢Ð°Ð¼":5142,"ĠÐ¾Ð±Ð»ÑĭÑģÑĭÐ½Ð´Ð°":5143,"Ð°ÐºÐ¾Ð²":5144,"ĠÑĤÑĢÐ°Ð²":5145,"ĠÑģÐ»ÑĥÑĩÐ°ÐµÐ²":5146,"ÓĻÐ¼":5147,"ĠÐ²Ð²ÐµÐ´":5148,"ĠÑĥÓĻ":5149,"ĠÐ±Ð¾Ð»Ð°":5150,"Ð¸Ð´Ð°":5151,"ÐĺÐ½":5152,"ĠÒĽÐ°ÑĢÐ°":5153,"ÑģÑıÑĤ":5154,"ĠÐ¼ÐµÑĢÐ·ÑĸÐ¼":5155,"ÑģÑĤÐ²ÑĥÑİÑĤ":5156,"ĠÐ¿ÑĢÐ¸ÑħÐ¾Ð´":5157,"ĠÐºÐµÐ»ÑĤÑĸ":5158,"ĠÐ¡Ð°ÑĢ":5159,"ĠÒ±ÒĽ":5160,"ĠÑĥÑģÐ»Ð¾Ð²Ð¸ÑıÑħ":5161,"ĠÐ¾ÑĢÐ³Ð°Ð½Ð¾Ð²":5162,"Ð¾Ð²Ð¾Ð»ÑĮ":5163,"iÐ½iÒ£":5164,"Ġ@":5165,"ĠÓ©ÑĤÑĥ":5166,"ĠÐŁÑĥÑĤ":5167,"lement":5168,"ĠÑĤÑĭÐ½":5169,"ĠÑĤÒ±ÑĢÐ°ÑĤÑĭÐ½":5170,"ory":5171,"ĠÐ½Ð°Ð¸Ð±":5172,"ĠÑģÑĤÐ¾ÑĢÐ¾Ð½":5173,"Ð³ÑĢÐ°ÑĦ":5174,"Ð°Ð»ÑĮÐ½ÑĭÐ¼":5175,"ĠÑģÑĦÐµÑĢÐµ":5176,"ĠÐ´ÓĻÐ»ÐµÐ»":5177,"ÑĤÐµÑĢÑĸÐ½Ðµ":5178,"49":5179,"Ð¼Ð¾Ñģ":5180,"ĠÐ´Ð¸Ð¿Ð»Ð¾Ð¼":5181,"Ð¼ÐµÐ³ÐµÐ½":5182,"ick":5183,"ÑĩÐ¸Ðº":5184,"ĠÐ°Ð»Ð¼Ð°Ð¹":5185,"ĠÐ½Ð°Ð´Ð¾":5186,"ĠÑĨÐµÐ»ÑĮ":5187,"ĠÐ¼Ð°Ò£ÑĭÐ·Ñĭ":5188,"????":5189,"ÑİÑīÐ¸Ðµ":5190,"ÑĥÑĸÐ½Ðµ":5191,"Ð°Ð½Ð¸Ñİ":5192,"ĠÐ´ÐµÐ½ÑģÐ°ÑĥÐ»ÑĭÒĽ":5193,"ÑĤÐ°ÑĤ":5194,"ĠÐ½Ð¾Ð²ÑĭÐµ":5195,"ĠÐ±Ð°Ð½ÐºÐ¾Ð²":5196,"ÐĳÐ°ÑĢ":5197,"ÐĨÐĨ":5198,"ÑĥÐ»Ñĸ":5199,"ĠÑĤÐ¾Ð³Ð´Ð°":5200,"ĠÐ¿ÑĢÐ¸Ð¾Ð±":5201,"ĠÐºÐµÑģ":5202,"ĠÑħÐ°Ð»ÑĭÒĽÑĤÑĭÒ£":5203,"ÓĻÑģÑĸÐ±Ð¸":5204,"ÒĽÑĭÑĢ":5205,"ĠÑģÐ°Ð»ÑĭÑģÑĤÑĭÑĢ":5206,"ĠÐºÐ¾Ð½ÑĦ":5207,"07":5208,"Ġ2010":5209,"ĠÑĤÓ©ÑĢÑĤ":5210,"ÑĥÑİÑīÐ¸Ñħ":5211,"ĠÐºÐ¾Ð¼Ð¿ÑĮÑİÑĤÐµÑĢ":5212,"ĠÐ¼Ò±Ð½Ð´Ð°Ð¹":5213,"ĠÐ½Ð°Ð½":5214,"iÐ¿":5215,"ĠÒĽÑĭÐ·Ð¼ÐµÑĤÑĸÐ½":5216,"ÑĭÒĵÑĭÐ½ÑĭÒ£":5217,"Ð»ÐµÐ³":5218,"ĠÑģÐ¾Ð±ÑģÑĤÐ²ÐµÐ½":5219,"Ð±ÐµÑĤ":5220,"ĠÐ·Ð°ÑĢÐµÐ³Ð¸ÑģÑĤÑĢÐ¸":5221,"ÑĥÑīÐµÐ³Ð¾":5222,"ĠÐ±Ó©Ð»ÑĸÐ³Ñĸ":5223,"Ð¾ÑĢÑĥÐ¶":5224,"ĠÐĶÐ°":5225,"ĠÑģÑĤÐ°ÑĤÐ¸ÑģÑĤ":5226,"Ð±Ð°ÑĢ":5227,"ÒĵÐ°ÑĢ":5228,"ÑĨÐ¸Ð¾Ð½Ð½ÑĭÑħ":5229,"ĠÐ½Ð¸Ñĩ":5230,"ĠÑħÐ¾Ð´":5231,"ĠÐ¾Ð¿ÑĥÐ±Ð»Ð¸Ðº":5232,"ÑĢÐµÐ»":5233,"Ð°Ð»Ð°Ð½":5234,"ĠÑģÑĢÐ¾":5235,"ĠÐ¼ÓĻÐ´ÐµÐ½Ð¸":5236,"ÑĤiÐº":5237,"ÑĸÐºÑĤ":5238,"Ġch":5239,"ĠÑĥÑĢÐ¾Ð²ÐµÐ½ÑĮ":5240,"ĠÐ´Ð¾ÑģÑĤÐ°ÑĤ":5241,"ĠÐ¼ÓĻÑģÐµÐ»Ðµ":5242,"ĠÒĽÑĭÐ·Ð¼ÐµÑĤÐºÐµÑĢ":5243,"ĠÐ²ÐµÑīÐµ":5244,"ĠÑĪÐ°ÒĵÑĭÐ½":5245,"ĠÑģÑĩÐ¸ÑĤÐ°ÐµÑĤ":5246,"Ð£ÐĽ":5247,"ĠÐ·Ð°ÑģÑĤ":5248,"ĠÑģÑĤÐ°Ð»Ð°":5249,"Ð¸ÐµÐ²Ð°":5250,"ff":5251,"Ð°ÑĤÐ¸Ð²ÑĤÑĸÐº":5252,"29":5253,"ĠÐ¼ÐµÑĤÑĢÐ¾Ð²":5254,"ÑĭÒ£ÒĵÐ°Ð¹":5255,"ĠÐºÐ»ÐµÑĤ":5256,"ĠÐ¿ÑĥÐ½ÐºÑĤ":5257,"ĠÑĤÐµÐ¿ÐµÑĢ":5258,"ĠÐ¿ÑĢÐ¾ÑĦÐµÑģÑģ":5259,"ĠÒ¯Ð·Ð´ÑĸÐº":5260,"ĠÐ¼Ð°ÒĽÐ°Ð»":5261,"Ð²Ð¾Ð±":5262,"ĠÑĤÓĻÑĢÑĤÑĸÐ¿":5263,"ÑģÑĤÐµÑĢÑĸ":5264,"ĠÐĿÐ¾Ð²Ð¾ÑģÑĤÐ¸":5265,"ĠÐºÐ¾Ð¼Ð¼ÐµÐ½":5266,"ĠÐ¿Ð¸ÑĤ":5267,"ĠÐ¿ÐµÑĢÐµÐ³":5268,"ĠÐ¶Ð°Ð¹Ð»Ñĭ":5269,"77":5270,"Ð±Ð¾":5271,"ĠÐµÐ³ÐµÑĢ":5272,"Ġtr":5273,"Ð±ÑĭÑĢ":5274,"ÐľÒ±":5275,"wit":5276,"ĠÑĩÐµÐ³Ð¾":5277,"esti":5278,"ĠÐ¿Ð¾ÑĢÑıÐ´ÐºÐ°":5279,"ĠÐ¢ÐŀÐŀ":5280,"ĠÐ¿Ð¸ÑĪÐµÑĤ":5281,"ĠÐºÐµÐ»ÐµÑĤÑĸÐ½":5282,"ĠÐĲÐ»Ð¼Ð°ÑĤÐ¸Ð½ÑģÐºÐ¾Ð¹":5283,"Ġ36":5284,"ĠÓĻÐ´ÐµÐ±Ð¸ÐµÑĤ":5285,"ĠÐ¿Ð¾Ð´Ð¾Ð·ÑĢÐµÐ²":5286,"Ð³Ð°ÑĢ":5287,"ÑĬÐµÐ¼":5288,"Ð¢Ðķ":5289,"ĠÐ½ÓĻÑĤÐ¸Ð¶ÐµÑģÑĸÐ½Ð´Ðµ":5290,"ÐĶÐĲ":5291,"ĠÑĢÐ°Ð±Ð¾ÑĤÐµ":5292,"ĠÑĤÐµÑĢÑĢÐ¾ÑĢ":5293,"ĠÐµÐ»Ð´ÑĸÒ£":5294,"ĠÐ¼ÐµÑģÑıÑĨÐµÐ²":5295,"05":5296,"ÐŃÐ¡":5297,"09":5298,"ÑĨÐµÐ½ÑĤ":5299,"ĠÐĳÒ¯Ð³ÑĸÐ½":5300,"ĠÐ¿ÑĢÐ¸Ð·Ð½":5301,"Ð¸Ð²Ð°Ð»":5302,"Ð¾ÑĨÐ¸":5303,"ĠÐ³ÑĢÐ°ÑĦ":5304,"Ð³Ð»":5305,"ĠÐ¡ÐľÐĺ":5306,"Ð°Ð¹Ñĭ":5307,"ĠÐºÐ»Ð¸Ð½":5308,"ge":5309,"ÑĦÐ¾ÑĢ":5310,"ĠÐ¤ÐµÐ´ÐµÑĢ":5311,"ĠÐºÐ¾ÑĤÐ¾ÑĢÐ¾Ðµ":5312,"ĠÐ¿Ð°ÑĢÑĤÐ¸Ð¸":5313,"ĠÐºÐµÒ£ÐµÑģ":5314,"ĠÑĢÐ°Ð±Ð¾ÑĤÐ°ÑĤÑĮ":5315,"ĠÐ¿ÐµÑĢÐµÑģ":5316,"ÒĽÒ±Ð»":5317,"ĠÐ¢Ð°Ð»":5318,"ĠÐĲÐ»Ð»Ð°":5319,"ĠÑĦÐµÑĢ":5320,"ÐµÐ²Ð¾Ð¹":5321,"ĠÐ¿ÑĢÐ¾Ð´ÑĥÐºÑĨÐ¸Ð¸":5322,"ĠÒļÑĭÑĤÐ°Ð¹":5323,"----":5324,"ĠÐºÐ¾Ð½ÑĦÐµÑĢÐµÐ½":5325,"ĠÑĢÐ¾Ð¶":5326,"Ð»ÑĸÐ³ÑĸÐ½ÑĸÒ£":5327,"ÐµÑĢÐ¾Ð²":5328,"ĠÐ¿Ð¾ÑģÐ»ÐµÐ´Ð½Ð¸Ðµ":5329,"ĠÐ¡Ð¾Ð³":5330,"ĠÒĽÐ°ÒĵÐ°Ð·":5331,"ĠÑĢÒ±ÒĽ":5332,"ĠÑĢÐ°ÑģÐ¿Ð¾Ð»Ð¾Ð¶":5333,"ÐµÐ»ÐµÑĢÑĸÐ½ÑĸÒ£":5334,"ĠÑĥÐ²ÐµÑĢ":5335,"ĠÑĢÐµÐ±ÐµÐ½ÐºÐ°":5336,"ĠÐ²Ð¸Ð·":5337,"ĠÐ¼Ð°ÑĪÐ¸Ð½":5338,"ĠÑģÐ°Ð»Ñĥ":5339,"ÐµÐ½Ð½Ð¾ÑģÑĤÐ¸":5340,"ĠÑģÐ¾Ð±Ð¾Ð¹":5341,"ĠÐ±Ò¯ÐºÑĸÐ»":5342,"ya":5343,"ĠÑĤÓĻÑĢÐ±Ð¸Ðµ":5344,"ĠÐ½Ð°Ð»Ð¸Ñĩ":5345,"ÐĿÐ°":5346,"ĠÐ¾ÑĢÐ½Ñĭ":5347,"ĠÑĤÐµÐ¿ÐµÑĢÑĮ":5348,"ĠÐ±Ð°ÑĤÑĭÑĢ":5349,"ÑĢÐ¸Ð¼ÐµÑĢ":5350,"ĠÑĤÐ°ÑģÑĭÐ¼Ð°Ð»":5351,"ĠÒĽÐ°ÑĢÐ°ÒĵÐ°Ð½Ð´Ð°":5352,"ÒĵÐ°Ð½Ñĭ":5353,"ÑĤÐµÐ³":5354,"ĠÓ©ÑģÑĸÐ¼Ð´ÑĸÐº":5355,"36":5356,"ĠÐ¡ÓĻ":5357,"ĠÑĪÐµÐºÑĤÐµ":5358,"ĠÐ½Ð¾Ð²ÑĭÐ¹":5359,"ĠÐ²ÑĢÐ°Ñĩ":5360,"ĠÐºÐ¾ÑĤÐ¾ÑĢÐ¾Ð¼":5361,"Ð°Ð½Ð´ÐµÐ¼":5362,"ĠÐ¼Ð¼":5363,"news":5364,"ĠÑĭÒĽÐ¿Ð°Ð»":5365,"Ð¾ÑĢÐ³Ð°Ð½":5366,"ĠÐĶÐ¸":5367,"ĠÑĨÐµÐ»Ð¾Ð¼":5368,"ĠVesti":5369,"ÑıÑĩÐ¸":5370,"ĠÑĪÑĭÒĵÐ°ÑĢÑĥ":5371,"ĠÐ¿Ð¾ÑģÑĤÑĢÐ¾":5372,"Ð°ÑĤÑĭÐ½ÑĭÒ£":5373,"ĠÑĪÑĭÒĽÑĤÑĭ":5374,"Ð²ÑĢÐ°Ñī":5375,"Ġif":5376,"ount":5377,"Ð¸Ð¼ÑĭÐ»":5378,"ĠÐ½Ð¸Ð·":5379,"ĠÐ²Ð¸ÑĨÐµ":5380,"ÐµÐºÑĤÑĸÒ£":5381,"ĠÒĽÒ±ÑĢÐ°Ð¹Ð´Ñĭ":5382,"Ð¸ÑĢÐ¾Ð²Ð°Ð»Ð¸":5383,"ĠÐĲÐ·Ð¸Ñı":5384,"ÑĮÐµÐ·":5385,"Ð°ÑĤÑĤÐ°ÑĢÑĭ":5386,"ĠÐĲÐ½Ð´":5387,"ĠÐĴÐ¾ÑģÑĤ":5388,"ÑģÐ¿ÐµÐºÑĤÐ¸Ð²":5389,"Ð¬":5390,"ĠÑģÐ¿ÑĢÐ°Ð²":5391,"ĠÑģÐ²Ð¾ÐµÐ¼":5392,"ÑģÐ¾Ð¼":5393,"ĠÐ¿Ð¾Ð¼Ð¾ÑīÑĮ":5394,"ÑģÑĸÑĢÐµÑģÐµ":5395,"ĠÐ·ÐµÑĢ":5396,"ĠÐ´ÐµÑģÑıÑĤ":5397,"ĠÑĤÐ°Ñģ":5398,"Ġhe":5399,"Ð°ÑĤÐ¸":5400,"Ð®":5401,"ĠÐ°ÑĢÐ°":5402,"ĠÐ¿ÑĢÐµÐ´Ð»Ð°Ð³":5403,"ĠÐ¼ÐµÑĤÐ°Ð»Ð»":5404,"ĠÐŁÐµÑĤ":5405,"ĠÐ¾Ð¶Ð¸Ð´Ð°ÐµÑĤÑģÑı":5406,"ÑĥÑĢÑĭÐ·":5407,"ĠÓ©Ðº":5408,"io":5409,"Ð°ÑģÑĭÐ½Ð°Ð½":5410,"ĠÐ½Ð°ÑĥÑĢÑĭÐ·":5411,"witter":5412,"ĠÐĲÐºÑĤ":5413,"ĠÐ¿ÑĢÐ¸Ðµ":5414,"ÒĵÑĭÐ»":5415,"ÐµÐºÑĤÐµÑģ":5416,"ÐºÑĤÑĸÒ£":5417,"ĠÐ¶Ð¸ÑĤÐµÐ»ÐµÐ¹":5418,"ĠÓ©ÑĤÐºÑĸÐ·Ñĥ":5419,"ĠÑģÑĤÐ°Ð±":5420,"ĠÐ±ÐµÑĢÑĸÐ»ÐµÐ´Ñĸ":5421,"Ð¼Ð¾ÑĤÑĢÑı":5422,"ĠÐ±Ð»Ð°Ð³Ð¾Ð´Ð°ÑĢ":5423,"ĠÐ´Ð¾Ð¿Ð¾Ð»Ð½Ð¸ÑĤÐµÐ»ÑĮ":5424,"ĠÐ¸Ð·Ð²ÐµÑģÑĤÐ½Ð¾":5425,"ib":5426,"ĠÐ´Ð°Ð½Ð½ÑĭÐµ":5427,"ÒĽÑĭÐ¼":5428,"Ð¸Ð´ÐµÐ¼":5429,"ĠÑĢÐ°Ð·Ð²Ð¸ÑĤÐ¸Ðµ":5430,"03":5431,"pp":5432,"ĠÐ±Ð»Ð¸Ð¶Ð°Ð¹":5433,"ÑĸÑĢÑĥ":5434,"ÑĭÐ¼ÑĭÐ·Ð´ÑĭÒ£":5435,"Ð¸Ð¼Ð°ÑĢ":5436,"ĠÐºÓ©ÑĢÑģÐµÑĤÐµÐ´Ñĸ":5437,"ĠÐ±ÓĻÑĢÑĸ":5438,"Ð¿Ð°Ð½Ð¸Ñı":5439,"ĠÐ±Ð¸ÑĢ":5440,"Ð±Ð°ÑģÑĤ":5441,"ĠÑĤÐ°Ð¹":5442,"Ð½Ð°Ð¼Ð°":5443,"ĠÐļÐ¾Ð»":5444,"ÑĪÐ°ÒĵÐ°Ð½":5445,"Ð°Ð±Ñĭ":5446,"ĠÓ©Ð½ÐµÑĢÐº":5447,"ĠÐ·Ð°Ò£Ð½Ð°Ð¼":5448,"ĠÐ´Ð°Ð½Ð½ÑĭÑħ":5449,"ĠÐ±Ð»Ð¸Ð·":5450,"ĠÑĢÐ°ÑģÑĪÐ¸ÑĢ":5451,"ĠÑĤÒ±ÑĤÑĭÐ½":5452,"ÐµÑģÑĤÑĸÐº":5453,"ĠÐ²ÑĭÐ¿ÑĥÑģÐº":5454,"ĠÐ±Ð¾Ð»ÑģÑĭÐ½":5455,"ÐĲÐļ":5456,"Ð°ÑĤÑĥÑĢÑĭ":5457,"ĠÐ¢Ð¾Ð»":5458,"ĠÐ¸Ð´ÐµÑĤ":5459,"Ð¾Ð»Ð½ÐµÐ½":5460,"Ð¿Ð¾Ð´":5461,"cont":5462,"ĠÐ¿ÑĢÐµÐ´Ð¿Ð¾Ð»":5463,"ĠÓ©ÑĤÐµÐ´Ñĸ":5464,"ĠÐ±Ò¯Ð³ÑĸÐ½Ð³Ñĸ":5465,"ĠÒĽÒ±ÑĢÑĭÐ»ÑĭÑģ":5466,"ÑĢÑıÐ´":5467,"ÑĩÐµÐ¼":5468,"ĠÐ¿ÑĢÐ¸Ð²Ð»ÐµÑĩ":5469,"ard":5470,"ÑĤÐµÐº":5471,"ĠÐ¼Ð¾Ð½Ð¸ÑĤÐ¾ÑĢ":5472,"Ð»ÐµÐ´Ð¶":5473,"ĠÐ¿ÑĢÐ¾Ð±Ð»ÐµÐ¼Ñĭ":5474,"ĠÐ¾Ð±ÑĭÑĩ":5475,"ĠÐĿÑĥÑĢÑģÑĥÐ»ÑĤÐ°Ð½":5476,"ĠÑģÐ¸ÑĤÑĥÐ°ÑĨÐ¸Ñı":5477,"ĠÐ¼Ð¸Ð½Ð¸ÑģÑĤ":5478,"ĠÐ¿ÑıÑĤÑĮ":5479,"ĠÐ¸Ð·Ð¼ÐµÐ½ÐµÐ½Ð¸Ñı":5480,"ĠÐºÐ°Ð¶Ð´ÑĭÐ¹":5481,"ĠÐ±ÑĸÐ»Ð´Ñĸ":5482,"ÑĢÐ°Ð»Ð¸":5483,"Ġ90":5484,"ĠÐºÑĥÓĻ":5485,"ÑģÐºÐ¾Ð¼Ñĥ":5486,"ĠÑĢÐµÐ¹":5487,"ĠÐ¼ÓĻÑģÐµÐ»ÐµÐ»ÐµÑĢÑĸ":5488,"ĠÑģÐ´ÐµÐ»Ð°ÑĤÑĮ":5489,"Ð¸ÑĤÐµÐ»ÐµÐ¼":5490,"ĠÐ¿ÐµÐ½ÑģÐ¸Ð¾Ð½":5491,"ÐĲÐ¹":5492,"ĠÐ¶Ð¸Ð·Ð½ÑĮ":5493,"ĠÐ¼ÐµÑģÑĤÐ°":5494,"ĠÑĦÑĥÐ½ÐºÑĨÐ¸Ñı":5495,"Ð³ÐµÐ´":5496,"ÑĤÐ°Ð½Ñĥ":5497,"ĠÐļÑĥ":5498,"ÑħÐ°ÑĤ":5499,"Ð¾Ñĥ":5500,"ÑĪÑĸÐ»ÑĸÐ³Ñĸ":5501,"ĠÐĲÑħÐ¼ÐµÑĤ":5502,"Ð²Ð°Ð»Ð¸":5503,"ams":5504,"Ð¸Ð¼Ð¸ÑĢ":5505,"ĠÐ¿Ð¾Ð»Ñĥ":5506,"ĠÐ¼Ð½ÐµÐ½Ð¸Ñİ":5507,"Ð´ÐµÐ³ÐµÐ½":5508,"Ð±Ð¸ÑĢÐ°":5509,"ĠÐ´Ð²Ðµ":5510,"ĠÑĢÐ°Ð·Ð°":5511,"ĠÒ±ÒĵÑĭÐ¼":5512,"Ò£ÑĤÒ¯ÑģÑĤÑĸÐº":5513,"ĠÐ°ÑĤÐ°Ð»":5514,"ĠÐ²Ð¾Ð·Ð´Ñĥ":5515,"ÑĤÐºÐµÐ½":5516,"Ð´ÑĥÐ¼":5517,"ĠÐ²ÑĭÑĪÐµ":5518,"ĠÐ³Ð¾Ð»Ð¾Ñģ":5519,"ĠÐĿÐ°ÑĢ":5520,"Ð½Ð¸ÑĨÑĭ":5521,"ĠÑģÐ¾ÑģÑĤÐ°Ð²Ð¸Ð»":5522,"ÐµÐ»ÐµÑĢÐ´Ñĸ":5523,"Ð´ÑĭÐ¼":5524,"ĠÑĢÐµÑĦÐ¾ÑĢÐ¼":5525,"Ð°ÑĤÐ¾Ð¼":5526,"ÑĩÐ°ÑģÑĤ":5527,"ĠÐ½Ð¸Ð¼":5528,"ĠÑĦÐ¸Ð»Ð¸":5529,"ĠÐ»Ð¾Ð³":5530,"ĠÒ¯Ð¹ÑĢÐµÐ½":5531,"ĠÑģÐ²ÑıÐ·Ð°Ð½":5532,"ĠÒ¯Ð»Ð³Ñĸ":5533,"ĠÑĥÑĩÐ°":5534,"ÐºÐ¾Ð³Ð¾":5535,"ĠÑĤÑĭÑģÑıÑĩÐ¸":5536,"ĠÒĽÒ±Ð¶Ð°ÑĤ":5537,"Ð¸ÑĢÑĥÐµÑĤ":5538,"ÑıÑĤÐ¸Ñı":5539,"ĠÐ¶ÐµÐ»ÐµÐ·":5540,"ĠÐ±Ð¸Ð·Ð½ÐµÑģÐ°":5541,"ĠÐ±Ð°ÒĵÑĭÑĤÑĤÐ°Ð»ÒĵÐ°Ð½":5542,"ĠÐ±ÓĻÑĢ":5543,"ĠÑħÐ¾Ñĩ":5544,"ĠÐķÐ²ÑĢÐ¾Ð¿":5545,"ÑģÐ¾Ð»":5546,"ĠÑĨÐ²ÐµÑĤ":5547,"ÐºÐ¾Ð¿":5548,"Ð»Ð°ÒĵÐ°Ð½":5549,"ĠÑģÑĥÐ´ÐµÐ±":5550,"Ð¶Ñĥ":5551,"Ġ33":5552,"ĠÐ²ÑĭÐ±Ð¾ÑĢ":5553,"ĠÐ»Ð¸ÑĤ":5554,"ĠÐ¿Ð¾ÑģÑĤÑĢÐ°Ð´Ð°Ð²":5555,"ĠÒĽÑĭÑĢÐºÒ¯Ð¹":5556,"ÑĸÐ¼ÑĸÐ·Ð´ÑĸÒ£":5557,"ĠÐ¿ÑĥÐ½Ðº":5558,"Ð¾ÑıÑĤ":5559,"Ð´Ð°ÑĢÐ´Ð°":5560,"ĠÑĥÐºÑĢÐ°":5561,"ĠÐ¼Ð¸Ð½Ð¸ÑģÑĤÑĢÐ»ÑĸÐ³Ñĸ":5562,"ÐºÑĨÐ¸Ð¸":5563,"ĠÐ½Ð°ÐºÐ°Ð·":5564,"ÐµÐºÐµÐ»":5565,"ÐµÐ¹ÑĤÑĥ":5566,"ĠÐ¸ÑģÐ¿Ð¾Ð»Ð½":5567,"Ð¹ÑĢ":5568,"ĠÐĶÐ°Ð½":5569,"ÑģÐºÐ¾ÑĢ":5570,"ĠÐ¾ÑĤÐ½Ð¾Ñģ":5571,"Ð°Ð½Ð¸ÐµÐ¼":5572,"ĠÐ¼Ð°Ð¼ÑĭÑĢ":5573,"ell":5574,"ĠÐ½Ð¸ÐºÐ°Ðº":5575,"ĠÐ¾ÑĢÑĭÐ½Ð´Ð°Ñĥ":5576,"ĠÐ¾Ð´Ð½Ð°ÐºÐ¾":5577,"Ð³ÑĸÑĤ":5578,"(\"":5579,"ĠÐľÐ°Ð¹":5580,"ĠÐ¾ÑĤÐºÑĢÑĭ":5581,"Ð½Ð¸ÐºÐ°Ð¼":5582,"ĠÑģÑĥÐ±ÑĬÐµÐºÑĤ":5583,"ĠÐºÑĸÐ¼":5584,"ĠÒĽÐ¾Ð½Ð°ÒĽ":5585,"ĠÐºÒ¯ÑĢÐ´ÐµÐ»Ñĸ":5586,"58":5587,"06":5588,"ian":5589,"ĠÑĢÐ¸ÑģÐº":5590,"ĠÐºÑĥÐ¿":5591,"Ð±ÐµÐºÐ¸":5592,"ĠÑĤÐµÑĢÐ¼Ð¸Ð½":5593,"ĠÐ¸Ð½ÑĤÐµÑĢÐ²":5594,"ĠÐ±Ð¾Ñı":5595,"ĠÐ°ÑĤÑĭ":5596,"Ð¼ÑĭÑģ":5597,"ĠÐ¾ÑĤÐºÐ°Ð·":5598,"type":5599,"Ó©Ð¿":5600,"Ð¶Ð°ÑĤ":5601,"ĠÐ¡ÐµÐ²ÐµÑĢ":5602,"ĠÑģÐ»ÑĥÐ¶Ð±Ñĭ":5603,"Ġpar":5604,"ĠÐ±Ð°ÒĵÐ´Ð°ÑĢÐ»Ð°Ð¼Ð°ÑģÑĭ":5605,"ĠÐ¿Ð¾Ð»Ð½Ð¾ÑģÑĤÑĮÑİ":5606,"ĠÐ°Ð´Ð°Ð¼Ð´Ð°ÑĢÐ´ÑĭÒ£":5607,"itle":5608,"ĠÐ°ÑĤÐ°Ð»ÒĵÐ°Ð½":5609,"ĠÐ¿Ð¾Ð¼Ð¾ÑīÑĮÑİ":5610,"ĠÑĢÑĭÐ½ÐºÐ°":5611,"ĠÐ¾Ñħ":5612,"Ð½Ð°ÑĤ":5613,"Ð¼Ð°ÒĵÑĭÐ½Ð´Ð°":5614,"ĠÑģÑĥÐ¼Ð¼Ñĥ":5615,"ĠÐ½Ð°ÑĩÐ°Ð»ÑĮ":5616,"Ð½ÐµÐº":5617,"ĠÐ¼ÐµÐ½ÑĸÒ£":5618,"ĠÐ«":5619,"ĠÐ²Ð°Ð»ÑİÑĤ":5620,"ĠÐĽÐ¸":5621,"ÑĢÑĭÐ·":5622,"ĠÑĩÐ°ÑģÐ¾Ð²":5623,"ĠÐ³Ð¾Ð»Ð¾Ð²":5624,"ĠÐºÐ°ÑĦ":5625,"ĠÐ¾ÑĤÐ½Ð¾ÑĪÐµÐ½Ð¸Ñı":5626,"ĠÒĽÐ°Ð½Ð°":5627,"Ð»ÐµÐ½Ð½ÑĭÑħ":5628,"ĠÑĪÐµÐ±":5629,"Ð°Ð´Ðµ":5630,"ĠÑĤÐµÐºÑģÐµÑĢÑĥ":5631,"ĠÐ¾Ð´Ð½Ð¾":5632,"ĠÐ¿ÑĢÐ°Ð²Ð°":5633,"ĠÐ³Ð¾ÑģÑĥÐ´Ð°ÑĢÑģÑĤÐ²ÐµÐ½Ð½ÑĭÑħ":5634,"Ð¸ÐºÐ»":5635,"ĠÐºÐµÐ½":5636,"ĠÑĢÑĭÐ½ÐºÐµ":5637,"ÐµÑĢÑĤÐ²":5638,"ĠÐ¶Ð¸Ñĸ":5639,"ĠÒĽÐ¾ÑģÐ°":5640,"Ð¾ÑģÐ¾ÑĦ":5641,"ĠÐ¼ÐµÑĤÑĢ":5642,"ÑģÑĤÐ²ÐµÐ½Ð½ÑĭÐ¹":5643,"Ð¸ÑĩÐµÑģÐºÑĥÑİ":5644,"ĠÐ¶Ð°Ò£Ð°Ð»ÑĭÒĽ":5645,"ĠÐ¸Ð½ÑģÑĤÐ¸ÑĤÑĥ":5646,"ĠÐ±Ð°Ð½ÐºÐ°":5647,"ĠÐºÐµÑĤÑĤÑĸ":5648,"ĠÐ²ÐµÑĩ":5649,"ĠÐ±ÑĸÐ»Ñĥ":5650,"Ð»Ð°ÑģÐ½Ð¾":5651,"ÑĤÐµÑģÑĤ":5652,"ÑĭÒĵÐ°Ð½":5653,"Ð¸ÑģÑĤÐ¾Ð²":5654,"ĠÐĲÐ»ÐµÐºÑģÐ°Ð½Ð´ÑĢ":5655,"ĠÐ°Ð´Ð¼Ð¸Ð½Ð¸ÑģÑĤÑĢÐ°ÑĤÐ¸Ð²":5656,"Ð´Ð°ÒĽ":5657,"ĠÑĨÐµÐ½ÑĤÑĢÐ°":5658,"ĠÐ¶ÑĥÑĭÒĽ":5659,"Ð°ÑĤÑĥÑĢ":5660,"Ð¶ÑĭÐ»":5661,"ĠÐ»Ð¸Ð±Ð¾":5662,"ĠÑĥÐ´Ð°Ð»Ð¾ÑģÑĮ":5663,"Ð°Ð»Ð°Ð¼":5664,"ĠÐ¶Ò±Ð¼ÑĭÑģÑĤÐ°ÑĢÑĭ":5665,"Ð¾Ð½ÑĤ":5666,"ĠÑĤÐµÐ¿":5667,"Ð¾Ð½Ð¾Ð¼":5668,"ÑįÑĦ":5669,"ÑĤÐµÐ¼":5670,"ĠÑĢÑĥÑħÐ°Ð½Ð¸":5671,"Ġle":5672,"ĠÐĵÐ»Ð°Ð²Ð°":5673,"Ð»ÐµÐ¿":5674,"ĠÑģÐ¾Ð³Ð»Ð°":5675,"ĠÑĤÓĻÐ½":5676,"ĠÐ´ÐµÐ»Ð°":5677,"ĠÐ²Ð°Ð»Ñİ":5678,"ĠÐ³ÐµÑĢ":5679,"iÐ»i":5680,"ĠÒļÐ¾ÑĢ":5681,"ĠÐĳÐµÐ¹":5682,"ĠÑģÑĤÐ¾Ð¸ÑĤ":5683,"ĠÐ¸Ð´ÐµÑı":5684,"ĠÑģÐ±Ð¾ÑĢÐ½Ð¾Ð¹":5685,"ĠÐ¾Ð¿ÑĭÑĤ":5686,"ĠÐ¶Ð°Ð½ÑĥÐ°ÑĢ":5687,"ĠÐ·ÐµÐ¹Ð½ÐµÑĤ":5688,"Ð´ÑĭÒĵÑĭÐ½":5689,"ĠÐ³Ð¾ÑģÑĤ":5690,"ĠFacebook":5691,"ĠÐºÐ¾Ð¼Ð¿Ð»ÐµÐº":5692,"ĠÐºÐ¾Ð¼Ð¸ÑģÑģÐ¸Ñı":5693,"ÐĲÑĢ":5694,"Ð¸Ð·Ð°ÑĨÐ¸Ñı":5695,"ÑĸÑģÐ¿":5696,"ĠÐ¿Ð¾Ð´Ð¾Ð±":5697,"ĠÐ¾ÑĪ":5698,"ĠÐļÐµÐ»":5699,"Ð¾Ð¿ÐµÑĢ":5700,"ĠÒĽÐ°Ò£ÑĤÐ°ÑĢ":5701,"ĠÑĢÐµÐºÐ¾Ð¼":5702,"Ð°Ò£ÒĵÑĭ":5703,"ÐŀÐĽ":5704,"ĠÐ¶Ð°ÑĤÑĤÑĭ":5705,"ÑĭÒĵÑĭÐ½Ð°":5706,"ĠÐ´Ð¾ÑĢÐ¾Ð¶":5707,"ry":5708,"ÑĨÐ¸Ð¾Ð½Ð½Ð¾Ð¹":5709,"ĠÐ»ÐµÐº":5710,"ĠÑĪÐºÐ¾Ð»ÑĮ":5711,"ĠÒ¯ÑĢ":5712,"Ġ2009":5713,"ĠÒĽÐ°ÑĥÑĸÐ¿ÑģÑĸÐ·Ð´ÑĸÐº":5714,"ĠÑĪÑĭÒĵÐ°ÑĢÐ¼Ð°ÑĪÑĭÐ»ÑĭÒĽ":5715,"ĠÓ©ÑĤÑĸÐ½ÑĸÑĪ":5716,"ĠÐĲÑģÑĤÐ°Ð½Ñĭ":5717,"ĠÑĤÐµÑħÐ½Ð¸Ðº":5718,"ĠÑĤÒ¯ÑģÑĸÑĢ":5719,"ĠÐ´ÓĻÑĢ":5720,"ÐĺÐ¯":5721,"per":5722,"ĠÐ°ÑĥÑĭÐ·":5723,"ĠÐ½Ð°Ð¼ÐµÑĢ":5724,"ĠÐ¿Ð°ÑĢÑĤÐ½ÐµÑĢ":5725,"Ð±ÐµÐ³":5726,"ÐµÐ½Ð½ÑĭÐ¼":5727,"ĠÐ¿ÑĢÐ¾Ð²ÐµÐ´ÐµÐ½Ð¸Ñı":5728,"ĠÐ·Ð°Ð²ÐµÑĢÑĪ":5729,"ÑģÐ»ÑĥÐ¶Ð±Ðµ":5730,"ĠÐŀÑĢÑĤÐ°Ð»ÑĭÒĽ":5731,"ĠÐ³ÑĢÑĥÐ·":5732,"ĠÐ¼Ò¯Ð´":5733,"ĠÑĤÐµÐ»ÐµÐº":5734,"ĠÐ±Ð¸Ð»ÑĸÐº":5735,"ĠNUR":5736,"Ð½Ð¾Ð¼Ð¾Ñĩ":5737,"ĠÐ¶Ó©Ð½ÑĸÐ½Ð´Ðµ":5738,"ĠÐłÐ¤":5739,"ĠÐ§Ð¸ÑĤÐ°Ð¹ÑĤÐµ":5740,"ĠÓ©Ð½Ð´ÑĸÑĢÑĸÑģ":5741,"ĠÐļÐµÑĪÐµ":5742,"ĠÐ¾Ð´Ð½Ð°":5743,"2018":5744,"Ð¸Ð²Ð°Ð½Ð¸Ñı":5745,"ĠÐºÓ©Ð¼Ðµ":5746,"Ð¸Ð´Ðµ":5747,"ĠÐ±Ð°ÑĢÐ»ÑĭÒĵÑĭ":5748,"Ð´ÑĭÑĢÑĭÐ»ÒĵÐ°Ð½":5749,"ĠÑĩÐ¸ÑģÐ»Ð¾":5750,"ÐĺÐĶ":5751,"ĠÐ¿ÐµÑĢÑģÐ¿ÐµÐºÑĤÐ¸Ð²":5752,"ĠÐļÐ°Ð½":5753,"ĠÑĤÑĭÑĢ":5754,"Ð°Ð¹ÑĭÒĽ":5755,"ust":5756,"ĠÐ°Ð»ÑĮ":5757,"ÐļÐ¾Ð¼":5758,"ĠÑĢÑĥÑģ":5759,"ĠÒĽÐ°ÑĥÑĸÐ¿ÑģÑĸÐ·":5760,"ĠÐĸÐ¾Òĵ":5761,"ĠÐºÐ¾Ð¼Ð°Ð½Ð´Ñĭ":5762,"ĠÑĤÐ°Ð½ÑĭÐ¼":5763,"ĠÐ¶Ð°ÑĥÐ°Ð¿ÐºÐµÑĢ":5764,"ilter":5765,"Ð¶ÑĭÐ¼":5766,"ĠÑģÐ¿Ð¾ÑĢÑĤÑģÐ¼ÐµÐ½":5767,"ĠÐķÑģ":5768,"ĠÒĽÐ°ÒĵÐ¸Ð´":5769,"ĠÐ²Ð°":5770,"ĠÐ´Ð¾Ð»Ð¶Ð½Ð°":5771,"ÑĢÐµÐ·":5772,"Ð°Ð¼ÑĭÐ½":5773,"ÐŀÑģÑĭ":5774,"ĠÑĩÐ°ÑģÑĤÐ½Ð¾ÑģÑĤÐ¸":5775,"Ð´Ð°ÑĢÑĭÐ½Ð°Ð½":5776,"Ð´ÑĢ":5777,"ĠÐ¼ÐµÑģÑıÑĨ":5778,"ĠÐ¼ÑĭÐ½Ð°Ð´Ð°Ð¹":5779,"ĠÒĽÐ°ÑĢÐ°Ð¼Ð°":5780,"({":5781,"ĠÒĽÐ°Ð»Ð°Ð»ÑĭÒĽ":5782,"ĠÐľÐ°Ðº":5783,"02":5784,"ĠÑĭÐ½ÑĤÑĭ":5785,"ÑģÐ°Ð»":5786,"Ġ(.)":5787,"ÑĤÑĸÐ½Ð´Ñĸ":5788,"ÓĻÐ¹":5789,"ĠÐ´ÐµÐ½Ðµ":5790,"ank":5791,"ÐĳÐ°Ð»":5792,"ĠÓĻÐ´ÐµÑĤ":5793,"ĠÐ¿ÑĢÐ¾ÑĨÐµÐ½ÑĤÐ¾Ð²":5794,"ĠÑĥÐ»ÑĥÑĩ":5795,"ĠÐºÓĻÑģÑĸÐ±Ð¸":5796,"ÑħÐ¾Ð´Ñĭ":5797,"Ð¾Ð»Ð½Ñı":5798,"ĠÐĵÐ¾Ñģ":5799,"ĠÑģÐµÐºÑĥÐ½":5800,"google":5801,"Ð¸ÑĤÐµÐ»ÑĮÐ½Ð¾Ð¹":5802,"ĠÑĢÐµÐ³Ð¸Ð¾Ð½Ð°":5803,"Width":5804,"ĠÐ¿Ð¾ÑĤÐ¾Ð¼":5805,"ĠÒļÐ°ÑĢÐ°ÒĵÐ°Ð½Ð´Ñĭ":5806,"Ð°Ð¹ÑĤÑĥ":5807,"ence":5808,"ĠÐ°Ð²Ð°ÑĢ":5809,"pag":5810,"ÐĳÑĸÑĢ":5811,"ĠÐ°Ð¹ÑĤÐ°Ð´Ñĭ":5812,"ÑĸÐ»ÑĥÑĸ":5813,"ÐµÑĢÐ¾Ð¼":5814,"ĠÒ±ÑĢÐ¿Ð°ÒĽ":5815,"ĠÑįÐºÑģÐ¿Ð¾ÑĢÑĤ":5816,"Ð³Ð¾Ð½":5817,"ĠÑĪÑĭÒĵÐ°ÑĢÐ¼":5818,"Ð°Ð»ÑĮÐ½ÑĥÑİ":5819,"ĠÑĢÒ±ÒĽÑģÐ°ÑĤ":5820,"ÑĥÑĭÐ»":5821,"ĠÐºÐ°Ð·Ð°ÑħÑģÑĤÐ°Ð½ÑĨÐµÐ²":5822,"ĠÐ²Ð¾ÑģÑĤ":5823,"ĠÒ¯Ð½ÐµÐ¼":5824,"ÐķÐ»":5825,"Ó©Ð·Ñĸ":5826,"ĠÒĽÒ±ÑĢÐ¼ÐµÑĤ":5827,"ĠÐ½Ð°ÑĨÐ¸Ð¾Ð½Ð°Ð»ÑĮÐ½Ð¾Ð¹":5828,"ĠÑģÐ²Ð¾Ð±Ð¾Ð´":5829,"ĠÑĥÑĩÐµÑĤ":5830,"Ġ},":5831,"ĠÑĢÐµÐºÐ¾Ð¼ÐµÐ½":5832,"Ð²Ð¾Ðº":5833,"ÑĭÑĤÐ°":5834,"ĠÐ±iÑĢ":5835,"ĠÐĳÐµÐº":5836,"ĠÐ¼ÐµÐ¹":5837,"ĠÑģÐµÐ±ÐµÐ±Ñĸ":5838,"ĠÓ©Ð·ÑĸÐ½Ðµ":5839,"ĠÑĤÑĢÐ°Ð´Ð¸":5840,"ĠÐ¿Ð¾Ð»ÑĥÑĩÐ¸Ð»Ð¸":5841,"ĠÑĤÑĢÐµÐ±Ð¾Ð²Ð°Ð½Ð¸Ñı":5842,"ĠÐ°ÒĽÑĪ":5843,"ĠÐ°Ð¹ÑĭÐ¿":5844,"ĠÑĭ":5845,"ĠÐ¾ÑĤÐ²":5846,"Ð»Ð°ÑĪ":5847,"ĠÐ¿ÑĢÐ¾Ð¸Ð·Ð¾ÑĪÐ»Ð¾":5848,"ĠÐ¼ÐµÐ¶":5849,"ĠÐĳÑĸÐ·Ð´ÑĸÒ£":5850,"ĠÐĵÐµÐ½":5851,"Ð¸ÑĤÐµÐ»ÑıÐ¼":5852,"ĠÒĽÐ°ÑĤÑĭÐ½Ð°ÑģÑĤÐ°ÑĢ":5853,"ĠÐ¾ÑĢÑĤÐ°ÑĪÐ°":5854,"ÑĸÐ½Ð´Ñĸ":5855,"ĠÐľÐ°ÒĽ":5856,"ĠÐ´ÓĻÑĢÐµÐ¶":5857,"Ð»ÐµÑĢÐ´ÑĸÒ£":5858,"Ð°ÑģÑĭÐ¼ÐµÐ½":5859,"Ġ198":5860,"ĠÐ»Ð°ÑĥÐ°Ð·":5861,"ĠÑģÐ¸Ð¼":5862,"Ġthis":5863,"ĠÐ¼Ð¾Ð±Ð¸Ð»ÑĮ":5864,"ĠÐ£Ð·Ð±ÐµÐºÐ¸":5865,"ĠÐ¢ÑĥÑĢÐºÐµ":5866,"ĠÐ¿Ð°Ð½Ð´ÐµÐ¼":5867,"Ð±Ð»":5868,"ÐĶÐ«":5869,"ÑģÐ¸Ð´":5870,"ĠÐ½Ò¯":5871,"ÐµÐ½Ð½Ð¾ÑģÑĤÑĮ":5872,"Ġ300":5873,"ĠÑĪÑĭÒĵÑĭÐ¿":5874,"ÐĳÑĸÐ·":5875,"Ð°ÐºÑĥ":5876,"ÑĢÐ¾ÑģÑĤ":5877,"ĠÐ´Ð¾Ñĩ":5878,"ĠÐ½Ð¾Ð²Ð¾ÑģÑĤÐ¸":5879,"ĠÐ±ÐµÑĢÑĸÐ¿":5880,"ĠÑĤÐ¾Ð¿ÑĭÑĢÐ°ÒĽ":5881,"ĠÑģÐ»ÑĥÑĩÐ°Ð¹":5882,"ĠÑģÑĤÐ°Ð½Ð¾Ð²":5883,"ĠÐ¶ÐµÐ´ÐµÐ»":5884,"ĠÐĲÑĦ":5885,"Ġ37":5886,"Ð°ÑĢÑĮ":5887,"ĠÐºÓ©Ð·ÒĽÐ°ÑĢ":5888,"ĠÐ¿ÑĢÐµÐ´ÑģÐµÐ´Ð°ÑĤÐµÐ»ÑĮ":5889,"ÑĭÐ»ÑĭÒĵÑĭÐ½":5890,"ĠÐ°ÑģÑģ":5891,"ĠÑģÐ¾Ð¾ÑĤÐ²ÐµÑĤÑģÑĤÐ²Ð¸Ð¸":5892,"ĠÑĢÐ¾Ð»ÑĮ":5893,"ĠÒĽÐ°ÑģÐ¸":5894,"ĠÐºÑĥÐ»ÑĮÑĤÑĥÑĢÑĭ":5895,"Ð¡Ðļ":5896,"ĠÐ¾ÑĤÐ±":5897,"Ð¼Ð°Ð³":5898,"title":5899,"ĠÐļÑĥÑĢ":5900,"ĠÑģÑĤÐ¾Ð¸Ð¼Ð¾ÑģÑĤÑĮ":5901,"ĠÐ¼ÐµÑħÐ°Ð½Ð¸Ð·Ð¼":5902,"ĠÑģÑĤÑĢÐ°Ñħ":5903,"ĠÐ²ÑĭÐ¿Ð¾Ð»Ð½":5904,"ĠÑįÐ½ÐµÑĢÐ³Ð¸Ñı":5905,"ÐµÑĢÑĭ":5906,"ĠÐ³Ð¾ÑģÑĥÐ´Ð°ÑĢÑģÑĤÐ²":5907,"ĠÐ¸Ð½ÑĦÐ¾ÑĢÐ¼Ð°ÑĨÐ¸Ñİ":5908,"iÐº":5909,"ĠÐ±Ð¾Ð»Ð¶":5910,"ĠÐĲÐºÐ¼Ð¾Ð»":5911,"ĠÐŁÐ¾ÑĤ":5912,"Ð¿ÐµÑĢÐ²ÑĭÐµ":5913,"ĠÐ´Ð¸Ð·":5914,"ĠÐļÐ¾Ð¼Ð¸ÑĤÐµÑĤ":5915,"ĠÐ·Ð°Ð¼ÐµÑģÑĤÐ¸ÑĤÐµÐ»ÑĮ":5916,"ĠÐļÑĭÐ·ÑĭÐ»":5917,"ĠÐ¿Ð¾Ð¶Ð°ÑĢ":5918,"ĠÑĢÐ¾Ð»":5919,"ĠÐ²ÐµÑĤ":5920,"ÑĢÐ°Ð»ÑĮ":5921,"ĠÐ²Ð¾ÑģÑģÑĤÐ°Ð½Ð¾Ð²":5922,"ĠÐºÐ¾ÑĢÑĢÑĥÐ¿":5923,"ĠÐ´Ð¾ÑģÑĤÐ°Ð²":5924,"Ð»Ð°Ð±":5925,"ĠÒĵÐ¸Ð¼Ð°ÑĢ":5926,"ĠÒ°Ð»Ñĭ":5927,"ÑĭÒĵÑĭÐ¼ÐµÐ½":5928,"Ð°ÑİÑīÐ¸Ðµ":5929,"Ð»ÐµÑģ":5930,"ĠÐ½ÐµÑĦÑĤÐ¸":5931,"ĠÐ¶ÑĭÐ»Ð´ÑĭÒĽ":5932,"ĠÐ²Ð·Ð°Ð¸Ð¼Ð¾":5933,"ĠÐ¾ÐºÑĢÑĥÐ³":5934,"ÐµÐ»ÐµÐº":5935,"ÑįÑĦÑĦÐ¸ÑĨÐ¸":5936,"ĠÑĤÑĭÒĵÑĭÐ·":5937,"ĠÑĤÐ°Ð¼Ð°ÒĽ":5938,"ĠÐ¿ÐµÑĢÐµÑĢ":5939,"ĠÓ¨Ð¹ÑĤÐºÐµÐ½Ñĸ":5940,"ĠÐºÐ¾Ð¼Ð¿Ð¾Ð½":5941,"');":5942,"ĠÑĢÐµÐ³Ð¸ÑģÑĤ":5943,"Ð¸Ð²Ð¸":5944,"Ð¸ÑģÑĤÑĭ":5945,"Ò±Ð»Ð´Ñĭ":5946,"ĠÒ¯Ð¹ÑĢÐµÑĤ":5947,"37":5948,"ĠÑģÓĻÑĥÑĸÑĢ":5949,"ĠÒĽÐ°Ð¹ÑĤÐ°ÑĢ":5950,"ĠÐľÒ±Ð½Ð´Ð°Ð¹":5951,"ĠÐ¿ÑĢÐ¸Ð±ÑĭÐ»":5952,"ÐµÐ´ÐµÐ½Ð¸Ñı":5953,"ĠÑģÐ¾ÑģÑĤÐ¾ÑıÐ½Ð¸Ð¸":5954,"ĠÑĢÓ©Ð»":5955,"ÑĤÑĭÐ»ÑĭÒĽ":5956,"ÐºÓ©Ð»":5957,"Ġhttps":5958,"ĠÐ¿Ð¾Ð´ÑĩÐµÑĢÐºÐ½ÑĥÐ»":5959,"ĠÐ²Ð°ÑĢÐ¸":5960,"ĠÐ¼Ð¾Ñī":5961,"ÒļÐŀ":5962,"ÑĨÐµÐ¿":5963,"ĠÐºÐ¾Ð¼Ð¿Ð°Ð½Ð¸Ð¹":5964,"ĠÐºÓ©Ðº":5965,"ÐĺÐļ":5966,"ĠÑĩÐµÑĤÑĭÑĢÐµ":5967,"Ð°Ð½Ð´ÑĭÑĢÑĥ":5968,"ĠÐŁÐ¾Ð´Ð¿Ð¸Ñģ":5969,"ĠÐ¿Ð¾Ð»ÑĥÑĩÐ¸ÑĤÑĮ":5970,"Ð¾Ð»ÑĮÐºÑĥ":5971,"ĠÐ±Ð°ÒĵÐ°":5972,"Ð¸Ð´ÐµÑĤ":5973,"ĠÒĽÐ°Ð»Ð¿":5974,"').":5975,"ĠÑĢÐ¾ÑģÑĤÐ°":5976,"ĠÒļÐ°Ð·ÑĸÑĢ":5977,"55":5978,"Ð¸ÑĢÐ¾Ð²Ð°Ð»":5979,"ĠÓĻÑĢÑĸÐ¿":5980,"ĠÑĤÐµÐ¼ÑĸÑĢ":5981,"ĠÒĽÒ±Ð±ÑĭÐ»":5982,"ĠÐ¼Ð¸ÑĢ":5983,"Ð°ÑĤÐµÐ»ÑĮÐ½Ð¾":5984,"ination":5985,"ĠÐ¾Ð¿ÐµÑĢÐ°ÑĤÐ¸Ð²":5986,"ÑĢÐ¾Ð²Ð°Ð½Ð¸Ñı":5987,"ĠÐ¸ÑģÑĤÐ¾ÑĢÐ¸Ð¸":5988,"ĠÐļÐ¾Ð³Ð´Ð°":5989,"ĠÐ¶ÐµÐ¼ÒĽÐ¾ÑĢÐ»ÑĭÒĽ":5990,"ĠÐ¾ÑģÐ½Ð¾Ð²Ðµ":5991,"ĠÒĽÐ°ÑĢÐ°ÑĪÐ°":5992,"Ð¾Ð²Ð°Ñı":5993,"ĠÐ¿ÑĢÐµÐ´Ð¿ÑĢÐ¸ÑıÑĤÐ¸Ñı":5994,"ĠÑĪÐ°Ð¹":5995,"ĠÐ·Ð°Ð³":5996,"ĠÐ°ÑĤÐ°Ñĥ":5997,"ĠÐ¾Ð±ÑĬÐµÐ´Ð¸Ð½":5998,"Ð¸ÑĨÐ°":5999,"ĠÐ·Ð½Ð°":6000,"ĠÐ¾Ð±Ð¾ÑĢÑĥÐ´":6001,"ÑĥÐµÐ¼":6002,"ĠÑįÑĤÐ°":6003,"ĠÂ©":6004,"ĠÐ¾ÑĤÐ±Ð°Ñģ":6005,"Ð¾ÑĤÑĭ":6006,"ÐķÐĽ":6007,"ÐµÑģÐºÐµÐ½":6008,"ÐµÑĢÐ»ÑĸÐº":6009,"ĠÒ¯ÐºÑĸÐ¼ÐµÑĤ":6010,"ish":6011,"Ð°Ð¼ÐµÑĤ":6012,"Ð°ÐµÐ¼ÑĭÑħ":6013,"Ð¸ÑĤÐµÐ»ÑıÐ¼Ð¸":6014,"ĠÑģÐ°Ñħ":6015,"ĠÐµÑĤÑĤÑĸ":6016,"ĠÑģÐ½Ð¸Ð·":6017,"Ð°ÑīÐ¸Ñħ":6018,"ĠÐ¡ÐµÐ±":6019,"ÑĩÐ¸Ð½Ñĭ":6020,"ĠÐ°Ð¹Ð½Ð°Ð»ÑĭÑģ":6021,"ĠÐ¼ÑĥÐ·ÑĭÐº":6022,"ĠÐ¼Ð°ÒĽÑģ":6023,"iness":6024,"ĠÐºÐ¾Ð»Ð»ÐµÐ´Ð¶":6025,"Ġ38":6026,"ĠÐ¾ÒĽÐ¸Òĵ":6027,"Ð°Ð¹ÑĤÐµ":6028,"ĠÑĸÑģÑĤÐµÑĥ":6029,"ĠÑģÐ¾Ñİ":6030,"08":6031,"ĠÐĺÑĢÐ°Ð½":6032,"Ð»Ð¾ÑģÑĮ":6033,"Ð´ÐµÐ½Ð¸Ð¸":6034,"ÑĢÐµÑī":6035,"ĠÐ³Ð»Ð°Ð²Ñĭ":6036,"Ð°ÑĤÐ¸Ð½":6037,"ĠÐ¿Ð¾Ð»ÑĥÑĩÐ¸Ð»":6038,"ĠÑĩÑĥÐ²":6039,"ĠÑģÐµÑĢÑĮÐµÐ·":6040,"ĠÐ±ÐµÐºÑĸÑĤÑĥ":6041,"ĠÐ¿Ð¾Ð´ÑĢÐ¾Ð±":6042,"Ð¾ÑĩÐ½Ð¾Ð¹":6043,"ÑģÑĥÑĢÐµÑĤ":6044,"ĠÐ¿Ð°ÑĢÑĤÐ¸Ñı":6045,"Ð½ÐµÐ½Ð¸Ðµ":6046,"ĠÑĤÒ±Ð»ÒĵÐ°":6047,"Ð´Ð°Ð»ÒĵÐ°Ð½":6048,"ÑĢÐ¸Ð¿":6049,"ĠÐŁÑĢÐµÐ·Ð¸Ð´ÐµÐ½ÑĤÑĸ":6050,"ĠÐ²ÑģÐ¿":6051,"ĠÒ±ÒĽÑģ":6052,"ĠÐ¶Ð¸Ð»":6053,"Ð°ÑİÑīÐµÐ¹":6054,"ĠÐ°ÑįÑĢÐ¾Ð¿":6055,"ĠÐĲÒĽÑĤÓ©Ð±Ðµ":6056,"ÑıÑĤÑĮÑģÑı":6057,"ĠÑģÑĥÑĤÐºÐ¸":6058,"ĠÐ¾Ð±Ð¼ÐµÐ½":6059,"Ð¶ÐµÐ½ÐµÑĢ":6060,"ĠÐ¿Ð¾Ð»Ð¾Ð²":6061,"ĠÐ±Ð»Ð¾Ðº":6062,"ĠÑĤÑĸÐ¿ÑĤÑĸ":6063,"ĠÓĻÐ´ÑĸÑģÑĤÐµÑĢ":6064,"ÐķÐľ":6065,"ĠÑģÐ¾Ð±Ð»Ñİ":6066,"Ð»Ð¾Ð¼":6067,"ÑĥÐ¼Ð°Ð½":6068,"ĠÑĤÑĢÑĥÐ´Ð°":6069,"ĠÓĻÐºÑĸÐ¼ÑĪÑĸÐ»ÑĸÐº":6070,"ÑĸÐ·Ð´Ñĸ":6071,"48":6072,"ÒĵÑĭÐ»Ð°ÑĢ":6073,"-,":6074,"auto":6075,"ĠÐ¸ÑģÐºÑĥÑģ":6076,"Ð¾Ð²Ð°Ð½Ð¸Ð¸":6077,"ĠÐ¾ÑĤÐºÑĢÑĭÑĤ":6078,"ĠÐ±Ð°ÑģÑĤÐ°Ñĥ":6079,"ĠÐĺÑģ":6080,"ĠÐ¶Ð°Ò£Ð°Ð»ÑĭÒĽÑĤÐ°ÑĢ":6081,"con":6082,"ĠÐ¢ÐµÐº":6083,"ĠÑģÐµÐºÑĤÐ¾ÑĢ":6084,"ÐĿÒ±ÑĢ":6085,"Ð°ÑĦ":6086,"ĠÑģÐ°Ð¼ÑĭÑħ":6087,"ÒĽÐ°ÑĤÐ°ÑĢ":6088,"ĠÐ¿ÑĢÐ¾ÑĪÐ»Ð¾Ð³Ð¾":6089,"ĠÐĺÑģÐ¿":6090,"Ġnot":6091,"ĠÐ°Ð»Ð´ÑĭÐ¼ÐµÐ½":6092,"99":6093,"ĠÓĻÐ´ÑĸÑģ":6094,"ĠÑĢÐµÐ³ÑĥÐ»Ð¸":6095,"create":6096,"ĠÐ¢Ð°Ð±":6097,"ĠÑĢÐµÑĤÑĤÐµÑĥ":6098,"Ð´Ð¾":6099,"Ġ45":6100,"ĠÐ¾ÑĦ":6101,"ĠÒĽÐ°Ð·Ð°Ð½":6102,"ÑģÐºÐ¾Ð»ÑĮÐºÑĥ":6103,"ĠÐ¿ÑĢÐ¾Ð¶":6104,"ĠÐ·Ð°Ð´ÐµÑĢÐ¶Ð°Ð½":6105,"ĠÐ±ÓĻÑģ":6106,"Ġvar":6107,"ĠÐ°ÑĥÐ´Ð°Ð½ÑĭÐ½ÑĭÒ£":6108,"Ð°Ð¶Ð¸Ð»":6109,"ĠÑģÐ¾Ð¾Ð±ÑīÐµÐ½Ð¸Ð¸":6110,"Ġal":6111,"ÐµÐ»ÐµÑĢÐ´ÑĸÒ£":6112,"ĠÐ±Ò±ÑĢÑĭÐ½ÒĵÑĭ":6113,"ĠÐ¶Ð°Ð»Òĵ":6114,"ÑģÐºÐ¸Ð¼Ð¸":6115,"ĠÐ¾Ð±ÑĬÐµÐº":6116,"Ð¸ÑĤÐµÐ»ÑĮÐ½ÑĭÐ¹":6117,"ÐµÐ¼ÑĸÐ½":6118,"Ð°Ð±Ð°ÒĽÑĤÑĭÒ£":6119,"ĠÐ½Ð°ÑĩÐ¸Ð½":6120,"Ð¶Ð¾Ð»":6121,"ÑĥÑİÑīÐ¸Ðµ":6122,"ĠÒĽÐ°ÑĤÑĭÑģÑĥ":6123,"ĠÐ°Ò£":6124,"ĠÒĽÑĭÑģÒĽÐ°":6125,"ĠÐ°ÐºÑĤÑĥ":6126,"ĠÑģÐ°ÒĽÑĤÐ°Ð½Ð´ÑĭÑĢÑĥ":6127,"ÑįÑĤ":6128,"ĠÑĤÑĥÑĢÐ¸ÑģÑĤ":6129,"ĠÐ°Ð¹ÑĭÐ½Ð´Ð°":6130,"ĠÒļÐ°Ð¹":6131,"ĠÐ¿Ð¾Ñħ":6132,"ĠÑĪÐ°Ð±":6133,"ĠÐ¼Ð°ÒĵÑĭÐ½":6134,"Ð°Ð±Ð¸":6135,"ss":6136,"ĠÑģÐ¾ÑĤÑĢÑĥÐ´Ð½Ð¸ÐºÐ¾Ð²":6137,"ĠÐľÐ¾Ð»":6138,"ĠÐ°ÑĥÐ°":6139,"ĠÐ¼Ð½Ð¾Ð³Ð¸Ðµ":6140,"ĠÐĴÐ»Ð°Ð´Ð¸Ð¼Ð¸ÑĢ":6141,"ĠÐ¶ÑĭÐ»Ð´Ð°ÑĢ":6142,"ÐµÑĢÑĮ":6143,"Ð´Ð°Ð¹Ð´Ñĭ":6144,"ĠÑģÐ°Ð¹ÑĤÐµ":6145,"Ð°Ð»ÑĮÐ½Ð¾Ð¼":6146,"ĠÒĽÑĭÐ»Ð¼ÑĭÑģÑĤÑĭÒĽ":6147,"ĠÐ½ÐµÐ·Ð°Ð²Ð¸Ñģ":6148,"ĠÑģÑĢÐ¾Ðº":6149,"ĠÐ¡Ð¸":6150,"ĠÐºÐ¾Ð¼Ð¿Ð»ÐµÐºÑģ":6151,"ĠÐķÐºÑĸ":6152,"ĠÐ´ÑĢÑĥÐ³Ð¾Ð¹":6153,"Ð¹ÑĭÒĽ":6154,"ablet":6155,"ĠÑģÑĸÒ£":6156,"ĠÐŁÑĢÐµÐ¼ÑĮÐµÑĢ":6157,"ÑģÑĤÐ²Ð¾Ð²Ð°ÑĤÑĮ":6158,"ĠÑĪÐµÒ£":6159,"ÐºÐ¸Ð¼":6160,"ĠÐķÑĥÑĢÐ¾Ð¿":6161,"ĠÐºÐµÐ¹ÑĸÐ½Ð³Ñĸ":6162,"cc":6163,"ĠÐ¾Ð»Ð°ÑĢÒĵÐ°":6164,"ÑģÐ¾":6165,"ÑĢÐ°ÑĪ":6166,"Ð±Ð°ÒĽ":6167,"ĠÐŀÑģÐ½Ð¾Ð²":6168,"ÑģÑĤÐ°Ð½Ðµ":6169,"ĠÒ±Ð¼":6170,"ĠÑģÐµÐ¼ÐµÐ¹":6171,"ĠÐ¶Ð°ÒĵÐ´Ð°Ð¹Ñĭ":6172,"ĠÐ´Ð°ÒĵÐ´Ñĭ":6173,"ĠÐ´Ð²Ð¸Ð¶ÐµÐ½Ð¸Ñı":6174,"ĠÑĸÐ»":6175,"usiness":6176,"Ð¾Ð¶ÐµÑĤ":6177,"ĠÐ·ÐµÑĢÑĤÑĤÐµÑĥÐ»ÐµÑĢ":6178,"ĠÐ²ÐµÑģÑĮ":6179,"ĠÐ±Ð°ÑģÑĭÐ¼":6180,"Ð°ÑģÐº":6181,"vest":6182,"ĠÐ²ÑĭÑĢÐ¾Ñģ":6183,"ĠÐ¼Ð¸Ð»Ð»Ð¸Ð¾Ð½Ð°":6184,"ĠÐ±Ð¾Ð»Ð°ÑĪÐ°ÒĽ":6185,"ÑĩÐ¸Ñģ":6186,"ĠÑģÓĻÑĥÐ»":6187,"ĠÑģÐ¾Ð½ÑĭÒ£":6188,"ĠÐ°ÑĢÐ°Ð»ÑĭÒĵÑĭÐ½Ð´Ð°":6189,"ĠÐ²ÑĭÐ¸Ð³":6190,".:":6191,"ĠÒĽÑĭÐ·Ð¼ÐµÑĤÑĸÐ½ÑĸÒ£":6192,"ĠÒļÑĭÑĢ":6193,"ĠÐ¢Ò±":6194,"ÐµÑģÑĸÐ·":6195,"ÐĺÐĿ":6196,"ÑģÐ»Ð¾Ð²":6197,"ĠÐºÐ¾Ð¼Ð¼ÐµÐ½ÑĤÐ°ÑĢ":6198,"ÑĢÐ¾Ð²Ð°ÑĤÑĮ":6199,"ĠÐ¶Ò¯Ð¹ÐµÑģÑĸÐ½":6200,"ĠÐ²Ð¾Ð·Ð¼Ð¾Ð¶Ð½Ð¾ÑģÑĤÐ¸":6201,"Ð¸Ð½ÑĤÐµÑĢ":6202,"ĠÑĥÑĩÑĢÐµÐ¶":6203,"34":6204,"ÑĢÐ°ÑĨÐ¸Ñı":6205,"ĠÒ±Ð»Ñĭ":6206,"ĠÐ¿Ð°Ð¼":6207,"ÑĢÐ¸Ðº":6208,"ĠÐľÐļ":6209,"Ð°Ð½ÑĭÑĪ":6210,"ÐµÐ¹ÑĸÐº":6211,"Ð´ÐµÐ¹Ð´Ñĸ":6212,"ÐºÐµÑĢÑĸ":6213,"ĠÑĤÐµÐ¾ÑĢ":6214,"Ð±ÑĥÑģ":6215,"ÐºÑģ":6216,"ÑĥÑĸÐ½":6217,"ater":6218,"Ð¢ÐŁ":6219,"ÑĢÐ°Ð³":6220,"ĠÐ¸Ð½ÑĦÑĢÐ°":6221,"ÑĤÐ¾Ð±Ðµ":6222,"ĠÑįÑĤÐ¾Ð¼Ñĥ":6223,"ĠÐ¼ÑĸÐ½ÐµÐ·":6224,"ĠÐ²Ð¾ÑģÐ¿Ð¸ÑĤ":6225,"ĠÑĤÒ±ÑĢÒĵÑĭ":6226,"ĠÑĢÐµÐº":6227,"ĠÐ¢Ò¯ÑĢÐºÑĸÑģÑĤÐ°Ð½":6228,"ĠÐ±ÑĢÐ¸":6229,"ĠÓĺÐ»":6230,"ĠÐ½Ð°ÑģÑĤ":6231,"ĠÑģÐ¾ÑĨ":6232,"ĠÐ½Ð°ÑĪÐ¸Ñħ":6233,"ĠÑĤÐµÐ³ÑĸÐ½":6234,"ĠÑħÐ¾ÑĢÐ¾ÑĪÐ¾":6235,"Ð¾ÑģÑĤÐ°ÑĤ":6236,"ĠÐ¶ÐµÑĤÐº":6237,"ĠÐ¿ÑĢÐ¸Ðº":6238,"ÐĨÐĿ":6239,"ĠÐ¶Ð°ÑģÑĤÐ°ÒĵÑĭ":6240,"ĠÑĤÐ°ÒĽ":6241,"\");":6242,"ĠÐ¿ÑĢÐ¾ÑĪÐ»Ð¾Ð¼":6243,"org":6244,"].":6245,"ĠÑģÐ»ÐµÐ´ÑĥÐµÑĤ":6246,"ĠÐ¶Ð°ÑģÐ°Ð¹Ð´Ñĭ":6247,"ÑĨÐ¸Ð¾Ð½Ð½Ð¾Ð³Ð¾":6248,"ĠÑĢÐ°ÑģÑģÐ¼Ð°ÑĤÑĢÐ¸Ð²":6249,"ĠÐ¾Ð´Ð½Ð¸Ð¼":6250,"ĠÐµÐ´Ð¸":6251,"ĠÐ´ÐµÐ¿Ð°ÑĢÑĤÐ°Ð¼ÐµÐ½ÑĤ":6252,"ĠÐ±Ð¾Ð»ÐµÐ·":6253,"ÑĢÑĤÐµ":6254,"ĠÐ¸Ð¼ÐµÐ½Ð¸":6255,"ĠÑĢÐ°Ð·Ð²Ð¸ÑĤÐ¸Ñİ":6256,"ĠÐ²ÑĭÑģÑĤÐ°Ð²":6257,"Ð¾Ð·Ð°":6258,"ĠÑģÐµÐ³Ð¾Ð´Ð½ÑıÑĪ":6259,"Ġcontain":6260,"ĠÐ¸Ð½ÑģÑĤÑĢÑĥ":6261,"ÐµÐºÑĤÐµÐ½":6262,"ĠÐ¶Ð¾ÒĵÐ°ÑĢÒĵÑĭ":6263,"ĠTh":6264,"ĠÐ¿Ð¾Ð»ÑĮÐ·Ð¾Ð²":6265,"ĠÐ²ÑĭÑĢÐ°Ð¶":6266,"ĠÐºÐ¸ÑĤÐ°Ð¹":6267,"ĠÑĪÐ°ÑĢÐ°Ð»Ð°ÑĢ":6268,"ĠÑģÐ¾Ð¿":6269,"ĠÐ¼Ð¾Ð»Ð¾Ð´Ðµ":6270,"ĠÐ¿ÐµÑĢÐ²Ð¾Ð³Ð¾":6271,"ĠÑĪÑĤÑĢÐ°ÑĦ":6272,"ÑĪÑĭÐ»ÑĭÒĵÑĭ":6273,"ĠÐ½ÐµÐ·Ð°ÐºÐ¾Ð½":6274,"ÐľÐµÐ¼Ð»ÐµÐºÐµÑĤ":6275,"ĠÐ²Ð¾Ðº":6276,"ĠÐ±ÑĸÑĢÐ´ÐµÐ¹":6277,"ĠÑģÐ°Ð½Ð¸ÑĤÐ°ÑĢ":6278,"ÑĪÑĢÑĥ":6279,"Ð¾Ð»Ñı":6280,"ÑĸÐ»ÑĸÑģ":6281,"ĠÐ±ÐµÐ»Ð³ÑĸÐ»ÐµÐ½Ð³ÐµÐ½":6282,"ĠÐķÐ²ÑĢÐ¾":6283,"ĠÐºÐ¸Ñģ":6284,"ĠÐ²Ð½ÐµÑģ":6285,"ĠÐ¢Ñĥ":6286,"ĠÑĨÐµÐ½Ñĭ":6287,"ĠÐ¼ÑĥÐ·":6288,"ide":6289,"ĠÐºÓ©ÑĢÐºÐµÐ¼":6290,"ĠÐ¸Ð¼ÐµÑİÑĤ":6291,"ÑĪÐµÑĤ":6292,"ÐµÐ³Ñĸ":6293,"Ġfrom":6294,"ĠÒĽÑĭÐ·Ð¼ÐµÑĤÑĤÑĸ":6295,"ÑĸÐ¼Ð´ÑĸÐ»ÑĸÐº":6296,"ĠÐ¡Ð¾Ð³Ð»Ð°ÑģÐ½Ð¾":6297,"ĠÓ©ÐºÑĸÐ»Ð´ÐµÑĢÑĸ":6298,"Ð¾ÑģÑĤÐ¾":6299,"ĠÐ°Ð¹ÒĽÑĭÐ½":6300,"ÑģÒ±Ð»ÑĤÐ°Ð½":6301,"Ð¾Ð¼Ð¸Ð½":6302,"Ð¾ÐºÐµ":6303,"ĠÐºÐ¾Ð¼Ð¼ÐµÑĢ":6304,"ĠÐ½ÐµÐ¸Ð·":6305,"Ð½Ð¸Ñı":6306,"ĠÑĥÐ±Ð¸Ð¹":6307,"ĠÐ½Ð°ÑħÐ¾Ð´ÑıÑĤÑģÑı":6308,"Ð²Ð°Ð»":6309,"ĠÐ¿ÑĢÐ¾ÐµÐºÑĤÐ¾Ð²":6310,"ĠÒĽÐ°ÑĢÐ°Ñĥ":6311,"ÑĢÐµÐ·Ð²":6312,"ĠÐ¾ÑħÑĢÐ°Ð½":6313,"ÐºÐ°ÑĤ":6314,"ĠÑģÑĸÐ»ÑĤÐµÐ¼Ðµ":6315,"ĠÒļÐ°Ð½":6316,"Ð¸ÑħÐ°ÑĤ":6317,"ĠÐ¼Ð°ÑĤÐµÐ¼Ð°ÑĤ":6318,"ĠÐºÓ©ÑĢÑģÐµÑĤÑĸÐ»ÐµÑĤÑĸÐ½":6319,"ĠÐļÐ¾ÑģÑĤÐ°Ð½Ð°Ð¹":6320,"ĠÑĥÐ¼ÐµÐ½":6321,"ĠÐ¸Ð½Ð¸ÑĨÐ¸":6322,"ĠÑĤÐ°Ð¼ÑĭÐ·":6323,"Ġ34":6324,"ĠÐķÐ³Ð¾":6325,"Ð¼ÐµÐ´":6326,"ĠÐ²Ð°ÑĪ":6327,"ĠÐ¼ÐµÐ¼":6328,"ĠÑģÑĥÑĢ":6329,"Ð¿ÑĢÐ¸Ð¼ÐµÑĢ":6330,"ĠÑĤÑĥÑĢÐ°":6331,"ÑĸÐºÑĤÐµ":6332,"Ó©Ð¼ÑĸÑĢ":6333,"ĠÐ³Ð°Ð·ÐµÑĤ":6334,"ĠÐ´ÐµÑıÑĤÐµÐ»ÑĮÐ½Ð¾ÑģÑĤÑĮ":6335,"ÑĥÑİÑĤÑģÑı":6336,"2020":6337,"ÐµÐ½Ð½Ð°Ñı":6338,"ĠÐ°Ð½ÑĤÐ¸":6339,"ÐŀÒĽ":6340,"ĠÐ¶ÐµÑĤÑĸÐ»Ð´Ñĸ":6341,"ĠÐ¾ÑĢÑĥÐ¶":6342,"ĠÐ¿Ð¾ÑģÐµÑĤ":6343,"ĠÑĤÐµÐ¾ÑĢÐ¸Ñı":6344,"ÐľÐµÐ½":6345,"Ð°Ð¹Ð»":6346,"ÐĲÐľ":6347,"ĠÐ¾ÐºÐ¾Ð½Ñĩ":6348,"filter":6349,"Ð§Ð¡":6350,"ĠÑģÐµÑĢÑĤÐ¸":6351,"ĠÑĢÐ°ÑģÐº":6352,"ĠÐ²Ð°ÐºÑĨÐ¸Ð½Ð°":6353,"ĠÐļÐĿ":6354,"ĠÐ¶Ð¸ÑĤÐµÐ»ÑĮ":6355,"Ð¶Ð°Ð½Ð¾Ð²":6356,"ĠÐ¶ÑĭÑĢ":6357,"ĠÑĤÐ¾Ðº":6358,"ĠÐ¿ÑĢÐ¸ÐµÐ¼":6359,"ĠÐ°Ð¹ÑĤÒĽÐ°Ð½Ð´Ð°":6360,"ĠÐ¾Ð±ÑĬÐµÐºÑĤÐ¾Ð²":6361,"Ġ(-":6362,"ĠÐ±Ð°Ñı":6363,"ĠÑĢÐµÑģÑĥÑĢÑģÑĤÐ°ÑĢ":6364,"Ð»ÐµÐ½Ð½ÑĭÐµ":6365,"Ð¸ÑĤÐµÐ»ÑĮÐ½Ð¾Ð³Ð¾":6366,"ĠÐĴÐµÐ»Ð¸Ðº":6367,"ĠÐ²ÐµÑĢÑģ":6368,"ĠÐ´Ò¯Ð½Ð¸":6369,"ĠÐ¶ÑĸÐ³ÑĸÑĤ":6370,"ĠÐµÑĤÐºÐµÐ½":6371,"ĠÐ¨ÑĭÐ¼ÐºÐµÐ½":6372,"ĠÓ©Ð·ÑĸÐ½Ð´ÑĸÐº":6373,"Ð´ÑĭÒĽÑĤÐ°ÑĢ":6374,"ĠÐĸÐ°Ò£Ð°Ð»ÑĭÒĽÑĤÐ°ÑĢ":6375,"ĠÐ¶Ð°ÒĽÑģÐ°ÑĢ":6376,"ĠÑĦÐ¾Ð½Ð´":6377,"Ð¶Ð°Ñģ":6378,"ĠÐµÑĢÐºÑĸÐ½":6379,"ĠÐ´Ð¾Ð»Ð³Ð¾":6380,"ĠÑĤÑĸÐ»ÑĸÐ½Ð´Ðµ":6381,"ĠÐ´ÐµÐ¿Ð°ÑĢÑĤÐ°Ð¼ÐµÐ½ÑĤÐ°":6382,"ĠÐ°Ð»ÑĤÑĭÐ½":6383,"ĠÐ±Ð¾Ð»ÑĮÑĪÐ¸Ð½":6384,"ĠÐ¿ÑĢÐµÐ´ÑģÑĤÐ°Ð²Ð¸ÑĤÐµÐ»ÑĮ":6385,"iÐ½Ðµ":6386,"Ð¸Ð¹ÑģÐºÐ¾Ð³Ð¾":6387,"ĠâĢ¢":6388,"ĠÐ½Ð°Ð¸Ð±Ð¾Ð»ÐµÐµ":6389,"ĠÐ´ÐµÐ²Ð¾Ñĩ":6390,"ĠÐŀÐ»Ð¸Ð¼Ð¿Ð¸":6391,"ÑĥÑĤÑĮ":6392,"ĠÐµÑĢÑĸ":6393,"ĠAl":6394,"Ð»Ð°Ð½Ð´ÑĭÑĢÑĥ":6395,"ĠÐ´Ð°Ð½Ð½ÑĭÐ¹":6396,"ĠÐ¾ÑģÑĤÐ°Ð½Ð¾Ð²":6397,"ÑĭÐ»ÑĭÑģ":6398,"ĠÐ£ÐºÑĢÐ°Ð¸Ð½Ñĭ":6399,"Ð´Ð°ÑİÑĤÑģÑı":6400,"ÑĸÑģÑĤÐµÑĢ":6401,"Ð¡Ð¢ÐĲÐĿ":6402,"ĠÐ¶Ð°Ð·Ñĥ":6403,"ĠÑģÐ¿Ð¾ÑĢÑĤÐ°":6404,"Ð±ÐµÐ»":6405,"ĠÐ²Ð·ÑĢÑĭÐ²":6406,"ĠÐµÑģÐºÐµÑĢÑĤ":6407,"ĠÐ¾ÑĢÐ½Ð°ÑĤ":6408,"ÐĨÐľ":6409,"Ð°Ð½Ñĥ":6410,"ÑıÑĤÐ¾":6411,"ĠÓ©Ð»ÑĪÐµÐ¼":6412,"ÒĵÐ°ÒĽ":6413,"ĠÓĺÐ±":6414,"Ð´ÐµÐ´Ñĸ":6415,"ich":6416,"ĠÐ°Ð¹ÒĽ":6417,"ĠÐĲÐ·Ð¸Ð¸":6418,"ĠÐĲÐ´":6419,"ÑıÐµÐ¼":6420,"ĠÐ¢Ð°ÐºÐ¸Ð¼":6421,"ĠÐºÐ¾ÑįÑĦÑĦÐ¸ÑĨÐ¸":6422,"ĠÑĤÑĥÑĢÐ¸Ð·":6423,"Ġus":6424,"Ð´ÓĻ":6425,"ĠÐ·Ð°Ð¿ÑĢÐµÑĤ":6426,"ĠÐºÐ¾Ð½ÑĨÐµ":6427,"yn":6428,"ĠÐ¿ÐµÑĢÐ²Ð¾Ð¹":6429,"ĠÐŁÐ¾Ð´Ð¿Ð¸ÑģÑĭÐ²":6430,"38":6431,"ĠÐľÐµÐ´":6432,"ĠÐºÐ°ÑĤÐµÐ³Ð¾ÑĢÐ¸Ð¸":6433,"ĠÑģÐ¾Ð¾Ð±ÑīÐ¸Ð»Ð°":6434,"ĠÐ¿ÐµÑĢÑģÐ¾Ð½":6435,"ĠÐµÑģÑĤÐµ":6436,"ĠÐ½Ð°ÑĪÐ¸":6437,"ĠÐ¿Ð¾ÑıÑģÐ½":6438,"Ð·Ð°Ð¿":6439,"ĠÐºÐ¾Ð½ÑĤÑĢÐ¾Ð»ÑĮ":6440,"ĠÑĢÐµÐ·ÐµÑĢÐ²":6441,"Ġsh":6442,"Ð¼Ð¾ÑĤÑĢ":6443,"ĠÐĶÐµ":6444,"ress":6445,"Ð¼Ð°Ð¹Ð´Ñĭ":6446,"Ó¨Ð·":6447,"Ð¶Ð°ÒĽÑĤÑĭ":6448,"ĠÐļÓ©Ð¿":6449,"ÐµÑĤÑĤÐµÑĢÑĸÐ½":6450,"eg":6451,"ÑĪÐ¸ÑģÑĮ":6452,"ĠÑĥÐ´Ð°ÑĢ":6453,"ĠÐ¿ÑĢÐ¸Ð²Ð¾Ð´":6454,"ĠÐ²ÑģÑĤÑĢÐµÑĤ":6455,"ĠÑģÐ»ÑĥÑĩÐ°Ñı":6456,"ÑĢÐ°Ð±Ð°ÑĤÑĭÐ²":6457,"Ð³ÐµÐ½Ñĸ":6458,"fer":6459,"Ð°Ð»Ð°ÑĤÑĭÐ½":6460,"wn":6461,"ĠÑĤÐµÑĢÑĢÐ¸ÑĤÐ¾ÑĢ":6462,"ĠÐ¼Ð°Ð·Ð¼Ò±Ð½":6463,"ĠÐ¸Ð½Ð¾ÑģÑĤÑĢÐ°Ð½Ð½ÑĭÑħ":6464,"ĠÐ¿ÑĢÐ¾ÑģÑĤ":6465,"ĠÐľÐĴÐĶ":6466,"ĠÐ¿ÑĢÐ¾ÑĨÐµÐ´":6467,"ĠÒĽÐ°ÑĢÐ¶ÑĭÐ»ÑĭÒĽ":6468,"Ð¸Ð¾Ð½":6469,"ĠÐ´ÑĭÐ±":6470,"ĠÐ¿Ð¾ÑģÑĤÐ°Ð½Ð¾Ð²":6471,"Ð·Ð°ÑĤ":6472,"ÒļÐ°ÑĢ":6473,"Ð´ÑĸÐ³ÑĸÐ½ÑĸÒ£":6474,"Ð°ÒĵÑĭÐ¼":6475,"ĠÑģÐ¼ÐµÑĢÑĤ":6476,"31":6477,"Ð¾Ð³ÐµÐ½":6478,"ĠÐ¼ÐµÑĢÐ¾Ð¿ÑĢÐ¸ÑıÑĤÐ¸Ñı":6479,"Ð¾Ð¼Ð½":6480,"Ð¾ÑĢÐ´":6481,"Ð³ÑĸÐ·Ð³Ñĸ":6482,"ĠÐ¿ÑĢÐ¾ÑıÐ²":6483,"ĠÐ¾Ð±ÑģÑĥÐ¶":6484,"ĠÐľÐ°Ð¼":6485,"ĠÐ°Ð´Ð°Ð¼ÒĵÐ°":6486,"ĠÑĤÒ¯ÑĢÑĸÐ½Ð´Ðµ":6487,"ĠÒ¯ÑĢÐ´Ñĸ":6488,"ĠÑĥÑģÐ»Ñĥ":6489,"ĠÐ¨ÑĭÒĵÑĭÑģ":6490,"ĠÒļÑĭÐ·":6491,"ÓĻÐ½Ðµ":6492,"ĠÐ¿ÑĢÐµÐ´ÑĥÐ¿":6493,"ĠÐ¿Ð°Ð¹Ð´Ð°Ð»Ð°Ð½ÑĥÒĵÐ°":6494,"ÐµÐ·Ð´Ð°":6495,"ĠÐ²ÑģÑĤÑĢÐµÑĩÐ¸":6496,"ĠÐ½Ð°ÑĩÐ°Ð»Ðµ":6497,"ĠÓ©ÑĤÑĸÐ¿":6498,"ĠÐ·Ð°Ð´Ð°Ñĩ":6499,"ĠÐ¶Ò±Ð¼ÑĭÑģÑĭÐ½":6500,"Ð»Ð°Ð½Ð´":6501,"ĠÐ´Ð°Ð¼ÑĥÑĭ":6502,"ĠÑģÐ²Ð¾Ð¸Ð¼":6503,"ĠÑħÐ°Ð»ÒĽÑĭÐ½ÑĭÒ£":6504,"ĠÐľÐ¸Ð½Ð¸ÑģÑĤÑĢ":6505,"ÑĢÐ¾Ð¶":6506,"Ð¸ÑĩÐµÑģÐºÐ¾Ð¼":6507,"ĠÐ¼ÐµÐ´Ð¸":6508,"ĠÐ´Ð½ÐµÐ¼":6509,"60":6510,"ĠÐ¶Ò±ÑĢÑĤ":6511,"Ð«ÐĽ":6512,"ĠÐ¼ÓĻÐ½Ñĸ":6513,"ĠÑģÐ²Ð¾Ð±Ð¾Ð´Ñĭ":6514,"ĠÑĥÑĤÐ¾Ñĩ":6515,"Ð½Ð°Ð·":6516,"ĠÐłÐĺÐĲ":6517,"ĠÑįÐºÑģ":6518,"ĠÐ½Ð¸ÑĩÐµÐ³Ð¾":6519,"ĠÑĢÑı":6520,"Ð´ÑĥÑĪ":6521,"ĠÑĪÐºÐ¾Ð»Ñĭ":6522,"fter":6523,"Ð°ÑĢÑĤÑĥ":6524,"ĠÐµÐ»ÑĸÐ¼ÑĸÐ·Ð´ÑĸÒ£":6525,"ĠÐ·Ð°Ñħ":6526,"ĠÐ¼Ð¾Ð´ÐµÐ»ÑĮ":6527,"ĠÐ¾ÑģÐ²Ð¾Ð±":6528,"ÑĤÑĭÑħ":6529,"ĠÑĪÐµÒ£Ð±ÐµÑĢ":6530,"ĠÑĤÐ°Ð·":6531,"Ð³ÐµÐ»":6532,"ĠÐ¾ÒĽÑĭÐ¿":6533,"ĠÑĤÐ¾ÑĢÐ³":6534,"ĠÑĤÐµÐºÑĥÑī":6535,"ÑĸÐ¼ÑĸÐ½":6536,"old":6537,"ĠÐ±Ð¾Ð»ÑĮÑĪÐ¾Ð¹":6538,"ĠÐľÐ¸Ñħ":6539,"ÑĸÑģÑĸÐ½":6540,"Ð°Ð¼ÐµÑĤÑĢ":6541,"ĠÐ¼ÑĥÐ¶ÑĩÐ¸Ð½Ð°":6542,"ĠÐ½Ð°Ð¿ÑĢÐ¸Ð¼ÐµÑĢ":6543,"ĠÐµÑģÑĤ":6544,"ĠÑģÐµÑĢÐ²":6545,"Ð°ÑģÑĥ":6546,"osition":6547,"ĠÐºÓ©ÑĢÐ³ÐµÐ½":6548,"ĠÑĤÐ°Ð±ÑĭÑģ":6549,"ÑģÑĤÐ°Ð½Ð°Ð²Ð»":6550,"Ð½Ð¾Ð²Ð°":6551,"ĠÐµÐ¹":6552,"Ð±ÐµÑģ":6553,"Ġstick":6554,"ĠÐ²ÐµÐ»":6555,"Ð¾Ð²Ð°Ð½Ñĭ":6556,"Ò£ÒĵÑĭ":6557,"ok":6558,"ĠÐ¿ÑĢÐ¾Ð³Ð½Ð¾Ð·":6559,"ĠÐķÐ½Ð´Ñĸ":6560,"Ð¼ÑĸÐ·":6561,"ĠÐ°Ð²ÑĤÐ¾Ð¼Ð°ÑĤ":6562,"ĠÑĢÐµÐ¼Ð¾Ð½":6563,"ÐµÐºÐ°":6564,"ĠÑĢÐ°Ð·Ð¼ÐµÑĢÐµ":6565,"ĠÑģÐ¾Ð½Ð´ÑĭÒĽÑĤÐ°Ð½":6566,"ÑĥÑĤÐµ":6567,"ĠÐ±ÑĭÐ»Ð°Ð¹":6568,"ĠÐ¶Ð°ÑģÐ°ÑĥÒĵÐ°":6569,"Ò±Ð»Ð´ÑĭÐ·":6570,"ÑıÐ»Ð¸":6571,"ÒĽÐ°Ð·":6572,"ĠÐ²ÑģÐµÐ¹":6573,"ĠÐĴÐ¾Ð·":6574,"ĠÑĢÐ°Ð·Ð´ÐµÐ»":6575,"Ġad":6576,"ĠÐ±Ð°Ð»Ð°Ð½ÑĭÒ£":6577,"47":6578,"ĠÐ¡Ð»ÐµÐ´":6579,"ÐºÑĢÐµÑĤ":6580,"ĠÐºÐ°Ð·":6581,"ĠÑģÑĤÐ¾Ð»Ð¸ÑĨÑĭ":6582,"ĠÐ´Ð°ÑĢ":6583,"ĠÒ¯Ð¼":6584,"ĠÑģÐ¸Ð³":6585,"ÐºÐ¾ÑĤ":6586,"ĠÐ±Ñĥ":6587,"ĠÐ²Ð°Ñģ":6588,"ĠÑģÐµÑģÑģ":6589,"ĠÑģÒ¯ÑĢ":6590,"Ð¼Ð¾ÑģÑĦÐµÑĢ":6591,"ĠÐºÐ¾Ð½ÑĨÐµÐ½ÑĤ":6592,"ĠÐĲÐ¼ÐµÑĢ":6593,"ĠÐ¿Ð°ÑĢÐ°ÒĽ":6594,"www":6595,"ĠÑģÐ¾ÐºÑĢÐ°Ñī":6596,"ĠÐ¶Ò¯ÑĢÑĸÐ¿":6597,"ĠÑĭÐ½ÑĤÑĭÐ¼Ð°ÒĽÑĤÐ°":6598,"ĠÐ´Ð¸ÑģÐº":6599,"ĠÐ´ÑĢ":6600,"Ð´Ð°ÑĢÐ¼ÐµÐ½":6601,"ĠÐ±Ó©Ð»ÑĸÐ½ÐµÐ´Ñĸ":6602,"ĠÑĢÐ°Ð·Ð»Ð¸ÑĩÐ½ÑĭÑħ":6603,"ĠÐºÐ¾Ð½ÑĤÑĢÐ¾Ð»Ñı":6604,"ĠÐ¾ÑĤÐ±Ð°ÑģÑĭ":6605,"ÑĢÐµÐ¶Ðµ":6606,"ĠÐ·Ð°ÑĤÐµÐ¼":6607,"ĠÐ±Ð¸ÑĭÐ»":6608,"ĠÐ¼ÐµÐ½ÑĮÑĪÐµ":6609,"ĠÐ¿ÑĢÐ¸ÑĢÐ¾Ð´":6610,"ĠÐ¼ÐµÑģÑıÑĨÐ°":6611,"ĠÐºÐ°ÑĢÐ°Ð½ÑĤÐ¸Ð½":6612,"ear":6613,"],":6614,"ĠÓ©Ð·ÐµÐ½":6615,"ĠÐ¿Ð¾ÑĤÐµÐ½ÑĨÐ¸":6616,"ĠÐľÐµÐ¶Ð´ÑĥÐ½Ð°ÑĢÐ¾Ð´":6617,"ĠÐĸÐµÐ»":6618,"Ð¾ÑĤÐ¸Ð²":6619,"ÑĭÐ½Ð´Ð°Ð¹Ð´Ñĭ":6620,"News":6621,"ĠÐ´Ð¸Ð½Ð°Ð¼":6622,"ĠÐ°ÒĽÐ¿Ð°Ð½":6623,"ĠÑģÐ²Ð¸Ð´ÐµÑĤ":6624,"ĠÐ´ÑĢÑĥÐ·":6625,"ĠÐºÐ¾ÑĤÐ¾ÑĢÑĥÑİ":6626,"ĠÐ¶Ð°Ð·ÑĭÐ»ÒĵÐ°Ð½":6627,"ĠÐłÐ¾ÑģÑģÐ¸Ñı":6628,"Ð°ÐºÑĤÐ¸Ð²":6629,"ĠÐ°Ð½Ð°Ð»Ð¾Ð³":6630,"ĠÐºÐ¾Ð½ÑĦÐ»Ð¸Ðº":6631,"ĠÐ¿ÑĢÐ°Ð²Ð¾":6632,"ĠÑģÐ¾ÑĨÐ¸Ð°Ð»ÑĮÐ½ÑĭÑħ":6633,"ĠÑĥÑĩÐ°ÑģÑĤÐ½Ð¸ÐºÐ¾Ð²":6634,"Ð»Ð°Ð¼ÐµÐ½ÑĤÐ°":6635,"ĠÐļÐ°ÑĢÐ°Ð³Ð°Ð½Ð´Ð¸Ð½ÑģÐºÐ¾Ð¹":6636,"ĠÐ°Ð½Ð°":6637,"Ð´Ð°ÒĵÐ°Ð½":6638,"Ð¸Ð¼Ð¾Ð²":6639,"ĠÐ±ÐµÑĤÑĸÐ½":6640,"ĠÑĦÐ¸Ð»Ð¾ÑģÐ¾ÑĦ":6641,"ore":6642,"ĠÑĤÒ¯ÑģÑĸÐ½ÑĸÐº":6643,"ĠÐŃÐºÐ¾Ð½Ð¾Ð¼":6644,"ĠÐ°ÐºÐ¸Ð¼Ð°":6645,"back":6646,"ĠÐ¿ÐµÑĢÐ²ÑĥÑİ":6647,"Ð°ÑĢÐ¼Ð°":6648,"Ð°ÑĢÑĥÑģ":6649,"ĠÐ±Ó©Ð»ÑĸÐ¼Ñĸ":6650,"Ġcomp":6651,"ĠÒļÐ¾ÒĵÐ°Ð¼":6652,"ĠÑĥÐºÑĢÐµÐ¿":6653,"ĠÐ±Ð°ÑĢÑĭÐ¿":6654,"ĠÑģÐµÑĤÐ¸":6655,"ĠÐ¢ÐµÑĢ":6656,"ĠÐ¾ÐºÑĢÑĥÐ¶":6657,"ĠÐ´Ð¾ÑģÑĤÐ°ÑĤÐ¾ÑĩÐ½Ð¾":6658,"ĠÐĶÐµÐ¼":6659,"ĠÑĪÑĸÐ»Ð´Ðµ":6660,"ĠÐĶÐ¾":6661,"ĠÐ²ÑĭÑģÐ¾ÐºÐ¾":6662,".).":6663,"ork":6664,"ĠÐļÐµÐ½":6665,"ĠÑĨÐ¸ÑĦÑĢÐ¾Ð²":6666,"ĠÑĨÐµÐ½ÑĤÑĢÐµ":6667,"Ð³Ð¸ÑģÑĤÐ°Ñĥ":6668,"ĠÑĤÐ°Ò£Ð´Ð°Ñĥ":6669,"ile":6670,"Ð¿Ð°ÑĢÐ°ÑĤÑĤÐ°ÑĢ":6671,"ĠÐ¾ÑĤÐ²ÐµÑĤÑģÑĤÐ²ÐµÐ½Ð½Ð¾ÑģÑĤÐ¸":6672,"Ð±Ð°Ð¹Ð»Ð°Ñģ":6673,"ational":6674,"ĠÐ°Ð´Ð°Ð¼Ð´Ñĭ":6675,"Ð»Ð°Ð½Ð´Ñĭ":6676,"ÑįÐ½":6677,"ĠÐºÓ©Ð¼ÐµÐºÑĤÐµÑģ":6678,"Ð¸ÑĤÐ°ÑĢÐ»ÑĭÒĽ":6679,"ĠÑĤÒ¯ÑģÑĸÐ½Ð´ÑĸÑĢ":6680,"Ġ--":6681,"ĠÑģÑĤÑĢÐ¾Ð¸ÑĤÐµÐ»ÑĮÑģÑĤÐ²Ð¾":6682,"ÐµÐ½Ð½Ð¾Ðµ":6683,"ĠÐ¿ÑĢÐ¸Ð³":6684,"ĠÐ¢ÑĥÑĢÐºÐµÑģÑĤÐ°Ð½":6685,"ĠÑĢÐ°ÑģÑģÐºÐ°Ð·Ð°Ð»Ð¸":6686,"ÑįÐº":6687,"ĠÑĤÐ¾Ð²Ð°ÑĢÐ¾Ð²":6688,"ĠÑģÐ¿Ð¾ÑĢÑĤÐ¸Ð²":6689,"ĠÐ¼Ð°ÑĢÑĪÑĢÑĥ":6690,"ĠÐ¼Ó©Ð»ÑĪÐµÑĢÑĸ":6691,"ÒĵÑĭÑģÑĭ":6692,"Ð¸ÑĤÐ¾Ð²":6693,"ĠÑĥÑģÐ¿ÐµÑĪ":6694,"33":6695,"ĠÐ°ÑĤÐ°Ð»Ð°Ð´Ñĭ":6696,"ÑĤÐµÐ¹":6697,"ÐµÐ´Ðµ":6698,"ĠÐ½ÐµÑģÐºÐ¾Ð»ÑĮ":6699,"ĠÐ±Ð°Ð¿":6700,"ĠÐ®Ð¶":6701,"ĠÐĿÐ°ÑĨ":6702,"ÑĢÐ°Ð·Ð¸Ð»":6703,"ÑĭÐ½Ð´ÑĭÒĵÑĭ":6704,"ĠÐºÐ°ÐºÐ¸Ðµ":6705,"Ð±Ð°Ð±":6706,"ĠÐ¶Ð°":6707,"ĠÐ¾ÒĽÑĥÑĪÑĭÐ»Ð°ÑĢÐ´ÑĭÒ£":6708,"ĠÒ¯ÑĪÑĸÐ½ÑĪÑĸ":6709,"ĠÐ°ÑĢÐ¼":6710,"Ð°Ð±Ð¾ÑĢ":6711,"ĠÑĤÐ°ÑĢÐ¸ÑĦ":6712,"ĠÐ¿Ð¾Ð´ÑĤÐ²ÐµÑĢÐ¶":6713,"ĠÐ¿Ð¾Ð¹":6714,"ĠÐ´ÐµÐ»Ð°ÑĤÑĮ":6715,"ĠÐľÒ±Ñħ":6716,"ĠÐ¡ÐµÐ±ÐµÐ±Ñĸ":6717,"ĠÐºÑĸÑĢÑĸ":6718,"ĠÐ·Ð°ÑīÐ¸ÑĤÑĭ":6719,"ÑĨÐµ":6720,"Ð»ÑıÑĢ":6721,"ĠÐºÐ°ÐºÐ¾Ð¹":6722,"ÑĨÐ¸ÑıÐ½ÑĭÒ£":6723,"ĠÐºÐ°Ð·Ð°ÑħÑģÑĤÐ°Ð½ÑģÐºÐ¸Ñħ":6724,"ÐĲÐ·":6725,"ĠÐ¿Ð¾Ð»Ð¸ÑĤÐ¸ÐºÐ¸":6726,"Ðºi":6727,"ĠÐ¾Ð´Ð½Ð¾Ð¼":6728,"ĠÐ¡Ñĥ":6729,"ĠÑģÐ°Ð»ÑĭÐ¿":6730,"ĠÒĽÐ°Ð¹ÑĤÐ°Ð»":6731,"Ð¸ÑħÐ°Ð½":6732,"Ð¾ÑĢÐ°Ñħ":6733,"ĠÐ¼ÐµÐ·":6734,"ĠÐ³Ð»ÑĥÐ±":6735,"ĠÐ¸Ð½ÑģÐ¿":6736,"ĠÐ»ÑİÐ´":6737,"ĠÒĽÒ±ÑĤ":6738,"Ð¶Ò¯Ð·":6739,"ÑĳÐ½":6740,"ĠÐ¶Ò¯ÐºÑĤ":6741,"ÑĪÐ°ÐµÑĤ":6742,"ĠÒĽÑĭÐ·Ð¼ÐµÑĤÑĤÐµÑĢ":6743,"ĠÐ¶Ð¾Ð¹":6744,"ĠÐºÐ¾Ð½ÑĨÐ°":6745,"ĠÐŀÒ£ÑĤÒ¯ÑģÑĤÑĸÐº":6746,"ĠÐ°Ð·Ð°Ð¼Ð°ÑĤÑĤÑĭÒĽ":6747,"ĠÐ¼Ò¯Ð»":6748,"Ð´ÑĭÒ£ÒĵÑĭ":6749,"ĠÑģÐ°Ð±":6750,"ĠÐ¾Ð¹Ð»Ð°Ñĥ":6751,"ĠÐ¾ÑĢÐ½ÑĭÐ½Ð°":6752,"ĠÐ¼Ò¯Ð»ÑĸÐº":6753,"ĠÑģÑĨÐµÐ½":6754,"ÒĽÐ°ÐµÐ²":6755,"ĠÑĢÐµÑģÐ¿ÑĥÐ±Ð»Ð¸ÐºÐ°Ð½":6756,"ÑģÑĤÐ°Ñĥ":6757,"ÐŀÐ»":6758,"Ð¿Ð°Ð·":6759,"Ð·Ñı":6760,"ĠÐķÐ»Ð±Ð°ÑģÑĭ":6761,"Ð°ÑĤÐ¾ÑĢÑĭ":6762,"ĠÒ±ÑģÑĤÐ°Ð·":6763,"Ð°ÑĢÐ´ÑĭÒ£":6764,"Ð°ÐµÐ²Ð°":6765,"ĠÐ¼Ð°Ò£":6766,"ĠÐ¿ÑĢÐ¾Ð¸ÑģÑħÐ¾Ð´Ð¸ÑĤ":6767,"Ð¾ÑĩÐ½ÑĭÑħ":6768,"ÑĤÐ°ÒĵÐ°Ð½":6769,"Ð¼ÓĻ":6770,"ĠÐ¶ÐµÑĢÐ³Ðµ":6771,"ÐĿÐµ":6772,"Ð°ÑıÑĢ":6773,"ĠÐ¥Ð°Ð»ÑĭÒĽÐ°ÑĢÐ°Ð»ÑĭÒĽ":6774,"ĠÐ¿ÐµÐ´Ð°Ð³Ð¾Ð³Ð¸ÐºÐ°Ð»ÑĭÒĽ":6775,"ĠÐ¿ÑĢÐµÐ¶":6776,"ĠÑģÐ°Ð»Ð°ÑģÑĭÐ½Ð´Ð°":6777,"ĠÐºÒ¯ÑĤ":6778,"ĠÑģÐ¾Ð¿ÐµÑĢ":6779,"âĢĻ":6780,"ÑīÐ¸Ðº":6781,"ĠÑĦÐµÐ´ÐµÑĢ":6782,"ĠÐµÐ²ÑĢÐ¾":6783,"ĠÐ±Ð°ÑģÑĤÐ°ÒĵÐ°Ð½":6784,"ĠÐ¿ÐµÑĩ":6785,"ĠÑĢÑĭÐ½Ð¾Ðº":6786,"ÑĢÐ¾ÑģÐ»":6787,"ĠÑĤÐµÒ£ÑĸÐ·":6788,"ÑĸÐ½Ð³ÐµÐ½":6789,"ĠÓĻÐ»ÐµÐ¼Ð´ÑĸÐº":6790,"ript":6791,"ĠÐĹÐ°Ðº":6792,"ĠÐ¿Ð¾Ð²ÑĭÑĪÐµÐ½":6793,"ĠÐ³Ð¾Ð²Ð¾ÑĢÑıÑĤ":6794,"Ð¾ÑĢÐ¾ÑĤ":6795,"ĠÐ³ÑĢÐ°Ð´Ñĥ":6796,"ĠÐ²ÑģÑĤÑĥÐ¿":6797,"round":6798,"ĠÐ±ÑĥÐ´ÑĥÑī":6799,"ĠÐ¶ÐµÐ½ÑīÐ¸Ð½":6800,"ĠÐ°ÒĽÑĭÐ»":6801,"ĠÐ°ÑĥÑĭÐ»Ð´ÑĭÒĽ":6802,"ĠÐ¡Ð¾ÑĤ":6803,"ÑĢÐ¾ÑģÐ°":6804,"Ð¡ÑĥÐ»ÑĤÐ°Ð½Ðµ":6805,"ĠÐ´Ð¾Ð»Ð¶Ð½Ð¾":6806,"ĠÑĤÑİ":6807,"ĠÒĽÐ¾Ñı":6808,"ĠÐ´Ð¾ÐºÐ°Ð·":6809,"Ð¸Ð½ÑĦÐ¾ÑĢÐ¼":6810,"ĠÑĢÓĻÑģ":6811,"ĠÐ½ÐµÐºÐ¾ÑĤÐ¾ÑĢÑĭÐµ":6812,"ĠÒĽÐ°Ð¼ÑĤÑĥ":6813,"ĠÒĽÐ°ÑĢÐ°Ð¿Ð°Ð¹ÑĭÐ¼":6814,"ĠÐºÐ°ÑĩÐµÑģÑĤÐ²Ð°":6815,"Ð³iÐ·":6816,"ÐµÑĢÐ»ÐµÑĢ":6817,"ĠÐ½ÐµÐµ":6818,"ĠÒĽÐ¾ÑĢÑĪÐ°ÒĵÐ°Ð½":6819,"ĠÐ¶Ò±Ð¼ÑĭÑģÑĤÐ°ÑĢÑĭÐ½":6820,"ĠÐºÐ¸Ð»Ð¾Ð¼ÐµÑĤ":6821,"ĠÐ°ÑĤÐ¾Ð¼":6822,"ĠÐ¡ÐĿ":6823,"ĠÐ´ÐµÐ½ÐµÐ³":6824,"Ð¥Ð°Ð±Ð°ÑĢ":6825,"Ð¾Ð¹ÑĩÐ¸Ð²":6826,"ĠÑĢÐ°Ð·Ð±":6827,"ÑĸÑģÑĥ":6828,"ĠÑħÑĢÐ°Ð½":6829,"ĠÑģÑĤÐ°Ð½ÐµÑĤ":6830,"ĠÐ»Ð¸ÑĨÐµÐ½Ð·":6831,"ĠÐºÐµÐ´ÐµÑĢ":6832,"ÒĵÐ°Ð½ÑĭÒ£":6833,"ĠÐ¶Ð¾Ñİ":6834,"ĠÐ¼Ð¸Ð½Ð¸ÑģÑĤÑĢÑĸ":6835,"ĠÐ¿Ð¾ÑĩÐµÐ¼Ñĥ":6836,"ÐĲÐĻ":6837,"edia":6838,"ĠÐ½ÐµÑĢ":6839,"ĠÐļÐ¸ÑĤÐ°Ñı":6840,"ÐķÐ¡":6841,"ime":6842,"ĠÑĦÑĢÐ°Ð½":6843,"Ð°Ð»Ð°ÑĢÑĭÐ½Ð´Ð°":6844,"ĠÐĸÑĭÐ»":6845,"ĠÑģÐ¾ÑĤÑĢÑĥÐ´Ð½Ð¸ÑĩÐµÑģÑĤÐ²Ð°":6846,"ĠÐ½Ð°ÑĥÒĽ":6847,"!Â»":6848,"ĠÐ¾ÑĤÐ¼ÐµÐ½":6849,"ĠÐ¿ÑĢÐµÐ´Ð¼ÐµÑĤ":6850,"ĠÑĤÐ¾Ð¼Ñĥ":6851,"ĠÐĺÐ½Ð´":6852,"ĠÐ´Ð»":6853,"ĠÐ½Ð°ÑĢÑĭÒĽ":6854,"ĠÐ¡ÐµÑĢÐ³ÐµÐ¹":6855,"ĠÐ°ÒĵÐ°ÑĪ":6856,"Ð¾Ð²Ð°Ð½Ð¸ÐµÐ¼":6857,"ĠÐļÑĭÐ·ÑĭÐ»Ð¾ÑĢ":6858,"ĠÑĤÐ²Ð¾ÑĢ":6859,"Ð¿Ð¾ÑĤ":6860,"ĠÐ¿Ð»Ð°Ð½Ð¸ÑĢÑĥÐµÑĤÑģÑı":6861,"Ð³Ð»Ð°Ð²":6862,"ÑģÐºÐ¾":6863,"ĠÐ¾ÑĢÐ³Ð°Ð½Ñĭ":6864,"ĠÐ·Ð°ÑĢÐ°Ð¶":6865,"ĠÐ´Ð¾Ð±Ð°Ð²Ð¸Ð»":6866,"ĠÐ¸Ð¼ÑĥÑīÐµ":6867,"Ð°Ð»Ð°ÑĢÑĭÐ½Ð°":6868,"ĠÑĤÐ°ÒĽÑĭÑĢÑĭÐ±":6869,"ĠÐ¼Ð¾Ð»ÐµÐº":6870,"ĠÐ¢ÐµÐ¿":6871,"ĠÑģÑĤÑĢÐ°Ð½Ð°Ñħ":6872,"ÑĨÐ¾Ð²":6873,"ĠÐ²Ð¿ÐµÑĢÐ²ÑĭÐµ":6874,"ĠÐ¸Ð½ÑĦÐ»Ñı":6875,"ĠÐ¼ÓĻÐ¶":6876,"ĠÐ¿ÓĻ":6877,"ĠÐ¶Ð¾ÑģÐ¿Ð°ÑĢÑĭ":6878,"ĠÐ¶Ò¯Ð¹ÐµÑģÑĸÐ½ÑĸÒ£":6879,"Ð´ÐµÐ¹ÑģÑĤÐ²Ð¸Ñı":6880,"ĠÐºÐ°Ð±Ð¸Ð½":6881,"Ð¼ÐµÑĪ":6882,"ĠÑģÒ¯ÑĤ":6883,"ĠÒļÑĭÐ·ÑĭÐ»Ð¾ÑĢÐ´Ð°":6884,"ire":6885,"ĠÑįÐ»ÐµÐºÑĤÑĢÐ¾Ð½Ð´ÑĭÒĽ":6886,"ĠÐ¶ÐµÑģÑĤ":6887,"64":6888,"ĠÒĽÒ±ÑĢÑĭÐ»ÑĭÑģÑĭ":6889,"Ð´ÐµÑĢÑĸÐ½Ðµ":6890,"ĠÐļÐŀ":6891,"PO":6892,"ÑĪÑĭÐ»Ð°ÑĢÐ´ÑĭÒ£":6893,"ĠÐ°Ð»Ð¼Ð°Ð¹Ð´Ñĭ":6894,"ĠÐ¼ÓĻÑĢÑĤÐµ":6895,"ÑĤÐµÑĢÐ´Ðµ":6896,"Ð°ÑĤÐµÐ»ÐµÐ¼":6897,"ĠÐ¶Ò±Ð¼ÑĭÑģÑĭ":6898,"ĠÐºÒ¯ÑĢÐµÑģ":6899,"ĠÐ¨Ð°ÑĢ":6900,"ĠÐºÐ¾Ð½ÐºÑĢÐµÑĤ":6901,"ĠÐµÐ»Ð´Ñĸ":6902,"Ð¶Ð°":6903,"ĠÐ·Ð°ÑĢÐµÐ³Ð¸ÑģÑĤÑĢÐ¸ÑĢÐ¾Ð²Ð°Ð½":6904,"ĠÐ´ÐµÐ¼Ð¾ÐºÑĢÐ°ÑĤ":6905,"ĠÐ¿ÑĢÐµÐ´Ð²Ð°ÑĢ":6906,"ĠÐ·Ð°ÑīÐ¸ÑĤ":6907,"ĠÑĤÒ¯ÑģÐµÐ´Ñĸ":6908,"ĠÑĢÐ°ÑģÑģÐ»ÐµÐ´Ð¾Ð²Ð°Ð½Ð¸Ðµ":6909,"ace":6910,"ated":6911,"ĠÑĪÐµÐ³":6912,"ĠÐ±Ð°ÑģÑĤÐ°Ð¼":6913,"ĠÐ²Ð¾Ð¿ÑĢÐ¾ÑģÐ°Ð¼":6914,"ĠÑĤÐ°Ð±Ð¸ÒĵÐ°ÑĤ":6915,"ĠÐ¼Ð°Ð³Ð°Ð·":6916,"ĠÐ¾ÑĢÑĤÐ°ÒĽ":6917,"ĠÐķÑīÐµ":6918,"ĠÐĶÐ¼Ð¸ÑĤ":6919,"ÑĢÐ¸ÑĨ":6920,"ÒĵÐ°ÑĪÒĽÑĭ":6921,"Ð°Ð»Ð°ÑĢÐ´Ð°":6922,"ÑĤÐµÑĢÐ¼ÐµÐ½":6923,"ĠÐ¸Ð½Ð¸ÑĨÐ¸Ð°ÑĤÐ¸Ð²":6924,"ĠÐ¿ÐµÑĢÐµÐ²Ð¾Ð·":6925,"ĠÐ¾Ð±ÐµÑģÐ¿ÐµÑĩÐµÐ½Ð¸Ñı":6926,"ĠÐ¼ÐµÐ½ÐµÐ´Ð¶":6927,"ĠÐ¿Ð¾Ð²ÐµÑĢÑħ":6928,"ĠÑģÐ¸ÑģÑĤÐµÐ¼Ð°":6929,"ĠÐľÐ°Ð½Ð³Ð¸ÑģÑĤÐ°Ñĥ":6930,"ĠÐ¿ÑĢÐ°Ð²Ð¸Ð»":6931,"ĠÐłÐ°Ñħ":6932,"Ð¿ÑĢÐ¸ÑıÑĤ":6933,"Ð´Ð°Ð»Ñĭ":6934,"ĠÐ´ÐµÒ£Ð³ÐµÐ¹Ñĸ":6935,"ĠÒ±ÑĪÑĭ":6936,"Ð°ÑĥÑĭÑĤ":6937,"Ð¸Ð»Ð°ÐºÑĤ":6938,"ĠÐ¿ÑĢÐ°ÐºÑĤÐ¸ÑĩÐµÑģÐºÐ¸":6939,"ĠÐ¾ÑĢÐ³Ð°Ð½Ð¸Ð·Ð°ÑĨÐ¸Ñı":6940,"ld":6941,"ĠÑĢÐ°Ð±Ð¾ÑĤÐ°ÐµÑĤ":6942,"ĠÐ¿ÐµÑĢÐ²Ð¾Ð¼":6943,"ĠÐ±Ð°ÑģÒĽÐ°ÑĢÐ¼Ð°ÑģÑĭÐ½ÑĭÒ£":6944,"ĠÐ±ÑĸÑĢÒĽÐ°ÑĤÐ°ÑĢ":6945,"ÑĭÑĢÐ°Ñĥ":6946,"ĠÒĽÑĭÐ·ÑĭÒĵ":6947,"ĠÐ³ÑĢÑĥ":6948,"ĠÑĪÐ°ÑĪ":6949,"Ð´Ð°Ñģ":6950,"ĠÑĢÐµÑģÐ¿ÑĥÐ±Ð»Ð¸ÐºÐ¸":6951,"ĠÐ¾Ð±ÑīÐµÑģÑĤÐ²ÐµÐ½Ð½Ð¾Ð³Ð¾":6952,"ĠÐ·Ð°ÑĢÐ°Ð±Ð¾ÑĤ":6953,"play":6954,"ĠÐ³Ð¾ÑģÑĥÐ´Ð°ÑĢÑģÑĤÐ²ÐµÐ½Ð½Ð¾Ð¹":6955,"ÑĭÑĩÐ°Ð¹":6956,"Ð¸Ð»Ð¾Ð²":6957,"ĠÐĹÐ°Ð¿Ð°Ð´":6958,"ĠÐ´ÐµÑĤÐ¸":6959,"ÑĢÐ¸Ð¸":6960,"content":6961,"Ð¼ÐµÐ¹ÑĤÑĸÐ½":6962,"ÐľÑĭ":6963,"ĠÐ³Ð¾ÑģÑĥÐ´Ð°ÑĢÑģÑĤÐ²ÐµÐ½Ð½Ð¾Ð³Ð¾":6964,"39":6965,"ver":6966,"ÑįÐºÐ¾Ð½Ð¾Ð¼Ð¸ÐºÐ°Ð»ÑĭÒĽ":6967,"ĠCh":6968,"ĠÐ´ÐµÐ³ÐµÐ½ÑĸÐ¼ÑĸÐ·":6969,"ÑĭÐ»Ð°":6970,"ĠÐ»Ð¸ÑĨÐ°":6971,"ĠÐĳÐ°ÑĢÐ»ÑĭÒĽ":6972,"ĠÑĤÐµÐ°ÑĤÑĢ":6973,"ĠÑĤÒ±Ð¶ÑĭÑĢ":6974,"ĠÑĤÑĸÑĢÐºÐµÑĥ":6975,"ĠÐ´Ð°ÑıÑĢ":6976,"ĠÐ¾ÒĽÑĥÑĪÑĭ":6977,"include":6978,"In":6979,"ĠÐ¿Ð¾ÑĢÑĤÐ°Ð»":6980,"ĠÑĢÐ°ÑģÑģÐºÐ°Ð·Ð°Ð»Ð°":6981,"Ġ197":6982,"pagination":6983,"ĠÐłÐµ":6984,"ÐĸÐ°Ò£":6985,"ĠÐºÐ¾Ð¼Ð¸ÑĤÐµÑĤÑĸ":6986,"Ð³Ð»ÑıÐ´":6987,"ÐĶÐĨ":6988,"ÐŀÑĢ":6989,"ĠÐ²Ð°Ð¼":6990,"ĠÐ²ÑĭÑģÐºÐ°Ð·":6991,"ĠÑģÑĤÑĢÐ¾Ð¸ÑĤÐµÐ»ÑĮÑģÑĤÐ²Ð°":6992,"ml":6993,"ÐĳÒ¯":6994,"ĠÐ¿ÑĢÐ¸Ð¾Ð±ÑĢÐµÑĤ":6995,"ÑıÐ³":6996,"ĠÐ¹":6997,"ĠÐ¶ÐµÑĤÑĸÑģÑĤÑĸÐº":6998,"ĠÐ¾ÑĢÐ³Ð°Ð½Ð¸Ð·Ð°ÑĨÐ¸Ð¹":6999,"ĠÐ°ÒĽÐ¿Ð°ÑĢÐ°ÑĤÑĤÑĭ":7000,"ĠÑĤÐµÐºÑĥÑīÐµÐ³Ð¾":7001,"ĠÐºÐµ":7002,"ĠÐ¿Ð¾Ð¿ÑĥÐ»ÑıÑĢ":7003,"ĠÒĽÐ°Ð´Ð°":7004,"ĠÐ²ÑĢÐ°":7005,"ĠÐ°Ð·ÑĭÒĽ":7006,"ĠÐ¸Ð½Ð¶ÐµÐ½ÐµÑĢ":7007,"ĠÐ»Ð°":7008,"ĠÐ½Ð°Ð·ÑĭÐ²":7009,"ĠÐºÑĢÑĥÐ³":7010,"ĠÐ§ÐµÑĢ":7011,"ĠÐŀÐ¹":7012,"ĠÐ´ÑĸÐ½Ð¸":7013,"ĠÒĽÐ°Ð¼ÑĤ":7014,"ĠÐ¸ÑģÑģÐ»ÐµÐ´Ð¾Ð²Ð°Ð½Ð¸Ñı":7015,"ĠÐ±Ó©Ð»ÐµÐº":7016,"ĠÐĲÐ¼Ð°Ð½":7017,"ĠÐļÒ¯Ð½":7018,"ÐĴÐĺ":7019,"ĠÒĽÐ°Ð±ÑĭÑĢ":7020,"ĠÐĳÐ°ÑĤÑĭÑģ":7021,"Ð²ÐµÐ¹":7022,"ase":7023,"Ð½ÑĤ":7024,"Ġ2008":7025,"ĠÐĶÐ¢ÐŁ":7026,"ĠÐ¸Ð³ÐµÑĢ":7027,"Ð´ÑĸÐ¼":7028,"ÑĢÐ³":7029,"Ð¢Ðŀ":7030,"ĠÐºÐ¾Ð¼Ð¸ÑĤÐµÑĤÑĸÐ½ÑĸÒ£":7031,"ĠÑģÐ¾Ð³Ð»Ð°ÑģÐ½Ð¾":7032,"Ġ32":7033,"ĠÑģÐ½Ðµ":7034,"ĠÐ¿ÑĢÐµÐ´ÑĥÑģÐ¼Ð¾ÑĤÑĢÐµÐ½":7035,"Ð¾ÑĢÐ°Ð½":7036,"ĠÐ²ÑħÐ¾Ð´":7037,"ĠÐ½Ð°Ð¿ÑĢÑı":7038,"ateg":7039,"ĠÐĳÐ°ÑģÒĽÐ°ÑĢ":7040,"Ð½Ð°Ñĥ":7041,"ĠÑĤÐ°Ð¼ÑĭÑĢ":7042,"ÑĸÑģÑĸÐ½Ð´Ðµ":7043,"ÐµÐºÐµÐ½":7044,"ĠÑģÑĢÐµÐ´Ð½ÐµÐ¼":7045,"Ð±Ð°Ð»":7046,"ĠÒļÐ°ÑģÑĭÐ¼":7047,"ĠÑģÒ±ÑĢÐ°Ð½":7048,"ĠÐ¼Ð°ÑģÑĪ":7049,"32":7050,"ĠÑĪÑĭÒĵÐ°Ð´Ñĭ":7051,"sert":7052,"ĠÐ¾ÑĢÐ³Ð°Ð½Ð¸Ð·Ð¼":7053,"Ð¸ÑıÐ´Ð°":7054,"ĠÐĲÐºÐ¼Ð¾Ð»Ð¸Ð½ÑģÐºÐ¾Ð¹":7055,"aq":7056,"ÐľÐļ":7057,"ĠÐ´Ð°Ð¼ÑĥÑĭÐ½Ð°":7058,"ĠÑĩÐ°ÑģÑĤÐ¾":7059,"Ð½Ð´Ðµ":7060,"ĠÐŀÐŀÐĿ":7061,"ĠÐ·Ð°Ð¹":7062,"ĠÐ¿ÑĢÑıÐ¼Ð¾":7063,"65":7064,"ĠÐļÑĥÐ±":7065,"are":7066,"ĠÐ·Ð°Ð¼ÐµÑĤ":7067,"ĠÐ½Ð°ÑģÐµÐ»ÐµÐ½":7068,"ĠÐ½Ò¯ÐºÑĤ":7069,"ĠÐ±Ð°Ð±":7070,"ĠÐºÐ°ÑĢÑĮÐµÑĢ":7071,"Ð²ÐµÐ½":7072,"Ð¸ÑĨÑĥ":7073,"ĠÐĿÐµÑģ":7074,"ĠÐĸÐ°ÒĽ":7075,"ĠÑĤÐ°Ð·Ð°":7076,"ĠÐĴÑģÐµÐ³Ð¾":7077,"ĠÐĲÑģÑģ":7078,"Ð¸Ð½ÑģÐºÐ¾Ð³Ð¾":7079,"ĠÐļÐ¸ÑĤÐ°Ð¹":7080,"ÑĢÐµÐ·Ð²ÑĭÑĩÐ°Ð¹":7081,"Ġph":7082,"Ð»Ð¾ÑĤ":7083,"ÑĥÐ¼Ð°Ñİ":7084,"ĠÐ¿ÑĢÐ¸ÑĩÐ¸Ð½":7085,"ĠÐ±ÐµÑĢÑĥÐ³Ðµ":7086,"ĠÑģÐ²ÐµÑĤ":7087,"ÑģÑĭÐ»Ð°Ð¹":7088,"ĠÑĦÐ¸ÑĢ":7089,"Ð»ÑıÐµÐ¼":7090,"ÐµÐ»Ñİ":7091,"ĠÐºÓĻÑģÑĸÐ¿ÐºÐµÑĢÐ»ÑĸÐº":7092,"Ð³ÑĸÐ»":7093,"ĠÐ¿ÐµÑģ":7094,"ĠÐ¿ÑĢÐ¸Ð²Ð»ÐµÐº":7095,"Ð¸Ð¾":7096,"ĠÐ°ÐºÑĤÐµÑĢ":7097,"Ð°ÑİÑīÐ¸Ð¹":7098,"ĠÐ±ÑĭÑģÑĤÑĢÐ¾":7099,"ĠÑħÐ¾Ð·ÑıÐ¹ÑģÑĤÐ²Ð°":7100,"ave":7101,"ĠÒĽÐ°ÑĢÐ°ÑģÑĤÑĭ":7102,"ĠÐ±Ð°Ð¹ÒĽÐ°Ñĥ":7103,"Ġown":7104,"ÑĢÐ¸ÑĤÐ°Ð½":7105,"Ð³ÑĸÐ»Ñĸ":7106,"ÑĢÐ°Ð´":7107,"ĠÐĳÐµÐ»Ð°ÑĢÑĥÑģ":7108,"ĠÐ¢ÑĢÐ°Ð¼":7109,"ĠÐ¶ÑĭÐ½":7110,"ĠÐŁÐ¾Ñĩ":7111,"ĠÒĽÐ°Ð±ÑĸÐ»ÐµÑĤ":7112,"ĠÐ²Ð¾Ð·Ð²ÑĢÐ°Ñī":7113,"ĠÐĲÐºÑĤÑİÐ±":7114,"ĠÐ¾ÑĤÐµÑĩÐµ":7115,"ÐºÐ¾Ð¼Ð¼ÐµÐ½":7116,"ĠÑįÐºÑģÐ¿Ð»Ñĥ":7117,"ÐµÐ½Ð¸ÑıÑħ":7118,"Ð°Ð¹ÑĤÐµÑģÑĮ":7119,"ÓĻÑĢÐµÐºÐµÑĤ":7120,"ĠÒĽÐ¾ÑĢÒĵÐ°Ð½":7121,"ĠÐ¢Ò±ÑĢ":7122,"ĠÑĤÐ¾Ð½Ð½Ð°":7123,"ue":7124,"ĠÑĤÐ¸Ð³ÑĸÐ·":7125,"ĠÐ¼Ð¾Ð»Ð¾Ð´":7126,"ĠÑĢÑĥÐºÐ¾Ð²Ð¾Ð´Ð¸ÑĤÐµÐ»ÑĮ":7127,"Ð²Ð¾Ð»Ñİ":7128,"ĠÐ¡Ð°Ð»":7129,"Ð¼Ð±":7130,"ĠÐĳÑĸÑĢÑĸÐ½ÑĪÑĸ":7131,"ÐŁÐ¾":7132,"ÑĤÐ°Ð»ÑĭÐ¿":7133,"Ġparams":7134,"ĠÑĤÐ°ÒĽÑĭÑĢÑĭÐ±Ñĭ":7135,"Ð¾Ð»ÑĮÑĪÐµ":7136,"ĠÐ°ÑĢÐµÐ½":7137,"ĠÐ¿Ð¾ÑĢÐ°Ð¶":7138,"ĠÒĽÐ°Ð»Ð¿ÑĭÐ½Ð°":7139,"ĠÑģÐ»Ð¾Ð²Ð°":7140,"Ð¾Ð²ÑĭÐ¼":7141,"ĠÑĤÐ°ÒĵÐ°Ð¹ÑĭÐ½":7142,"ĠÑģÐµÐºÑĸÐ»Ð´Ñĸ":7143,"ĠÐ¿Ð¾ÑģÐºÐ¾Ð»ÑĮÐºÑĥ":7144,"ĠÑĤÐ¾Ð²Ð°ÑĢ":7145,"ĠÐ¸Ð½ÑĤÐµÑĢÐ²ÑĮÑİ":7146,"ĠÐ¾Ð³ÑĢÐ¾Ð¼":7147,"ĠÐ¢ÐµÑħ":7148,"ĠÓ©ÑģÑĥ":7149,"ĠÑĤÑĢÐ¾":7150,"ĠÑģÐºÐ°Ð·Ð°ÑĤÑĮ":7151,"Ð»ÑıÐ»":7152,"ĠÐ¼Ð°ÑĤÐµÑĢÐ¸Ð°Ð»Ñĭ":7153,"ĠÐ¼Ð½Ð¾Ð³Ð¸Ñħ":7154,"ĠÐºÑĢÐ¸Ð·":7155,"ĠÐ½Ð°ÑĩÐ°Ð»":7156,"ĠÑħÐ¾ÑĤÑı":7157,"Ð¿Ð¾Ð·Ð¸":7158,"Ð¡Ð£ÐĽ":7159,"ĠÐºÐ¾ÑĤÐ¾ÑĢÑĭÐ¼":7160,"ital":7161,"ĠÑģÐµÐºÑĢÐµÑĤ":7162,"ĠÐĿÐ£Ðł":7163,"ÑĨÑĥÐ·":7164,"Ġim":7165,"ĠÐ´ÐµÐ½ÐµÐ¶":7166,"Ð½ÐµÐ¼ÐµÑģÐµ":7167,"ĠÑģÐ¿Ð¾ÑĢ":7168,"px":7169,"Ð°ÑĤÐµÐ»ÑĮÑģÑĤÐ²Ð°":7170,"ĠÐ·Ð°Ð±Ð¾Ð»ÐµÐ²Ð°Ð½Ð¸Ñı":7171,"Ð¾Ð²Ð°Ð½Ð¸Ñİ":7172,"mail":7173,"ĠÐ°ÑĥÑĢÑĥÑħÐ°Ð½":7174,"ĠÐ°ÑĥÐ¼Ð°ÒĽ":7175,"ĠÒ±ÑģÑĤÐ°Ð½":7176,"ĠÐ¶ÐµÑĤÐºÑĸÐ·Ñĥ":7177,"be":7178,"ĠÒĽÑĭÑĪÒĽÑĭÐ»":7179,"ĠÐ±Ð°Ð»Ð°Ð±Ð°ÒĽ":7180,"ĠÐ´ÐµÑĦ":7181,"ĠÑĥÐ¼ÐµÑĢ":7182,"ĠÑĪÐµÑĤÐµÐ»Ð´ÑĸÐº":7183,"ĠÐŀÐ½Ñĭ":7184,"ĠÐłÑĥÑģ":7185,"Ð´iÒ£":7186,"Ð°Ð´Ð»ÐµÐ¶":7187,"ĠÐ°Ð¹ÑĤÐ°ÑĢ":7188,"Ð¸Ð¹ÑģÐºÐ¾Ð¹":7189,"ĠÐ¿ÑĢÐ¸Ð»Ð¾Ð¶":7190,"ÐµÐ²ÑĭÑħ":7191,"ÐºÐ¾Ð³":7192,"Ġ39":7193,"ĠÑĤÐ°ÑĢÐ°ÑĤ":7194,"md":7195,"Ð°Ð»Ð¸ÐµÐ²":7196,"ÑĢÑĥÑĩ":7197,"ĠÐ¿Ð¾Ñį":7198,"ĠÐ¿Ð¾Ð¿ÑĭÑĤ":7199,"ĠÐ»Ð¸Ðº":7200,"Ð½ÑİÑİ":7201,"ĠÐ±Ð¾ÐµÐ²":7202,"Ð¸Ð»Ð¸Ñī":7203,"ĠÑĢÐ°Ð·Ð¼ÐµÑī":7204,"ĠÑģÐ½Ð¸Ð¼":7205,"ĠÐĲÑĤ":7206,"ĠÐľÓĻÑģ":7207,"ĠÐ¼ÐµÐºÑĤÐµÐ±":7208,"ĠÐ¾Ð±ÑĬÑıÑģÐ½":7209,"ĠÓĻÐºÑĸÐ¼ÑĸÐ½ÑĸÒ£":7210,"ÐºÐ¾Ð¼Ð¼ÐµÐ½ÑĤÐ¸ÑĢÐ¾Ð²":7211,"ĠÒĽÐ¾ÑģÐ¿":7212,"ÑıÑİÑĤÑģÑı":7213,"ĠÑĤÑĸÐ»ÑĪÑĸÑģÑĸ":7214,"ĠÐ´Ð°Ð¹ÑĭÐ½Ð´Ð°Ñĥ":7215,"ĠÐºÐ¾Ð´ÐµÐº":7216,"ĠÑģÐ¼Ð¾ÑĤ":7217,"ÑģÐºÐ¸":7218,"ĠÐ°Ð¹ÑĤÐ°":7219,"Ð»Ð°ÑģÑĮ":7220,"ĠÑĢÐµÐ´":7221,"ĠÓĻÐ´ÑĸÑģÑĸ":7222,"ĠÐ´ÓĻÑģÑĤÒ¯ÑĢ":7223,"Ð¡Ð£ÐĽÐ¢ÐĲÐĿ":7224,"Ð»ÑĭÐ¼":7225,"ĠÐ½Ð¾Ð²Ð¾Ð¹":7226,"Ð³Ð¸Ð´":7227,"ĠÐĸÐ°Ð·":7228,"ĠÐºÓ©Ð·Ñĸ":7229,"ĠÐ±Ð¾Ð»Ð°ÑĢ":7230,"ĠÐ³Ð¸Ð¿":7231,"ĠÐ¶ÐµÐ½ÑīÐ¸Ð½Ð°":7232,"Ð°Ð±Ð¾ÑĢÐ°ÑĤÐ¾ÑĢ":7233,"ÒĽÐ°Ð½Ð´Ð°Ð¹":7234,"Ð»ÐµÐºÑĤÐ¸Ð²":7235,"Ò¯ÑĪ":7236,"ĠÐŀÐ¿":7237,"ĠÐ¼Ð°Ð³Ð¸ÑģÑĤ":7238,"ĠÑĤÐµÐ»ÐµÐºÐ°Ð½":7239,"ĠÑĩÐ¸Ð½Ð¾Ð²":7240,"alse":7241,"ĠÐ¼Ð¸Ð½Ð¸ÑģÑĤÑĢÐ»ÑĸÐ³ÑĸÐ½ÑĸÒ£":7242,"Ð¸ÑĩÐµÑģÐºÐ¸Ð¼Ð¸":7243,"ĠÐ¶Ð°ÑģÐ°Ð´Ñĭ":7244,"ĠÐĸÐµÑĤ":7245,"ÑīÐ¸ÐºÐ¾Ð²":7246,"Ð±ÑĥÐ»":7247,"ĠÑĢÐ°Ð·Ð½ÑĭÑħ":7248,"ĠÐļÓ©ÑĢ":7249,"ĠÓ©ÑĢÑĤ":7250,"ÐµÑĪÑĮ":7251,"ĠÐ¿ÑĢÐµÐ´ÑģÐµÐ´Ð°ÑĤÐµÐ»Ñı":7252,"ÐĸÒļ":7253,"ĠÑĥÑģÑĤÑĢÐ¾Ð¹":7254,"ĠÐ¼ÓĻÑĤÑĸÐ½":7255,"ĠÐ±ÐµÑģÐ¿Ð»Ð°ÑĤ":7256,"ĠÐĸÐ°Ñģ":7257,"ĠÐºÓ©Ð¼ÑĸÑĢ":7258,"ÑĥÑİÑīÐµÐ³Ð¾":7259,"Ð°Ð¹Ð»Ñĭ":7260,"ĠÑģÑħÐµÐ¼":7261,"ÑĢÐ¾Ð¿Ð°Ð²Ð»":7262,"ĠÐķÒ£Ð±ÐµÐº":7263,"ĠÐĿÒ±ÑĢÑģÒ±Ð»ÑĤÐ°Ð½":7264,"ĠÐŁÑĢÐµÐ·Ð¸Ð´ÐµÐ½ÑĤÐ°":7265,"ĠÓ©Ð½Ð´ÑĸÑĢÑĸÑģÑĤÑĸÐº":7266,"ĠÐ¼Ð°ÑģÑģÐ¾Ð²":7267,"ĠÑĤÐµÑĢÐ³Ðµ":7268,"ĠÐ¿ÑĥÑĤÐµÐ¼":7269,"ĠÑĤÐ°ÐºÐ¾Ðµ":7270,"ĠÐ´ÐµÐ¼Ð°Ð»":7271,"ĠÐ¿ÑĢÐ¾Ñĩ":7272,"ĠÐ¿ÐµÑĢÐµÐ½":7273,"ĠÒĽÐ¾Ð¹ÒĵÐ°Ð½":7274,"ĠÑģÐ¿ÐµÑĨ":7275,"ign":7276,"ĠÐ¿ÑĢÐ¾ÐºÐ¾Ð¼Ð¼ÐµÐ½ÑĤÐ¸ÑĢÐ¾Ð²":7277,"ÑĤÐµÐ³ÑĢÐ°":7278,"Ð°Ð»ÑĭÒĽÑĤÑĭ":7279,"Ð°ÑĨÐ¸ÐµÐ¹":7280,"ĠÑĨÐµÐ»ÑĮÑİ":7281,"ĠÐ±ÐµÐº":7282,"Ð¸ÑıÒĵÐ°":7283,"ĠÑģÐµÐ»":7284,"ĠÐ¸Ð³ÑĢÐ¾":7285,"ĠÑĤÑĸÐ»ÑĸÐ½":7286,"ĠÑĢÐµÑĤÑĤÐµ":7287,"ĠÐºÐ½Ð¸":7288,"ĠÐ¶ÐµÑĤÐºÐµÐ½":7289,"ĠÐ°ÑĤÐ°Ð½":7290,"ĠÐ°Ð´Ð²Ð¾Ðº":7291,"ĠÐµÑģÐµÐ¿ÑĤÐµÐ»":7292,"ĠÐ¾ÑģÐ¾Ð±ÐµÐ½Ð½Ð¾":7293,"ĠÐ¾ÑĤÐ¼ÐµÑĤÐ¸ÑĤÑĮ":7294,"ĠÐ¿Ð¸Ñģ":7295,"ĠÐµÑģÐµÐ¿ÐºÐµ":7296,"ĠÑģÑĤÐ¾Ð»Ð¸ÑĨÐµ":7297,"ĠÐ°ÐºÑĨÐ¸Ð¾Ð½":7298,"ĠÑĥÐ°ÒĽÑĭ":7299,"ĠÐ±ÑĸÐ·Ð³Ðµ":7300,"ĠÐ¿ÑĢÐµÐ¿":7301,"ĠÐ¿Ð¾ÑģÐµÐ»":7302,"ĠÐºÐ»Ð¸ÐµÐ½ÑĤ":7303,"ĠÐ¿ÑĢÐµÐ¿Ð°ÑĢÐ°ÑĤ":7304,"ĠÐ¶Ò¯ÑĢÐµÐº":7305,"ĠÐ¿Ð¾Ð´Ñģ":7306,"Ð¸Ð¼Ð°":7307,"ĠÐ¡Ðº":7308,"Ð¸Ð¼ÑĭÑħ":7309,"ĠÑĤÓĻÑĥÐµÐ»ÑģÑĸÐ·":7310,"ĠÐ¿ÑĢÐ¸Ð³Ð¾Ð²Ð¾ÑĢ":7311,"display":7312,"Ġen":7313,"Ð°Ð´Ð¶":7314,"ĠÑĤÑĥÑĢÐ½Ð¸ÑĢ":7315,"ĠÐ¼Ð¾Ð»Ð¾Ð´Ñĭ":7316,"ÐµÐ½Ð½Ð¾Ð¼":7317,"ĠÑĢÑĥÐ±Ð»ÐµÐ¹":7318,"ĠÐ¶Ð¾Ð±Ð°ÑģÑĭ":7319,"ĠÐ´ÐµÐ¿ÑĥÑĤÐ°ÑĤ":7320,"yst":7321,"Ð²Ð¸Ð³":7322,"Ð°ÑģÑĤÐµÑĢ":7323,"ĠÐ¿ÑģÐ¸ÑħÐ¾Ð»Ð¾Ð³":7324,"ĠÑįÐºÐ¾Ð»Ð¾Ð³":7325,"ĠÐ´Ð°Ð¹ÑĭÐ½Ð´Ð°":7326,"ĠÐ¡ÑĥÑĢÐµÑĤ":7327,"ĠÒĽÑĭÐ·Ð¼ÐµÑĤÑĸÐ½Ðµ":7328,"ÐĲÐº":7329,"ÑıÐ±ÑĢÐµ":7330,"ĠÑģÐ°Ð¼Ð¾":7331,"ĠÐ¶Ð°ÑĢÐ¸ÑıÐ»Ð°Ð½ÒĵÐ°Ð½":7332,"Ð¸Ð´ÐµÐ¼Ð¸":7333,"ĠÐ³Ð»Ð¾Ð±":7334,"ĠÐŃÐ»ÐµÐºÑĤ":7335,"ÑĨÐ°Ð¼":7336,"Ġ?":7337,"ĠÐ¡Ð¿":7338,"ĠÐŀÐ½Ð´Ð°":7339,"ĠÐ¼Ò¯Ð¼ÐºÑĸÐ½Ð´ÑĸÐ³Ñĸ":7340,"Ġ2023":7341,"ĠÐºÐ¾Ð½ÐºÑĥÑĢÑģ":7342,"ĠÐ¶ÑĭÐ»Ñĥ":7343,"Ð¼Ð°Ð»Ñĭ":7344,"ÑĸÑģÑĸÐ½ÑĸÒ£":7345,"ĠÑģÐ¾ÑĨÐ¸Ð°Ð»ÑĮÐ½Ð¾Ð¹":7346,"ra":7347,"ĠÐ½Ð¾Ñģ":7348,"ĠÒĽÒ±Ð½Ð´ÑĭÐ»ÑĭÒĽ":7349,"ĠÑĢÐ¾Ð¶Ð´ÐµÐ½Ð¸Ñı":7350,"ie":7351,"ĠÐ°ÑĤÐ¼Ð¾ÑģÑĦÐµÑĢ":7352,"Ð°Ò£ÒĵÑĭÑģÑĤÐ°Ñĥ":7353,"ĠÐºÐ¾Ð»Ð¾Ð½":7354,"ÐµÐ²Ð¸Ð´":7355,"ĠÐ·ÐµÐ¼ÐµÐ»ÑĮ":7356,"ĠÐ·Ð°ÑģÐµÐ´Ð°Ð½Ð¸Ð¸":7357,"Ð»ÐµÐ½Ð³ÐµÐ½":7358,"ÑĤÑĭÒĵÑĭ":7359,"rue":7360,"ĠÐľÐ¸Ð½Ð¸ÑģÑĤÐµÑĢÑģÑĤÐ²Ð°":7361,"ÐµÑĢÑĤÑĤÐµÑĥ":7362,"ĠÐ²Ð´":7363,"ĠÐºÓ©Ð»":7364,"Ð¾ÑĢÑıÐ´":7365,"AL":7366,"ÑĭÐ¼ÑĭÐ·Ð´Ñĭ":7367,"ĠÑħÐ°Ð±Ð°ÑĢÐ»Ð°Ð´Ñĭ":7368,"ĠÑĪÐ¸Ðº":7369,"ĠÑģÑĤÐ°ÑĤÑĮÐµ":7370,"ĠÐ»ÐµÐºÐ°ÑĢ":7371,"ĠÒĽÐ°Ð´Ð°ÒĵÐ°Ð»":7372,"Ð¼Ð°Ð½Ð¸Ñı":7373,"ĠÐ²ÑģÑı":7374,"Ð´ÐµÐ½Ð¸ÐµÑĤ":7375,"ĠÐ°ÑĢÐµÑģÑĤ":7376,"ĠÒĽÐ°ÑĢÑĭÐ·":7377,"ĠÑĦÑĥÐ½ÐºÑĨÐ¸Ð¾Ð½":7378,"Ð´ÐµÐ½Ð¸Ð¹":7379,"ĠÑģÐ¸Ð¿Ð°ÑĤÑĤÐ°Ð¼":7380,"ĠÐ¼ÐµÐ¼Ð»ÐµÐºÐµÑĤÑĤÑĸÒ£":7381,"ĠÐ²Ð½ÑĥÑĤÑĢÐµÐ½Ð½Ð¸Ñħ":7382,"Ð¸Ð²Ð°ÑĤÑĮÑģÑı":7383,"41":7384,"Ġab":7385,"ĠÐ±Ðµ":7386,"Ð¸Ð·Ð¼Ð°":7387,"ĠÐ·Ð¸Ñı":7388,"ĠÐ¿Ð¸ÑģÑĮ":7389,"ĠÐ³ÐµÐº":7390,"Ð°ÑĤÐ¾":7391,"tern":7392,"ÑģÐ¾Ð»ÑİÑĤ":7393,"ĠÐ±Ð»Ð°Ð³Ð¾Ð´Ð°ÑĢÑı":7394,"ĠÐłÑĥ":7395,"ĠÐ²ÐµÑī":7396,"Ð¸Ð²Ð°ÑİÑĤÑģÑı":7397,"ĠÑģÐµÐ½ÑĸÐ¼":7398,"ĠÐ¸Ð½ÑĤÐµÐ»":7399,"ĠÐŀÒĵÐ°Ð½":7400,"ĠÐ½Ð°ÑĩÐ°Ð»Ð¸":7401,"ĠÐ´Ð¾Ð²ÐµÑĢ":7402,"ĠÐ¼Ð¸Ð³":7403,"ĠÐ°Ð²ÑĤÐ¾Ð±ÑĥÑģ":7404,"ĠÑĥÑī":7405,"ĠÑģÐ¾Ð²ÐµÑĢÑĪ":7406,"ĠÐ±ÑĸÑĢÐ´ÐµÐ½":7407,"ĠÑģÐ¾ÑĤÑĢÑĥÐ´Ð½Ð¸ÐºÐ¸":7408,"Ð¸Ð²Ð¸Ð´Ñĥ":7409,"ĠÐ²Ð¾Ð·Ð±":7410,"ĠÑĥÐ´Ð¾Ð±":7411,"Ð¸Ð¼ÐµÐ½ÑĤ":7412,"ĠÑģÐµÐ¼ÑĮÐ¸":7413,"ĠÑĩÐ¸ÑģÑĤ":7414,"ĠÐ¼ÓĻÐ»ÑĸÐ¼ÐµÑĤ":7415,"ĠÐ°ÒĵÑĭÐ¼":7416,"ÑģÑĭÐ»Ð¼Ð°Ð½":7417,"ĠÑĤÒ±ÑĢÑĥ":7418,"ÐļÓ©":7419,"ĠÐ¿Ð»Ð°ÑģÑĤ":7420,"ĠÑĢÐµÐ³Ð¸Ð¾Ð½Ðµ":7421,"cmd":7422,"Ð¸ÑģÑģÐµÑĢ":7423,"ĠÐ¼Ð¸Ð½ÐµÑĢ":7424,"ĠÐ¸Ð½ÑĦÐ¾ÑĢÐ¼Ð°ÑĨÐ¸Ñı":7425,"ĠÐ¿ÑĢÐ¾Ð²ÐµÑģÑĤÐ¸":7426,"ĠÐ½ÑĭÐ½":7427,"ĠÐ½Ð¾ÑĩÑĮÑİ":7428,"ĠÐ¼ÐµÐºÑĤÐµÐ±Ñĸ":7429,"ĠÐ³Ð¸Ð¿ÐµÑĢ":7430,"ĠÐºÐµÐ·Ð´ÐµÑģÐµÐ´Ñĸ":7431,"ĠÐ¿Ð¾Ð¼ÐµÑī":7432,"ĠÑģÐ°Ð¼ÑĭÐµ":7433,"ĠÐ¶ÐµÑĤÑĸÐ»Ð´ÑĸÑĢÑĥ":7434,"ĠÑĤÓĻÑĢÐ±Ð¸ÐµÐ»ÐµÑĥ":7435,"ÐºÐ¾Ð±":7436,"ĠÐ´Ð¾Ð¶":7437,"ĠÐºÐ¾Ð½ÐµÑĩÐ½Ð¾":7438,"Ð¿Ð°ÑĢÐ°ÑĤÑĭ":7439,"2016":7440,"Ð´Ð¸Ðº":7441,"ĠÐ¸ÑĤ":7442,"ĠÐ¾ÑĪÐ¸Ð±":7443,"ĠÒ±Ð¹":7444,"ĠÐ¾ÒĽÐ¸ÒĵÐ°":7445,"ĠÑĤÐ°Ð½ÑĭÑģ":7446,"ĠÐºÓ©ÑĢÑĸÐ¿":7447,"ÑĭÐº":7448,"ÐµÐ»ÑıÑħ":7449,"ÑıÑģÐ½Ñı":7450,"Ð½Ð°Ð±":7451,"ĠÐ¿ÑĢÐ°Ð²Ð¸Ð»ÑĮ":7452,"ĠÒĽÒ±Ð½Ñĭ":7453,"class":7454,"ĠÐ¸Ð·Ð±Ð¸ÑĢ":7455,"hat":7456,"ĠÒĴÑĭÐ»ÑĭÐ¼":7457,"ÑĭÑĪÐµ":7458,"ĠÐ±Ð¸ÑĸÐº":7459,"ĠÑģÐºÐ¾Ð½Ñĩ":7460,"ĠÓĻÑģÑĸÑĢÐµÑģÐµ":7461,"ĠÐ¶Ð¸ÑĤÐµÐ»Ð¸":7462,"ĠÐ¾ÑĢÐ¸":7463,"Ð¾Ð´Ñĥ":7464,"ÐµÐ¼Ð¾Ð½":7465,"ĠÐ±Ð°Ð»Ð°Ð»Ð°ÑĢÐ´ÑĭÒ£":7466,"Ġ48":7467,"ÐµÑĤÐ¸ÐºÐ°Ð»ÑĭÒĽ":7468,"ĠÐºÒ¯Ð½Ð³Ðµ":7469,"Ð¸ÑĢÐ¾Ð²Ð°Ð½Ñĭ":7470,"ĠÐ¿Ð¾Ð³Ð¸Ð±Ð»Ð¸":7471,"ground":7472,"ĠÑģÑĤÐ°Ð±Ð¸Ð»ÑĮ":7473,"ĠÐ¸Ð½Ð²ÐµÑģÑĤÐ¸ÑĨÐ¸Ñı":7474,"ĠÒ¯Ð¼ÑĸÑĤ":7475,"ĠÑĦÐ¾Ð½Ð´Ð°":7476,"ĠÑĪÐµÑĪÑĥ":7477,"ĠÐ±Ð¾ÐºÑģÐµÑĢ":7478,"ĠÐ½Ð¾Ð²Ð¾ÑģÑĤ":7479,"Ð±ÐµÐºÐ¾Ð²Ð°":7480,"ĠÐ¿ÑĢÐµÐ´ÑģÑĤÐ°Ð²Ð¸ÑĤÐµÐ»Ð¸":7481,"ĠÑĥÑģÐ»ÑĥÐ³Ð¸":7482,"ĠÐºÐ°Ð¿Ð¸ÑĤÐ°Ð»":7483,"ÐľÓĻ":7484,"Ð³iÐ½":7485,"ĠÐ»ÑĥÑĩÑĪÐµ":7486,"ÐºÐ°ÑĢ":7487,"ang":7488,"ÐºÐ°Ñı":7489,"Ð±Ð¾Ð¹":7490,"over":7491,"ĠÐĵÐµÑĢÐ¼Ð°Ð½":7492,"ĠÐ¶Ð¸Ð²Ð¾ÑĤÐ½ÑĭÑħ":7493,"ĠÑĤÑĭÐ¹ÑĭÐ¼":7494,"ÑĸÑĢÐµ":7495,"so":7496,"kt":7497,"ĠÐ°ÑĤÒĽÐ°ÑĢÑĥÑĪÑĭ":7498,"ÑĥÑĪÑĸÑģÑĸ":7499,"Ġ09":7500,"Ð°ÐºÐ¾Ð¼":7501,"ÑģÐ¿Ð¾ÑĢÑĤ":7502,"ĠÑĥÑĩÐµÑĤÐ¾Ð¼":7503,"ÑģÐ¼":7504,"ÑĤÑĭÐ¹":7505,"ĠÐ°ÐºÑĤÑĸÐ»ÐµÑĢ":7506,"ÐºÐ¸Ð½Ð°":7507,"ĠÐŁÑĢÐ°Ð²Ð¸ÑĤÐµÐ»ÑĮ":7508,"ÑĸÐ¼ÑĸÐ·Ð´Ñĸ":7509,"ĠÐķÐºÑĸÐ½ÑĪÑĸ":7510,"Ð¡Ð°Ð¼":7511,"Ð¾Ð´Ð¾Ð²":7512,"ĠÐĳÐ°Ð½Ðº":7513,"ĠÐ¶Ð¾Ð±Ð°":7514,"Ġ150":7515,"Ð¸Ð¹ÑģÐºÐ¸Ð¹":7516,"ĠÐ±Ð°ÑģÒĽ":7517,"ÐµÐ²Ð½Ð¾Ð²":7518,"ĠÐ±Ð°ÑģÑĭÐ¿":7519,"ÒļÐł":7520,"ĠÑħÐ°Ð±Ð°ÑĢÐ»Ð°Ð¼":7521,"ÑĳÐ¼":7522,"ĠÐ¶Ò±Ð¼ÑĭÑģÒĽÐ°":7523,"ĠÑĤÐ¾Ð±Ñĭ":7524,"ĠÐ±Ð¾Ð»Ð¼Ð°ÒĵÐ°Ð½":7525,"ĠÐ¿ÐµÑĢÐµÑħÐ¾Ð´":7526,"par":7527,"Ð¾Ð²ÑĤÑĭÒ£":7528,"ÑĤÑĢÐ°Ð½":7529,"ĠÐºÐ¾Ð¼Ð¼ÑĥÐ½Ð¸Ðº":7530,"Ġres":7531,"ĠÐ½ÐµÐºÐ¾ÑĤÐ¾ÑĢÑĭÑħ":7532,"ĠÐ¾Ð±ÑīÐµÑģÑĤÐ²Ð°":7533,"ĠÑĢÐµÐ³Ð¸Ð¾Ð½Ð°Ñħ":7534,"ĠÒĽÒ±Ð½":7535,"ĠÐ¿ÑĢÐµÐ´Ð¿Ð¾Ð»Ð°Ð³":7536,"ĠÐĲÐ·Ð°Ð¼":7537,"ĠÑĦÐµÑģÑĤ":7538,"ÐµÑĤÐ¸":7539,"ĠÑģÐ¸Ð»Ñĥ":7540,"199":7541,"ĠÐ¿ÑĭÑĤ":7542,"ĠÐĿÐ°ÑĥÑĢÑĭÐ·":7543,"ÑĢÐ¸Ñģ":7544,"ĠÐĸÒ¯":7545,"ĠÐ²ÑĭÑıÑģÐ½":7546,"ĠÐ±Ó©Ð»ÑĸÐ¼ÑĸÐ½ÑĸÒ£":7547,"SE":7548,"ĠÑģÐ°Ð»ÑĭÐ½ÒĵÐ°Ð½":7549,"ĠÑģÐ°Ð¼ÑĭÐ¼":7550,"ĠÐµÑĢÐµÐºÑĪÐµÐ»Ñĸ":7551,"ÑİÑīÐµÐ³Ð¾":7552,"ÐµÑĢÐµ":7553,"ĠÒĽÐ¾Ð»ÒĵÐ°":7554,"ĠÑĤÐ°ÑĢÐ°Ð¿ÑĭÐ½Ð°Ð½":7555,"ĠÐ¿Ð¾Ð´ÑĤÐ²ÐµÑĢÐ´":7556,"Ð¼Ð¾Ð¶Ð½Ð¾":7557,"ubl":7558,"Ġpl":7559,"ĠÑģÐ¿Ð¸Ñģ":7560,"?Â»":7561,"ĠÓ©Ð¹ÑĤÐºÐµÐ½Ñĸ":7562,"ĠÑģÐµÑĢÑĤÐ¸ÑĦÐ¸Ðº":7563,"ĠÐĿÐ°Ð¿ÑĢÐ¸Ð¼ÐµÑĢ":7564,"ĠÑĥÑĪ":7565,"Ġfalse":7566,"ĠÐ¿ÑĢÐ¸Ð·Ð²":7567,"Ġ(@":7568,"ĠÐ´ÐµÑĢÐµÐºÑĤÐµÑĢ":7569,"ock":7570,"ĠÐ¼Ð°Ð½":7571,"Ð¸ÑĤÐµÐ»ÑĮÐ½ÑĭÐ¼":7572,"Ð¾Ð³ÑĢÐ°ÑĦÐ¸Ñı":7573,"ĠÐ±ÑĥÐ´ÐµÐ¼":7574,"ĠÐ¾ÑĤÐ¼ÐµÑĤÐ¸Ð»Ð¸":7575,"ĠÐ´ÐµÒ£Ð³ÐµÐ¹Ð´Ðµ":7576,"ÐĸÐ°Ñģ":7577,"ĠÑįÐºÐ¾Ð»Ð¾Ð³Ð¸ÑıÐ»ÑĭÒĽ":7578,"Ð±Ð¸ÑĤ":7579,"ĠÒĽÒ±ÑĢÐ°Ð¼ÑĭÐ½Ð°":7580,"ice":7581,"ĠÐ´ÓĻÑĢÑĸÐ³ÐµÑĢ":7582,"ÑĨÐ¸Ð¾Ð½Ð½ÑĭÐµ":7583,"Ð¼Ð¸Ð½Ð¸ÑģÑĤÑĢÐ°":7584,"ÒĽÐ¾Ð»":7585,"ĠÐ¢Ð¾Ð³Ð´Ð°":7586,"Ð°Ð»ÑĭÒĵÑĭ":7587,"ĠÑĤÐ°ÐºÐ¸Ð¼":7588,"ĠÒļÐ¾Ð»":7589,"ĠÒĽÑĭÐ¼":7590,"ÑĤÐ°ÐµÐ²":7591,"ĠÐ¼ÐµÑĢÐ¾Ð¿ÑĢÐ¸ÑıÑĤÐ¸Ð¹":7592,"ĠÑģÑĥÑīÐµÑģÑĤÐ²":7593,"ĠÐ·Ð°ÐºÑĥÐ¿":7594,"ĠÑģÐ¸ÑģÑĤÐµÐ¼Ðµ":7595,"ÑģÑĤÑĭÒ£":7596,"ĠÑĤÐ¸ÑĤ":7597,"ĠÐ´ÐµÑĢÐµÐ²":7598,"Ð¸Ð·Ð²Ð¾Ð´":7599,"che":7600,"ĠÒĽÐ°Ð´Ð°Ð¼":7601,"ĠÐ¶Ò¯Ð¹Ðµ":7602,"ĠÐ¡Ð¾Ò£ÒĵÑĭ":7603,"ĠÐºÐ»ÑİÑĩ":7604,"ĠÐ¢Ð¾ÒĽÐ°ÐµÐ²":7605,"ĠÐ±ÑĸÐ»Ð´ÑĸÑĢÐµÐ´Ñĸ":7606,"ÑĥÑĪÑĭÐ»Ð°ÑĢÑĭ":7607,"ĠÐ¼ÐµÐ½ÑĪÑĸÐº":7608,"ĠÐ¯ÒĵÐ½Ð¸":7609,"ĠÐ³Ð¾ÑģÐ¿Ð¸ÑĤ":7610,"ĠÑĩÑĢÐµÐ·Ð²ÑĭÑĩÐ°Ð¹":7611,"Ð¾Ð²Ð°Ð»Ð°":7612,"ĠÐ±Ð°ÑģÒĽÐ°ÑĢÐ¼Ð°ÑģÑĭ":7613,"Ò±ÑĢÑĭÐ»ÑĭÐ¼":7614,"Ð°ÑĢÑĭÑĪ":7615,"ĠÒĽÒ±ÒĽÑĭ":7616,"ĠÐ¡Ð°Ð¿":7617,"ĠÑĥÐ´Ð¾Ð²":7618,"ĠÐľÐµÐºÑĤÐµÐ¿":7619,"ĠÐ¢ÐµÐ¿ÐµÑĢÑĮ":7620,"ĠÐ¾ÑĢÑĤÐ°Ð½":7621,"ĠÐ¿ÑĢÐ¾ÑĨÐµÑģÑģÐ°":7622,"ĠÐ¢ÓĻÑĥÐµÐ»":7623,"ĠÐĽÑĥ":7624,"ÑĢÐ´ÐµÐ¼":7625,"âĢĿ,":7626,"ĠÐŁÑĥÑĤÐ¸Ð½":7627,"Ð¾Ð³Ð¾ÑĢ":7628,"ĠÑģÑĤÐµÐ¿ÐµÐ½Ð¸":7629,"ĠÑģÐ¾ÑģÑĤÐ¾ÑıÐ½Ð¸Ðµ":7630,"âĢľ":7631,"ĠÒĽÒ±ÑĢÑĭÐ»ÒĵÐ°Ð½":7632,"ĠÑģÐ¾ÑĨÑģÐµÑĤ":7633,"ĠÐ¿ÑĢÐµÐ·":7634,"ÐºÐ¾Ðµ":7635,"ĠÐºÐµÐ»ÑĤÑĸÑĢÑĥ":7636,"Ð¾ÑģÑĤÐ¾ÑıÑĤÐµÐ»ÑĮ":7637,"Ð³ÑĸÐ»ÐµÑĢ":7638,"Ð«Ò¢":7639,"ĠÐºÐ°ÑĦÐµÐ´":7640,"ÐµÐ»ÑĮÐ·Ñı":7641,"Ġ2007":7642,"ĠÑĩÐµÐ¼Ð¿Ð¸Ð¾Ð½Ð°ÑĤÐ°":7643,"Ð°Ð¿Ð°ÑĤ":7644,"ĠÑİÑĢÐ¸Ð´":7645,"ĠÐ°ÑĥÑĭÑģ":7646,"get":7647,"ĠÓ©Ð½ÐµÑĢÐºÓĻÑģÑĸÐ¿":7648,"ÑĮÐµÐ²":7649,"ĠÐ±Ð°ÑĥÑĭÑĢ":7650,"ĠÑģÐ²ÑĭÑĪÐµ":7651,"ach":7652,"Ð´Ð°Ð²Ð°ÑĤÑĮ":7653,"Ð±ÐµÐ¹":7654,"ax":7655,"ĠÐ¾Ð±ÑĥÑĩÐµÐ½Ð¸Ñı":7656,"ÑĮÐ¼Ð¸":7657,"ĠÒĽÐ°ÑĢÐ¶ÑĭÐ»":7658,"ĠÐĺÑģÐ»Ð°Ð¼":7659,"ĠÐ½Ð°Ðº":7660,"ĠÐºÓ©Ð¼ÐµÐ³ÑĸÐ¼ÐµÐ½":7661,"ĠÐ°ÑĢÑħÐ¸Ð²":7662,"Ð½ÐµÑĢÐ³Ð¾":7663,"ÐĲÒĽÐ¿Ð°ÑĢÐ°ÑĤ":7664,"ĠÐ±Ð°ÑģÑĭÐ½Ð´Ð°":7665,"ĠÐ¾Ò£Ð°Ð¹":7666,"ĠÐ³Ò¯Ð»":7667,"Ò£ÒĵÑĭÑĪ":7668,"ĠÑĤÓ©Ð¼ÐµÐ½Ð³Ñĸ":7669,"ĠÐºÐ°Ð¶Ð´Ð¾Ð³Ð¾":7670,"ĠÐ¿ÑĢÐµÐ´ÐµÐ»":7671,"ĠÐ¾ÑĤÐ½Ð¾ÑĪÐµÐ½Ð¸Ð¹":7672,"69":7673,"ĠÑĪÐ°ÒĽÑĭ":7674,"ĠÑĪÒ±":7675,"ĠÐ±ÑĥÐº":7676,"Ð»Ð°Ð´ÑĭÐ²":7677,"Ġ).":7678,"Ð¿ÑĢÐ¸":7679,"ĠÓ©ÑĤÐµÑĤÑĸÐ½":7680,"Ð»Ð½":7681,"ĠÒĽÑĭÐ·Ð¼ÐµÑĤÐºÐµÑĢÐ»ÐµÑĢÑĸ":7682,"ĠÑıÐ´":7683,"ĠÐ½Ó©Ð¼ÑĸÑĢ":7684,"lo":7685,"Ġint":7686,"ĠÐ¼ÐµÐ¶Ð´ÑĥÐ½Ð°ÑĢÐ¾Ð´Ð½ÑĭÑħ":7687,"ĠÐ´Ð¾Ð¼Ð¾Ð²":7688,"ĠÐĸÐ°Ð¼Ð±ÑĭÐ»ÑģÐºÐ¾Ð¹":7689,"ĠÐºÑĥÐ»ÑĮÑĤÑĥÑĢ":7690,"ĠÐ´Ò¯Ð½Ð¸ÐµÐ³Ðµ":7691,"ĠÐºÐ¾ÑĢÐ¾Ð½Ð°Ð²Ð¸ÑĢÑĥÑģÐ¾Ð¼":7692,"ĠÒĵÐ°ÑģÑĭÑĢÐ´ÑĭÒ£":7693,"ĠÐ²ÑĭÐ»":7694,"ĠÐ¿ÑıÑĤÐ¸":7695,"ĠÐ¼Ð°Ð»ÑĮ":7696,"ÑĤÐµÐ½ÑĪÐµ":7697,"ĠÐ¸ÑģÐ¿Ð¾Ð»ÑĮÐ·Ð¾Ð²Ð°ÑĤÑĮ":7698,"ĠÑĤÓĻÑĢÑĤÑĸÐ±":7699,"Ð¸ÑıÑħ":7700,"ĠÐ¿Ð°Ð¼ÑıÑĤ":7701,"ĠÐ¸ÑĤÐ¾Ð³Ðµ":7702,"ĠÐ¾ÑĤÑĢÐ°Ñģ":7703,"Ð°Ð¸Ð»":7704,"ĠÐ¿ÑĢÐ¾Ð¹Ð´ÐµÑĤ":7705,"ĠÑĢÐ°Ð±Ð¾ÑĤÐ°ÑİÑĤ":7706,"Ð¼Ð¾Ð»Ð°":7707,"ĠÐ³Ð°Ð·Ð°":7708,"ĠÓĺÐ»ÐµÐ¼":7709,"ĠÐ±ÑĸÑĢÐ»ÑĸÐº":7710,"ĠÐ²ÐºÐ»Ð°Ð´":7711,"Ð°ÑĥÐ°Ð¿":7712,"ÑĪÐµÑĤÐ°Ñĥ":7713,"Ð³Ð°Ð·":7714,"ĠÐ¡ÐµÐ¼ÐµÐ¹":7715,"ĠÐ¿ÑĢÐ¸Ð½Ð°Ð´Ð»ÐµÐ¶":7716,"ÑħÑĥ":7717,"ÐºÐ°Ñĩ":7718,"ĠÐļÐµÐ·":7719,"ĠÐ»ÑĮ":7720,"ĠÐķÐĲ":7721,"ÑĦÐ¸ÑĢ":7722,"ĠÐ¸Ð½Ð´ÑĥÑģÑĤÑĢÐ¸":7723,"Ð¾ÑĩÐ½ÑĭÐ¹":7724,"ĠÐ½Ð¸ÐºÑĤÐ¾":7725,"ĠÑĭÐ´Ñĭ":7726,"Ð¾ÑĤÑĥ":7727,"ĠÐµÐ¼Ð´ÐµÑĥ":7728,"ĠÐ±Ó©Ð»ÑĸÐº":7729,"ĠÐºÐ°Ð»":7730,"ĠÐ´ÐµÐ½ÑģÐ°Ñĥ":7731,"ĠÐ¸Ð½ÑĤÐµÐ³ÑĢÐ°":7732,"ĠÐ¿Ð¾Ð·Ð²Ð¾Ð»Ð¸ÑĤ":7733,"ÑĪÑĥÑİ":7734,"ĠÒļÐ¾ÑģÑĤÐ°Ð½Ð°Ð¹":7735,"ĠÐ´Ð¾ÐºÑĥÐ¼ÐµÐ½ÑĤÐ¾Ð²":7736,"url":7737,"ĠÐ°ÑģÑĤÐ°Ð½":7738,"ĠÐ±Ð°ÑģÑĭÐ»ÑĭÐ¼":7739,"ĠÑĥÐ¼ÐµÐ½ÑĮ":7740,"Ð¶ÐµÐ³Ð¾Ð´":7741,"ĠÐ½ÐµÐ´Ð¾ÑģÑĤÐ°ÑĤ":7742,"Ð´Ð¾Ð»Ð¶":7743,"ĠÑĢÐµÐºÐ¾ÑĢ":7744,"ĠÐºÑĸÑĪÑĸ":7745,"Ð²Ð¸Ð´":7746,"ĠÐ³Ð¸Ð±":7747,"ÑīÐ¸Ð¹":7748,"ĠÐ°ÑĢÒĽÐ°ÑģÑĭÐ½Ð´Ð°":7749,"ÑĢÐ¾ÑĤ":7750,"Ð¾ÑģÐ½Ð¾Ð²":7751,"ĠÐºÐµÐ·ÐµÒ£Ð´Ðµ":7752,"ĠÑģÐ¸Ð¼Ð¿":7753,"):":7754,"ĠÐ¿Ð°Ð½":7755,"ĠÑģÑĤÑĢÑĥÐºÑĤ":7756,"zakon":7757,"ĠÑģÐµ":7758,"ĠÐ¸Ð³ÑĢÐ°":7759,"Ġ55":7760,"ĠÐ£Ñĩ":7761,"ÐµÐ½Ð½ÑĭÐ¼Ð¸":7762,"ĠÐ¼ÓĻÑģÐµÐ»ÐµÑģÑĸ":7763,"ĠÑģÐ¾Ð²ÐµÑĤÐ°":7764,"ĠÐ¿Ð¾Ð·Ð²Ð¾Ð»ÑıÐµÑĤ":7765,"Ò±Ð·":7766,"ĠÑģÐ°Ð¿Ð°ÑģÑĭÐ½":7767,"ÑħÐ¾Ð·":7768,"iÑģ":7769,"ÐºÐµÐ»Ð³ÐµÐ½":7770,"ĠÐ±ÑİÐ´Ð¶ÐµÑĤÐ°":7771,"Ð±ÑĥÑĢÐ³":7772,"ĠÑģÑĢÐ°Ð²Ð½ÐµÐ½Ð¸Ñİ":7773,"ĠÐ¶ÓĻÑĢÐ´ÐµÐ¼":7774,"ÑĢÐ°Ð»Ð°":7775,"Ð»ÑĭÒĵÑĭÐ½Ð°":7776,"ĠÐ´Ð¾Ð·":7777,"ĠÑĢÐ°ÑĥÐ½":7778,"Ð°ÒĵÐ´Ð°ÑĢ":7779,"Code":7780,"ÑĭÐ¼Ð°":7781,"ĠÑħÐ¸Ð¼Ð¸ÑıÐ»ÑĭÒĽ":7782,"Ġ$('":7783,"ĠÐ½ÐµÐ³Ðµ":7784,"ĠÐºÐ¾Ð»Ð»ÐµÐºÑĤÐ¸Ð²":7785,"ĠÐ´ÐµÐ¿Ð¾Ð·":7786,"ĠÐºÐ¸Ð»Ð¾Ð³":7787,"tag":7788,"ĠÑĤÐ°ÐºÐ¾Ð³Ð¾":7789,"ĠÐ¼Ð°ÒĵÐ°Ð½":7790,"ĠÐ¢ÑĥÑĢÑĨÐ¸Ð¸":7791,"ĠÐ¨ÐĸÒļ":7792,"ĠÑĥÑĩÐ°ÑģÑĤÐ¸":7793,"ĠÐµÐ¶":7794,"ĠÐºÑĢÐ°Ð¹":7795,"ĠÐ¿ÑĥÑĤÐ¸":7796,"ĠÐľÑĥ":7797,"ĠÐľÑĥÑħ":7798,"ĠÑģÐ¾ÑģÑĤÐ°Ð²Ð¸Ð»Ð°":7799,"ĠÐ°ÒĵÑĭÐ»":7800,"ale":7801,"ĠÑĥÑģÐ¿ÐµÑħ":7802,"ĠÐ¾Ð±ÑģÐ»ÑĥÐ¶":7803,"ĠÑģÐ¾ÑģÐµÐ´":7804,"ĠÐ½ÐµÑģÐºÐ¾Ð»ÑĮÐºÐ¸Ñħ":7805,"ĠÐ°Ð½Ð°Ð»Ð¸ÑĤ":7806,"ĠÑģÑĤÑĥÐ´ÐµÐ½":7807,"ĠÐ°Ð½ÑĭÒĽÑĤÐ°Ð»Ð°Ð´Ñĭ":7808,"ĠÐ¶ÐµÐ½ÑīÐ¸Ð½Ñĭ":7809,"Ò±ÑĢÑĭÐ½":7810,"ĠÐ°Ð¹ÑĭÑĢÐ¼Ð°":7811,"Ð¾Ð¼ÐµÑĤÑĢ":7812,"ĠÑĤÐµÐ»ÐµÑĦ":7813,"ĠÒĽÐ°Ð½ÑĪÐ°":7814,"ĠÑģÐ°Ð¿Ð°Ð»Ñĭ":7815,"Ġ75":7816,"ÑĢÑĥÐµÑĤ":7817,"ĠÐ¼Ð¾Ð´ÐµÑĢ":7818,"ĠÐ¶Ò¯ÑĢÐ³ÑĸÐ·ÑĸÐ»ÐµÐ´Ñĸ":7819,"ĠÑģÑĤÐ¾Ð»Ðº":7820,"ĠÒĽÐ°Ð¹ÑĢÐ°ÑĤ":7821,"ĠÐ¿Ð»Ð°ÑĤÐµÐ¶":7822,"adfoxCode":7823,"ĠÐ³ÑĢÑĥÐ¿Ð¿Ð°":7824,"ĠcontainerId":7825,"ĠownerId":7826,"ĠÐ±Ð¾Ð»Ð¼Ð°ÑģÐ°":7827,"enc":7828,"ÑĢÑĭÑĤÑĮ":7829,"ĠÐ¼Ð°Ðº":7830,"ations":7831,"ĠÑģÐ¼ÐµÑĢ":7832,"ĠÑĦÐ¾ÑĤÐ¾Ð³ÑĢÐ°ÑĦ":7833,"ĠÐ·Ð½Ð°ÑĩÐµÐ½Ð¸Ðµ":7834,"ĠÐ±ÐµÐ½":7835,"ĠÐ°Ð»Ð°ÑģÑĭÐ·":7836,"ĠÐ¾ÑĤÐ¿":7837,"ull":7838,"ĠÐ²Ð·Ð°Ð¸Ð¼":7839,"ĠÐŀÒĽÑĥ":7840,"ĠÐ¿Ð°Ðº":7841,"ĠÐ¿Ð¾Ð´ÑĢÐ°Ð·":7842,"ĠÐ¸ÑģÐ¿Ð¾Ð»Ð½Ð¸ÑĤÐµÐ»ÑĮ":7843,"ĠÒĽÐ°Ð»Ð´ÑĭÑĢ":7844,"ĠÐ¼Ð¾Ð½Ð¸ÑĤÐ¾ÑĢÐ¸Ð½Ð³":7845,"ÐµÐ³ÐµÐ½Ð¼ÐµÐ½":7846,"ĠÐ³ÑĢÐ°Ð¼":7847,"ĠÒĽÐ°Ð·Ð°ÒĽÑĤÑĭÒ£":7848,"ĠÐļÐ¾Ð´":7849,"ĠÐ¿ÑĢÐ¾Ð¸Ð·Ð¾ÑĪÐµÐ»":7850,"Ð°Ð»Ð¸Ð·Ð°ÑĨÐ¸Ð¸":7851,"ance":7852,"ĠÐ°ÑģÑĭÑĢÑĭÐ»Ð°Ð´Ñĭ":7853,"Ð¸ÐºÐ¾":7854,"ĠÑĥÑģÐ»Ð¾Ð²Ð¸Ð¹":7855,"Ð´ÑĭÒĵÑĭÐ½Ð°":7856,"ĠÒĽÐ°Ð»Ð°Ð´Ñĭ":7857,"ĠÐ±Ò±Ð¹ÑĢ":7858,"ĠÐľÐ°Ñħ":7859,"ech":7860,"ĠÐ±Ó©Ð»ÑĪÐµÐº":7861,"ĠÒĽÒ±ÑĢÐ°Ð¼Ñĭ":7862,"ĠÐ±Ð°ÑģÑĤÐ°Ð¿ÒĽÑĭ":7863,"ĠÐ½Ð°ÑĢÐ¾Ð´Ð°":7864,"ÑĥÑİÑīÐ¸Ð¹":7865,"ĠÒļÐ°Ð·Ð°ÒĽÑģÑĤÐ°Ð½Ð´Ð°ÒĵÑĭ":7866,"ÑĤÑĸÐ»ÑĸÐ³Ñĸ":7867,"ĠÒ®Ð¹":7868,"ĠÐ¸Ð½Ð´Ð¸Ð²Ð¸Ð´Ñĥ":7869,"ĠÑģÐ¾Ð½":7870,"ĠÐ¿Ð¾Ð²ÑĤÐ¾ÑĢ":7871,"ĠÐ½ÐµÐ³":7872,"ĠÐŁÐ¾Ð¼":7873,"ĠÐ¶Ò¯Ð»":7874,"Ð´Ð¾ÑĢÐ¾Ð¶":7875,"ĠÐ¿ÐµÑĢÐµÐº":7876,"ĠÐ¾ÑĤÐºÑĢÑĭÐ»":7877,"Cont":7878,"ĠÐ°Ð·Ð°Ð¼Ð°ÑĤ":7879,"gy":7880,"TI":7881,"ĠÐºÐ¾Ð¼Ð¸ÑģÑģÐ¸Ð¸":7882,"ÑĢÑİ":7883,"GR":7884,"Ð¸ÑĤÑĭÐ½":7885,"ĠÒĽÐ°ÑĥÐ»":7886,"ĠÑģÐ¾Ð¾Ð±ÑīÐ°Ð»Ð¾ÑģÑĮ":7887,"ÑĨÐµÐ¼":7888,"ĠÑĤÐ°ÒĵÐ°Ð¼":7889,"ĠÑĤÒ±ÑĢÑĭÐ¿":7890,"ĠÐºÐ¾Ð´ÐµÐºÑģ":7891,"ĠÐ¾ÑĦÐ¾ÑĢÐ¼":7892,"ĠÐ¼ÐµÑģÑĤÐ°Ð¼Ð¸":7893,"ÐĳÐ°ÑĢÑĭÑģ":7894,"ĠÑģÑĤÑĢÑĥÐºÑĤÑĥ":7895,"ĠÐ¿ÐµÑĢÐµÐ¿":7896,"ĠÐ¿ÑĢÐµÐ´Ð¿ÑĢÐ¸ÑıÑĤÐ¸Ð¹":7897,"2021":7898,"ĠÐ¿ÑĢÐ¸Ð·Ð½Ð°Ðº":7899,"ÑĦÐ°":7900,"ĠÑĤÐ°ÑĢÐ¼Ð°ÒĽ":7901,"ĠÐ±Ñİ":7902,"ĠII":7903,"ĠÐ»Ð¾Ðº":7904,"ĠÐ¿ÐµÑĢÐµÑĩ":7905,"ĠÑģÐ¾ÑĢÐµÐ²Ð½Ð¾Ð²":7906,"Ð¸Ð½Ð¾Ð¹":7907,"ÑĸÑĢÑĸÐ¿":7908,"Ð±Ð¸Ð½":7909,"ÐŀÐ¡":7910,"ĠÐ²Ð¸Ð½Ð¾Ð²":7911,"ĠÑĢÐ°ÑģÑĩÐµÑĤ":7912,"ĠÐ¾ÑĤÑĩÐµÑĤ":7913,"ĠÐ¶Ð¾Ð»Ð´Ð°":7914,"ĠÐ¡Ð¾Ð»ÑĤÒ¯ÑģÑĤÑĸÐº":7915,"ÐĲÐ²":7916,"ĠÑĥÐ°ÒĽÑĭÑĤÑĭ":7917,"ĠÑĤÐ°Ð»ÒĽ":7918,"ĠÑģÐ°Ð¼Ð¾Ð¼":7919,"ĠÐļÐ¾":7920,"ĠÑģÐ¾ÐºÑĢÐ°ÑĤ":7921,"ĠÐ¾ÑĤÑĭÑĢÐ°Ð´Ñĭ":7922,"ÑİÑīÐ¸Ð¼":7923,"ĠÓĻÐ´ÑĸÑģÑĤÐµÐ¼ÐµÐ»ÑĸÐº":7924,"ĠÐ¿ÑĢÐ°Ð²Ð¾Ð¾ÑħÑĢÐ°Ð½":7925,"Ò±ÑĢÐ°ÒĽ":7926,"ĠÐĺÑģÑĤ":7927,"ÒļÐļ":7928,"ĠÑģÐ¾ÑĨÐ¸Ð°Ð»ÑĮÐ½Ð¾":7929,"ĠÐ²Ð¾Ð·ÑĢÐ°ÑģÑĤ":7930,"ĠÑįÐ¼Ð¾":7931,"ÑĦÐ¸ÐºÐ°ÑĨÐ¸Ð¸":7932,"ĠÐ¾Ð±ÑıÐ·Ð°Ð½":7933,"ĠÐ¿ÑĢÐ¸Ð·Ð½Ð°Ð»":7934,"Ð¶ÐµÐ½Ð¸Ð¸":7935,"Ð»Ð°ÑĢÐ´Ð°":7936,"ĠÐ³ÑĥÐ¼Ð°Ð½":7937,"ĠÐ¿ÑĢÐ¾ÑĨÐµÐ½ÑĤÐ°":7938,"Ð¸Ð»ÐµÑĤ":7939,"Ð´Ð°Ð¼Ð¸":7940,"ĠÐºÐ¾ÑĢÐ¿Ð¾ÑĢÐ°":7941,"ĠÒĽÐ°ÑĢÐ°Ð¼Ð°ÑģÑĤÐ°Ð½":7942,"ĠÐ¿ÑĢÐ¾Ð²ÐµÐ»":7943,"ĠÐ¿ÓĻÐ½Ñĸ":7944,"ĠÐ¶Ð°Ð·ÑĭÐ¿":7945,"ĠÐĲÐ»ÑĤÑĭÐ½":7946,"ÑĤÑĭÐµ":7947,"ÑģÐ°Ð¼":7948,"ÐµÐ·Ð´Ðµ":7949,"Ð¸Ð½ÑģÐºÐ¸Ð¹":7950,"ĠÐ°Ð»ÒĵÐ°Ð½Ð´Ð°":7951,"ĠÐ±ÐµÑĢÑĸÐ»Ð´Ñĸ":7952,"Ad":7953,"ÑĸÐ»Ñĥ":7954,"ĠÐ¶Ó©Ð½Ð´ÐµÑĥ":7955,"ÑĪÑĸÐ»Ñĸ":7956,"amp":7957,"ender":7958,"ĠÐ¾ÑģÐ½Ð¾Ð²Ð½Ð¾Ð¼":7959,"Ð¾Ð³ÑĢÐ°ÑĦÐ¸ÑıÐ»ÑĭÒĽ":7960,"ÒĽÐ°ÑĪÐ°Ð½":7961,"ÐºÑĸÐ»ÐµÑĤÑĤÑĸ":7962,"Ð»Ð°ÑĤÑĭ":7963,"ÑĥÑĪÑĭÑģÑĭ":7964,"Ð°ÒĵÑĭÐ½Ð°":7965,"ĠðŁ":7966,"ĠÐ·Ð°Ð¿ÑĢÐµÑī":7967,"46":7968,"ĠÐµÑĤÑĥÐ³Ðµ":7969,"ĠÐ¾Ð±ÐµÑģÐ¿ÐµÑĩÐ¸ÑĤÑĮ":7970,"ĠÐ¾ÑĤÐ²ÐµÑĩ":7971,"ÑĨÐ¸Ð¾Ð½Ð½ÑĭÐ¹":7972,"ĠÐºÒ¯Ð·":7973,"ĠÐ´ÐµÐ»Ðµ":7974,"Ð¸Ð»Ñı":7975,"ĠÓ©Ð½ÑĸÐ¼Ð´Ñĸ":7976,"%)":7977,"ÐºÑĤÐ¾ÑĢ":7978,"ĠÐ¿ÑĢÐµÐ·Ð¸Ð´ÐµÐ½ÑĤÑĸ":7979,"ĠÑĤÒ¯ÑģÑĸÐ¿":7980,"ĠÐĲÐ²ÑĤÐ¾ÑĢ":7981,"Ð¶ÐµÐ½Ð¸Ðµ":7982,"ĠÑĨÐµÐ»ÑıÑħ":7983,"ÐµÐ½Ð¸ÑıÐ¼Ð¸":7984,"ĠÐ¶Ð°ÒĵÐ´Ð°Ð¹Ð»Ð°ÑĢÐ´Ð°":7985,"ĠÐ¿ÑĢÐ¾Ð¸ÑģÑĪÐµ":7986,"ĠÐ´Ð°ÑĥÑĭÑģ":7987,"ĠÐŀÑģÑĭÐ»Ð°Ð¹":7988,"ÑģÑĭÒ£":7989,"ĠÐĴÐ¾ÑĤ":7990,"ĠÐ²Ð¾Ð·Ð´ÑĥÑħÐ°":7991,"html":7992,"ĠÐ¶Ð°Ò£ÒĵÑĭ":7993,"ĠÐ¼Ð°ÑĤÑĩÐµ":7994,"ĠÐ±Ð°ÒĵÐ°ÑģÑĭ":7995,"ĠÐĲÑĥÑĭÐ»":7996,"ÐµÑĢÐ±Ð°Ð¹":7997,"ĠÐ¿ÑĢÐ¾ÑĦÐµÑģÑģÐ¾ÑĢ":7998,"ĠÐļÓ©Ðº":7999,"ĠÑĦÐ¸Ð³":8000,"ĠÐ¶Ð¾Ð»Ð´Ð°ÑĢÑĭ":8001,"ĠÐ¿ÑĢÐ¾Ð²Ð¾Ð´Ð¸ÑĤÑģÑı":8002,"ĠÑĤÐµÒ£Ð³ÐµÐ³Ðµ":8003,"ĠÐ´ÐµÐ»Ñĥ":8004,"ĠÐ²ÐµÐ´ÑĮ":8005,"ÑģÐ°Ð¹":8006,"ĠÑĢÐµÐ·ÑĥÐ»ÑĮÑĤÐ°ÑĤÑĭ":8007,"ĠÐ¶Ð°ÑĢÑĤÑĭ":8008,"ĠÐĳÐ¾ÑĢ":8009,"Ð¸ÑĤÐµÐ»ÑĮÐ½Ð¾Ðµ":8010,"Ð»ÐµÑģÑĤ":8011,"ĠÑĤÑĥÑĭÐ½Ð´Ñĭ":8012,"ĠÐ¶ÐµÑĢÑĤÐ²":8013,"Ð´ÐµÑĥÐ³Ðµ":8014,"ÒĽÐ¸Ð¼ÑĭÐ»":8015,"Ð´ÑĭÐ½":8016,"ĠÐ¼Ð¾Ð³Ð»Ð¸":8017,"ĠÐ¼Ò±ÒĵÐ°Ð»ÑĸÐ¼":8018,"ĠÑĤÐ¾ÒĽÑĤÐ°ÑĤ":8019,"ĠÐĺÑĤÐ°Ð»":8020,"ÑĢÐ»ÑĭÒĽ":8021,"ĠÐ¡Ð°Ð¹":8022,"ĠÐ²Ð¾Ð·Ð¼Ð¾Ð¶Ð½Ð¾":8023,"Ð¿Ð¸Ñı":8024,"Ð¾ÑĩÐ½Ð¾Ð³Ð¾":8025,"ĠÐĺÐ½ÑĤÐµÑĢÐ½ÐµÑĤ":8026,"ĠÑģÐµÐ³Ð¾Ð´Ð½ÑıÑĪÐ½Ð¸Ð¹":8027,"ĠÑĤÐ¾Ð¿Ð»Ð¸Ð²":8028,"Ð¹ÑĤÐ¸":8029,"ÑĦÐ¸ÐºÑģ":8030,"ĠÑģÐ¸ÑĤÑĥÐ°ÑĨÐ¸Ñİ":8031,"ĠÐ¸Ð½ÑĦÑĢÐ°ÑģÑĤÑĢÑĥÐºÑĤ":8032,"ĠÑģÐ°Ð¼Ð¾Ðµ":8033,"ĠÐ¿ÑĢÐ¾ÑģÑĤÑĢÐ°Ð½":8034,"ĠÑĤÒ±Ð¶ÑĭÑĢÑĭÐ¼":8035,"ĠÐµÑģÐµÐ¿ÑĤÐµÑĥ":8036,"ĠÐ±ÑĥÐ¼Ð°":8037,"ĠÐ´ÑĢÑĥÐ·ÑĮÑı":8038,"Ġhttp":8039,"Ð¿Ð°Ð½Ð¸Ð¸":8040,"ĠÐ±ÐµÐ»Ð³ÑĸÐ»ÐµÑĢ":8041,"Ð¿ÑĤ":8042,"ĠÐĲÐ³ÐµÐ½ÑĤ":8043,"ĠÐ±Ð¾ÐºÑģ":8044,"ĠÐ¡ÑĤÐ¾":8045,"ÑĪÑĸÐ»":8046,"ĠÐ¿Ð°ÑĢÐ°":8047,"ÑĦÐ¾ÑĤÐ¾":8048,"ÐļÐ°Ðº":8049,"ÒĽÐ°ÑĤÑĭÐ½Ð°Ñģ":8050,"ĠÐ¸Ð³ÑĢÑĭ":8051,"________________":8052,"ĠÐ¿Ð¸":8053,"ÐµÑĢÐ±":8054,"ĠÐ¶Ò¯ÑĢÐµ":8055,"ĠÐ±Ó©Ð»Ñĥ":8056,"ĠÑįÐ²":8057,"ĠÑĤÑĸÑĢÑĪÑĸÐ»ÑĸÐº":8058,"ÐµÑĤÑĥ":8059,"Ð¸Ð½ÑģÐºÐ°Ñı":8060,"ĠÑħÑĥÐ´":8061,"ÐĨÐļ":8062,"ĠÐºÓ©ÑĢÑĸÐ½ÐµÐ´Ñĸ":8063,"Ġ47":8064,"ĠÐŁÐµÑĤÑĢÐ¾Ð¿Ð°Ð²Ð»":8065,"ĠÐ·Ð°Ð²Ð¸ÑģÐ¸Ð¼Ð¾ÑģÑĤÐ¸":8066,"ĠÐ¿Ð¸Ñī":8067,"Ġwhich":8068,"ĠÑģÐ¼ÐµÑĢÑĤÐ¸":8069,"ĠÐºÑĸÑĤÐ°Ð¿ÑħÐ°Ð½":8070,"ĠÐºÑĥÐ±":8071,"ens":8072,"ĠÑĢÐµÐ¹ÑĤÐ¸Ð½Ð³":8073,"ĠÐ½Ð¸Ð¶Ðµ":8074,"ÑĤÐµÑħÐ½Ð¸ÐºÐ°Ð»ÑĭÒĽ":8075,"ĠÑĢÐ¾Ð´ÑģÑĤÐ²ÐµÐ½":8076,"Ð»ÑıÑİÑĤÑģÑı":8077,"ĠÐ°Ð¹ÑĤÑĭÐ»ÒĵÐ°Ð½":8078,"Ð¸ÑĩÐ½Ð¾":8079,"ĠÐ¶ÐµÐ»ÑĸÐ»ÐµÑĢ":8080,"ĠÑĤÑĢÐ°Ð½ÑģÐ¿Ð¾ÑĢÑĤÐ°":8081,"ĠÐĨÑĪ":8082,"ĠÐ²Ð¾ÐµÐ½Ð½Ð¾":8083,"ÑĩÑĮ":8084,"ĠÐ¾ÑĤÐ´Ñĭ":8085,"ĠÐ¾Ð±Ð»Ð°ÑģÑĤÑıÑħ":8086,"ĠÐ°ÑĪÑĥ":8087,"ĠÐ¾Ð¿ÐµÑĢÐ°ÑĤÐ¾ÑĢ":8088,"ĠÐľÐ°Ñģ":8089,"ĠÐ¼Ð¸Ð½Ð¸ÑģÑĤÑĢÐ°":8090,"âĦĸ":8091,"ĠÐºÒ¯ÑĢÐµ":8092,"ĠÐ¼Ð¾Ð½Ð¾":8093,"cent":8094,"ĠÐ¼ÐµÑĩ":8095,"ĠÑĪÐ°Ñħ":8096,"Ð¸Ð·Ð½ÐµÑģ":8097,"ĠÑĦÐ¾ÑĢÑĥÐ¼":8098,"Ð»Ð°Ð½Ð°":8099,"ĠÐµÑĢÑĸÑĤÑĸÐ½Ð´Ñĸ":8100,"ĠÐ½Ð¾ÑĢÐ¼Ð°ÑĤÐ¸Ð²":8101,"ĠÐ½ÓĻÑĢÑģÐµ":8102,"ÑĩÐ¸ÐºÐ¾Ð²":8103,"ĠÐ¢Ð°ÑĢÐ°Ð·":8104,"ĠÐ¿Ð°ÑĢÐ°ÒĽÑĪ":8105,"ÒĽÐ°Ð±":8106,"ĠÑĩÐµÑĤÑĭÑĢÐµÑħ":8107,"ĠÐ´Ð¸ÑĢÐµÐº":8108,"Ð´Ð°Ð½Ð´ÑĭÑĢÑĥ":8109,"ÑĢÐµÐ¼ÐµÐ½Ð½Ð¾":8110,"ĠÐĶÐ¾Ñģ":8111,"ÐµÑĢÑĥ":8112,"Ġ$('#":8113,"ÑĤÐµÑħÐ½":8114,"ĠÐºÐ¾Ð¼Ð¸ÑĤÐµÑĤÐ°":8115,"ĠÓĺÐ´Ñĸ":8116,"ÐºÐ¾Ð²Ð°":8117,"ĠÑģÐ¼ÐµÐ½":8118,"ĠÐºÐµÐ¿ÑĸÐ»":8119,"ĠÐ°Ð¿ÑĤÐ°":8120,"Ð¾Ð½Ð°ÑĢ":8121,"ÐºÐ»ÑİÑĩ":8122,"ĠÐŁÐ°Ð¹":8123,"ĠÑģÐ°Ð½Ð°Ð»Ð°Ð´Ñĭ":8124,"Ð»ÐµÑĢÑĸÐ½":8125,"ĠÐ³Ð»Ð°Ð²Ð½ÑĭÐ¹":8126,"ĠÐ¸Ð¼Ð¿":8127,"ĠÐ±Ð°Ð»Ð°Ð»Ð°ÑĢÒĵÐ°":8128,"ĠÐ½ÑĭÒĵ":8129,"ĠÐ¶Ð°ÑĤÑĤÑĭÒĵÑĥ":8130,"umber":8131,"ĠÐ¿Ð°Ð¹Ð´Ð°Ð»Ñĭ":8132,"ĠÐ½ÐµÐ¸Ð·Ð²ÐµÑģÑĤ":8133,"Ð½Ð°Ð»Ð´ÑĭÒĽ":8134,"ĠÐļÑĭÑĢÐ³ÑĭÐ·ÑģÑĤÐ°Ð½Ð°":8135,"ĠÒĽÒ±ÒĽÑĭÒĵÑĭ":8136,"Ð¸ÑĢÐ°":8137,"ĠÓ©Ð»ÑĸÐ¼":8138,"ĠÐ°ÐºÐ¸Ð¼Ð°ÑĤÐ°":8139,"ĠÐĲÐ¹ÑĤ":8140,"ĠÑģÐ°Ð¼Ð¾ÑģÑĤÐ¾ÑıÑĤÐµÐ»ÑĮ":8141,"ĠÐ´Ð½Ð¸":8142,"ĠÐµÑĪÐºÑĸÐ¼":8143,"ĠÐºÐ²Ð°Ð»Ð¸":8144,"ÑĤÐ°Ð¹ÑĤÑĭÐ½":8145,"ĠÐ¶Ð°Ð·ÒĵÐ°Ð½":8146,"roup":8147,"ĠÐ·Ð½Ð°ÐºÐ¾Ð¼":8148,"date":8149,"ON":8150,"ĠÑģÐµÐ½ÑĸÐ¼Ð´Ñĸ":8151,"ĠÐ±Ð¾Ð³":8152,"ÑģÑĤÐ¾ÑıÑĤÐµÐ»ÑĮ":8153,"ĠÐ¼ÐµÑĢÐ·ÑĸÐ¼Ð´Ñĸ":8154,"ĠâĨ":8155,"ĠÐ±ÐµÐºÑĸÑĤÑĸÐ»Ð³ÐµÐ½":8156,"ĠÐ¶Ð°Ð»ÒĵÑĭÐ·":8157,"ĠÑĤÒ±Ð»ÒĵÐ°Ð»Ð°ÑĢ":8158,"ĠÐĵÐ¾Ð»Ð¾Ð²ÐºÐ¸Ð½":8159,"ĠÐ´ÐµÐ¹ÑģÑĤÐ²Ð¸Ð¹":8160,"Ð»Ð°Ð³Ð¾Ð´Ð°ÑĢ":8161,"ÑĤÐ°ÑĢÑĭÐ½Ð´Ð°":8162,"stana":8163,"ĠÐ²ÐµÐ´Ð¾Ð¼ÑģÑĤÐ²Ð°":8164,"ÐŀÑĤ":8165,"ÑģÐ°Ò£":8166,"Ġ1000":8167,"ĠÑĤÑĥÑĤ":8168,"ĠÑĢÐµÐ³Ð¸Ð¾Ð½Ð¾Ð²":8169,"ĠÑĪÐ°Ð¼Ð°Ð¼ÐµÐ½":8170,"ĠÐµÑĢÑĤÐµ":8171,"ÐķÑĢ":8172,"ĠÐĵÐ¾ÑģÑĥÐ´Ð°ÑĢ":8173,"ĠÑĤÑĥÑĢÐ¸":8174,"Ð¸ÐºÐ°ÑģÑĭ":8175,"ĠÐŁÐ¾ÑĢ":8176,"Â»:":8177,"ong":8178,"ĠÐºÐµÑĤÐµÐ¹ÑĸÐº":8179,"ĠÐ½Ð°Ð¿ÑĢÐ°Ð²Ð»ÐµÐ½Ð¸Ñı":8180,"ĠÐ¿Ð¾Ð¸ÑģÐº":8181,"ĠÑĦÐ°ÐºÑĤÑĥ":8182,"Ð½Ð¾Ð²ÑĮ":8183,"ĠÓĻÑģÐºÐµÑĢ":8184,"ĠÐ¼Ð°ÑĢÐ°Ð¿Ð°ÑĤ":8185,"ite":8186,"ĠÐºÐ¾Ð½ÑģÑĥÐ»ÑĮ":8187,"ÒĽÑĭÐ·Ñĭ":8188,"ĠÐ¾ÑģÐ°Ð´":8189,"ÑĥÐ±ÐµÐ¶":8190,"ÑĥÑħÐ³Ð°Ð»":8191,"ĠÐºÐ°ÑģÐ°ÐµÑĤÑģÑı":8192,"Ð°ÐµÑĤÐµ":8193,"ug":8194,"Ð½Ð¸Ñģ":8195,"ĠÐ·ÐµÐ¹Ð½ÐµÑĤÐ°ÒĽÑĭ":8196,"ĠÑĥÐ»Ð¸ÑĨÐµ":8197,"ĠÑī":8198,"ÐµÐºÑĤÐµÑĢ":8199,"ĠÑĢÐ°Ð±Ð¾ÑĩÐ¸Ñħ":8200,"ĠÒĽÒ±ÑĢÐ°Ð¼ÑĭÐ½Ð´Ð°":8201,"ĠÐĺÐ¼":8202,"ĠÑģÐ¾ÑģÑĤÐ°Ð²Ðµ":8203,"Ð±ÐµÑĢÐ³ÐµÐ½":8204,"Ð»Ð¸ÑĪ":8205,"ÑĩÐ¸Ð½Ð¾Ð¹":8206,"ĠÐ¼Ð°ÑĤÐµÑĢÐ¸Ð°Ð»Ð´ÑĭÒĽ":8207,"ĠÐķÐ²ÑĢÐ¾Ð¿Ñĭ":8208,"ÒĵÒ±ÑĢ":8209,"Ð¾ÑģÑĭ":8210,"Ð´ÑĭÒĽÒĽÐ°":8211,"ÑĢÐ¸ÑĩÐµÑģÐº":8212,"ĠÐ²Ð¾Ð¾Ð±ÑīÐµ":8213,"ĠÐ¿ÑĢÐ¸Ð½ÑıÑĤÑĮ":8214,"ategory":8215,"Ð»Ð°ÑĢÑĭÐ½Ð°":8216,"Ð²Ð¾ÑģÑĤ":8217,"ĠÐºÐ¾Ð½ÑĨÐµÑĢÑĤ":8218,"ÑģÑĤÐ²ÐµÐ½Ð½Ð¾Ðµ":8219,"ÑģÐµÑĢÑĸ":8220,"Ð´ÐµÑĢÐ´Ðµ":8221,"Ð±Ð¸Ð»":8222,"Ð´Ð¾Ð¼":8223,"Ð½ÐµÐ¼Ñĥ":8224,"ĠÐ¢Ð¾Ð¿":8225,"ĠÐ°ÑĥÐ¼Ð°ÒĵÑĭÐ½Ð´Ð°":8226,"ÐµÑĩÐ°ÑĤ":8227,"Ð´ÐµÐ²":8228,"ĠÐ¿ÑĢÐ¸Ð½ÑıÐ»":8229,"Ð¾Ð²Ð¸Ñĩ":8230,"ĠÐ¿ÑĢÐµÑģÑĤÑĥÐ¿Ð»ÐµÐ½Ð¸Ñı":8231,"ash":8232,"ors":8233,"ÑİÑīÐµÐ¹":8234,"ĠÐµÐº":8235,"ĠÑĤÒ¯ÑģÑĸÐ½Ð´ÑĸÑĢÑĥ":8236,"ĠÐ¿Ð¾Ð´Ð´ÐµÑĢÐ¶ÐºÐ¸":8237,"ĠÐ¾Ð¿ÑĤÐ¸Ð¼":8238,"ÐĺÐ¢ÐĲ":8239,"Ð±ÑĸÑĤ":8240,"ÑĪÐ¸ÑħÑģÑı":8241,"ĠÑĤÓ©Ð»ÐµÑĥ":8242,"ĠÐŁÐ¾Ð·":8243,"ĠÑģÑĩÐ¸ÑĤÐ°ÑİÑĤ":8244,"Ð¾ÑĤÐ¾Ð¹":8245,"ÑĥÐ´ÐµÐ±":8246,"ĠÐ»Ð¸Ð¼":8247,"Ð»ÐµÐ²":8248,"ĠÑĢÐ°Ð±Ð¾ÑĤÐ½Ð¸ÐºÐ¾Ð²":8249,"ĠÐ¶ÐµÑĤÑĤÑĸ":8250,"ĠÐºÐ»Ð¸Ð¼":8251,"ÑĤÐµÐ·":8252,"ĠÐ¿Ð¾Ð´Ð´ÐµÑĢÐ¶ÐºÑĥ":8253,"ĠÒĽÒ±ÑĤÑĤÑĭÒĽ":8254,"Ð´Ð¶":8255,"ĠÑģÑİ":8256,"Ð°ÑĥÐ¸":8257,"ĠÐĴÐ°Ð»":8258,"Ð¾ÑĢÐ²":8259,"ĠÐŀÑĢÐ³Ð°Ð½":8260,"ÑĢÐµÐ»ÑĮ":8261,"ĠÑģÑĤÐ°ÑĤÑĮÐ¸":8262,"Ð¸ÑĢÑĥÐµÑĤÑģÑı":8263,"ĠÐ¶Ð°ÑĥÐ°Ð¿ÐºÐµÑĢÑĪÑĸÐ»ÑĸÐº":8264,"Ð¼ÐµÑĤÐ¸Ð¼":8265,"ĠÐĺÑĢ":8266,"ĠÐ¿ÑĢÐ¸Ð½ÑıÐ»Ð¸":8267,"ĠÐ¸ÑģÐ¿Ð¾Ð»ÑĮÐ·Ð¾Ð²Ð°Ð½Ð¸Ñı":8268,"Ð°ÑıÑģÐ¸":8269,"ube":8270,"ĠÐ±Ð»Ð¾Ð³":8271,"ĠÐ¿Ð¾Ð»ÑĥÑĩÐµÐ½Ð¸Ñı":8272,"Ġwill":8273,"show":8274,"ĠÒĽÐ°ÑĤÑĭÑģÑĥÑĪÑĭÐ»Ð°ÑĢ":8275,"ĠÐ¼ÐµÑĢÐ·ÑĸÐ¼Ñĸ":8276,"ents":8277,"ĠÐ¼Ð°Ð»Ñĭ":8278,"109":8279,"ÐĿÐ°Ð·Ð°ÑĢÐ±Ð°ÐµÐ²":8280,"ĠÐ±Ò±ÒĵÐ°Ð½":8281,"Ð¸Ð½Ð³Ðµ":8282,"Ð¸ÑıÐ¼Ð¸":8283,"ĠÐ´Ð²Ð¸Ð³":8284,"ĠÑĤÑĭÑĢÑĭÑģ":8285,"ĠÐ¼Ð¸ÑĤ":8286,"ĠÐ¶Ð°ÑĥÐ°Ð¿ÑĤÑĭ":8287,"ĠÐ¾Ð²":8288,"ĠÐĴÐµÐ´":8289,"ÓĻÑĢÐ±Ð¸Ðµ":8290,"ĠÐ±ÐµÑĢÐµ":8291,"ÑĭÑģÑĤÐ°ÑĢÐ´ÑĭÒ£":8292,"ĠÐłÐ¸Ñģ":8293,"ĠÑģÐ¾Ð²Ð¼ÐµÑģÑĤÐ½Ð¾":8294,"ÑĤÑĸÐ·":8295,"Ð»Ð¸ÑĨÐ°":8296,"ĠÐ»ÐµÑģ":8297,"ĠÐ±Ð¾Ð»ÒĵÐ°Ð½Ð´ÑĭÒĽÑĤÐ°Ð½":8298,"ĠÑĪÑĭÒĵÑĥ":8299,"ĠÐ½ÐµÑģÐ¸Ðµ":8300,"ĠAn":8301,"ÐºÑĤÐµÐ½":8302,"ĠÑģÐ¸ÑģÑĤÐµÐ¼Ñĥ":8303,"ĠÒļÐ¾Ñģ":8304,"ÐĨÐĽ":8305,"ĠÐ°Ð¶ÑĭÑĢ":8306,"ĠÒĽÒ±ÑĢÐ°Ð´Ñĭ":8307,"ĠÑģÐ°Ð¼Ð¸":8308,"Ġ&":8309,"ĠÑģÐ¾ÒĽ":8310,"Element":8311,"ĠÑĤÐ°ÑĥÑĭÐ¿":8312,"evel":8313,"ĠÐ´Ð¾Ð»Ð»Ð°ÑĢÐ°":8314,"ÒĵÑĭÐ½Ð°Ð½":8315,"Ð´Ð¾ÑĢÐ¾Ð²":8316,"Ð°Ð¼ÐµÐ´":8317,"ĠÐ¿Ð¾Ð³Ð¾":8318,"ĠÐ¿ÑĢÐ¾ÑĤÑı":8319,"ĠÑģÐ°Ð»Ð´Ð°ÑĢÑĭÐ½Ð°Ð½":8320,"Ò°Ð»":8321,"ĠÓĻÐº":8322,"ĠÐ°ÑĢÐ°Ð»Ð°Ñģ":8323,"ÑĤÒ¯Ð»ÑĸÐº":8324,"ÐĲÐ£":8325,"ĠÐ²Ð¾Ð²":8326,"ĠÐ£Ðļ":8327,"ÑĭÐ²Ð°Ñı":8328,"ĠÒ¯Ð½ÐµÐ¼Ñĸ":8329,"ĠÐ±Ò±Ð¹ÑĭÐ¼":8330,"ĠÐļÐ¾ÑģÑĤÐ°Ð½Ð°Ð¹ÑģÐºÐ¾Ð¹":8331,"Ð¶ÐµÐ¹":8332,"Ð´Ð°Ð½Ñĥ":8333,"Ð´Ð°Ð»Ð´Ñĭ":8334,"ĠÐĸÐ°Ð¿":8335,"Ġ400":8336,"ĠÐ°ÑĥÐ´Ð¸ÑĤ":8337,"ĠÒĽÒ±Ð±ÑĭÑĢ":8338,"ĠÐĲÐ±Ð´":8339,"ĠÐ¼ÓĻÑģÐ»":8340,"ĠÐ¾ÑģÑĤÐ°ÐµÑĤÑģÑı":8341,"ĠÐĿÐ¸":8342,"ĠÐŁÐ°Ð²Ð»Ð¾Ð´Ð°ÑĢÑģÐºÐ¾Ð¹":8343,"ĠÐ°Ð±ÑģÐ¾Ð»ÑİÑĤ":8344,"olog":8345,"ĠÐ°Ð»ÐºÐ¾Ð³":8346,"ĠÐ°ÑĥÐ»":8347,"box":8348,"Ð±Ð°Ð½Ðº":8349,"ĠÐŀÑģÑĭÒĵÐ°Ð½":8350,"ÑģÑĭÐ»ÑĭÒĽ":8351,"ĠÐ¼Ð³":8352,"ĠÐĶÐµÐ¿Ð°ÑĢÑĤÐ°Ð¼":8353,"Ð°ÐºÐ°":8354,"ĠÑĢÐ°ÑģÑģÑĩÐ¸ÑĤ":8355,"ĠÑĤÒ±Ð·":8356,"ĠÑĥÑĩÐ¸ÑĤ":8357,"ĠÐ½ÐµÐ³ÑĸÐ·Ñĸ":8358,"ĠÒĽÑĭÐ·ÑĭÐ»":8359,"ĠÐ±Ð°ÑģÑĤÐ°Ð»Ð´Ñĭ":8360,"Ð¼Ð¸ÑĢ":8361,"ĠÐºÐ°Ð½Ð°Ð»":8362,"ĠÐ²Ð½Ð¾Ð²ÑĮ":8363,"ĠÒĽÐ°Ð¹ÑĤÑĭÑģ":8364,"ĠÐĹÐ´ÐµÑģÑĮ":8365,"ĠÐĳÒ±ÒĵÐ°Ð½":8366,"Ġall":8367,"ystem":8368,"ĠÑģÐ¸Ð»Ñĭ":8369,"44":8370,"ĠÒĽÐ¾Ð¹ÑĭÐ»ÒĵÐ°Ð½":8371,"ĠÐ´Ó©":8372,"ĠÑĪÐ°ÑĢÐ°":8373,"Ð°Ð´ÑĢÐ°ÑĤ":8374,"ĠÐ¸Ð½Ð²ÐµÑģÑĤÐ¸ÑĨÐ¸Ð¹":8375,"ĠÐłÐ¾Ð´":8376,"oy":8377,"ĠÑģÐ¼Ð¾Ð³ÑĥÑĤ":8378,"Ð°ÑĤÐ°ÑĢ":8379,"ĠÐ±Ò±ÑĢÑĭÑĪ":8380,"ĠÐºÐ»ÑĥÐ±Ð°":8381,"ĠÐ¿Ð¾Ð´ÐµÐ»":8382,"Ð·Ð²ÑĥÑĩ":8383,"Ġwas":8384,"ĠÐķÐ²ÑĢÐ°Ð·":8385,"Ð¼ÐµÑĤÑĮ":8386,"ĠÒĽÒ±ÑĢÑĭÐ»ÑĭÐ¼Ñĭ":8387,"Ð»ÑĥÐ¶":8388,"ĠÑĢÐµÐ³":8389,"ÐºÑĸÑĢÑĤ":8390,"ĠÒĽÑĭÐ¼Ð±Ð°ÑĤ":8391,"ĠÐ¶Ð°Ð·Ð±Ð°":8392,"ĠÐ¿Ð°ÑĢÐ»Ð°Ð¼ÐµÐ½ÑĤ":8393,"ĠÑĤÐ°Ð½ÑĭÐ¼Ð°Ð»":8394,"ÑĢÐµÐ·Ð¸Ð´ÐµÐ½ÑĤ":8395,"ĠÐ´ÓĻÑĥÑĸÑĢ":8396,"ĠÐĸÐµÐ½":8397,"Ġ49":8398,"ĠÒĽÐ¾ÑģÑĥ":8399,"ĠÐ¸Ð½ÑĤÐµÑĢÐµÑģÐ½Ð¾":8400,"ĠÐ»Ð°Ð±Ð¾ÑĢÐ°ÑĤÐ¾ÑĢ":8401,"Ð»ÐµÑĤÐ½ÐµÐ³Ð¾":8402,"ĠÐ¿ÑĢÐµÐ´ÑĥÐ¿ÑĢÐµÐ¶":8403,"ÑĭÑģÑĤÐ°ÒĵÑĭ":8404,"ĠÑģÐ°Ð¼Ð¾Ð»":8405,"ĠÓĻÐ´ÐµÐ±Ð¸ÐµÑĤÑĸ":8406,"Ð´Ð°Ð½ÑĭÒ£":8407,"ÑģÐ¿ÑĸÑĢ":8408,"ĠÑĤÑĢÐ°Ð½Ð·":8409,"ĠÑĤÐµÐ»ÐµÐ²":8410,"ĠÐ¿ÑĢÐ¾ÑĦÐ¸Ð»Ð°ÐºÑĤ":8411,"ÑĢÐ¸Ñı":8412,"Ð±ÑĥÑĢ":8413,"Ð´Ð°ÑĢÑĭÐ¼ÐµÐ½":8414,"ĠÑģÐ¸Ð¼Ð²Ð¾Ð»":8415,"Ð¸Ð»Ð»":8416,"ĠÑĩÐ¸ÑģÐ»Ð°":8417,"ÐºÑĤÐµÐ¼":8418,"ÑĪÐ°Ð¼Ð°":8419,"100":8420,"ÐĳÐ°Ð¹":8421,"ĠWB":8422,"ÑģÑĤÐ²ÐµÐ½Ð½Ð°Ñı":8423,"ĠÒ¯Ð½":8424,"ĠÐ¿ÐµÐ²":8425,"ĠÐ·Ð´Ð¾ÑĢÐ¾Ð²ÑĮÑı":8426,"ĠÐºÐµÐ·ÐµÒ£Ñĸ":8427,"ĠÑģÐ¿ÑĢÐ¾Ñģ":8428,"ĠÐ½ÐµÐ¾Ð±ÑħÐ¾Ð´Ð¸Ð¼Ð¾ÑģÑĤÐ¸":8429,"ÑĤÐµÑģ":8430,"ĠÐ¶ÑĭÐ»Ð´Ð°":8431,"ĠÐºÐµÑĢÑĸ":8432,"ĠÓ©ÑĢÐºÐµÐ½":8433,"ĠÐ¶Ð¸Ð»ÑĮÑı":8434,"ÑĥÑħÐ³Ð°Ð»ÑĤÐµÑĢ":8435,"ĠÑĦÐ°ÐºÑĥÐ»ÑĮÑĤ":8436,"Ð°Ð¼Ð±ÐµÑĤÐ¾Ð²":8437,"Ð¸ÑĢÑĥÑĢÐ³":8438,"ĠÐ¿Ð¾ÐµÐ·Ð´":8439,"ÑĩÐµÐ½ÐºÐ¾":8440,"ĠÐ§ÐµÐ¼":8441,"ĠÐ½ÐµÐ²":8442,"evelop":8443,"ÐľÐľ":8444,"ĠÐ°ÒĵÑĭÐ»ÑĪÑĭÐ½":8445,"ĠÑħÐ°Ð»ÒĽÑĭ":8446,"ĠÐ´Ð¾Ð¼Ð°ÑĪ":8447,"ĠÑģÐµÐ·ÑĸÐ¼":8448,"ĠÑĤÓ©ÑĢ":8449,"ÑıÑīÐ¸Ñħ":8450,"ĠÐºÐ°Ð·Ð°ÑħÑģÑĤÐ°Ð½ÑģÐºÐ¾Ð³Ð¾":8451,"Ð¿ÐµÐ¹":8452,"ĠÐ¾Ð»Ð¸Ð¼Ð¿Ð¸":8453,"ĠÒ®ÑĪ":8454,"Ð°Ð½Ð½ÑĭÑħ":8455,"ÑĢÑıÐ·":8456,"ĠÐĵÐ¾ÑĢ":8457,"ĠÑįÐºÑģÐ¿ÐµÑĢÑĤÐ¸Ð·":8458,"ĠÐ±Ð°ÑģÑĪÑĭÑģÑĭÐ½ÑĭÒ£":8459,"Ð¸ÑģÑĤÐ°":8460,"ÐºÑĢÐµÐ´Ð¸ÑĤ":8461,"ĠÑĤÑĢÐµÑĤ":8462,"ÑĥÑģÐ»Ð¾Ð²":8463,"ĠÐµÑģÐºÐµ":8464,"ĠÑĤÐµÑħÐ½Ð¾Ð»Ð¾Ð³Ð¸ÑıÐ»ÑĭÒĽ":8465,"ĠÐ¢Ò¯":8466,"ĠÐ¥Ð¾ÑĤ":8467,"ĠÐ±Ó©Ð»ÑĸÐ¿":8468,"ĠÐ·Ð°ÑĦÐ¸ÐºÑģ":8469,"ĠÐ½Ò±ÑģÒĽÐ°Ñĥ":8470,"ĠÐ¿ÑĢÐ¸ÑģÑĥÑĤ":8471,"nur":8472,"ĠÐĸÐ¾ÒĵÐ°ÑĢÑĭ":8473,"ÒĽÑĤ":8474,"ĠÑĸÑģÑĤÐµÐ¹Ð´Ñĸ":8475,"ĠÐĿÐ°Ð·Ð°ÑĢÐ±Ð°ÐµÐ²Ð°":8476,"ĠÑģÑĥÐ±ÑģÐ¸Ð´":8477,"ĠÑĸÑģÑĸ":8478,"ĠÐ±ÐµÐ½Ð·":8479,"Ð¸Ð½ÑĤÐµÑĢÐµÑģ":8480,"ĠÑģÐ¾Ò£ÑĭÐ½Ð´Ð°":8481,"ĠÐ½Ð°ÑĪÐµÐ³Ð¾":8482,"42":8483,"................................................................":8484,"ĠÐ°ÐºÑĨÐ¸Ñı":8485,"ĠÐ±Ð¾ÑģÑĤÐ°Ð½":8486,"ĠÐĿÐ¸ÐºÐ¾Ð»":8487,"ĠÐ²ÑģÑİ":8488,"ĠÐ¶Ð°ÑĤÐ°ÑĤÑĭÐ½":8489,"ym":8490,"ĠÐ¡ÑĢÐµÐ´Ð¸":8491,"ĠÑĤÐµÐ¿Ð»":8492,"ÑĤÐ°ÑĨÐ¸Ñı":8493,"ĠÐ½ÑĭÐ½ÐµÑĪ":8494,"ÐµÐºÐ¾Ð¼":8495,"ĠÑĤÒ¯Ð¿":8496,"ĠÐĳÐ°Ðº":8497,"Ð°Ð»Ð°Ð¿":8498,"ĠÐ¶Ò±Ð¼ÑĭÑģÐ¿ÐµÐ½":8499,"ĠÐºÐ¸ÑĸÐ¼":8500,"ĠÐ¶Ð°ÑģÒĽÐ°":8501,"ĠÐ¾Ð±ÑīÐµÐ¹":8502,"ĠÑĦÐ¾ÑĢÐ¼ÑĥÐ»":8503,"56":8504,"ĠÐ¼Ð¾Ð´ÐµÑĢÐ½Ð¸Ð·":8505,"ĠÐ¸ÑģÐ»Ð°Ð¼":8506,"ĠÐ¿ÑĢÐ¾Ð¸Ð·Ð²ÐµÐ´":8507,"ĠÐ½ÐµÐ´ÐµÐ»Ñİ":8508,"ĠÐ¾Ð¶":8509,"ĠÐ¿ÑĢÐ¸ÐµÑħ":8510,"ĠÒļÐ°Ð»":8511,"ĠÑģÐ°ÒĽÑĤÐ°Ð»":8512,"ĠÐ²Ð¸Ð´Ð¾Ð²":8513,"eng":8514,"ĠÐ±ÑĥÑĭÐ½":8515,"ĠÐ½ÐµÑģÐ¼Ð¾ÑĤÑĢÑı":8516,"ics":8517,"ix":8518,"ĠÐ¼Ð°Ð·Ð¼Ò±Ð½Ñĭ":8519,"ĠÒĽÑĭÑģÑĭÐ¼":8520,"Ð·Ðµ":8521,"ĠÐ¸Ð·Ð¾Ð±":8522,"ĠÐ¸Ð·ÑĬ":8523,"ĠÐ¢ÑĥÑĢÐºÐµÑģÑĤÐ°Ð½ÑģÐºÐ¾Ð¹":8524,"ĠÐŀÑĢÑĤÐ°":8525,"ÐµÐ½ÑĤÐµ":8526,"ĠÑģÐ°Ð»ÑĭÑģÑĤÑĭÑĢÒĵÐ°Ð½Ð´Ð°":8527,"Ġ2006":8528,"ĠÐ°ÑĤÐ°ÑĥÑĭ":8529,"ĠÑģÑĤÐµÐ½":8530,"ĠÑĥÑĩÐ°ÑģÑĤÐ¸ÐµÐ¼":8531,"ĠÑģÐ¾ÒĵÑĭÑģ":8532,"ĠÐ²Ð¿":8533,"Ð¾ÑĢÐµ":8534,"ÐºÑĢÐ°Ñģ":8535,"ÐĸÐķ":8536,"irst":8537,"ĠÐľÓĻÑģÐµÐ»ÐµÐ½":8538,"ÑĢÑĥÑİÑĤ":8539,"ĠÐ¿ÑĢÐ¾Ð¸Ð·Ð²Ð¾Ð´ÑģÑĤÐ²Ð¾":8540,"ÒĽÒ±Ð¶Ð°ÑĤ":8541,"ĠÐĴÐ¸Ðº":8542,"ĠÐ²Ð°Ð¶Ð½Ð¾":8543,"ĠÐ½Ð°ÑĥÐºÐ¸":8544,"ĠÐ´Ð¸Ð°Ð»Ð¾Ð³":8545,"ĠÑĢÐµÐ°ÐºÑĨÐ¸Ñı":8546,"ĠÑģÑĤÐ¾Ð»Ð¸Ñĩ":8547,"ĠÐŃÑĤÐ¾ÑĤ":8548,"ÐŀÐ±":8549,"Ð¡Ð°Ð±Ð°ÒĽÑĤÑĭÒ£":8550,"ĠÒĽÒ±ÑĢÐ°Ð»Ñĭ":8551,"ĠÐºÐ¾Ð¼Ð¿Ð¾Ð½ÐµÐ½ÑĤ":8552,"Ð¾ÑĢÑĥ":8553,"ĠÒĽÐ¾Ð¹Ð´Ñĭ":8554,"Ð¾Ð±ÑĢÐ¸ÑĤ":8555,"ĠÐ¡ÑĥÐ´":8556,"ĠÐľÐ¾ÑģÐºÐ²Ðµ":8557,"57":8558,"ÑĢÐ°ÑģÑĤ":8559,"Ð°ÒĽÑĭÐ¼":8560,"ÐµÐ¼ÐµÑĤ":8561,"ĠÐ¶Ð°ÑĢÐ°ÒĽ":8562,"ĠÐ¢ÑĸÐ»":8563,"ĠÐ´Ð°Ð¼ÑĭÑĤÑĥÒĵÐ°":8564,"ĠÐĳÑĭÐ»":8565,"ĠÐºÓ©Ð±Ñĸ":8566,"ÑĢÐ¾Ð¿ÐµÐ¹":8567,"ĠTwitter":8568,"ÐĿÐŀ":8569,"ĠÐľÐµÐ½ÑĸÒ£":8570,"ĠÑĢÐ¾Ð¼Ð°Ð½":8571,"ĠÑĤÒ±ÑĢÒĵÑĭÐ´Ð°Ð½":8572,"ĠÐ½ÐµÐ´Ð°Ð²":8573,"Ġ(Â«":8574,"Ð¸Ð²ÑĤÑĸ":8575,"ĠÐ±Ð°ÐºÑĤÐµÑĢ":8576,"0026":8577,"ÑĥÐ°Ð½":8578,"ĠÐ·Ð°Ð²ÐµÐ´":8579,"ĠÐ¿Ð¾Ð±ÐµÐ´Ñĥ":8580,"Ġpart":8581,"ĠÐ¸Ð·Ð´ÐµÐ»":8582,"ĠÐ¿ÑĢÐ°Ð²Ð»ÐµÐ½Ð¸Ñı":8583,"Ð°Ð»ÑĥÑĭ":8584,"ĠÐ´Ð°Ð¹ÑĭÐ½Ð´ÑĭÒĽ":8585,"ĠÑĢÐ°ÑģÐ¿ÑĢÐµÐ´ÐµÐ»":8586,"ĠÐ°ÐºÑĤÐ¸Ð²Ð½Ð¾":8587,"ĠÑģÐ¿ÐµÐºÑĤ":8588,"Ð¿Ð¾":8589,"Ð°ÐµÐ¼Ð¾Ð³Ð¾":8590,"ĠÐºÐ¾Ð½ÐºÑĥÑĢÐµÐ½":8591,"ĠÐ´Ð¸Ð°Ð³Ð½Ð¾ÑģÑĤ":8592,"ĠÐ¿ÑĢÐ¾Ð¼ÑĭÑĪÐ»ÐµÐ½Ð½Ð¾ÑģÑĤÐ¸":8593,"ĠÑĥÑģÑĤÐ¾Ð¹ÑĩÐ¸Ð²":8594,"ÑĭÑģÑĤÐ°ÑĢÐ´Ñĭ":8595,"Ð¾ÐºÐ¾Ð¹":8596,"ĠÐ½ÐµÐ»ÑĮÐ·Ñı":8597,"ĠÒ±Ñı":8598,"ĠÐ´Ð¾Ð»Ð¶Ð½Ð¾ÑģÑĤÐ¸":8599,"Ð°ÑĢÐ°Ð±Ð¸":8600,"ĠÑĤÓĻÑĥÐµÐ»Ð´Ñĸ":8601,"ĠÐĶÐµÐ½ÑģÐ°ÑĥÐ»ÑĭÒĽ":8602,"Ġ(+":8603,"ĠÑĪÐµÑģÑĤÑĮ":8604,"Ð¾ÑĢÐ´Ð¸Ð½":8605,"ink":8606,"ĠÐ²ÑĤÐ¾ÑĢÐ¾Ð³Ð¾":8607,"category":8608,"ĠÐļÑĢÐ°Ñģ":8609,"ÑĩÐµÑĢ":8610,"Ð»ÑģÑı":8611,"ĠÐ²Ð¾Ð¿ÑĢÐ¾ÑģÐ¾Ð²":8612,"ĠÐ¾Ð±ÐµÑī":8613,"ĠÑĤÐ¾ÑĩÐºÐ¸":8614,"ĠÐ°Ð¼Ð°Ð½":8615,"ĠÐ¼ÑĥÑģ":8616,"ĠÐ´Ð¾ÑħÐ¾Ð´":8617,"ĠÐ½Ð°ÐºÐ¾Ð¿":8618,"Ð¾Ð½Ñĥ":8619,"ÑĪi":8620,"Ð°Ð½Ð½ÑĭÐµ":8621,"ĠÐ½Ð°Ð´ÐµÐ¶":8622,"Ð¸Ð»Ð¸Ð·":8623,"ĠÐ¼ÐµÑģÑĤÐ½ÑĭÑħ":8624,"ÑĪÐ°ÑĢÑĤ":8625,"ĠÐĲÐºÑĤÐ¾Ð±Ðµ":8626,"ĠÐ´Ð¸ÑģÑĤÐ°Ð½":8627,"ĠÐ¿ÑĸÑĪ":8628,"ĠÐ¼Ò¯ÑĪÐµÑģÑĸ":8629,"Ð¸ÑĢÐ¾Ð²ÐºÐ¸":8630,"Ġhas":8631,"Ð¾Ð²Ð¾Ðµ":8632,"Ð»ÐµÑĤÐ²Ð¾ÑĢ":8633,"Ð´ÑĭÐ´Ñĥ":8634,"ÑĢÐ¸Ð¾ÑĤ":8635,"ĠÐ¾Ð¿Ð¿Ð¾Ð·Ð¸":8636,"ĠÐ³Ð¾Ð²Ð¾ÑĢÐ¸ÑĤÑĮ":8637,"ĠÒĽÐ¾Ð»Ð´Ð°Ð½ÑĭÑģÒĽÐ°":8638,"ÑģÐµÑĢÐ²":8639,"ĠÐ·Ð¸Ð¼":8640,"ĠÑģÐ¾ÐµÐ´Ð¸Ð½":8641,"ÐºÐ°Ð½Ð°Ð»Ðµ":8642,"0422":8643,"ĠÐµÐ³":8644,"ÑĩÐ¸ÐºÐ°":8645,"ĠÑĢÐµÐ±":8646,"ĠÐĳÐ¾Ð»ÑĮÑĪ":8647,"ĠÐ¿Ðµ":8648,"ĠÐ¿ÑĢÐ¸Ð½ÑıÑĤÐ¾":8649,"ĠÐºÐ¾ÑģÐ¼":8650,"ĠÐ¡Ð¿Ð¾ÑĢÑĤ":8651,"2015":8652,"disable":8653,"ÐłÐŀ":8654,"ĠÐ±Ð¾":8655,"ÑĪÑĭÐ»Ð°ÑĢÑĭ":8656,"exclude":8657,"ĠÐĲÐºÑĤÑİÐ±Ð¸Ð½ÑģÐºÐ¾Ð¹":8658,"ĠÐ°Ð´ÑĢÐµÑģ":8659,"ÑıÑĤÐ¸Ðµ":8660,"ÑįÐ¿":8661,"ĠÓĻÐ´ÑĸÑģÑĤÐµÑĢÑĸ":8662,"ĠÐ¸Ð¼Ð¼ÑĥÐ½":8663,"ĠÑħÐ¾Ðº":8664,"ĠÑĤÐµÑħÐ½Ð¾Ð»Ð¾Ð³Ð¸Ð¸":8665,"ĠÑģÓ©Ð¹Ð»ÐµÐ¼":8666,"ĠÐ¾ÑģÐ½Ð¾Ð²Ð½ÑĭÑħ":8667,"Ð»Ð¸Ð±Ð¾":8668,"ÐµÐ½Ð½ÑĥÑİ":8669,"ĠÐ·Ð°ÐºÐ¾Ð½Ñĩ":8670,"ĠÐ¢Ð°Ð¹":8671,"ĠÐĲÐĽ":8672,"ĠÓ©Ð·Ð³ÐµÑĢÑĤÑĥ":8673,"ĠÐ±ÐµÐ»Ð³ÑĸÐ»ÐµÑĢÑĸ":8674,"ÑĥÐ°ÑĪ":8675,"Ó©ÑģÐ¿ÑĸÑĢ":8676,"ÑĭÐ¼ÑĭÐ·ÒĵÐ°":8677,"ĠÑģÐ°Ð¹ÑĤÑĭ":8678,"ĠÑĢÑĥÑħ":8679,"ĠÒĽÐ°ÒĽ":8680,"ÐĳÒ¯Ð³ÑĸÐ½":8681,"ĠÐ¼Ò±ÑģÑĭÐ»Ð¼Ð°Ð½":8682,"ner":8683,"ÑīÐµÐ½Ð¸Ñı":8684,"ĠÐ½Ð°Ð¹ÑĤÐ¸":8685,"ĠÐ²ÑĭÐ²":8686,"ĠÐºÑĢÑĥÐ¿Ð½ÐµÐ¹":8687,"Ġdis":8688,"ĠÐºÒ¯Ð¼":8689,"ÐµÐ´i":8690,"Ð°ÑĢÑĤÑĭÐ»Ð°Ð¹":8691,"ÑĩÐ°Ð½":8692,"ĠÐ²Ð»Ð°ÑģÑĤ":8693,"ĠÐ¼Ð°ÑģÑĪÑĤÐ°Ð±":8694,"mat":8695,"ĠÐĶÐ°ÑĢ":8696,"ĠÒĽÐ¾Ð»Ð´Ð°Ð½ÑĭÐ»Ð°ÑĤÑĭÐ½":8697,"ĠÓĻÐ»ÐµÑĥ":8698,"Ð¾Ð²Ð¾ÑĢÑĭ":8699,"ĠÐ£Ð¿ÑĢÐ°Ð²":8700,"ĠÐ½ÐµÐ³ÑĸÐ·Ð´ÐµÐ»Ð³ÐµÐ½":8701,"ĠÐ¿ÑĢÐµÐ¸Ð¼":8702,"ĠÐ½ÐµÐ²Ð¾Ð·":8703,"ÑĪÐ°ÑģÑĭ":8704,"ĠÐ´Ð°Ð»Ð°":8705,"ÑįÐ½ÐµÑĢÐ³":8706,"ĠÐ¶Ð°ÒĽÑģÐ°ÑĢÑĤÑĥ":8707,"ĠÑĦÑĢÐ°Ð½ÑĨÑĥÐ·":8708,"ĠÑģÐµÐ¼ÑĮÑı":8709,"ÑĢÐ°ÒĽÒ±ÑĢÑĭÐ»ÑĭÐ¼":8710,"Ð´ÐµÐ½Ð¸":8711,"ĠÐ¿ÑĢÐ¸Ð¼ÐµÑĢÐ½Ð¾":8712,"Ð°ÐµÐ¼ÑĭÐµ":8713,"ĠÐĶÐµÐ³ÐµÐ½Ð¼ÐµÐ½":8714,"ĠÐ¼Ò±ÒĵÐ°Ð»ÑĸÐ¼Ð´ÐµÑĢ":8715,"ĠÐ·Ð°Ð¿Ð¸Ñģ":8716,"ĠÐ²ÐµÑĢÑħ":8717,"ĠÐ°Ð»ÒĵÐ°":8718,"ĠÐŀÑĤÐ¼ÐµÑĤÐ¸Ð¼":8719,"Ġcan":8720,"ĠÐĿÐ°ÑĨÐ¸Ð¾Ð½Ð°Ð»ÑĮÐ½Ð¾Ð³Ð¾":8721,"ĠÐ¾ÑģÐ²Ð¾Ð±Ð¾Ð¶":8722,"ĠÐ´Ð²ÑĥÐ¼":8723,"ĠÐ°Ð»Ð¼Ð°ÑĤÐ¸Ð½":8724,"ĠÑĤÒ±ÑĢÐ¼":8725,"ÑĥÐ»Ð¾Ð²":8726,"ous":8727,"ĠÐ·Ð°ÑıÐ²Ð»ÐµÐ½Ð¸Ðµ":8728,"ĠÐ±ÐµÐ¹ÑĸÐ¼":8729,"ĠÑįÐºÐ¾Ð½Ð¾Ð¼Ð¸ÑĩÐµÑģÐºÐ¾Ð³Ð¾":8730,"ĠÐ½Ð°ÑĪÐ»Ð¸":8731,"ÐĸÐ°Ò£Ð°":8732,"ĠÐ½ÐµÐ´ÐµÐ»Ð¸":8733,"ĠÐºÓ©Ð·Ð´ÐµÐ»Ð³ÐµÐ½":8734,"Ġme":8735,"Ġpr":8736,"ĠÓĻÐ»Ð´Ðµ":8737,"Ġ08":8738,"ĠÑįÑģÑĤ":8739,"Ð°ÑĤÑĭÐ¿":8740,"ĠÐĵÐµÑĢÐ¼Ð°Ð½Ð¸Ñı":8741,"ĠÐ±Ð¸Ð·Ð½ÐµÑģÐ¼ÐµÐ½":8742,"ĠÐºÒ¯Ð½Ð½ÐµÐ½":8743,"Ð°Ð»Ð¸Ð·Ð¸ÑĢÐ¾Ð²Ð°Ð½":8744,"ÐµÑĤÐµÐ½":8745,"Ð¾Ð²ÑĥÑİ":8746,"Ġ46":8747,"ĠÑĢÐ°Ð´Ð¸Ð¾":8748,"ĠÐ¶ÐµÐ¼ÒĽÐ¾ÑĢÐ»ÑĭÒĽÒĽÐ°":8749,"ĠÑģÒ±Ð»":8750,"ÑģÐ¾ÑĢ":8751,"ĠÐ¿Ð»Ð¾Ñħ":8752,"ÐķÒ£":8753,"ĠÑĤÑĢÐ»Ð½":8754,"ÑĥÑĪÑĸÐ½ÑĸÒ£":8755,"ĠÐºÓ©ÑĢÐ¼":8756,"ĠÐ±Ð°ÑıÐ½":8757,"Ð¸Ð»Ð¾ÑĤ":8758,"ĠÐºÑĢÑĥÐ¿Ð½ÑĭÑħ":8759,"ÑĩÑĥ":8760,"ĠÐ½Ð¸ÐºÐ¾Ð³Ð´Ð°":8761,"ĠÑģÑĸÐ·Ð´ÑĸÒ£":8762,"ĠÐºÐ°Ð·Ð°ÑħÑģÑĤÐ°Ð½ÑģÐºÐ¾Ð¹":8763,"ions":8764,"ĠÑģÐ¸Ð³Ð½Ð°Ð»":8765,"ĠÑĤÐ°Ð¿ÒĽÐ°Ð½":8766,"ĠÑģÑĥÐ´ÑĮ":8767,"ĠÐĲÐºÑĤÐ°Ñĥ":8768,"ĠÐµÑĢÐµÐºÑĪÐµÐ»ÑĸÐºÑĤÐµÑĢÑĸ":8769,"Ð¸ÑĢÑĥÑİÑĤ":8770,"ĠÑģÐ¾Ð·Ð´Ð°ÑĤÑĮ":8771,"Ð°ÑĤÐµÐ»ÑĮÐ½ÑĭÑħ":8772,"ÐµÐ»ÐµÐ³ÐµÐ½":8773,"ĠÐĴÐ°Ð¼":8774,"Ð¸ÑģÑĤÑĸÐº":8775,"ÑĢÐ¾Ð²Ð¾Ð´":8776,"ĠÒĽÐ¾ÑĢÑĭÑĤÑĭÐ½Ð´ÑĭÑģÑĭ":8777,"Ġ42":8778,"int":8779,"ĠÐ¾ÑĤÐºÐ°Ð·Ð°Ð»":8780,"Ð·Ð¸Ñı":8781,"Ð´Ð°ÐµÐ¼":8782,"Ð°ÑīÐµ":8783,"ĠÐĲÑĤÐ°":8784,"ĠÐ²ÐµÑīÐµÑģÑĤÐ²":8785,"ĠÐºÐµÐ·Ð´ÐµÑģÑĥ":8786,"ĠÑĤÐ°Ð½Ñĭ":8787,"ĠÐ´ÐµÑĢÐ¶":8788,"ĠÐ½ÐµÑĦÑĤÑĮ":8789,"ĠZakon":8790,"ĠÐºÓ©ÑĢÑģÐµÑĤÑĤÑĸ":8791,"Ġ,,":8792,"ÑĤÐ°ÑĨÐ¸Ð¸":8793,"aily":8794,"ĠÐ²Ð½ÑĥÑĤÑĢÐ¸":8795,"ĠÐºÒ¯Ð½ÑĸÐ½Ðµ":8796,"ĠÑĤÐ¾Ð¿ÒĽÐ°":8797,"Ð»ÐµÐ³ÐµÐ½":8798,"ĠÐ²Ð¾Ð´Ð¸ÑĤÐµÐ»ÑĮ":8799,"ĠÐ±Ò±Ð·ÑĥÑĪÑĭÐ»ÑĭÒĽ":8800,"Ð»Ð°Ð´ÐµÐ»ÑĮ":8801,"ĠÐ½Ð°ÑĢÐºÐ¾ÑĤ":8802,"ĠÐºÐ¾ÑĢÐ¾Ð½Ð°Ð²Ð¸ÑĢÑĥÑģÐ½Ð¾Ð¹":8803,"ĠÐ¿ÑĢÐ¾ÑĪÐµÐ´":8804,"ÒĽÐ°Ñĥ":8805,"ĠÐ²ÑĤÐ¾ÑĢÐ¾Ð¼":8806,"ĠÐ½ÐµÐ³ÑĸÐ·ÑĸÐ½ÐµÐ½":8807,"ĠÐ¼ÐµÐ´Ð¸ÑĨÐ¸Ð½Ð°":8808,"ĠÒĽÐ°Ð½Ð°ÒĵÐ°ÑĤ":8809,"ÐºÓ©":8810,"2019":8811,"ĠÑĤÑĸÑĢÐºÐµÐ»Ð³ÐµÐ½":8812,"ĠÓ©Ð»ÑĪÐµ":8813,"ĠÑĤÓĻÑĢÑĸÐ·Ð´Ñĸ":8814,"ĠÑĪÑĭÑĢ":8815,"ĠÐ²ÐµÐ´ÑĥÑī":8816,"ĠÑĤÑĢÐ°Ð½ÑģÐ¿Ð¾ÑĢ":8817,"ĠÑģÐ°Ð»Ð°ÑģÑĭ":8818,"ĠÑĤÐ°Ð»ÒĽÑĭÐ»":8819,"ĠÐ¡Ð°":8820,"roll":8821,"ĠÑĥÐ½Ð¸Ð²ÐµÑĢÑģÐ¸ÑĤÐµÑĤÑĸ":8822,"ĠÑĥÐ°ÒĽÑĭÑĤÑĪÐ°":8823,"hen":8824,"ĠÐ§ÐĺÐ¢ÐĲ":8825,"ĠÒĽÐ°Ð¿":8826,"erm":8827,"Ð¾Ð»Ð¸ÑĤ":8828,"ĠÐĴÐ¸Ð´Ðµ":8829,"ĠÐ¿ÑĢÐ¾ÑħÐ¾Ð´Ð¸ÑĤ":8830,"ĠÑĤÑĢÐµÐ½ÐµÑĢ":8831,"ĠÐ¾ÑĤÐ¼ÐµÑĩÐ°ÐµÑĤ":8832,"ĠÒ±ÑģÑĤÐ°Ð¿":8833,"ĠÑĤÐ¾ÑĢÐ³Ð¾Ð²Ð»Ð¸":8834,"ĠÐļÐ°Ð¶":8835,"ĠÐŁÑĥÐ±Ð»Ð¸Ðº":8836,"Ò¯Ð½Ð¸Ðµ":8837,"ÐļÐ°Ð¹ÑĢÐ°ÑĤ":8838,"ÒĽÑĥ":8839,"ĠÓ¨Ð½":8840,"erv":8841,"ĠÐ¼ÐµÑĢÐµ":8842,"tr":8843,"ÑĥÐ»ÑĸÐº":8844,"ĠÑģÒ±ÑĢÐ°ÒĽÑĤÐ°ÑĢ":8845,"Ð»ÐµÑĢÐ´Ñĸ":8846,"ĠÑĤÐ¾Ð»ÑĭÒĽÑĤÑĭÑĢÑĥ":8847,"ĠÑĤÐµÑħÐ½Ð¾Ð»Ð¾Ð³Ð¸Ð¹":8848,"ĠÐ¿Ð°ÑĨÐ¸ÐµÐ½ÑĤÐ¾Ð²":8849,"Ð¾ÑĤÑĢÐµÐ±":8850,"ĠÐ·Ð°ÑĢÑĥÐ±ÐµÐ¶":8851,"ĠÒĽÐ°Ð»ÑĭÐ¿ÑĤÑĭ":8852,"ĠÐºÐ¾Ð½ÑģÑĤÑĢÑĥ":8853,"ĠÐ¿Ð¾Ð»ÑĥÑĩÐ°ÑĤÑĮ":8854,"ĠÐ¿ÑĢÐ¾Ð¸ÑģÑħÐ¾Ð´":8855,"Ð³Ð¸Ð½":8856,"ĠÑģÐ¿Ð¸ÑģÐ¾Ðº":8857,"ĠÐ¾ÑĢÑĤÐ°Ð»ÑĭÒĵÑĭÐ½ÑĭÒ£":8858,"Ñŀ":8859,"ĠÑĦÐ¾Ð½Ðµ":8860,"ĠÐ¾ÑĤÐ´ÐµÐ»Ð°":8861,"ĠÑĥÑħ":8862,"Ð»Ð°ÑģÑģ":8863,"ĠÐ¶ÐµÐ»Ñĸ":8864,"Ð¼Ð°Ð½Ð¾Ð²":8865,"ĠÐ¿ÑĢÐµÐ´ÑģÑĤÐ°Ð²Ð¸ÑĤÐµÐ»ÐµÐ¹":8866,"59":8867,"ÑĸÑģÑĸÐ½Ðµ":8868,"ĠÐ±ÐµÐ´":8869,"ĠÐºÐµÐ´ÐµÑĢÐ³Ñĸ":8870,"Ð¸Ð²Ð°Ð½Ð¸Ðµ":8871,"ĠÐĳÐ¾Ð»ÐµÐµ":8872,"ĠÐ±Ð¾ÑĢÑĮÐ±Ðµ":8873,"ĠÐ½Ð¾Ð³":8874,"ĠÑıÑĢ":8875,"ĠÐ¢Ð°ÑĢÐ¸Ñħ":8876,"ÑĢÐµÑĨ":8877,"ĠÐ¶Ð¾ÑģÐ¿Ð°ÑĢÐ»Ð°Ñĥ":8878,"ĠÑģÐ¸Ñħ":8879,"ĠÐļÐ¾Ðº":8880,"ĠÓĻÐ·ÑĸÑĢÐ»ÐµÑĥ":8881,"ÒĵÐ°Ð¼Ð±":8882,"alt":8883,"ĠÐĴÑģÐµÐ¼":8884,"ĠÒĽÐ¾ÒĵÐ°Ð¼Ð½ÑĭÒ£":8885,"Ð¾ÑĢÐ¸ÑĤÐµÑĤ":8886,"ĠÐŃÑĤÐ¸":8887,"ĠÐ´Ð¸Ð·Ð°Ð¹":8888,"ĠÐ¿Ð¾ÑģÐ²":8889,"Ð¼Ð°Ñĥ":8890,"ĠÒĽÐ¾Ð¹ÑĭÐ¿":8891,"Ð»ÑĥÐ±":8892,"ĠÐĳÓ©Ð»":8893,"ĠÐ¶Ð°Ò£ÒĵÑĭÑĢÑĥ":8894,"Ð«Ðł":8895,"ĠÒ¯ÑĪiÐ½":8896,"ĠÐ²ÐºÐ»ÑİÑĩÐ°Ñı":8897,"ĠÑģÐµÑĢÐ´":8898,"ĠÓ©Ð·Ð´ÐµÑĢÑĸÐ½ÑĸÒ£":8899,"ĠÑģÐ°Òĵ":8900,"ĠÑģÐµÑĢÐ²Ð¸Ñģ":8901,"ĠÐ±Ð¾Ð»Ð¶Ð°Ð¼":8902,"ĠÐĵÐµ":8903,"ĠÐµÐ¶ÐµÐ³Ð¾Ð´":8904,"ÐĳÐł":8905,"ĠÐ¼Ð¸Ð»Ð»Ð¸Ð°ÑĢÐ´":8906,"ĠÒĽÐ°ÑģÐ¸ÐµÑĤÑĤÐµÑĢ":8907,"ĠÑĪÐµÐºÐ°ÑĢ":8908,"Ð¸ÑıÐ»Ð°ÑĢ":8909,"ĠÐĿÓĻ":8910,"ĠÐ¶Ð¾Ð»Ð°Ñĥ":8911,"ĠÑģÑĤÐ°ÑĨÐ¸Ð¾Ð½":8912,"Ð¾Ò£ÑĭÑĢ":8913,"ĠÑģÐ²Ð¸Ð´ÐµÑĤÐµÐ»ÑĮ":8914,"ĠÑĢÐµÐ¶Ð¸Ð¼Ðµ":8915,"70":8916,"Ð°Ð»ÑĮÐ´Ñĭ":8917,"ĠÐ¿ÑĢÐµÐ´ÑĥÑģÐ¼Ð°ÑĤÑĢÐ¸Ð²":8918,"ĠÑĭÐ½ÑĤÑĭÐ¼Ð°ÒĽÑĤÐ°ÑģÑĤÑĭÒĽ":8919,"ott":8920,"ĠÐľÐ¾Ð½":8921,"ĠÐ§ÑĤÐ¾Ð±Ñĭ":8922,"ĠÐĲÐ»Ð°ÑĪ":8923,"ÑıÑģÑĮ":8924,"ĠÐ±Ð°Ð»ÑĭÒĽ":8925,"ÐŁÐļ":8926,"Ð°ÐµÐ¼ÑĭÐ¹":8927,"ft":8928,"ĠÐĲÐ½Ð´ÑĢÐµÐ¹":8929,"ÑĤÐ¸Ð¶Ðµ":8930,"ÐµÐ·Ð¾Ð²":8931,"ĠÐ±Ð°ÒĵÐ´Ð°ÑĢÐ»Ð°Ð¼Ð°":8932,"ÑĤÑĤÑĭ":8933,"Ð·Ð°Ð»":8934,"ÑģÐµÐ¿":8935,"ĠÐ·Ð°Ð´ÐµÑĢÐ¶Ð°Ð»Ð¸":8936,"ĠÑĢÐµÐ¿":8937,"Ð¿Ð¾Ñĩ":8938,"ĠÐ°Ð¹Ð½Ð°Ð»ÑĭÐ¼":8939,"Ð¾Ð²Ð°Ð½Ð¾":8940,"Context":8941,"ĠÐµÑģÐµÐ±ÑĸÐ½ÐµÐ½":8942,"ĠÐ¸ÑģÑħÐ¾Ð´":8943,"ĠÐ¾Ð±ÑĬÐµÐºÑĤÑĸÐ»ÐµÑĢ":8944,"ĠÑĤÐµÑħÐ½Ð¸ÐºÐ¸":8945,"ÑĸÐ¼ÑĸÐ·Ð´Ðµ":8946,"ĠÑģÑĤÐ°Ð´":8947,"ĠÑįÐ²Ð°ÐºÑĥ":8948,"ĠÐ·Ð°ÑıÐ²Ð¸Ð»Ð¸":8949,"Ð·ÑĭÑĢ":8950,"ÑĸÑģÐºÐµ":8951,"ĠÐ¡Ð¾Ð½Ð´Ð°":8952,"ĠÐ¢ÐĲÐļ":8953,"ÑĥÐ´Ð¸Ð»Ð¸":8954,"ĠÑİÐ¶":8955,"ĠÐ¿ÑĢÐ¾Ð´ÑĥÐºÑĤÐ¾Ð²":8956,"ÐķÐĴ":8957,"phone":8958,"ĠÐĲÐ»ÐµÐºÑģÐµÐ¹":8959,"ÑĪÑĭÐ½ÑĭÒ£":8960,"ĠÐ¼ÑĥÐ·ÐµÐ¹":8961,"Ð°ÑĥÐ»Ñĭ":8962,"ĠÐĺÑħ":8963,"Ð¾ÑĩÐ½ÑĭÐµ":8964,"ÑģÑĤÑĭÑĢÐ°Ð´Ñĭ":8965,"ĠÐ¿ÑĢÐ¸Ð¼ÐµÑĢÑĥ":8966,"ĠÐ´ÐµÐ¼Ð¾Ð½":8967,"ĠÑģÑĩÐ°ÑģÑĤ":8968,"ĠÐĶÐ¼Ð¸ÑĤÑĢÐ¸Ð¹":8969,"ĠÐĿÑĮÑİ":8970,"ĠÐ±ÑĸÑĢÑĤ":8971,"ĠÐ¾Ð±ÑģÑĤÐ¾ÑıÑĤÐµÐ»ÑĮ":8972,"ĠÐ·Ð°ÐºÐ¾Ð½Ð°":8973,"ĠÐ¡ÐµÐ²ÐµÑĢÐ¾":8974,"ĠÐ¾ÑĢÐ¼Ð°Ð½":8975,"43":8976,"ĠÐ½Ð°ÑĪÐ°ÑĢ":8977,"ĠÐ±Ð°Ð¹ÒĽÐ°Ð»Ð°Ð´Ñĭ":8978,"ĠÐ¿ÑĢÐ¾ÑĨÐµÑģÑĤÐµÑĢ":8979,"ÐµÑģÑĸÐ¿":8980,"ĠÐ°ÑĤÐ°Ð¹Ð´Ñĭ":8981,"ĠÑĤÐ°Ð±Ñĥ":8982,"Ġcount":8983,"ĠÐºÓ©ÑĪÐµÑģÑĸ":8984,"ĠÐļÓĻÑģÑĸÐ¿":8985,"ĠÐĴÐµÐ»Ð¸ÐºÐ¾Ð±ÑĢÐ¸ÑĤ":8986,"ĠÐŁÐ°ÑĢÐ»Ð°Ð¼ÐµÐ½ÑĤ":8987,"ÑĩÐ°ÑĤ":8988,"ÐºÓĻÑģÑĸÐ¿":8989,"ĠÐĽÑİ":8990,"ÑĪÐ°ÐµÑĤÑģÑı":8991,"ÐĵÐ°Ð·":8992,"Ð½Ð°ÑĩÐ°Ð»Ð°":8993,"âĢ¢":8994,"Ð¿Ð¸Ð¾Ð½":8995,"ĠÐ·Ð°ÑĥÑĭÑĤ":8996,"ĠÐ²Ð¾Ð¹Ð½Ñĭ":8997,"Ġ2000":8998,"ĠÐ°ÐºÑĨÐ¸Ð¸":8999,"ĠÑģÑĤÑĢÐµÐ¼":9000,"ĠÑĪÐ¾ÑĤ":9001,"ĠÑĪÐ¸ÐºÑĸÐ·":9002,"Ó©Ð½ÐµÑĢ":9003,"ĠÑĪÐ¸ÑĢÐ¾":9004,"ĠÐ¿Ð¾Ð´Ð°ÑĢ":9005,"!!":9006,"ĠÐ¿Ð°ÑĨÐ¸ÐµÐ½ÑĤ":9007,"ĠÐ±Ó©Ð»ÑĸÐ¼ÑĪ":9008,"ĠÐ´ÓĻÑģÑĤÒ¯ÑĢÐ»Ñĸ":9009,"Ð±Ð¾Ð»ÑĮ":9010,"ium":9011,"ĠÐ¾Ð±Ð¾ÑĢÐ¾Ð½Ñĭ":9012,"ĠÐ°Ð½Ð°Ð»Ð¾Ð³Ð¸Ñĩ":9013,"ĠÐŀÑĢÐ°Ð»":9014,"ĠÐķÑģÑĤÑĮ":9015,"ÑĥÐ»Ð°":9016,"66":9017,"ĠÐ¿Ð°ÑģÑģÐ°Ð¶Ð¸ÑĢ":9018,"ĠÐŀÑģÑĭÐ»Ð°Ð¹ÑĪÐ°":9019,"Ġhave":9020,"ĠÐ½Ð°ÑĢÑĥÑĪÐµÐ½Ð¸Ñı":9021,"Ð°Ð¼Ð±ÐµÑĤ":9022,"ĠÐ´Ð¾ÐºÑĥÐ¼ÐµÐ½ÑĤÑĭ":9023,"ĠÐŀÐ¼":9024,"Ġcl":9025,"Ġinsert":9026,"ĠÐ¿ÑĢÐ¾ÑĨÐµÑģÑģÐµ":9027,"ĠÐ¯Ð¿Ð¾Ð½":9028,"ĠÐĽÐ¾Ð½Ð´":9029,"ĠÐ¼Ò±ÒĽ":9030,"ĠÐ¢Ò¯ÑĢÐº":9031,"ÐĿÐļ":9032,"ÒĽÑĭÐ¼Ð´Ñĭ":9033,"ĠÐºÐ²Ð°Ð´ÑĢÐ°ÑĤ":9034,"ĠÐ´ÑĥÑħ":9035,"ĠÑĪÐ°ÒĽ":9036,"ĠÐķÐ¡":9037,"ĠÐĶÐ¾Ð±":9038,"ĠÐ¼Ð°Ð»Ð¾":9039,"ĠÑģÐ¿ÐµÑĨÐ¸Ð°Ð»Ð¸ÑģÑĤÐ¾Ð²":9040,"ĠÐ¼Ð°ÒĽÑģÐ°ÑĤÑĤÐ°ÑĢ":9041,"ĠÒĽÐ°ÑĪÑĭÒĽÑĤÑĭÒĽ":9042,"ĠÐ¾Ð¹Ð»Ð°Ð¹":9043,"ĠÐ¼Ð¸Ð»Ð»Ð¸Ð°ÑĢÐ´Ð°":9044,"EC":9045,"ĠÑģÐµÐ»ÑĮÑģÐºÐ¾Ð³Ð¾":9046,"Ġ264":9047,"ÑħÐ±Ð°ÑĤ":9048,"ĠÐ´Ð¸ÑĢÐµÐºÑĤÐ¾ÑĢÐ°":9049,"ĠÐ¿Ð¾Ð²ÑĭÑģ":9050,"ĠÐłÐ¾Ñģ":9051,"ÑĤÐ°ÑĢÐ¼ÐµÐ½":9052,"ÑĥÐµÐºÐµÐ»":9053,"ĠÐºÒ¯Ð»":9054,"ÐĳÐ¾Ð»":9055,"ĠÑĨÐ¸ÑĤ":9056,"ĠÐ¶Ð¸Ð´":9057,"Ð¡Ð¾Ð½ÑĭÐ¼ÐµÐ½":9058,"Ð´ÑĭÑĢÑĭÐ¿":9059,"ĠÐ²Ð²Ð¾Ð´":9060,"ĠÐ¼ÐµÐ´Ð°Ð»ÑĮ":9061,"ĠÐ¿Ð¾Ð´ÑĢÐ°Ð·Ð´ÐµÐ»":9062,"ĠCom":9063,"ĠÑĤÐµÐ°ÑĤ":9064,"Ð»Ð°Ð½ÑĭÐ¿":9065,"ĠÐ´Ð°Ð¼ÑĭÒĵÐ°Ð½":9066,"Ð«Ð¡":9067,"Ð»ÐµÑĤÐ½ÑıÑı":9068,"ĠÐŀÐ±Ð»":9069,"ĠÐŀÑĩ":9070,"ĠÒĽÐ°Ð»Ð°ÑģÑĭÐ½Ð´Ð°ÒĵÑĭ":9071,"ĠÐ¾ÑģÑĭÐ»Ð°Ð¹":9072,"ĠÐ¿Ð¾Ð·Ð´ÑĢÐ°Ð²":9073,"ĠÐ½Ð°Ð¿Ð¸ÑģÐ°Ð»":9074,"ĠÐľÐ°Ð»":9075,"ĠÐºÓ©ÑĢÑģÐµÑĤÑĸÐ¿":9076,"ĠÐ´ÑĥÐ¼Ð°Ñİ":9077,"ĠÑĤÐ°ÒĵÐ°Ð¹":9078,"ĠÐ²ÐµÑĢÐ½ÑĥÑĤÑĮ":9079,"ĠÐ²ÐµÑĢÐ¾ÑıÑĤ":9080,"ÐľÐµÐ¼Ð»ÐµÐºÐµÑĤÑĤÑĸÐº":9081,"ĠÐ¡Ð¾Ð²ÐµÑĤ":9082,"ÑĥÐ¶Ðµ":9083,"ĠÐ¸Ð½ÑĦÐµÐºÑĨÐ¸Ð¸":9084,"ĠÐºÐ¾Ð½ÑĨÐµÐ¿":9085,"ĠÐ¼ÑĭÒ£Ð½Ð°Ð½":9086,"ĠÐ°Ð½ÑĭÒĽÑĤÐ°Ð»Ð´Ñĭ":9087,"ĠÐļÐµÒ£ÐµÑģ":9088,"ĠÐľÐµÑĤ":9089,"ÐĻÐ¢Ðķ":9090,"Ð¸Ð²Ð°Ð»Ð¸":9091,"ĠÐºÐ°ÑĤÐµÐ³Ð¾ÑĢÐ¸Ñı":9092,"ĠÐ¾ÑĤÐ²ÐµÑĤÑģÑĤÐ²ÐµÐ½Ð½Ð¾ÑģÑĤÑĮ":9093,"ÒļÒ±ÑĢ":9094,"ĠÐµÐºÐµÐ½Ð´ÑĸÐ³ÑĸÐ½":9095,"ĠÐ±ÑĢÐ¾Ð½":9096,"ĠÐ´ÐµÐ¹ÑģÑĤÐ²Ð¸ÑĤÐµÐ»ÑĮÐ½Ð¾":9097,"ĠÐĵÐµÑĢÐ¼Ð°Ð½Ð¸Ð¸":9098,"ild":9099,"ĠÐ½Ð¸Ð¼Ð¸":9100,"ÐĲÐ»ÑĤÑĭÐ½":9101,"ĠÐ´ÐµÐ¿ÑĥÑĤÐ°ÑĤÑĭ":9102,"Ð´Ð°ÑĢÐ´Ð°Ð½":9103,"Ð»Ð¸ÑĨÑĭ":9104,"ÑģÑĤÐ²ÐµÐ½Ð½ÑĭÐ¼":9105,"ĠÐ¿ÑĢÐ¾ÑĨÐµÐ½ÑĤ":9106,"ĠÐµÑĪÒĽÐ°Ð½Ð´Ð°Ð¹":9107,"ĠÑĤÐµÒ£Ð³":9108,"ĠÐ°Ð»Ð´ÑĭÒ£ÒĵÑĭ":9109,"we":9110,"ĠÐľÐ°Ò£ÒĵÑĭÑģÑĤÐ°Ñĥ":9111,"ĠÐ¢ÐĲÐļÐĸÐķ":9112,"ĠÑģÐ¾ÑģÑĤÐ¾Ð¸ÑĤÑģÑı":9113,"ĠÐ¿ÑĢÐ¾Ð¸Ð³":9114,"ĠÑĭÐ»":9115,"SP":9116,"ĠÐºÐ¾ÑģÑĤ":9117,"ĠÑĤÐ°Ð±ÑĭÐ»Ð°ÑĤÑĭÐ½":9118,"ĠÐµÐ½Ð³ÑĸÐ·ÑĸÐ»ÐµÐ´Ñĸ":9119,"ĠÐ¦ÐµÐ½ÑĤÑĢÐ°Ð»ÑĮÐ½Ð¾Ð¹":9120,"Ġtrue":9121,"ĠÑĤÐ°Ð¿ÑģÑĭÑĢÐ¼Ð°":9122,"Ġ/*":9123,"ĠÐ²Ð¾ÑĪ":9124,"Ð´ÑĭÒĽÑĤÑĭ":9125,"ĠÑģÐ°ÑĤÑĥ":9126,"ĠÐ¼ÑĭÑģÐ°Ð»Ñĭ":9127,"ĠÐ³ÐµÐºÑĤÐ°ÑĢ":9128,"ĠÐ·Ð¾Ð»":9129,"ĠÐĳÐ¾Ð»ÑĮÑĪÐµ":9130,"ĠÐ±Ð¾Ð»ÑĮÐ½Ð¸ÑĨ":9131,"ĠÐºÑĸÑĢÐµÐ´Ñĸ":9132,"Ð°Ð¼Ð±Ð»Ðµ":9133,"ĠÐ¿Ð°Ð½Ð´ÐµÐ¼Ð¸Ð¸":9134,"ĠÐĶÐ°Ñĥ":9135,"ĠÐ¸Ð½ÑĦÑĢÐ°ÒĽÒ±ÑĢÑĭÐ»ÑĭÐ¼":9136,"ĠÓĻÐºÑĸÐ¼Ð´ÑĸÐ³ÑĸÐ½ÑĸÒ£":9137,"%),":9138,"ĠÐ²Ð¾Ð·Ð³Ð»Ð°Ð²":9139,"ĠÐĴÐ°Ñģ":9140,"ĠÐµÑģÑĸÐ¼":9141,"ĠÐ±ÐµÑĢÑĥÑĪÑĸ":9142,"Ġreg":9143,"ĠWhat":9144,"Ð¡ÑĥÐ»ÑĤÐ°Ð½Ð°":9145,"ĠÐĲÑĤÑĭÑĢÐ°ÑĥÑģÐºÐ¾Ð¹":9146,"Ð´Ð¶Ð°Ð½":9147,"ĠÒĽÐ¾ÑģÑĭÐ»":9148,"ĠÒĽÐ°Ð»ÑĭÒ£":9149,"ĠÐľÐ°Ð½Ð³Ð¸ÑģÑĤÐ°ÑĥÑģÐºÐ¾Ð¹":9150,"ĠÐ¡ÑĭÑĢ":9151,"ĠÐ¾Ð¿ÐµÑĢÐ°ÑĨÐ¸Ð¸":9152,"ĠÐºÓĻÑģÑĸÐ¿ÐºÐµÑĢÐ»ÐµÑĢ":9153,"ĠÐ¡Ð¾Ð´Ð°Ð½":9154,"ĠÑģÑĤÐ°ÑĢÑĤ":9155,"ĠÐ¾ÑĢÐ½ÑĭÐ½":9156,"ĠÐ¿ÑģÐ¸ÑħÐ¾Ð»Ð¾Ð³Ð¸ÑıÐ»ÑĭÒĽ":9157,"Ð¢Ð°ÑĢ":9158,"ĠÐ¾Ð±ÑĬÐµÐºÑĤÐ¸Ð²":9159,"ĠÐºÐµÑĤÐµÐ´Ñĸ":9160,"ĠÐĵÐ¾Ð»":9161,"Ð±Ò±Ð»":9162,"ÑĨÐ¸ÑĤ":9163,"Ð¼Ð°Ñħ":9164,"ĠÑĤÐµÑħÐ½Ð¾Ð»Ð¾Ð³Ð¸ÑıÐ»Ð°ÑĢ":9165,"ĠÐĶÐ¾Ð½":9166,"ĠÑĢÐµÐºÐ¾ÑĢÐ´":9167,"ĠÑĥÐ·Ð½":9168,"ĠÐļÐµÑĢ":9169,"ĠÑģÐ¾Ð±Ð¸ÑĢÐ°":9170,"ĠÑĩÐ¸ÑĤ":9171,"ĠÑĢÐµÐ¶Ð¸Ð¼Ð°":9172,"ĠÐ¿ÑĢÐ¸Ñģ":9173,"ĠÐ³Ð¾ÑģÑĥÐ´Ð°ÑĢÑģÑĤÐ²Ð¾":9174,"osit":9175,"ĠÐ¿ÑĢÐ¸ÑħÐ¾Ð´Ð¸ÑĤÑģÑı":9176,"ĠÑģÑĩÐµÑĤÐ¾Ð¼":9177,"ĠÑĪÐ°Ð±ÑĥÑĭÐ»":9178,"ĠÑģÐ°Ð¿Ð°ÑĢ":9179,"ĠÐ¿Ð¾ÑĢÑıÐ´ÐºÐµ":9180,"ĠÑĢÐµÐ´Ð°ÐºÑĨÐ¸Ñı":9181,"ĠÐļÐ°Ð¼":9182,"ĠÐ±ÑĸÑĢÐ°Ð·":9183,"Ð°Ð¶Ð¸Ð»Ð¸ÑģÐ°":9184,"ĠÐ¿Ð½ÐµÐ²":9185,"ĠÑĥÐ³Ð¾Ð»Ð¾Ð²Ð½Ð¾Ðµ":9186,"ÑĭÐ³":9187,"ĠÐ¿ÑĢÐ¾Ð³ÑĢÐ°Ð¼Ð¼Ðµ":9188,"ĠÐ¾ÑĤÑĢÐ°ÑģÐ»Ð¸":9189,"ally":9190,"ĠÐ¿ÑĢÐ¾Ð±Ð»ÐµÐ¼Ð°":9191,"ÑĸÑĢÑĤ":9192,"ĠÐ¤ÑĢÐ°Ð½ÑĨÐ¸Ñı":9193,"ĠÒĽÐ¾Ð»Ð°Ð¹Ð»Ñĭ":9194,"ĠÐ¿Ð¾ÑģÑĤÐ¾ÑıÐ½Ð½Ð¾":9195,"des":9196,"ced":9197,"ne":9198,"ĠÑģÐ½Ñı":9199,"ĠÑĤÒ±ÑĤ":9200,"ĠÐ¿ÑĢÐ°Ð²Ð¸ÑĤÐµÐ»ÑĮÑģÑĤÐ²Ð¾":9201,"ĠÐ²ÐµÐ»Ð¸Ñĩ":9202,"ĠÐ°Ð»Ð´Ð°ÒĵÑĭ":9203,"ĠÐłÐ°Ð±":9204,"ĠÐ»Ð°ÑĥÐ°Ð·ÑĭÐ¼":9205,"ĠÐļÐ¸ÑĢ":9206,"ĠÐ±ÑĸÐ»ÑĸÐ¼Ð´Ñĸ":9207,"ĠÐ¢Ðµ":9208,"ĠÐ¶Ð°ÑģÐ°Ð¹":9209,"ĠÑĤÑĥÐ¼Ð°Ð½":9210,"ĠÐ¶Ò±Ð»Ð´ÑĭÐ·":9211,"ĠÑģÐ¾Ð·Ð´Ð°Ð½Ð¸Ñı":9212,"ĠÑģÐ°Ð¿Ð°ÑģÑĭ":9213,"ĠÐ¼Ò±ÑĢÐ°":9214,"ĠÐ¿Ð¾Ð»Ð½Ð¾Ð¼Ð¾Ñĩ":9215,"ĠÑĥÐ¶":9216,"IV":9217,"ĠÐĵÑĢÑĥÐ·":9218,"ĠÒĽÐ°ÑĢÐ¶ÑĭÐ»Ð°Ð½Ð´ÑĭÑĢÑĥ":9219,"ÑģÐµÒ£":9220,"ĠÐ¿Ð¾Ð¿ÑĢÐ°Ð²":9221,"ĠÐ±Ð°ÑģÑĤÐ°Ð»Ð°Ð´Ñĭ":9222,"ĠÐºÐ¾Ð¼Ð¼ÑĥÐ½":9223,"ĠÐ£ÐºÑĢÐ°Ð¸Ð½Ð°":9224,"ĠÐļÐ°Ð·Ð°Ñħ":9225,"ÓĺÑĢ":9226,"ĠÐ°ÑĪÑĭÐ¿":9227,"ĠÑĤÐµÑĢÐ¼":9228,"ÒĵÑĭÐ¿":9229,"ĠÐ¼ÐµÐºÐµÐ¼ÐµÐ»ÐµÑĢ":9230,"ÑĤÑĥÑĢÐ°":9231,"Ð°ÑĤÒĽÐ°":9232,"ĠÐĶÓĻ":9233,"ĠÐ±Ð°ÒĽÑĭÑĤ":9234,"Ð±ÐµÐºÑģÑĤÐ°Ð½":9235,"ĠÒĽÐ¾Ð»Ð´Ð°Ð½ÑĥÒĵÐ°":9236,"orld":9237,"ĠÐ¿Ð¾Ð»Ð¸ÑĨÐµÐ¹ÑģÐºÐ¸Ðµ":9238,"Ġun":9239,"ĠÐ±Ð°ÑĢÐ°":9240,"ĠÐ¼Ð¸Ð½Ð¸ÑģÑĤÐµÑĢÑģÑĤÐ²Ð°":9241,"ĠÓĻÑĢÐµÐºÐµÑĤÑĤÐµÑĢ":9242,"ĠÐ±ÑĸÑĢÑĸÐ½":9243,"Ð°Ð»ÑĭÐ½":9244,"ÑĪÐ¸Ð½":9245,"ĠÑİÐ³Ð¾":9246,"Ġ2005":9247,"ÑĢÐ°ÒĵÐ°Ð½":9248,"ĠÐ¡Ð²":9249,"Ð¾ÑĩÑĮ":9250,"ĠÑĪÐ°Ð³":9251,"ÑĭÑĢÐ¼Ð°Ð½":9252,"ĠÐ´ÐµÐ»Ð°Ð¼":9253,"ĠÐļÐ¾Ð¼Ð¿Ð°Ð½Ð¸Ñı":9254,"ĠÒ¯ÐºÑĸÐ¼":9255,"ĠÑĤÐ°Ð¼Ð¾Ð¶":9256,"ĠÐ·Ð°Ð²Ð¸ÑģÐ¸ÑĤ":9257,"ĠÐ§ÐĺÐ¢ÐĲÐĻÐ¢Ðķ":9258,"ĠÐ¿Ð¾ÑģÐµ":9259,"Ð¸Ð¼ÐµÐ½":9260,"ĠÐ¿Ð¾ÑĤÐµÑĢÐ¿":9261,"ĠÑĤÒ¯ÑĢÐ»ÐµÑĢÑĸÐ½":9262,"ÑĨÐ°ÑĢ":9263,"ĠÐ½ÓĻÑĤÐ¸Ð¶ÐµÑģÑĸ":9264,"ĠÐ¾Ð´Ð½Ñĥ":9265,"ĠÐ±ÑĢÐ¸ÑĤÐ°Ð½":9266,"ĠÑĥÓĻÐºÑĸÐ»ÐµÑĤÑĤÑĸ":9267,"ĠÐ¼Ð¾Ð»ÐµÐºÑĥÐ»":9268,"ĠÐ±ÑĥÑĢ":9269,"Ġ65":9270,"Ð¸Ð·Ð¸":9271,"ĠÐ¿ÑĭÑĤÐ°":9272,"ÐµÒ£ÑĸÐ·":9273,"ĠÐ¿Ð¾Ð¿ÑĢÐ¾Ñģ":9274,"ĠÑĩÐ»ÐµÐ½Ð¾Ð²":9275,"ĠÐĳÐ°ÑģÑĤ":9276,"ject":9277,"Ð´ÐµÐ»ÑĸÐºÑĤÑĸ":9278,"ÑģÐ¸ÐµÐ¹":9279,"ĠÐŃÐºÑģÐ¿":9280,"ark":9281,"ĠÐ¿Ð¸ÑĤÐ°Ð½Ð¸Ñı":9282,"ĠÐ¡ÐµÐ¹":9283,"ĠÑģÐ°Ð¼Ð¾Ð³Ð¾":9284,"ĠÐºÓ©ÑĢÑĥ":9285,"ĠÒĽÒ±Ð¹":9286,"ĠÐ¾Ð½Ð¾":9287,"ĠÐ·Ð½Ð°ÑĩÐµÐ½Ð¸Ñı":9288,"ÑĸÐ½ÐµÑģÐµ":9289,"ĠÐ³Ð¾Ð½":9290,"Ġsc":9291,"ĠÐ¼Ð°Ð³Ð½Ð¸ÑĤ":9292,"ĠÐľÒ±Ð½Ð´Ð°":9293,"ĠÐ¸Ð½ÑģÑĤÑĢÑĥÐ¼ÐµÐ½":9294,"ĠÑĪÐµÐ±ÐµÑĢ":9295,"ĠÐ¼ÐµÐ»":9296,"ÑĤÑĤÐ°ÑĢ":9297,"ÑģÓ©Ð·":9298,"ĠÐ¤Ð¸Ð½":9299,"Ð´ÑĸÐ³ÑĸÐ½Ðµ":9300,"ĠÐĴÐ¾ÑģÑĤÐ¾ÑĩÐ½Ð¾":9301,"\\\"":9302,"Ð»ÑĭÒĽÑĤÐ°Ð¹":9303,"ĠÐ²ÑĭÐ¿Ð»Ð°ÑĤ":9304,"Ġ(,":9305,"Ġtrans":9306,"ĠÑĢÐµÑģÑĥÑĢÑģÐ¾Ð²":9307,"ÂŃÂŃ":9308,"Ð¶Ò¯Ð·ÑĸÐ»ÑĸÐº":9309,"ĠÐ¼Ò¯ÑĪÐµÐ»ÐµÑĢÑĸ":9310,"ĠÐ¾Ð±ÑīÐµÐ³Ð¾":9311,"Ð¡Ð¡Ðł":9312,"ÑģÑĤÐ²Ð¸Ð¸":9313,"ĠÐ¶Ð°ÑĥÑĭÐ½":9314,"ĠÑĤÓĻÑĢÑĤÑĸÐ±Ñĸ":9315,"ĠÒĽÒ±ÑĢÐ°Ð»Ð´Ð°ÑĢÑĭ":9316,"ÑģÐµÐ½Ð±Ñĸ":9317,"uth":9318,"ĠÑĤÑĥÑĭÐ½Ð´Ð°":9319,"Ð»Ð°Ð¶":9320,"ÐļÐŁ":9321,"Ð°ÑĤÑĤÐ°ÑĢÐ´ÑĭÒ£":9322,"ĠÐĴÐ¼ÐµÑģÑĤÐµ":9323,"ÑĢÑıÑģ":9324,"ĠÐ´ÐµÒ£Ð³ÐµÐ¹ÑĸÐ½":9325,"ĠÐ¸Ð½ÑĦÐ¾ÑĢÐ¼":9326,"ĠÑĤÒ±ÒĽÑĭÐ¼":9327,"ĠÐ¼Ð¾ÑĤÐ¸Ð²":9328,"Ð¥Ð°Ð»ÑĭÒĽ":9329,"ĠÐĺÐ»":9330,"ĠÐ¨ÑĭÐ¼ÐºÐµÐ½ÑĤÐµ":9331,"Ð½Ð°Ð¿":9332,"ĠÑĤÐµÑħÐ½Ð¸ÐºÐ°":9333,"ĠÐļÑĸ":9334,"pro":9335,"Ð¢ÐĲÐł":9336,"ĠÐ¶Ð°Ð·ÑĭÐ»":9337,"ĠÐĳÒ¯Ð³ÑĸÐ½Ð³Ñĸ":9338,"ĠÐ¼Ð¸Ð»Ð»Ð¸Ð°ÑĢÐ´Ð¾Ð²":9339,"ĠÐºÑĢÑĥ":9340,"ÐĺÐ¢":9341,"ĠÐ°Ð»ÑĤÑĭ":9342,"ÑĤÑĭÑĢÑĭÐ¿":9343,"ÑĥÑĤÑģÑı":9344,"Ð²ÐµÑĢÐ³":9345,"ĠÐ½Ð°Ð³ÑĢÑĥÐ·":9346,"rev":9347,"ĠÐ²Ð½ÐµÐ´ÑĢ":9348,"ĠÐ¸Ð¼ÐµÑĤÑĮ":9349,"ĠÒĽÐ°Ð·Ð°":9350,"ĠÒĽÑĭÐ·ÑĭÒĽÑĤÑĭ":9351,"ÑĥÑį":9352,"Ġform":9353,"ĠÐ±Ð°ÑģÑĤÐ°Ð¹Ð´Ñĭ":9354,"ĠÑĢÐ°ÑģÑĤÐ²":9355,"ĠÑģÐ°Ð¼ÑĭÐ¹":9356,"ĠÐ¶ÐµÒ£ÑĸÐ¼":9357,"Â°":9358,"ĠÒ±ÒĽÑģÐ°Ñģ":9359,"ÒĵÑĭÐ¼ÐµÐ½":9360,"ĠÑĢÐµÐ¶Ð¸ÑģÑģÐµÑĢ":9361,"ĠÐºÐ¾Ð½ÑģÑĤÐ¸ÑĤÑĥ":9362,"ĠÒļÐ°Ð±":9363,"ĠÒĽÐ°ÑĥÑĸÐ¿ÑĤÑĸ":9364,"ÑĢÑĥÐº":9365,"ĠÒ¯Ð»ÐµÑģÑĸ":9366,"ĠÐ¿Ð¾ÑģÐ¾Ð±":9367,"ĠÐ¾ÑĢÐ½Ð°Ð»Ð°ÑģÑĤÑĭÑĢÑĥ":9368,"ĠÐ²Ð¾Ð¾ÑĢÑĥÐ¶":9369,"ĠÑĤÓĻÐ¶ÑĸÑĢÐ¸Ð±Ðµ":9370,"ÑģÐ¸Ð½":9371,"Ð¿ÐµÑĤ":9372,"ĠÑĥÑģÑĤÐ°Ð½Ð°Ð²Ð»":9373,"ĠÐ¶Ð°Ð¹ÑĭÐ½Ð´Ð°":9374,"ĠÑģÐ¾Ð´Ð°Ð½":9375,"Ð¤Ð°ÑĢÐ°Ð±Ð¸":9376,"ood":9377,"aÐ½":9378,"ĠÐ´ÑĥÑĪ":9379,"ÑģÑĭÐ½ÑĭÐ¿":9380,"ĠÐ¶Ò±ÒĽ":9381,"ĠÐ¿Ð¾Ð²ÑĭÑĪÐµÐ½Ð¸Ðµ":9382,"ĠÒ¯Ð»ÐµÑģ":9383,"ĠÑģÑĢÐµÐ´Ñĭ":9384,"ĠÐķÑĥÑĢÐ¾Ð¿Ð°":9385,"apital":9386,"Ð³ÑĢÐ°Ð¼":9387,"ÑĤÑĸÐ³ÑĸÐ½":9388,"ĠÑįÐºÑģÑĤÑĢÐµÐ¼":9389,"Ð¾Ð¶Ð¸":9390,"Ð±Ò±":9391,"Ġprodu":9392,"Ð¼ÐµÐ½Ð½Ð¾":9393,"ĠÐ´Ð¸Ð²":9394,"ĠÑģÒ¯ÑĢÑĥ":9395,"Ð¡Ò±Ð»ÑĤÐ°Ð½":9396,"ĠÒĽÐ°Ð»ÑĭÐ¿ÑĤÐ°ÑģÒĽÐ°Ð½":9397,"ĠÐ¶Ò±Ð¼Ñģ":9398,"ĠÐ¿Ð¾ÑģÑĤÑĢÐ°Ð´Ð°Ð²ÑĪÐ¸Ñħ":9399,"ĠÑįÐºÑĢÐ°Ð½":9400,"ĠÐ¿ÑĢÐ¸Ð¾ÑĢÐ¸ÑĤÐµÑĤ":9401,"ĠÐµÐ²ÑĢÐ¾Ð¿ÐµÐ¹":9402,"Ð¿Ð°Ð»Ñĭ":9403,"ĠÑĢÑĥÐºÐ¾Ð²Ð¾Ð´Ð¸ÑĤÐµÐ»Ñı":9404,"ĠÐ·ÑĢÐµÐ½Ð¸Ñı":9405,"Ð½Ð°Ñģ":9406,"ĠÐķÐĲÐŃÐ¡":9407,"ĠÐ°Ð½ÑĭÒĽÑĤÐ°Ð¼":9408,"ĠÐ¸Ð·Ð¼ÐµÐ½ÐµÐ½Ð¸Ð¹":9409,"Ð´ÐµÐ¹ÑģÑĤÐ²Ð¸Ðµ":9410,"ĠÐ´Ð°ÒĽ":9411,"Ð³Ð°Ð½Ð¸":9412,"ĠÑģÑĭÐ³":9413,"ĠÒĽÐ°Ð»Ð´ÑĭÒĽ":9414,"Ð¸ÑģÑĤÐµÑĢ":9415,"ÐµÑģÑıÑĩ":9416,"ÑĨÑĥ":9417,"ÑĦÐ¸Ð»ÑĮ":9418,"ĠÐ¸Ð½Ð²ÐµÑģÑĤÐ¸ÑĨÐ¸ÑıÐ»ÑĭÒĽ":9419,"ĠÐºÐµÐ¹Ð´Ðµ":9420,"ĠÐºÓ©ÑĢÑģÐµÑĤÐºÐµÐ½":9421,"ĠÐ¿Ð°Ð¹ÑĭÐ·ÒĵÐ°":9422,"ĠÐ¾ÑĤÐ¼ÐµÑĩÐ°ÐµÑĤÑģÑı":9423,"ĠÑĸÑģÑĤÐµÐ¹ÑĤÑĸÐ½":9424,"ĠÐĳÐ°ÑĥÑĭÑĢ":9425,"Ð¸ÑĢÐ¾Ð²Ð°Ð½Ð¾":9426,"ĠÑģÐ¾Ð±ÑĭÑĤÐ¸Ð¹":9427,"ĠÐ¶ÐµÑĤÑĸ":9428,"ĠÑĤÑĥÑĢÐ¸Ð·Ð¼":9429,"ĠÑģÐ°Ð»Ð¼Ð°ÒĽ":9430,"Ð¸ÑģÑĤÐ¸ÐºÐ°":9431,"ĠÐĸÒ±Ð¼ÑĭÑģ":9432,"ĠÑĤÐºÐ°Ð½":9433,"ER":9434,"Ð°ÑĢÐ´":9435,"ĠÑĤÒ¯Ð½":9436,"ĠÐĵÐµÐ½Ð½Ð°Ð´":9437,"ĠÐķÑĢÐ»Ð°Ð½":9438,"ĠÐ¾Ð±ÑĢÐ°Ð±Ð¾ÑĤ":9439,"ĠÐ¾ÒĽÑĥÐ»ÑĭÒĽ":9440,"ĠÓ©Ð·ÐµÐºÑĤÑĸ":9441,"ĠÐ°ÒĵÐ·":9442,"ĠÑģÐ¸Ð¼Ð¿ÑĤÐ¾Ð¼":9443,"ĠÐºÑĸÑģÑĸ":9444,"Ð±ÐµÐ»ÑĸÐº":9445,"ĠÑģÐ¾ÑĨÐ¸":9446,"ĠÐ¾ÑģÑĥÐ¶Ð´ÐµÐ½":9447,"SI":9448,"ĠFor":9449,"ĠÐ²ÑģÐµÐ¼Ñĥ":9450,"Ð°ÒĵÐ´Ð°ÑĢÐ»Ð°Ð¼":9451,"Ġ!":9452,"ĠÐ¶Ð°Ð¼Ð°Ð½":9453,"Ð¼ÐµÑģÑĤÐ¾":9454,"ĠÐ¡Ó©Ð¹":9455,"ĠÐŀÑģÐ¾Ð±":9456,"ĠÐĲÒĽÐ¿Ð°ÑĢÐ°ÑĤÑĤÑĭÒĽ":9457,"ĠÐĳÐ°ÑģÒĽÐ°":9458,"Ð¼Ð°ÒĵÑĭÐ½Ð°":9459,"ĠÐĿÐ°Ñĩ":9460,"Ð¾Ð´Ð°Ð²":9461,"ĠÐºÓ©Ð±ÐµÐ¹":9462,"ĠÑĢÐ°Ð½ÑĮÑĪÐµ":9463,"ĠÐ°ÒĵÐ°":9464,"ĠÐ·Ð´Ð°Ð½Ð¸Ñı":9465,"ĠÐ¼ÓĻÐ¶Ð±":9466,"ĠÐĴÑĤÐ¾ÑĢ":9467,"ĠÐĳÐµÐ·":9468,"Ð³ÐµÑĢÑĪÑĸÐ»ÑĸÐº":9469,"ÒĽÑĭÐ½Ð´Ñĭ":9470,"Ð¾ÑģÑĢÐµÐ´":9471,"ĠÐ¾ÐºÐ°Ð·Ð°Ð»ÑģÑı":9472,"Ġ>":9473,"ÑģÑĤÐ°ÑĢÑĭ":9474,"Ð°Ð¼ÑĭÐ·ÒĵÐ°":9475,"ĠÑĥÑĩÐ°ÑģÑĤÐ¸Ñı":9476,"ĠÐľÐļÐļ":9477,"ĠÐ¶Ð°ÒĵÐ´Ð°Ð¹ÑĭÐ½Ð´Ð°":9478,"ÑĥÑĪÑĭÐ»Ð°ÑĢÒĵÐ°":9479,"ĠÒĽÐ°ÑĤÐ°Ò£":9480,"ĠÐłÐ¾Ð¼":9481,"ĠÑĭÒ£ÒĵÐ°Ð¹":9482,"ĠÐ¼ÑĭÑĪ":9483,"ĠÐ´Ð°Ð»ÐµÐµ":9484,"ĠBa":9485,"Ġ.-":9486,"ĠÒļÒ±Ð´Ð°Ð¹":9487,"Ð¾Ð±ÑĢ":9488,"ÒĽÐ°Ð·Ð°ÒĽ":9489,"ĠÐºÒ¯Ð½Ð´ÐµÑĢÑĸ":9490,"ĠÐ¸Ð½ÑģÑĤÐ¸ÑĤÑĥÑĤÑĭ":9491,"ĠÑĪÐ°ÒĵÑĭÐ¼":9492,"ĠÐ¼Ð½Ð¾":9493,"ĠÐºÑĥÐ´Ð°":9494,"ond":9495,"Ġ*/":9496,"ĠÑĤÐ°Ð»Ð°Ð¿ÑĤÐ°ÑĢ":9497,"ÓĻÐ´Ñĸ":9498,"ĠÑħÐ¾ÑĤÐµÐ»":9499,"ÒļÐ°Ð·ÑĸÑĢÐ³Ñĸ":9500,"ther":9501,"ĠÐ¾ÑĤÑĢÐ°Ð¶":9502,"ĠÐľÓĻÐ´ÐµÐ½Ð¸ÐµÑĤ":9503,"Ð¾Ð²Ð¾Ð¼":9504,"Ð°Ð¼Ð¸Ð½":9505,"ĠÐºÐµÒ£ÑĸÐ½ÐµÐ½":9506,"ÑĸÒ£ÑĸÐ·Ð³Ðµ":9507,"ĠÐ¿Ð¾Ð´ÑħÐ¾Ð´":9508,"ĠÑģÓĻÐ¹ÐºÐµÑģÑĤ":9509,"ĠÑĩÐµÐ¼Ð¿Ð¸Ð¾Ð½Ð°ÑĤ":9510,"?!":9511,"====":9512,"ĠÑģÐ°ÑıÑģÐ°ÑĤÑĭ":9513,"ĠÐ·Ð½Ð°Ðº":9514,"ĠÒĽÐ°Ð±ÑĭÑĢÒĵ":9515,"les":9516,"ĠÑģÐ¸Ð»ÑĮÐ½Ð¾":9517,"ĠÐ¢ÐµÐ¼ÑĸÑĢ":9518,"ĠÐ¿ÑĢÐ¾ÑĤÐµ":9519,"ÐµÑĢÐ±Ð°Ð¹Ð´Ð¶Ð°Ð½":9520,"Ð´Ð°ÑĥÒĵÐ°":9521,"ÐļÐ¾Ð½":9522,"ĠÑĦÐ¾ÑĢÐ¼Ñĭ":9523,"ÑĭÒĽÑĤÑĭÒ£":9524,"Ġper":9525,"ĠÑģÐ½Ð¾Ð²Ð°":9526,"ĠÑģÐ¾Ð¾ÑĤÐ²ÐµÑĤÑģÑĤÐ²ÐµÐ½Ð½Ð¾":9527,"ĠÐĿÐ°Ð·":9528,"ĠÐĨÐĨ":9529,"ĠÓĻÐ¹ÐµÐ»Ð´ÐµÑĢ":9530,"ĠÐºÐ¾Ð½ÑĦÐµÑĢÐµÐ½ÑĨÐ¸Ñı":9531,"ĠÑħÐ²Ð°ÑĤ":9532,"ĠÐ¾ÑĤÐ°Ð½Ð´ÑĭÒĽ":9533,"Ð´iÐº":9534,"ĠÐ¿ÑĢÐµÐ´Ð¿ÑĢÐ¸Ð½Ð¸Ð¼Ð°ÑĤÐµÐ»ÐµÐ¹":9535,"ĠÐ·Ð°ÑĢÐ´Ð°Ð¿":9536,"ĠÑģÐ½":9537,"Ġ95":9538,"ÑħÐ¸Ð¼":9539,"Ð¾Ð±Ð½Ð¾Ð²":9540,"ĠÐ¸Ð½ÑĨÐ¸":9541,"ĠÐĳÐ»":9542,"ĠÐ¿Ð¾Ð²ÑĭÑĪÐµÐ½Ð¸Ñı":9543,"enter":9544,"ĠÐ¤ÑĢÐ°Ð½ÑĨÐ¸Ð¸":9545,"Ð°Ð±Ð°ÐµÐ²":9546,"ÑģÑĤÐ°Ð½Ñĥ":9547,"ĠÑģÑĬ":9548,"ĠÒĽÒ±Ð·ÑĭÑĢ":9549,"ĠÐºÑĸÑĪ":9550,"te":9551,"ĠÑĦÑĥÐ½":9552,"ĠÐºÑĢÐ¾Ð²Ð¸":9553,"ĠÑģÐ½Ð¸Ð¶ÐµÐ½Ð¸Ðµ":9554,"ÑģÐ»ÑĥÐ¶Ð±Ñĭ":9555,"Ð°Ð½Ð¸":9556,"ĠÐ¸ÑģÐ¿Ñĭ":9557,"ĠÐºÑĢÐµ":9558,"ĠÐ»Ð¸ÑĤÐµÑĢ":9559,"ĠÐĲÒĽÐ¼Ð¾Ð»Ð°":9560,"ĠÐ¶Ð½Ðµ":9561,"ĠÓĻÑģÐµÑĢÑĸ":9562,"Ð»ÐµÐ´Ñĸ":9563,"ĠÐ¼Ð¸ÑĢÐ¾Ð²Ð¾Ð¹":9564,"ÑĥÑģÑĤÑı":9565,"ĠÐ¸ÐµÐ»ÐµÐ½":9566,"ĠÐ¿ÑĢÐ¾Ð³Ð½Ð¾":9567,"ĠÐ¾Ð±Ð»Ð°ÑģÑĤÐ½Ð¾Ð³Ð¾":9568,"ĠÐ¡Ð°ÑĢÑĭ":9569,"ĠÑĨÐµÑĢ":9570,"Ð¸Ð¼Ð¿Ð¸Ð¹":9571,"ÐµÐ³ÑĸÐ½Ð´Ðµ":9572,"ĠÑģÐ¼Ð°ÑĢÑĤ":9573,"ĠÐ²Ð°ÐºÑĨÐ¸Ð½":9574,"ĠÐ²ÑģÑĳ":9575,"ĠÐ¾ÑĢÑĤÐ°ÒĵÐ°":9576,"ĠÐ°Ð³ÐµÐ½ÑĤÑĤÑĸÐ³ÑĸÐ½ÑĸÒ£":9577,"ĠÐ¿Ð¾Ð»Ñı":9578,"ĠÑĥÐ´Ð¾Ð²Ð»ÐµÑĤÐ²Ð¾ÑĢ":9579,"ĠÐ´ÑĢÐ°":9580,"ÑĤÑĤÑĸ":9581,"ĠÑģÓ©Ð·Ñĸ":9582,"ĠÑĢÐµÐ³ÑĥÐ»ÑıÑĢ":9583,"ĠÑĢÐ°Ð·ÑĢÑĥ":9584,"ĠÒĽÐ¾Ð¹Ð¼":9585,"ĠÐ¼Ð°ÑĪÐ¸Ð½Ð°":9586,"ĠÐ¸ÐµÑģÑĸ":9587,"ĠÑĪÐµÒ£Ð±ÐµÑĢÑĸÐ½Ð´Ðµ":9588,"ĠÐ¶Ò¯ÑĢÐµÐ´Ñĸ":9589,"Ġ07":9590,"ÐµÐºÑĤÐµÐ»":9591,"ÑĭÐ½Ð´Ð°Ð¹ÑĤÑĭÐ½":9592,"ĠÐ²Ð¾Ð·Ð´ÑĥÑĪ":9593,"ĠÓ©Ð·ÑĸÐ½Ð´Ðµ":9594,"ĠÐºÒ¯Ð½ÑĤÑĸÐ·":9595,"ÑģÐºÐ°ÑĢ":9596,"ĠÐ²ÐµÑĤÐµÑĢÐ¸Ð½Ð°ÑĢ":9597,"ĠÐ¿ÑĢÐµÐ´Ð»Ð¾Ð¶ÐµÐ½Ð¸Ñı":9598,"ÑĸÒ£ÑĸÐ·Ð´Ñĸ":9599,"Ð°ÑĤÐµÐ»ÑıÐ¼":9600,"Ġ57":9601,"ĠÐ±Ð°Ð»Ð°Ð»Ð°ÑĢÐ´Ñĭ":9602,"ÐµÐ¼ÑģÑı":9603,"ĠÐ¿Ð»Ð¾ÑīÐ°Ð´Ð¸":9604,"ĠPro":9605,"ĠÐľÐĺÐĶ":9606,"ĠÐ±ÑĢÐµÐ½":9607,"ÐºÐ°Ð¶":9608,"ĠÐºÐ¾Ð³Ð¾":9609,"ĠÐ³Ð¾":9610,"ĠÓĺÑĢÐ¸Ð½Ðµ":9611,"ĠÑģÐ¾Ð·Ð´Ð°Ð½Ð¸Ðµ":9612,".),":9613,"ĠÐļÐ°ÑģÐ¿":9614,"ĠÑģÐ°Ð»ÑĤ":9615,"ai":9616,"ĠÑģÐµÐ¼Ð¸Ð½Ð°ÑĢ":9617,"ÐµÐ¹Ð½":9618,"ĠÐ´ÑĢÑĥÐ³Ð¸Ð¼Ð¸":9619,"ĠÑģÐ²Ð¾Ð¸Ð¼Ð¸":9620,"ĠÑģÐ¾Ð±ÑĢÐ°Ð½":9621,"ĠÑģÐºÐ¾Ð»ÑĮÐºÐ¾":9622,"Ð·ÑĭÑģÐº":9623,"umn":9624,"ÐŁÑĢÐ¾":9625,"ĠÑĢÐ°Ð²Ð½Ð¾":9626,"ĠÐĿÑĥ":9627,"ÐºÓ©Ð»ÑĸÐº":9628,"ÑĤÐµÑĢÐ´ÐµÐ½":9629,"ĠÐ¼Ò±Ð½Ð´Ð°":9630,"ĠÐ¶Ò¯ÑĢÑĥ":9631,"Ð´ÑĭÐ»ÑĭÒĽ":9632,"Ġ264109":9633,"87":9634,"Ġde":9635,"apt":9636,"ĠÑĥÑĤÐ¾ÑĩÐ½":9637,"ĠÐ¿Ð¾Ð³Ð¸Ð±ÑĪÐ¸Ñħ":9638,"ĠÐ°Ð²ÑĤÐ¾Ð¼Ð¾Ð±Ð¸Ð»ÐµÐ¹":9639,"ÑĭÑĢÑĥ":9640,"ath":9641,".\"":9642,"ys":9643,"ÐľÐĶ":9644,"ĠÐ¾ÑĢÐ³Ð°Ð½Ð´Ð°ÑĢ":9645,"ĠÑĤÓ©Ð¼ÐµÐ½Ð´ÐµÑĤ":9646,"ĠÐ½ÐµÐ±Ð¾Ð»ÑĮÑĪ":9647,"Ð¾ÑģÑĤÐ°Ð½Ð¾Ð²":9648,"ĠÑĪÐµÑĪÑĸÐ¼Ð´ÐµÑĢ":9649,"ĠÐ·Ð°Ð¿Ð°Ð´":9650,"ÐľÐ¸Ð½Ð¸ÑģÑĤÑĢ":9651,"ÑĢÐ¾Ð²Ð°Ð½Ð¸Ðµ":9652,"ĠÑģÐ»ÑĥÑĩÐ°ÑıÑħ":9653,"ĠÐ´ÑĥÐ¼":9654,"ĠÐĺÐ±":9655,"ĠÐ¾ÑĤÑĢÐ¸ÑĨ":9656,"Ġinform":9657,"ĠÑıÐ´ÐµÑĢ":9658,"Ð´ÐµÐ»Ð¸":9659,"Ð±ÐµÐ³Ñĸ":9660,"ÐļÐ°Ð½":9661,"ĠÐ¿ÑĢÐ¾Ð²ÐµÐ´ÐµÐ½Ð¸Ðµ":9662,"Ð³ÐµÐ½Ð´Ðµ":9663,"ĠÑĥÑģÑĤÐ°Ð½Ð¾Ð²Ð»ÐµÐ½":9664,"ĠÐ°Ð½ÑĭÒĽÑĤÐ°Ð¹Ð´Ñĭ":9665,"ĠÐ·Ð°ÒĽÑĭÐ¼":9666,"ĠÒĽÐ°Ð±Ð°ÑĤ":9667,"ĠÐĸÐ¾Ð±":9668,"ĠÐ´Ð¸Ð¿Ð»Ð¾Ð¼Ð°ÑĤ":9669,"olor":9670,"ĠAr":9671,"ĠÓ©ÑģÑĸÐ¿":9672,"ĠÐ½Ð°Ð·Ð²Ð°Ð»":9673,"Ð°ÑĤÐ¾ÑĢÐ°":9674,"ÐķÐ³ÐµÑĢ":9675,"ĠÐ±Ð°ÒĵÑĭÐ½":9676,"ĠÑĪÐ°ÑĢÑĥÐ°ÑĪÑĭÐ»":9677,"ĠÐļÐ°Ð¿":9678,"Ð¢Ðļ":9679,"ĠÐ±Ð¾Ð»ÑĮÐ½Ð¸ÑĨÑĥ":9680,"ĠÐºÑĢÐ¸ÑĤÐµÑĢ":9681,"ĠÐ¿ÑĢÐ¾Ð²ÐµÐ»Ð¸":9682,"ĠÐ·Ð°Ð´Ð°ÑĩÐ¸":9683,"ĠÐ·Ð°ÐºÐ¾Ð½Ð¾Ð¿ÑĢÐ¾":9684,"ĠÐ¶Ð¸Ð½Ð°Ñĥ":9685,"ÐĲÑĥ":9686,"ÐµÑĢÐ¼ÐµÐ½":9687,"ĠÐ±ÑĸÑĤÑĸÑĢ":9688,"ĠÐ»Ð°Ð¹":9689,"ĠÐ¡Ð¿Ðµ":9690,"ÑĢÐµÐ³":9691,"Ð°ÑĤÐ¾ÑĢÐ¾Ð²":9692,"ĠÐ¿ÑĢÐµÐ´ÑĭÐ´Ñĥ":9693,"ĠÐ¢Ð¸Ð¼":9694,"ÑĪÐµÐ¼Ñĥ":9695,"ĠÐ¶ÐµÑĤÐºÑĸÐ»ÑĸÐºÑĤÑĸ":9696,"ÑĸÑĢÐ¼":9697,"ĠÒĽÐ°ÑĤÑĭÑģÒĽÐ°Ð½":9698,"ÑĸÐ¼ÑĸÐ·Ð³Ðµ":9699,"Ð´ÐµÐ½Ð¸ÐµÐ¼":9700,"Ġel":9701,"ĠÐ±Ð°ÑĢÑĭÐ½ÑĪÐ°":9702,"ĠÐ°Ð»Ð°Ð¼ÑĭÐ·":9703,"ĠÐ°ÑĥÑĭÑģÑĤÑĭÑĢ":9704,"ĠÑĦÐ¾ÑĢÐ¼Ðµ":9705,"ĠÐ¿Ð¾ÐºÐ¾Ð»":9706,"ĠÐľÐ°Ð³":9707,"ÑĤÑĢÐ°":9708,"ĠÐºÐ¸Ð»Ð¾Ð³ÑĢÐ°Ð¼Ð¼":9709,"ĠÐ¿ÑĢÐ¸ÑĪÐ»Ð¾ÑģÑĮ":9710,"Ò±ÒĽÑĭÒĽÑĤÑĭÒĽ":9711,"Ð¸ÑĤÐµÐ»ÑĮÐ½Ð°Ñı":9712,"ĠÐ¼ÑĭÐ½":9713,"ÑĪÐ°Ð»ÑĭÒĽÑĤÑĭ":9714,"Ð²ÑĢÐ°ÑĤ":9715,"line":9716,"ĠÐºÑĸÐ½":9717,"Ð·Ð´ÑĢÐ°Ð²":9718,"ĠÐµÒ£Ð±ÐµÐ³":9719,"ĠÑĸÑĪÑĸÐ½Ð´ÐµÐ³Ñĸ":9720,"ĠÒĽÐ°Ð±ÑĭÐ»Ð´Ð°Ð½ÒĵÐ°Ð½":9721,"ÑģÐ¿ÐµÐ½":9722,"Ð°ÑĤÑĮÑı":9723,"ĠÐ¢ÑĢÐ°Ð¼Ð¿":9724,"ĠÐĴÐĴ":9725,"ĠÐ¾ÑĤÑģÑĤÐ°Ð²":9726,"Ð³ÐµÑĢÐ»ÑĸÐº":9727,"ĠÑĤÐµÐ¾ÑĢÐ¸ÑıÐ»ÑĭÒĽ":9728,"ĠÑģÑĢÐµÐ´Ñĥ":9729,"Ð°Ð¸":9730,"ĠÐ½ÓĻÑĤÐ¸Ð¶Ðµ":9731,"ĠÐļÐŁ":9732,"ĠÐ¿Ð¾ÑĢÑĥÑĩÐ¸Ð»":9733,"lock":9734,"ĠÐ¼Ð°ÑĤÐµÑĢÐ¸Ð°Ð»Ð¾Ð²":9735,"ĠÐ¿Ð¾Ð±Ðµ":9736,"ÐºÐ¾ÑģÑĤÑĮ":9737,"ÑĸÐºÑĤÑĸÑĢ":9738,"ĠÑĢÑıÐ´Ð¾Ð¼":9739,"ĠÐĵÐµÐ½ÐµÑĢ":9740,"Ð¼Ð°Ð½ÑĭÒ£":9741,"Ð¾Ð½Ð°ÑĢÑĥÑĪ":9742,"ĠÐĳÐ°ÑģÒĽÐ°ÑĢÐ¼Ð°":9743,"ĠUn":9744,"ĠÐ´Ð°Ð½Ð½Ð¾Ð¹":9745,"ÐļÐ¡ÐŁ":9746,"ÐµÑģÑĤÑĸ":9747,"ĠÐ²ÐµÑĤÑĢÐ°":9748,"ĠÐĳÐ°Ñħ":9749,"ĠÐºÒ¯ÑĪÑĸ":9750,"ĠÑĤÐ³":9751,"ĠÐĳÐ¸ÑĭÐ»":9752,"Ð°ÑĤÐµÐ»ÑĮÐ½ÑĭÐµ":9753,"ĠÐ³Ð°":9754,"ĠÐ´Ð¾Ð¿ÑĥÑģÑĤ":9755,"ÑĸÐ»ÑĥÐ´Ðµ":9756,"ĠÑģÐµÑĢÑĸÐºÑĤÐµ":9757,"uc":9758,"ĠÑĤÐ°ÑģÑĭÐ¼Ð°Ð»Ð´Ð°Ñĥ":9759,"ĠÑĥÐ½Ð¸Ð²ÐµÑĢÑģÐ¸ÑĤÐµÑĤÑĸÐ½ÑĸÒ£":9760,"ĠÑĪÐ¾":9761,"ĠÐ¾ÑĤÑĭÑĢÑĥ":9762,"ĠÐºÐ¾Ð¿":9763,"ĠÐ°ÑĤÒĽÐ°ÑĢÐ°Ð´Ñĭ":9764,"ĠÐ°Ð¹ÑĤÐ°ÑĢÐ»ÑĭÒĽÑĤÐ°Ð¹":9765,"ĠÑĢÐ°Ð¹Ð¾Ð½Ð°Ñħ":9766,"ĠÑĤÐµÐ»Ð°":9767,"ÑĨÐ°Ð¼Ð¸":9768,"ĠDep":9769,"ĠÐµÐºÐµÐ½Ñĸ":9770,"ĠÑģÐºÐ°Ð·Ð°Ð»Ð°":9771,"ÒĽÐ°Ð¹Ñģ":9772,"Ð´Ð°ÑĩÐ¸":9773,"ĠÐĹÐ°ÑĤ":9774,"ĠÐ£ÐºÑĢÐ°Ð¸Ð½Ðµ":9775,"ĠÐ¿ÑĢÐ¾ÑĤÐ¾":9776,"ĠÐ²ÑĭÐ¿Ð¾Ð»Ð½Ñı":9777,"ĠÒĽÐ¾ÑģÒĽÐ°Ð½":9778,"ĠÐ°Ð´Ð°Ð¼Ð´Ð°ÑĢÒĵÐ°":9779,"ÐµÐºÑĤÐ°":9780,"ĠÐ»ÑİÐ±Ð¾Ð¹":9781,"Ð¿ÑĢÐ¾ÑĤÐ¸Ð²":9782,"ĠÐ¿Ð°Ð¹Ð´Ð°Ð»Ð°Ð½ÒĵÐ°Ð½":9783,"ĠÐ°Ð»ÒĵÑĭÑģ":9784,"ĠÑģÑĭÐ±Ð°Ð¹Ð»Ð°Ñģ":9785,"ĠÐļÐ¾Ð¼Ð¸ÑĤÐµÑĤÐ°":9786,"ĠÑģÐ¾Ð´ÐµÑĢÐ¶Ð°Ð½Ð¸Ñı":9787,"ĠÐºÐµÐ´ÐµÐ½":9788,"Ð´Ð°ÑĨÐ¸Ð¸":9789,"Ð¡Ð¾Ð»":9790,"ĠÐĲÑĢÐ¼ÐµÐ½":9791,"Ġ120":9792,"ĠÑĸÑģÑĤÐµÐ¿":9793,"ĠÑĪÐ°Ò£":9794,"ĠÐŁÐ¾Ð±":9795,"ÑĪÑĸÑĤ":9796,"Ð°ÑĢÐ½":9797,"ĠÐ£Ð·Ð±ÐµÐºÐ¸ÑģÑĤÐ°Ð½Ð°":9798,"ĠÐ°Ð²Ð¸Ð°ÐºÐ¾Ð¼":9799,"Ð¶ÐµÐ»Ð³Ñĸ":9800,"ĠÐ¢ÐµÐ³":9801,"Ġdevelop":9802,"ÑĢÐ°Ð¼ÑĭÐ·":9803,"ĠÐ±Ð°ÑģÐ¿":9804,"ÑĢÐ¾Ð¼ÐµÑĤ":9805,"ÑĭÑģÑĭÐ¼ÐµÐ½":9806,"ĠÒĽÐ¾Ð¹ÑĭÐ»Ð°ÑĤÑĭÐ½":9807,"ocum":9808,"ĠÐļÑĭÐ·ÑĭÐ»Ð¾ÑĢÐ´Ð¸Ð½ÑģÐºÐ¾Ð¹":9809,"ĠÐ°ÑĥÐ´Ð°Ð½ÑĭÐ½Ð´Ð°":9810,"ĠÐ·Ð°Ð²Ð¾ÐµÐ²":9811,"ĠÐ°Ð¹Ð½Ð°Ð»Ð´Ñĭ":9812,"ĠÐ¿ÑĢÐµÐ¸Ð¼ÑĥÑīÐµ":9813,"ĠÐºÑĢÐ°":9814,"ĠÐ½Ð°ÑģÐ¸ÑħÐ°ÑĤ":9815,"ĠÐ¾Ð¿Ð¸Ñģ":9816,"Ð²Ð¸ÑĤ":9817,"ĠÐ¼ÐµÐºÑĤÐµÐ¿ÐºÐµ":9818,"ÐĲÐ´Ð°Ð¼":9819,"ĠÐ·Ð°ÑģÐµÐ´Ð°Ð½Ð¸Ñı":9820,"ĠÑĥÐ´Ð¸Ð²":9821,"ÑģÐºÐµÐ¼ÐµÐ½":9822,"ĠÐ¿Ð¾Ð²Ð¾Ð´Ñĥ":9823,"ĠÐ´Ð¾Ð»Ð¶Ð½Ð¾ÑģÑĤÑĮ":9824,"ĠÐ¼Ð°Ñħ":9825,"ĠÐ¿ÑĢÐ¸Ð²Ð¾Ð´Ð¸ÑĤ":9826,"ĠÐ¿ÑĢÐ¸ÑĢÐ¾":9827,"ĠÐŁÑĥÐ±Ð»Ð¸ÐºÐ°ÑĨÐ¸Ñı":9828,"ĠÐ·Ð°ÑĤÑĤÐ°ÑĢÐ´ÑĭÒ£":9829,"ĠÐ¿ÑĢÐ¾Ð¸ÑģÑĪÐµÑģÑĤÐ²Ð¸Ñı":9830,"ĠÐ¾Ð´ÐµÐ¶":9831,"ĠÐ¸Ð¼Ñı":9832,"ĠÐ²Ð°ÑĢÐ¸Ð°Ð½":9833,"ĠÐ¿ÐµÑĢÐ²ÑĭÐµ":9834,"ĠÐ±Ð°ÒĵÑĭÑĤÑĤÐ°":9835,"ĠÐĳÒ±Ð´Ð°Ð½":9836,"ĠÐ·Ð°Ð¸Ð½ÑĤÐµÑĢÐµÑģ":9837,"ÑıÐ±ÑĢÑĮ":9838,"ÑĪÐµÐ½ÐºÐ¾":9839,"Ġzakon":9840,"ĠÐ¼Ð°Ð¼Ð°Ð½Ð´Ð°ÑĢ":9841,"ĠÑĦÐ¸Ð·Ð¸ÐºÐ°Ð»ÑĭÒĽ":9842,"ĠÐ»Ð¸ÑĪÐµÐ½Ð¸Ñı":9843,"ĠÑģÐ¾Ð²ÑģÐµÐ¼":9844,"ĠÑĥÐºÑĢÐ°Ð¸Ð½":9845,"ĠÐŀÐ¿ÐµÑĢ":9846,"ĠÐ¾Ð±Ð½Ð¾Ð²":9847,"ĠÐ¿Ð¾Ð»ÑĮÐ·Ñĥ":9848,"ĠÐŁÐµÑĢÐ²ÑĭÐ¹":9849,"ĠÐķÐ²Ð³ÐµÐ½":9850,"ĠÐ´Ð°Ð½Ð½Ð¾Ð³Ð¾":9851,"ĠÐĴÐ°ÑĪ":9852,"ĠÑįÐ»":9853,"Ġqu":9854,"ÑįÐ»ÐµÐºÑĤ":9855,"ĠÑģÑĤÑĥÐ´ÐµÐ½ÑĤÐ¾Ð²":9856,"ĠÐĿÐµÐ³ÑĸÐ·Ð³Ñĸ":9857,"ĠÐ¶Ð¸Ð½Ð°":9858,"ĠÐ¿Ð¾Ð²ÑĢÐµÐ¶":9859,"ĠÐ½Ð°Ð¿ÑĢÐ°Ð²Ð»ÐµÐ½Ð¸Ð¸":9860,"ĠÑĤÐµÐ¼Ð¿ÐµÑĢÐ°ÑĤÑĥ":9861,"ĠÐ³Ð¾ÑĤÐ¾Ð²Ñĭ":9862,"Ð¿Ð°ÑĤ":9863,"ĠÐ±ÐµÑĢÑĸÐ»ÐµÑĤÑĸÐ½":9864,"oll":9865,"ÑĢÐ°ÑģÐ»":9866,"ĠÐ±Ð¾Ð»ÒĵÐ°Ð½Ð´Ð°":9867,"Ð°Ð½ÑĮ":9868,"67":9869,"ĠÐ¿ÑĢÐ¾ÑĤÐ¸Ð²Ð¾":9870,"ĠÐ²ÐµÑĢÑĤ":9871,"ĠÑģÑĭÐ½Ð°":9872,"ĠÑĢÐµÑĪÐ¸Ð»Ð¸":9873,"ĠÐ¡ÐĿÐĵ":9874,"Ð°ÑĤÐµÐ»ÑĮÐ½Ð¾Ð¹":9875,"ĠÑģÑĥÐ¼Ð¼Ð°":9876,"ĠÑĥÐ¼":9877,"Ġsp":9878,"ĠÐ´ÐµÐ»ÐµÐ³":9879,"Ð°ÑĤÑĭÐ½ÑĭÐ½":9880,"ĠÒĽÑĭÑĢÐºÒ¯Ð¹ÐµÐº":9881,"ĠÐ¶Ð°Ð»ÒĵÐ°Ñģ":9882,"ÐµÐ»ÐµÑĢÑĸÐ½Ðµ":9883,"ĠÒĽÒ±ÒĽÑĭÒĽÑĤÐ°ÑĢÑĭ":9884,"ĠÐ´Ð¾ÑģÑĥÐ´ÐµÐ±":9885,"ĠÐµÐ»ÑĸÐ¼ÑĸÐ·Ð´Ðµ":9886,"ĠÐºÐ¾Ð»Ð¸ÑĩÐµÑģÑĤÐ²Ð°":9887,"ĠÐ¼Ð°ÑĤÑĩÐ°":9888,"ÐĸÐ°Ð»":9889,"ĠÐ°ÑĢÐ´Ð°":9890,"uthor":9891,"ÑĤÐ¾Ð³Ð¾":9892,"ĠÐ½Ð¾Ð¼ÐµÑĢ":9893,"ĠÑĤÐµÐ½Ð½Ð¸Ñģ":9894,"ific":9895,"ĠÐ¶ÐµÑĢÑĸ":9896,"Ð°ÒĵÐ°Ð¹":9897,"ÑĤÒ±ÑĢ":9898,"Ð¾Ð»Ð¸":9899,"ĠÐ±ÑĸÐ»ÑĥÐ³Ðµ":9900,"Ġ480":9901,"ĠÐ´Ð¾ÑħÐ¾Ð´Ð¾Ð²":9902,"ÐĳÐ°Ñģ":9903,"ĠÐ±Ð¾Ð»ÑģÐ°ÒĽ":9904,"ĠÐ½ÐµÐ³Ð°ÑĤÐ¸Ð²":9905,"Ð¸ÐºÐ°Ð½ÑĭÒ£":9906,"ĠÑģÑĤÐ¾ÑĢÐ¾Ð½Ñĥ":9907,"ĠÑįÐ½":9908,"ĠÑģÐµÐºÑĥÐ½Ð´Ñĥ":9909,"ĠÑĤÐ°ÒĵÐ´ÑĭÑĢ":9910,"Ò°Ðł":9911,"ĠÐ¿ÑĢÐ°Ð²Ð¾Ð½Ð°ÑĢÑĥÑĪ":9912,"ĠÐ¾Ñī":9913,"ÑĭÒĵÑĭÑĢÐ°ÒĽ":9914,"ĠÐļÐ°Ð»":9915,"ÐºÐµÑĤÐ¸Ð½Ð³":9916,"ĠÐĲÑĦÐ³Ð°Ð½Ð¸":9917,"ĠÐ¾Ð±Ð¾Ð·":9918,"ĠÓĻÑĢÑĸÐ¿ÑĤÐµ":9919,"inist":9920,"ĠÐĸÐµÐºÐµ":9921,"ĠÑģÐ¿Ð¸ÑĢ":9922,"Ġour":9923,"ĠÐĴÐ¸ÐºÑĤÐ¾ÑĢ":9924,"Ð¸Ð²ÑĪÐ¸Ð¹":9925,"ĠÑĤÐµÑĢÐ°Ð¿":9926,"Ð¾Ð½ÐµÑĨ":9927,"ĠÐ¿Ð¾Ð»ÐµÐ·":9928,"ĠÐ´Ð¾Ð²":9929,"ĠÐ³Ð°Ð·ÐµÑĤÑĸ":9930,"ĠÐ·Ð½Ð°ÑĩÐ¸ÑĤÐµÐ»ÑĮÐ½Ð¾":9931,"ĠÐĵÒ¯Ð»":9932,"ĠÑĥÑĢÐ¾":9933,"ĠÐ²Ð¾ÐºÑĢÑĥÐ³":9934,"Ð·Ð¾ÑĢ":9935,"ĠÐºÓ©Ð¿ÑĪÑĸÐ»ÑĸÐº":9936,"ĠÐ£Ð½Ð¸Ð²ÐµÑĢÑģÐ¸ÑĤÐµÑĤ":9937,"ĠÐ¿Ð¾Ð´Ð³Ð¾ÑĤÐ¾Ð²ÐºÐ¸":9938,"ÑīÑĳ":9939,"ĠÐ°Ð½ÑĭÒĽÑĤÐ°Ð»ÒĵÐ°Ð½":9940,"ĠÑģÑĤÐ¸Ð¼":9941,"ÐµÐ·Ð¶":9942,"ĠÐ¢Ð°Ñĥ":9943,"ĠÑĨÐ¸ÐºÐ»":9944,"ĠÐĺÐ»ÑĮ":9945,"ĠÐ¾Ò£ÑĤÒ¯ÑģÑĤÑĸÐº":9946,"ĠÐ¿ÑĢÐ¾Ð´ÑĥÐºÑĤÑĭ":9947,"ĠÐ¿ÑĢÐ°Ð²Ð¸Ð»Ð°":9948,"ĠÑģÑĤÐ¾Ð¸Ð¼Ð¾ÑģÑĤÐ¸":9949,"Ð¿ÑĢÐ¾Ð´Ñĥ":9950,"ĠÐ¶Ð¾Ð»ÑĭÐ½":9951,"Ð°Ð»Ð°ÑĢÐ¼ÐµÐ½":9952,"ĠÑĥÑĤÑĢÐ¾Ð¼":9953,"ĠÐļÐĴÐĺ":9954,"ĠÑĤÐ°Ð»Ð°Ð½ÑĤ":9955,"ĠÐ±Ð¾Ð»ÑĥÒĵÐ°":9956,"ĠÐĿÐŁ":9957,"ĠÒ¯Ð¹ÑĢÐµÑĤÑĥ":9958,"ĠÐ·Ð°ÑĢÐµÐ³Ð¸ÑģÑĤÑĢÐ¸ÑĢÐ¾Ð²Ð°Ð½Ð¾":9959,"ĠÐ¿ÑĢÐ¾Ð³ÑĢÐ°Ð¼Ð¼Ð°":9960,"ĠÐ°Ð½Ð³Ð»":9961,"Ġq":9962,"ĠÐ½ÐµÑĢÐ²":9963,"ÑĥÐ±ÐµÑĢ":9964,"ĠÐĲÐºÐ¸Ð¼":9965,"ĠÐ¾ÒĽÑĥÒĵÐ°":9966,"ĠÑĸÑģÑĤÐµ":9967,"ĠÐ½Ð°Ð´Ðµ":9968,"ĠYou":9969,"ĠÐ´Ó©Ò£Ð³":9970,"ĠÐ·Ð°ÐºÐ°Ð·":9971,"ĠÐ¾ÑĦÐ¸ÑĨÐ¸Ð°Ð»ÑĮÐ½ÑĭÐ¹":9972,"ĠÐºÐ°ÐºÐ¸Ñħ":9973,"ÐµÐ´Ð»Ð¸Ð²":9974,"ĠÐ°Ð»ÒĽ":9975,"ĠÐļÐ°ÑĤ":9976,"Ò£ÑĸÑĢ":9977,"ÑĪÐ¸":9978,"ĠÐµÑģÐºÐµÑĢÐµ":9979,"ĠÐľÐ°ÐºÑģÐ¸Ð¼":9980,"ĠÐ½Ð°Ð·Ð½Ð°ÑĩÐµÐ½":9981,"Ð½ÐµÐ´ÐµÐ»ÑĮ":9982,"tablet":9983,"ĠÐ²ÐµÑĢÐ½ÑĥÐ»":9984,"ÑĮÑıÐ½":9985,"ĠÐºÐ¾ÑįÑĦÑĦÐ¸ÑĨÐ¸ÐµÐ½ÑĤ":9986,"ÑģÐ¿Ð¾ÑģÐ¾Ð±":9987,"Ġps":9988,"ĠÐ¿ÐµÑĢÐ²ÑĭÐ¼":9989,"rent":9990,"Ð¾Ð²ÐµÑĢÑĪÐµÐ½":9991,"ĠÒĽÐ°Ð¹ÑĭÑĢ":9992,"Ġ2003":9993,"ĠÐ²Ð¾Ð·Ð¾Ð±Ð½Ð¾Ð²":9994,"ĠÓĺÑĥ":9995,"ÑıÐ»Ð°":9996,"ĠÐ²ÑĭÐ·Ð²":9997,"ĠÐ½Ð°Ð¿Ð¾Ð¼Ð½":9998,"ĠÐ½ÐµÑģÐ¸":9999,"ĠÐ¶Ð°ÑģÑĥÑĪ":10000,"ĠÐ¸Ð½ÑĤÐµÐ»Ð»ÐµÐº":10001,"ĠÐĵÐ°Ð·":10002,"ĠÐ¿ÑĢÐ¾Ð²Ð¾Ð´Ð¸ÑĤÑĮ":10003,"ĠÒĽÑĭÐ»":10004,"Ð¾Ð¿ÑĢÐ¾":10005,"ĠÉĻ":10006,"ery":10007,"ÑģÑĤÑĢÐ°":10008,"Ġ600":10009,"ĠÐ¼Ð¾Ð»Ð¾Ð´ÐµÐ¶":10010,"ktop":10011,"ĠÐ·Ð¾Ð½Ðµ":10012,"ĠÒļÐ°ÑĢÐ¶Ñĭ":10013,"ĠÐľÑĥÑĢ":10014,"ĠÐ»Ð¸Ð½Ð¸Ð¸":10015,"ĠÐ¸Ð¿Ð¾ÑĤ":10016,"ĠÐ´Ð°Ð»ÑĮÑĪÐµ":10017,"Ð·ÐµÐ¼":10018,"Ð²ÐµÐ¹ÑĨÐ°ÑĢ":10019,"ĠÐĲÑĢÑĤ":10020,"ÑģÐ»ÑĥÐ¶Ð±Ñĥ":10021,"ĠÑĨÐµÐ»Ð¸":10022,"ĠÑģÑĨÐµÐ½Ð°ÑĢ":10023,"ĠÑģÐ¾Òĵ":10024,"ÑĤÐ¿":10025,"ĠÒĽÐ°ÑĤÑĭÐ½Ð°Ñģ":10026,"ĠÑģÑĸÐ·Ð³Ðµ":10027,"ĠÐ²Ð·ÑĢÐ¾ÑģÐ»":10028,"Ð±Ð°Ð½ÐºÐ°":10029,"ĠÒĽÒ±Ð¶Ð°ÑĤÑĤÐ°ÑĢÐ´Ñĭ":10030,"))":10031,"ĠÑģÐ¼ÑĭÑģ":10032,"Ð¾ÑĢÐ¸":10033,"ĠÐ¼ÓĻÐ¶Ð±Ò¯ÑĢ":10034,"ĠÐ¼ÓĻÑģÐµÐ»ÐµÐ»ÐµÑĢÐ´Ñĸ":10035,"ÑĤÐµÑĢÑĸÐ½Ð´Ðµ":10036,"ĠÑģÑĤÑĢÐ°Ð½Ñĥ":10037,"ĠÐ²Ð¸ÑĢÑĥÑģ":10038,"ĠÐ¼ÑĥÐ¶ÑĩÐ¸Ð½":10039,"2014":10040,"ĠÐ¼Ð°ÑĪÐ¸Ð½Ñĭ":10041,"ĠÐ±Ð°Ð»Ð°ÑģÑĭ":10042,"ÑĪÐ°ÑĢÐ°":10043,"Ġar":10044,"ĠÒĽÐ°Ð´Ð°ÒĵÐ°Ð»Ð°Ñĥ":10045,"ĠÑĢÐ°Ð±Ð¾ÑĤÐ°Ð»":10046,"ĠÑĢÐµÐ±ÐµÐ½Ð¾Ðº":10047,"ĠÐ¢Ð¾Ð»ÑĮÐºÐ¾":10048,"ek":10049,"ĠÑĦÐ¾ÑĢÐ¼Ð°":10050,"Ð°Ð½Ðº":10051,"ĠÒĽÐ¾ÑģÑĭÐ»ÒĵÐ°Ð½":10052,"ĠÑĦÐ¸Ð½Ð°Ð»":10053,"ĠÑĢÐ°ÑģÑģÐºÐ°Ð·ÑĭÐ²Ð°ÐµÑĤ":10054,"Ġ05":10055,"Ġwe":10056,"Ð°ÑıÑģÑĮ":10057,"ĠÑģÐ¾ÑģÑĤÐ¾ÑıÐ½Ð¸":10058,"ĠÑĩÐ°ÑīÐµ":10059,"Ð½ÑĥÐ»Ð¸":10060,"ĠÐ±Ð¾Ð»ÒĵÐ°Ð½Ñĭ":10061,"ĠÒĽÐ¾ÑĢÒĵÐ°Ð»":10062,"ĠÑįÐºÐ¾Ð½Ð¾Ð¼Ð¸ÑĩÐµÑģÐºÐ¾Ð¹":10063,"ĠÐ¸Ð·Ð¼ÐµÑĢ":10064,"ĠÐļÑĢ":10065,"ĠÑĤÑĥÑĢÐ½Ð¸ÑĢÐ°":10066,"ĠÐ°ÑģÑĭÑĢÑĥÒĵÐ°":10067,"ĠÐ¡Ð¾Ð½ÑĭÒ£":10068,"ĠÑģÐµÐ²ÐµÑĢÐµ":10069,"ĠÐŁÐ¾ÑģÑĤ":10070,"ĠÒĽÐ°Ð»Ð°Ð¼":10071,"ĠÒĽÐ¾Ð½Ñĭ":10072,"ĠÐ²Ð¸ÑĤ":10073,"ĠÑĤÑĥÒĵÑĭÐ·":10074,"ĠÐĲÑħ":10075,"ĠÑĥÑģÑĤÑĢÐ¾":10076,"Ð½Ð´Ð°ÒĵÑĭ":10077,"ÑĢÐ¾Ð²Ð¾Ð¶":10078,"ÑĬÑıÐ²":10079,"ÐĸÒ±Ð¼":10080,"ĠÑģÑĤÐ¸Ð»":10081,"ĠÐĲÐ¹ÑĤÐ°":10082,"ĠÐ¿Ð°Ñģ":10083,"ĠÐ¼Ð¸Ð½Ñĥ":10084,"ĠÑģÑĤÐ°Ð½Ð¾Ð²Ð¸ÑĤÑģÑı":10085,"ĠÑģÐ°Ð¼Ð¾Ð¹":10086,"ĠÑĤÑĸÐ·ÑĸÐ¼":10087,"ĠÒ±Ð¹ÑĭÐ¼Ð´Ð°ÑĢ":10088,"ĠÑģÑĭÐ¹Ð»ÑĭÒĽ":10089,"ĠÒļÑĭÑĢÒĵÑĭÐ·":10090,"ĠÐ´Ð²Ð¾Ðµ":10091,"ĠÐºÒ¯ÑĪÑĤÑĸ":10092,"ĠÐ¾ÑĢÐ³Ð°Ð½Ð´Ð°ÑĢÑĭ":10093,"ĠÐ±ÐµÑĢÑĸÐ»":10094,"ĠÐ¿ÑĢÐ¸Ð¾ÑģÑĤÐ°Ð½Ð¾Ð²":10095,"ĠÐ·Ð°ÐºÑĢÑĭÑĤ":10096,"ĠÐłÐµÐ·":10097,"--------":10098,"ĠÐ¼ÐµÑģÑĤÐ¾ÑĢÐ¾Ð¶":10099,"ĠÐºÐ°Ð¼ÐµÑĢ":10100,"ĠÑĢÐµÐ²Ð¾Ð»Ñİ":10101,"ĠÑĢÐ¾ÑģÑģÐ¸Ð¹ÑģÐºÐ¸Ñħ":10102,"ĠÐ±ÑĸÐ»ÑĸÐº":10103,"ÑĸÑĢÐ³ÐµÐ½":10104,"ĠÐŁÐ¾Ð´Ð¿Ð¸ÑģÑĭÐ²Ð°Ð¹ÑĤÐµÑģÑĮ":10105,"desktop":10106,"ĠÑĤÐµÐ³Ñĸ":10107,"Ð¶Ð°Ð·":10108,"ĠÐ·Ð°ÑĢÐ¿Ð»":10109,"ĠÐºÐ°Ð´ÑĢ":10110,"ÑĪÐ°ÑĢÐ°Ð»Ð°ÑĢ":10111,"ĠÐŁÑĢÐµÐ·Ð¸Ð´ÐµÐ½ÑĤÑĸÐ½ÑĸÒ£":10112,"ÒĵÐ°Ð¼Ð±Ð°ÑĢ":10113,"ĠÒĽÐ°ÑĥÑĭÐ¼Ð´Ð°":10114,"ĠÐ¸Ð¼Ð¿Ð¾ÑĢÑĤ":10115,"ĠÐ¶Ð°ÑĢÑĤÑĭÐ»Ð°Ð¹":10116,"ĠÐ°ÑģÑĭÑĢÐ°Ð´Ñĭ":10117,"Ġwork":10118,"Ð°ÑģÑĤÑĮ":10119,"ĠÐ¿Ð¾Ð´ÑĢÐ¾ÑģÑĤ":10120,"ĠÐ¿Ð¾ÑıÑģÐ½Ð¸Ð»":10121,"aÑĢ":10122,"ÑįÐ¹":10123,"Ð°Ð»Ð¸Ð·Ð°ÑĨÐ¸Ñı":10124,"ÒĽÐ¾Ñģ":10125,"ĠÐ¾ÑĢÑĥÐ¶Ð¸Ñı":10126,"Ð¿ÑĭÐ½":10127,"ĠÐ´Ð¾Ð»Ð³":10128,"ĠÐ³ÑĢÐ¾Ð·":10129,"ĠÐµÑģÐºÐµÑĢÑĤÐºÑĸÑĪ":10130,"app":10131,"ĠÑįÐ»ÐµÐºÑĤÑĢÐ¾Ð½Ð´Ñĭ":10132,"ÑĢÑĸ":10133,"Ð´ÑĭÑĢÐ°ÑĤÑĭÐ½":10134,"Ð°Ð±Ð±Ð°ÑĤ":10135,"ĠÐ²ÑĭÐ²Ð¾Ð´":10136,"Ð½Ð¾Ð³Ð´Ð°":10137,"ĠÐ¶Ð°Ð»ÒĵÐ°Ð½":10138,"sport":10139,"ÐºÐ°Ð½Ð°Ð»":10140,"Ġfunction":10141,"ĠÐ¼ÓĻÑĢÑĤÐµÐ±":10142,"ĠÐ²ÐµÐ±":10143,"ÑģÑĤÑĢÐ°Ð»":10144,"Ð½Ð¾ÑģÑĤÑıÐ¼Ð¸":10145,"ĠÐ´Ð¾Ð¼Ðµ":10146,"ĠÐ°ÑĪÑĭÐ»Ð´Ñĭ":10147,"ĠÐ·Ð°ÑıÐ²Ð¸Ð»Ð°":10148,"ĠÐ´Ð°Ð²Ð½Ð¾":10149,"ĠÐ²ÐµÑĢÑģÐ¸Ð¸":10150,"Position":10151,"ĠÒ±Ð·ÑĭÐ½Ð´ÑĭÒĵÑĭ":10152,"ĠÒĽÐ°Ð¶ÐµÑĤÑĤÑĸÐ»ÑĸÐº":10153,"ĠÐµÐ»Ð³Ðµ":10154,"Ġ2004":10155,"ĠÐ¼Ð°ÑĤÐµÑĢ":10156,"ĠÐ·Ð´Ð°Ð½":10157,"ĠÒ¯ÑģÑĤÑĸÐ½Ðµ":10158,"ĠÐ¿ÑĢÐµÐºÑĢÐ°Ñī":10159,"ĠÐ¶Ð°Ò£ÒĵÑĭÑĢ":10160,"ÐµÐ»ÐµÑĢÐ³Ðµ":10161,"Ð¼Ð°Ð»":10162,"Ð¸Ð½ÑĮ":10163,"ĠÐ¿Ð°ÑģÑģÐ°Ð¶Ð¸ÑĢÐ¾Ð²":10164,"ÐµÑĤÐµÐ»":10165,"ÑģÐ¸Ð²":10166,"ĠÐ¿ÑĥÐ±Ð»Ð¸ÐºÐ°ÑĨÐ¸Ñİ":10167,"ĠÐ´Ð¾ÐºÑĥÐ¼ÐµÐ½ÑĤ":10168,"ĠÐºÓ©ÑĢÑģÐµÑĤÐµÑĤÑĸÐ½":10169,"ĠÐ¾Ð±ÑĭÑĩÐ½Ð¾":10170,"Ð¸ÑıÐ¼":10171,"ĠÐŀÐ´Ð°Ð½":10172,"aterial":10173,"ĠÐ¿ÐµÑĢÐ²ÑĭÑħ":10174,"ÐµÑģÑĸÐ¼ÐµÐ½":10175,"ĠÐ°Ð²ÑĤÐ¾ÑĢÐ»ÑĭÒĽ":10176,"ĠÐ±Ð°ÒĵÐ°Ð½":10177,"ĠÐºÐ¾Ð»Ð»ÐµÐ³":10178,"ÐĻÐ¾ÑĢ":10179,"ĠÐ¶Ð°ÒĵÐ´Ð°Ð¹ÑĭÐ½":10180,"ĠÐ°ÑĢÐ°Ð»ÑĭÒĽ":10181,"ĠÑĪÐ¾Ñĥ":10182,"ÑħÐ¾Ð¶Ð´ÐµÐ½Ð¸Ñı":10183,"ĠÐĶÐ¾ÑģÑĤ":10184,"ĠÐºÐ¾Ð¼Ð¿Ð°Ð½Ð¸ÑıÑģÑĭ":10185,"Ð¶Ñĸ":10186,"Ð´ÐµÑĢÑĸÐ½Ð´Ðµ":10187,"ĠÐ¿ÑĢÐ¾ÐºÑĥÑĢÐ°ÑĤÑĥÑĢÐ°":10188,"ĠÂ·":10189,"ĠÐºÐµÒ£ÑĸÑģÑĤÑĸÐº":10190,"ĠÐŁÐ¾ÑĩÐµÐ¼Ñĥ":10191,"Ð°Ð¹ÑĭÐ¿":10192,"ĠÐ¶Ð°ÑģÑĭÑĢ":10193,"ĠÐŀÑģÑĭÐ½Ð´Ð°Ð¹":10194,"ĠÑĢÐµÐºÐ»Ð°Ð¼":10195,"ĠÐ¼Ð°Ð»ÐµÐ½ÑĮ":10196,"Ð»Ð°ÑĩÐ¸Ð²":10197,"Ð´ÐµÑĥÑĸ":10198,"ĠÑĦÐ°Ð·":10199,"ĠÑĢÐµÐ¼Ð¾Ð½ÑĤ":10200,"ĠÐ±Ð°ÒĵÐ°Ð»Ñĭ":10201,"ĠÐ²Ð»Ð°Ð´ÐµÐ»ÑĮ":10202,"ĠÐºÐ¾Ð¼Ð¿ÐµÐ½":10203,"Ð±ÑĸÑĢÑĸÐ½Ðµ":10204,"ÑĤÐ°Ò£":10205,"ÑĪÐ¸Ð¼Ð¸":10206,"ĠÐ¿ÑĢÐ¾Ð²Ð¸Ð½":10207,"Ð´Ð°Ñı":10208,"ĠÐ¼Ð°ÒĽÐ°Ð»Ð°":10209,"ĠÐ±ÑĸÐ»ÑĸÐºÑĤ":10210,"ĠÐ²ÑĥÐ·":10211,"ÒĽÑĭÑĤÑĥ":10212,"ĠÐķÐĿ":10213,"ĠÐŁÑĢÐ¸Ð¼":10214,"ĠÐºÑĥÐ»ÑĮ":10215,"ĠÐ½ÐµÐ³ÑĸÐ·ÑĸÐ½":10216,"ÑĢÐ¾Ð²Ð°":10217,"ĠÑģÐ°Ð½ÑĭÐ½":10218,"ĠÐ¼Ð¾Ð·":10219,"Ð¸Ð¼ÑĭÐµ":10220,"ĠÒ±Ð¼ÑĤ":10221,"Ð¸Ð±ÐµÑĢ":10222,"ÑĸÒ£Ð´Ñĸ":10223,"business":10224,"ĠÐ¶Ð°ÑĤÒĽÑĭÐ·":10225,"Ð½Ð¾Ð´Ð¾ÑĢÐ¾Ð¶":10226,"ĠÑĨÐµÐ½Ð°":10227,"ĠÐĹÐ°Ð¿Ð°Ð´Ð½Ð¾":10228,"ĠÐ°ÑĢÐ°Ð±":10229,"ÑĢÑĭÒĽ":10230,"ĠÒ±Ð¶ÑĭÐ¼":10231,"ĠÑĥÐ³ÑĢÐ¾Ð·":10232,"ĠÑħÐ°Ð»ÑĭÒĽÑĤÑĭ":10233,"ĠÐ¼ÑıÑģ":10234,"ĠÐĴÐµÐ½":10235,"Ð½Ð¾Ð²ÐµÐ½Ð¸Ñı":10236,"ĠÑĦÐ°Ð¹Ð»":10237,"Ð¢ÓĻ":10238,"ĠÒ±ÑģÑĤÐ°Ñĥ":10239,"ĠÐ°ÒĵÑĭÐ½":10240,"ÐļÐ¡ÐŁÐŀ":10241,"ĠÐ¼Ð¸Ð½Ð¸Ð¼ÑĥÐ¼":10242,"ĠÐ¿Ð¾ÑģÐ²ÑıÑī":10243,"ĠÐ·Ð¸ÑıÐ½":10244,"52":10245,"Ġ(\"":10246,"Ð·Ð¾Ð²":10247,"ĠÐ²ÐµÑģÐµ":10248,"ĠÑģÐ¿ÐµÑĨÐ¸Ð°Ð»Ð¸ÑģÑĤÑĭ":10249,"ĠÐ¿ÑĥÑĤÑĮ":10250,"ĠÐ½Ð¸ÐµÑĤ":10251,"ĠÐ²ÑĭÐ½ÑĥÐ¶Ð´ÐµÐ½":10252,"ĠÐ´ÐµÑĦÐ¸ÑĨ":10253,"Ð»ÑıÑĤÑĮÑģÑı":10254,"ĠÐ±Ð°ÑģÑĪÑĭÐ»ÑĭÒĽ":10255,"ĠÐ°ÑģÐ¿Ð°Ð¿":10256,"Ð°Ð¼ÐµÐ½Ð¾Ð³Ð¾ÑĢ":10257,"ĠÐ¼Ð½Ð¾Ð¶Ðµ":10258,"ĠÑĤÐµÑĢÐ³ÐµÑĥ":10259,"ĠÐ±Ð°ÑģÑĭÐ½Ð°Ð½":10260,"ĠÑĤÐ¾ÒĽÑĤ":10261,"Ð¾ÐºÑĥÐ¿":10262,"elo":10263,"ÑĥÑİÑīÐ¸Ð¼":10264,"Ð°ÑĤÑĭÑģ":10265,"ĠÑģÐ¾Ñģ":10266,"ÑĤÑĸÐ»ÑĸÐ³ÑĸÐ½":10267,"ĠÐ¿ÑĤÐ¸":10268,"ĠÐ¿ÐµÑĢÐµÑģÑĤ":10269,"Ð»Ð¸ÑģÑĮ":10270,"ĠÑĤÐ¸Ð¿Ð°":10271,"ĠÑĪÐ°Ð»":10272,"ÑĤÐ¸Ð½":10273,"Ð³Ð¸Ð·":10274,"ĠÐºÐµÑĪÐµÐ½Ð´Ñĸ":10275,"ĠÐ¼ÐµÑģÑĤÐ°Ñħ":10276,"ĠÐľÒ¯":10277,"ĠÐĲÐ»Ð¼Ð°ÑĤÑĭÐ´Ð°":10278,"ĠÑıÐ·ÑĭÐº":10279,"ĠÑĥÐ¿ÑĢÐ°Ð²Ð»ÐµÐ½Ð¸Ðµ":10280,"ĠÐ·Ð°Ð¿Ð»Ð°Ð½":10281,"ĠÐ¼Ò±ÒĵÐ°Ð»ÑĸÐ¼Ñĸ":10282,"ĠÑģÑĤÑĢÐ°Ð½Ð°":10283,"ĠÐ¶Ð°ÑģÓ©ÑģÐ¿ÑĸÑĢ":10284,"ÐĺÐ¡":10285,"ÑģÑĢÐ¾Ñĩ":10286,"ĠÑĤÒ±Ð»ÒĵÐ°Ð½ÑĭÒ£":10287,"Ð°ÒĽÑĤÐ°ÑĢ":10288,"ĠÐ¿ÑĢÐµÐ¶Ð´Ðµ":10289,"Ð¾Ð²Ð°ÑĤÑĮÑģÑı":10290,"ĠÐľÐµ":10291,"ĠÑģÐ°Ð»ÑĤÐ°Ð½":10292,"ĠÑĤÐ°Ð¿ÑģÑĭ":10293,"ĠÐ±Ð°ÑģÑĭÐ½":10294,"ĠÐľÐ°ÑĤÐµÑĢÐ¸":10295,"ÐµÐ»Ð¸Ð³Ð¸":10296,"ĠÑĤÐ°Ð»ÒĽÑĭÐ»Ð°Ñĥ":10297,"ĠÐ°Ð·Ð°Ð¼Ð°ÑĤÑĤÐ°ÑĢÐ´ÑĭÒ£":10298,"ĠÐ·Ð°Ò£ÑģÑĭÐ·":10299,"ĠÑģÓ©Ð¹Ð»ÐµÑĥ":10300,"ÑĢÑĥÐ³Ð¸Ðµ":10301,"ĠÐ¿Ð¾ÐºÐ°Ð·Ð°ÑĤÐµÐ»ÑĮ":10302,"ÑģÐ¸Ñı":10303,"ĠÐĴÑģÐµÐ¼Ð¸ÑĢ":10304,"ĠÑĪÑĭÒĵÐ°ÑĢÑĭÐ¿":10305,"Ð°Ð²ÑĪÐ¸Ð¹":10306,"ĠÑħÐ¾ÑĤÑıÑĤ":10307,"ĠÐµÑĢÐµÐºÑĪÐµÐ»ÑĸÐ³Ñĸ":10308,"ĠÐ¾ÑĤÐ½Ð¾ÑģÐ¸ÑĤÐµÐ»ÑĮÐ½Ð¾":10309,"ĠÐºÐµÐ·ÐµÒ£ÑĸÐ½Ð´Ðµ":10310,"ĠÐ·Ð°ÐºÑĢÑĭ":10311,"ĠÐļÐ¾ÑĢÐµÑı":10312,"ĠÐ¼Ð¾ÑĪÐµÐ½":10313,"ĠÐ¶Ð¾ÒĵÐ°Ð»":10314,"ĠÐ¾ÑĤÐ¼ÐµÑĩÐ°ÑİÑĤ":10315,"ĠÐ°ÑĢÑĤÑĤÑĭ":10316,"Ò£Ð´ÐµÑĥ":10317,"Ġ43":10318,"ĠÐ±Ð°ÒĵÐ´Ð°ÑĢÐ»Ð°Ð¼Ð°Ð»Ð°ÑĢ":10319,"ĠÐľÓĻÑģÐºÐµ":10320,"ĠÐ¾ÒĽÑĭÑĢÐ¼Ð°Ð½":10321,"ÑĩÐ¸Ð½Ð°":10322,"Ð´Ð°Ð»Ð°Ð´Ñĭ":10323,"ĠÐ¼ÐµÐ¶Ð´ÑĥÐ½Ð°ÑĢÐ¾Ð´Ð½Ð¾Ð³Ð¾":10324,"ÑĪÑĥ":10325,"Ġman":10326,"ĠÒ±ÑģÑĭÐ½ÑĭÑģÑĤÐ°ÑĢ":10327,"ÐºÐ¸Ð¿":10328,"ÑĭÐ»Ð°ÑĢÐ´ÑĭÒ£":10329,"ĠÐĹÐµÐ¼":10330,"ĠÑħÐ¾ÑĩÐµÑĤ":10331,"ĠÐ¤ÐµÐ´ÐµÑĢÐ°ÑĨÐ¸Ð¸":10332,"ĠÐµÐ»Ðµ":10333,"ĠÐ²ÑĭÐ½ÐµÑģ":10334,"ĠÐ¶Ò±Ð¼ÑĭÑģÑĤÑĭ":10335,"ĠÐ¿Ð°ÑĢÐ»Ð°Ð¼ÐµÐ½ÑĤÐ°":10336,"ĠÐ°Ð³ÐµÐ½ÑĤÑģÑĤÐ²Ð°":10337,"ĠÐĽÐµÐ½":10338,"ĠÐ¾ÑĨÐµÐ½ÐºÐ¸":10339,"ĠÑĢÐµÐ³Ð¸ÑģÑĤÑĢÐ°ÑĨÐ¸Ð¸":10340,"yr":10341,"ÐµÐ½ÑĤÐ°ÑĨÐ¸Ñı":10342,"ÑĭÒĵÑĭÐ½Ð´Ð°":10343,"ĠÑĦÑĥÐ½ÐºÑĨÐ¸Ð¸":10344,"ĠÒĽÐ¾ÑģÑĭÐ¿":10345,"ĠÐ²ÐµÑģÑĤÐ¸":10346,"otos":10347,"ĠÐ·Ð½Ð°Ð¼ÐµÐ½":10348,"ĠÑģÐµÐ²ÐµÑĢÐ¾":10349,"ĠÐ¼ÐµÐ´Ð¸ÑĨÐ¸Ð½ÑģÐºÐ¸Ñħ":10350,"ĠÐŁÐ¾ÑģÐ¼Ð¾ÑĤÑĢÐµÑĤÑĮ":10351,"ĠÒ¯Ð¹Ð»ÐµÑĢ":10352,"ĠÐ¾ÑĩÐµÐ²Ð¸Ð´":10353,"ĠÑħÐ°Ð»ÑĭÒĽÒĽÐ°":10354,"ĠÐ¶Ð°Ð·Ð°Ð´Ñĭ":10355,"ĠÐ¿ÑĢÐµÐ´ÑģÑĤÐ°Ð²Ð»ÑıÐµÑĤ":10356,"ĠÒ±Ð½":10357,"ĠÑĤÐµÐºÑģÑĤ":10358,"Ġ58":10359,"Ð¾Ð»Ð°":10360,"ĠÐ±ÐµÐ¹Ð½Ðµ":10361,"ĠÐ¾ÐºÐ°Ð·Ð°Ð»Ð¸ÑģÑĮ":10362,"ĠÐ´Ð¾Ð²Ð¾Ð»ÑĮ":10363,"ÑĤÐµÑĢÑĸÐ¼ÐµÐ½":10364,"Ð·Ð°Ðº":10365,"cess":10366,"ÑİÑīÐ°Ñı":10367,"ĠÐ±Ð¾Ð»ÑĥÑĭÐ½Ð°":10368,"ÑĭÑģÑĤÐ°Ð½":10369,"ĠÐ²Ð¾ÑģÐ¿":10370,"ĠÐľÐľ":10371,"Name":10372,"ĠÐ±ÑĸÑĢÑĭÒ£ÒĵÐ°Ð¹":10373,"ĠÐ¿Ð¾Ð´ÑĢÑıÐ´":10374,"ĠÐľÐµÑĢ":10375,"ĠÒĽÐ°ÑĢÐ°Ð¶Ð°ÑĤ":10376,"Ð¸Ð½ÑĦ":10377,"ÑĥÐ»ÐµÑĤ":10378,"ĠÐºÓ©ÑĢÑģÐµÑĤÑĥÐ³Ðµ":10379,"ĠÓ©ÑģÑĸ":10380,"ĠÐµÐ´ÑĸÐ¼":10381,"ĠÐ¢Ð¾ÑĢ":10382,"ĠÐ°ÑģÑģÐ¾ÑĨÐ¸":10383,"ÐµÑģÐ°":10384,"ĠÑģÐ¾ÑģÑĤÐ°Ð²Ð°":10385,"Ð½Ð¾Ð³Ð¸Ðµ":10386,"ĠÐ¾ÑģÐ¾Ð±Ð¾":10387,"ined":10388,"ĠÐ±ÑĢÐ°ÑĤ":10389,"ĠÐ¼ÓĻÐ»ÑĸÐ¼Ð´ÐµÐ´Ñĸ":10390,"ĠÑįÐ½ÐµÑĢÐ³Ð¸Ð¸":10391,"ĠÐ¸ÑģÑģÐ»ÐµÐ´Ð¾Ð²Ð°Ð½Ð¸Ð¹":10392,"ĠÑĤÐ°ÐºÐ°Ñı":10393,"ÑĤÐµÐ¹Ð´Ñĸ":10394,"ÑĩÐ½Ð¾":10395,"ĠÐĴÐ¾Ð»":10396,"Ò°Ð»ÑĤÑĤÑĭÒĽ":10397,"ÑĭÑĢÐ°":10398,"ĠÐ²Ð¾Ð·ÑĢÐ°ÑģÑĤÐµ":10399,"ĠÐ²Ð»Ð¸ÑıÐ½Ð¸Ðµ":10400,"ĠÐ¡Ð°Ð¹ÑĤ":10401,"ĠÐ¿ÑĢÐ¾ÑĪÐµÐ»":10402,"ĠÐĨÑĪÐºÑĸ":10403,"ĠYa":10404,"ĠÑĭÐ»ÒĵÐ°Ð»":10405,"Ġ99":10406,"ÐµÐ¼ÑĮ":10407,"Ð½Ð¸ÐºÑĥ":10408,"ĠÐ·Ð¾":10409,"ĠÐ¿ÐµÑĢÐµÐ¶":10410,"Ð´ÐµÐ»ÐµÑĢ":10411,"ĠÐ°ÑĤÐ°Ð»Ð°ÑĤÑĭÐ½":10412,"ĠÒĽÐ¾Ð½Ð´ÑĭÑĢ":10413,"ĠÐ¿Ð°ÑĢÐ°Ð¼ÐµÑĤ":10414,"ĠÐºÐ¾ÑĢÑĢÑĥÐ¿ÑĨÐ¸Ð¸":10415,"ĠAir":10416,"ÐĲÐĳ":10417,"ng":10418,"ĠÐ±Ð°ÒĵÑĭÑĤÑĭ":10419,"ĠÓ©ÐºÑĸÐ»Ñĸ":10420,"ÑĤÓĻ":10421,"ĠÐ±Ð¾Ð»ÑĮÑĪÐ°Ñı":10422,"ĠÑĢÑĭÐ±":10423,"Ð°ÑĤÑĤÐ°ÑĢÐ´Ñĭ":10424,"Ð¢Ò¯ÑĢ":10425,"ÐµÑģÐºÐ¾Ð³Ð¾":10426,"ottom":10427,"ĠÐ²ÑĭÐ±Ð¾ÑĢÐ¾Ð²":10428,"ĠÐ¡ÑĭÑĢÑĤ":10429,"ĠÐ±Ð°ÑģÑĭ":10430,"ĠÐ³Ð¾Ð´Ð¾Ð¼":10431,"ÑģÐ¾ÐµÐ´Ð¸Ð½":10432,"ĠÐ¡Ð¾Ð²ÐµÑĤÐ°":10433,"ÑģÑĸÐ¿":10434,"ĠÑĤÐµÑĢÑĸÑģ":10435,"ĠÑĤÓĻÑĥÐµÐºÐµÐ»":10436,"ĠÑģÐµÐ»Ð°":10437,"ÑĭÐ²Ð°Ð»Ð¸":10438,"ĠÑĦÐ¾Ñģ":10439,"ĠÐ¾Ð·Ð²ÑĥÑĩ":10440,"ĠÒĽÐ°ÑĤÐ°ÑĢÑĭÐ½Ð°":10441,"ĠÐ·Ð°ÑīÐ¸Ñī":10442,"Ð°Ð»ÑĮÐ½ÑĭÐ¼Ð¸":10443,"ĠÒ¯Ð¹Ð»ÐµÑģÑĤ":10444,"Ð¢Ðł":10445,"ĠÐĺÐ¼ÐµÐ½Ð½Ð¾":10446,"ĠÐ²Ð²":10447,"ĠÑģÐ¾ÑģÑĤÐ°Ð²Ð»Ñı":10448,"ĠÐ¶Ò¯Ð¹ÐµÐ»Ñĸ":10449,"ÐĲÐŁ":10450,"ÐĨÐł":10451,"ĠÑĭÑģÑĤÑĭÒĽ":10452,"ĠÑģÐºÐ¾ÑĢÐ¾ÑģÑĤÑĮ":10453,"ĠÐ°Ð²ÑĤÐ¾ÑĢÑĭ":10454,"ÑĪÐµÐ½Ð¸Ñİ":10455,"ĠÒĽÑĭÑģÒĽÐ°ÑĢ":10456,"ĠÐ¿Ð°Ð»Ð°ÑĤ":10457,"ĠÑĢÐ¾Ð´Ð¸ÑĤÐµÐ»ÐµÐ¹":10458,"ĠÐ³Ð°ÑĢÐ°Ð½":10459,"ĠÐŁÑĢÐµÐ´ÑģÑĤÐ°Ð²":10460,"Ð¾ÑĢÐ»Ð°ÑĢ":10461,"ĠÐ¼Ð½ÐµÐ½Ð¸Ðµ":10462,"ĠÐ½Ð¾Ð²Ð¾ÑģÑĤÐµÐ¹":10463,"ĠÐ·Ð¾Ð»Ð¾":10464,"ĠÐ¿Ð°ÑĢÐ°Ð¼ÐµÑĤÑĢ":10465,"Ð¾ÑĤÐµÑĢ":10466,"ĠÑģÑĤÑĢÐ°Ð½Ð°Ð¼Ð¸":10467,"Ġ44":10468,"Ð´ÐµÑĤÑģÑı":10469,"ĠÐ¿ÑĢÐ¾Ð²ÐµÑĢÐºÐ¸":10470,"ĠÐ½ÐµÐºÐ¾ÑĤÐ¾ÑĢ":10471,"ĠÐ¼ÑĸÐ½Ð´ÐµÑĤÑĤÐµÐ¼":10472,"ĠÐºÐ¾Ð¼Ð¿Ð»ÐµÐºÑģÐ°":10473,"ĠÐ¢Ð°Ð´Ð¶":10474,"ÑģÑĭÐ¼ÐµÐ½":10475,"ĠÑĢÐ°Ð·Ð»Ð¸ÑĩÐ½ÑĭÐµ":10476,"ĠÑĥÑĩÐ°ÑģÑĤÐ²":10477,"ĠÓ¨Ð¼ÑĸÑĢ":10478,"Ġ56":10479,"ĠÐºÐµÐ¹ÑĸÐ¿":10480,"ĠÐĳÑĥÐ´":10481,"ÐºÐ¾Ð½ÑĦÐµÑĢÐµÐ½":10482,"ĠÐ³Ð¾ÑĢÐ¾Ð´Ð¾Ð²":10483,"ĠÐºÐµÐ·ÑĸÐ½Ð´ÐµÐ³Ñĸ":10484,"ĠÐĴÐ¸Ð´ÐµÐ¾":10485,"ĠÑĤÐµÑĢÑĸ":10486,"ĠÐ£ÑĢÐ°Ð»ÑĮ":10487,"ĠÐľÑĥÐ¶":10488,"format":10489,"ÐµÐºÐ¾":10490,"ĠÐļÓ©Ð»":10491,"ĠÐ¾Ð³ÑĢÐ°Ð½Ð¸ÑĩÐµÐ½Ð¸Ñı":10492,"ĠÑĪÑĤÐ°Ð±":10493,"ĠÐ¼ÐµÒ£Ð³ÐµÑĢÑĥÑĪÑĸÑģÑĸ":10494,"ĠÐ´ÓĻÑĢÐµÐ¶Ðµ":10495,"ĠÐ¡Ð¡Ð¡Ðł":10496,"Ð¼Ð°Ñģ":10497,"Ð¸Ð»Ð¸Ð½":10498,"ĠÐ½Ð°ÑĪÐµÐ¼":10499,"ĠÐ³Ð¾ÑĢÐ¾Ð´Ð°Ñħ":10500,"ÐºÑĸÑĪÑĸ":10501,"ĠÑģÑĥÐ´ÑĮÑı":10502,"ĠÒ±ÑģÑĭÐ½Ð°Ð´Ñĭ":10503,"Ð¸ÑĨÐ¸Ð½":10504,"ÐµÐ²Ð¸Ñĩ":10505,"ĠÐ±Ó©Ð»ÑĸÐ³ÑĸÐ½":10506,"ĠÑĤÒ±Ð»ÒĵÐ°Ð»Ð°ÑĢÐ´ÑĭÒ£":10507,"ĠÑĢÐ°ÑģÑģÐ»ÐµÐ´Ð¾Ð²Ð°Ð½Ð¸Ñı":10508,"Ġ01":10509,"Ð°Ð±Ð¸Ð»":10510,"ĠÑģÐ¾Ð¿ÑĢÐ¾Ð²Ð¾Ð¶":10511,"ĠÐ½ÐµÐ¿Ð¾ÑģÑĢÐµÐ´":10512,"ĠÑİÐ³Ðµ":10513,"ĠÐ±Ð¾Ð»ÑĮÑĪÐ¾Ðµ":10514,"ĠÑģÐ¾Ð¶Ð°Ð»":10515,"ÒļÒ±":10516,"ĠÐĳÐĲÒļ":10517,"ĠÐĶÐµÐ¿":10518,"ÑĭÐ¶":10519,"ĠÐ¡ÑĤÑĥ":10520,"Ð¾ÑĢÒĵÐ°Ð½":10521,"ĠÐ¶Ð°Ð»Ð¾Ð±":10522,"ÑħÐ°Ð½Ð¾Ð²":10523,"ina":10524,"ĠÓĻÐºÐµ":10525,"ĠÐ´Ð¾Ð³Ð¾Ð²":10526,"ÑĥÑģÐºÐ°":10527,"Ð´ÑĸÐºÑĤÐµÐ½":10528,"ÑĪÐ°Ñĥ":10529,"ĠÑĤÐ°ÑĢÐ°ÑĤÑĥ":10530,"ÐºÓ©ÑĢ":10531,"ĠÐ¾ÑĤÐ¾":10532,"âĢĭ":10533,"ĠÐ½Ð¾ÑĩÑĮ":10534,"54":10535,"ocument":10536,"ĠÐ¿Ð¾ÑģÑĢÐµÐ´":10537,"ĠÓ©Ð¼ÑĸÑĢÑĸ":10538,"To":10539,"ĠÐ¶Ò¯Ð·ÑĸÐ½Ð´Ðµ":10540,"EN":10541,"ĠÐ¸ÑģÐ¿Ð¾Ð»ÑĮÐ·Ð¾Ð²Ð°Ð½Ð¸Ðµ":10542,"ĠÐ¿Ð¾Ð½ÐµÐ´ÐµÐ»ÑĮ":10543,"Ð°ÑĢÒĵÑĭ":10544,"ĠÐ³Ð»Ð°Ð²Ð½Ð¾Ð³Ð¾":10545,"Ð¸ÑĤÐµÐ»ÑĮÐ½Ð¾ÑģÑĤÑĮ":10546,"ÐŃÑĤÐ¾":10547,"ĠÑĢÐ¾Ð·":10548,"ÑĮÑĤÐµ":10549,"ĠÓĺÐ»ÐµÑĥÐ¼ÐµÑĤÑĤÑĸÐº":10550,"](":10551,"ĠÐ¿Ð¾Ð´Ð½Ñı":10552,"ĠÑıÐ½Ð²Ð°ÑĢÐµ":10553,"ĠÐ¾ÑĤÐºÑĢÑĭÐ²":10554,"Ð»iÐº":10555,"ÑģÑıÑĤÑģÑı":10556,"Ð¶ÐµÐº":10557,"ĠÐ¡Ð¾Ð±":10558,"ÑĸÑģÑĤÑĸÒ£":10559,"ĠÑģÐ¾Ð¾Ð±ÑīÐ°ÐµÑĤÑģÑı":10560,"ĠÐ°ÑĢÑħÐ¸ÑĤ":10561,"ĠÐ½Ð°ÑģÑĤÑĥÐ¿":10562,"Ġdo":10563,"ĠÐ¿ÑĢÐ¸Ð²ÐµÐ´":10564,"ĠÐ½ÐµÐ¿ÑĢÐ¾":10565,"ĠÑģÐ°ÒĽÑĤÐ°Ð¿":10566,"ĠÐ¼Ð¾Ð¼ÐµÐ½ÑĤÐ°":10567,"Ġits":10568,"ĠÓĺÐºÑĸÐ¼":10569,"ĠÑįÐºÑģÐ¿ÐµÑĢÑĤÑĭ":10570,"ÐµÐ¹ÑĸÐ½":10571,"ĠÑĢÐ°Ð·Ð³":10572,"ĠÐ´ÑĢÑĥÐ³Ð¸Ð¼":10573,"ĠÐºÓĻÑģÑĸÐ¿ÑĤÑĸÐº":10574,"Ð·Ð´":10575,"ĠÐ¸Ð½Ð½Ð¾Ð²Ð°ÑĨÐ¸ÑıÐ»ÑĭÒĽ":10576,"ĠÐ¿Ð¾Ð»Ðµ":10577,"ĠÐ¶Ð°ÑĢÐ°Ð¼":10578,"Ð¾Ð²Ð°Ð½Ð½ÑĭÑħ":10579,"Ð±Ð¾Ð»Ð°ÑĤ":10580,"ĠÑĤÐµÑģ":10581,"ĠÐ¾ÑĢÑĭÐ½Ð´Ñĭ":10582,"ĠÐ±Ð°Ñĥ":10583,"Ð¾ÑħÐ¾Ð·ÑıÐ¹":10584,"ĠÐ¦ÐµÐ½ÑĤ":10585,"ĠÓĺÐ¹":10586,"ĠÒļÐ°Ñĥ":10587,"Ð¿ÐµÐ´":10588,"Ð°ÑİÑīÐµÐ³Ð¾":10589,"ĠÐºÐ¾Ð¼Ð¼ÑĥÐ½Ð°Ð»Ð´ÑĭÒĽ":10590,"ĠÓ¨Ð·Ð±ÐµÐºÑģÑĤÐ°Ð½":10591,"Ð¸Ð¼ÑģÑı":10592,"ĠÐĻ":10593,"ÐĶÐķ":10594,"ĠÐ±Ð°ÑģÑĤÐ°Ð»ÒĵÐ°Ð½":10595,"ĠÐ¶ÑĭÐ»ÑĭÐ½Ð°":10596,"ĠÐ¶Ð¸Ð»Ð¸Ñī":10597,"ĠÑģÐ¾Ð²ÐµÑī":10598,"ÐĺÐĺ":10599,"Ð¾ÑĤÐ²ÐµÑĤ":10600,"ĠÐ¿ÐµÑĢÐµÑĢÐ°Ð±Ð¾ÑĤ":10601,"ĠÐ·Ð°Ð¼ÐµÐ½":10602,"ĠÑģÐ°Ð¼Ð¾Ð»ÐµÑĤ":10603,"Ġ02":10604,"ĠÐ¿Ð¾ÑĢÑĭ":10605,"ĠÑĥÐ²Ð¸Ð´":10606,"set":10607,"ĠÐ±ÓĻÑĢÑĸÐ½":10608,"ĠÐ¼ÑĥÐ¶ÑĩÐ¸Ð½Ñĭ":10609,"ÑĤÐ°Ñı":10610,"ĠÑįÐ½ÐµÑĢÐ³ÐµÑĤÐ¸ÐºÐ¸":10611,"ĠÐ°Ð»Ð´ÑĭÐ½Ð°":10612,"ĠÑģÐµÐ±ÐµÐ¿ÑĤÑĸ":10613,"ĠÐ¿Ð¾ÐºÐ°Ð·Ð°Ð»":10614,"Ð¸ÑĤÐ¼":10615,"ĠÑħÐ¾Ð·Ñı":10616,"ÑĭÐ¼Ð´ÑĭÐ»ÑĭÒĽ":10617,"ĠÐ½Ð°Ð³ÑĢÐ°":10618,"ĠÐľÐ¸ÑħÐ°Ð¸Ð»":10619,"ĠÐ¼Ò¯Ð³ÐµÐ´":10620,"ĠÐºÐ¾ÑĢÐ¿Ð¾ÑĢ":10621,"ĠÐµÐºÑĸÐ½":10622,"ĠÐ¾ÑģÐ½Ð¾Ð²Ð½Ð¾Ð¹":10623,"ĠÐ½Ð°ÑģÑĤÐ¾ÑıÑī":10624,"ĠÐ´ÐµÐ±":10625,"ĠÒ®Ð»":10626,"AT":10627,"ÑĨÐ¸Ð¾Ð½Ð½Ð¾":10628,"ĠÒĵÐ°ÑĢÑĭÑĪ":10629,"Ð«ÐĹ":10630,"ĠÐµÐ»Ð´Ðµ":10631,"ĠÐºÑĢÐ¸Ð·Ð¸Ñģ":10632,"ĠÑĪÐ°Ð¿":10633,"ĠÒĽÐ°ÑĤÑĭÑģÑĭÐ¿":10634,"ĠÐ¸Ð½ÑĤÐµÐ½":10635,"ĠÐ¿ÑĢÐ¾Ð´Ð¾Ð»Ð¶Ð°ÐµÑĤ":10636,"ĠÐ½Ð¾ÑĢÐ¼Ð°ÑĤÐ¸Ð²ÑĤÑĸÐº":10637,"Ð´Ð°Ð½Ñĭ":10638,"ĠÑĢÑĥÐ±ÐµÐ¶":10639,"ĠÐ¾ÑĢÐ½Ð°ÑĤÑĥ":10640,"ĠÐ´Ð°ÐµÑĤ":10641,"ĠÐ°ÑģÑĤÑĭ":10642,"ĠÐ´Ð¾Ð¿Ð¾Ð»Ð½":10643,"ĠÑĢÐµÐºÐ¾Ð½":10644,"ĠÐ¼ÐµÐ¼Ð»ÐµÐºÐµÑĤÑĤiÐº":10645,"Ġ830":10646,"ĠÐĿÐµÑģÐ¼Ð¾ÑĤÑĢÑı":10647,"ÑĤÐ°Ðº":10648,"rand":10649,"ĠÒĽÐ¾ÑģÑĭÐ¼":10650,"ĠÐ»ÐµÐ¶":10651,"ĠÐ²Ð¾ÑģÑĮ":10652,"ĠÐ´Ð°ÑıÑĢÐ»Ð°Ñĥ":10653,"ĠÑĸÐ·Ð´ÐµÐ½":10654,"pr":10655,"ĠÑĤÒ±ÑĢÒĵÑĭÐ½Ð´Ð°ÑĢÑĭ":10656,"ĠÐ¿ÐµÑĢÐµÐ³Ð¾Ð²Ð¾ÑĢÑĭ":10657,"ĠÒĵÐ°":10658,"ĠÐ¼ÐµÑĤÐ°Ð»":10659,"Ġ,-,":10660,"ĠÐŀÐ´Ð¸Ð½":10661,"ĠÐ¼ÐµÐ¶Ð´ÑĥÐ½Ð°ÑĢÐ¾Ð´Ð½Ð¾Ð¹":10662,"ĠÐ¿ÑĢÐ¾ÐµÐºÑĤÑĭ":10663,"ĠÑħÐ¾Ð»Ð¾Ð´":10664,"ĠÐŁÐµÑĤÑĢÐ¾Ð¿Ð°Ð²Ð»Ð¾Ð²":10665,"ĠÐ´ÐµÑĢÐ±ÐµÑģ":10666,"ÑĥÑĪÐºÐ°":10667,"ious":10668,"'],":10669,"ĠÐ¾Ð±ÑĢÐ°Ð·Ð¾Ð²Ð°ÑĤÐµÐ»ÑĮ":10670,"ĠÐ°Ð´Ð°Ð»":10671,"ÑĨÐ¸ÐºÐ»":10672,"ĠÐ°ÑĢÐ¼Ð°Ð½":10673,"ĠÐ¿ÐµÑĢÐ²Ð¾Ðµ":10674,"ÐºÐ¾Ð±Ñĭ":10675,"ĠÐ¶Ð°Ð·Ð±":10676,"Ð¸ÑĤÐµÐ»ÑĮÐ½Ð¾ÑģÑĤÐ¸":10677,"ĠÑģÐ¾ÑģÑĤÐ¾Ð¸ÑĤ":10678,"ĠÐŀÐŁ":10679,"ĠÐļÐµÐ¹ÑĸÐ½":10680,"oul":10681,"ĠÐ¾Ð±Ð½Ð°ÑĢÑĥÐ¶Ð¸Ð»Ð¸":10682,"ĠÐ½ÐµÐ¾Ð´":10683,"Ð°ÑģÑĤÑĭÒ£":10684,"ĠÐ¡Ð¾Ñİ":10685,"ĠÒ¯Ð´ÐµÑĢ":10686,"ĠÑģÐ¾Ð´ÐµÑĢÐ¶Ð°Ð½Ð¸Ðµ":10687,"ĠÑģÑĢÐµÐ´Ð½ÐµÐ³Ð¾":10688,"ĠÐĶÐ°Ð½Ð¸Ñı":10689,"Ð»Ð°ÑĢÑĭÐ½Ð´Ð°":10690,"ĠÑĢÐµÑģÑĤ":10691,"ĠÐ°ÑģÑĭÑĢÐ°ÑĤÑĭÐ½":10692,"ĠÓĻÒ£Ð³ÑĸÐ¼Ðµ":10693,"ĠÑģÐ´ÐµÐ»Ð°Ð»":10694,"ÐĳÒ±":10695,"ĠÑĢÐµÑĩÑĮ":10696,"ĠÐ¿ÑĢÐµÐ´ÑģÑĤÐ¾Ñı":10697,"ĠÐºÐ°Ð·Ð°ÑħÑģÑĤÐ°Ð½ÑĨÑĭ":10698,"ĠÑĢÑĥÐºÐ¸":10699,"ĠÐ½Ð°ÑĨ":10700,"Ð²Ð°ÑĢÐ´":10701,"Ð»ÐµÑĤÑĢÑıÑģ":10702,"ĠÐºÐ°ÑĩÐµÑģÑĤÐ²Ð¾":10703,"ĠÐ·Ð½Ð°ÑĩÐ¸ÑĤ":10704,"Ð½ÐµÑĤÑģÑı":10705,"ĠÑĢÐ°ÐºÐµÑĤ":10706,"ĠÑĥÐ½Ð¸Ð²ÐµÑĢÑģÐ¸ÑĤÐµÑĤÐ°":10707,"ĠÑĪÐºÐ¾Ð»Ðµ":10708,"ÑģÑĤÑĢÐ¸Ñı":10709,"ĠÐ¶ÑĸÐº":10710,"Ð¸ÐºÐ¾Ð¹":10711,"ĠÑĨÐµÑħ":10712,"ĠÐ±ÑĥÑħÐ³Ð°Ð»ÑĤÐµÑĢ":10713,"App":10714,"Ð¸Ð´ÐµÐ¼Ð¸Ð¾Ð»Ð¾Ð³":10715,"ĠRe":10716,"Ð¸Ð±Ð¸ÑĢ":10717,"ĠÐ²ÑĭÐ´":10718,"Ð±ÐµÑĤÐ¾Ð²":10719,"ĠÑĤÑĢÑĥÐ±":10720,"ĠÒĽÑĥÐ°ÑĤ":10721,"Ġ41":10722,"Ġpp":10723,"Ð±ÑĢÐ°Ð½":10724,"ĠÑģÐµÐ¹":10725,"ĠUS":10726,"ÑĨÐµÑģÑģ":10727,"ĠThis":10728,"ÑİÑģÑĮ":10729,"ĠÐ°ÑĥÑĭÐ»Ñĭ":10730,"ĠÐ·Ð°Ð¿Ð°Ñģ":10731,"ĠÐºÑĢÐ¸ÑģÑĤ":10732,"Ð½Ð¾Ð³ÑĢÐ°ÑĦ":10733,"ĠÑĤÐµÐ½Ð´ÐµÐ½":10734,"Ġ77":10735,"ÑĭÑĪÐ»ÐµÐ½":10736,"own":10737,"ĠÐºÐ²Ð°ÑĢÑĤÐ°Ð»":10738,"ĠÐ´Ð²Ð¸Ð¶ÐµÐ½Ð¸Ðµ":10739,"Ð¡Ðľ":10740,"ĠÐŀÑĤÐ¼ÐµÑĩ":10741,"ĠÑıÐ·ÑĭÐºÐ°":10742,"ĠÑįÐ¼":10743,"ÐĿÑĥÑĢ":10744,"ĠÐ½ÑĭÒĵÐ°Ð¹ÑĤÑĥ":10745,"ĠÓ©ÑĤÐºÑĸÐ·Ð´Ñĸ":10746,"ÒļÐ°Ð·Ð°ÒĽÑģÑĤÐ°Ð½Ð½ÑĭÒ£":10747,"ĠÑĪÐµÐºÑĤÐµÑĥÐ»Ñĸ":10748,"TION":10749,"ÐµÑģÑĤÐ½Ð¾":10750,"ĠÐ¾ÑĢÑĭÐ½Ð´Ð°ÑĢÑĭ":10751,"ĠÐ¾ÑĤÐ¼ÐµÑĤÐ¸Ð»Ð°":10752,"ĠÐºÐ¾ÑĢÐ¼":10753,"ÒĵÒ±ÑĢÐ»ÑĭÐ¼":10754,"ĠÑĢÐ¾ÑģÑģÐ¸Ð¹ÑģÐºÐ¾Ð³Ð¾":10755,"ĠÐļÐ°Ð±":10756,"ĠÑģÑĤÐ°ÑĤÑĥÑģ":10757,"AR":10758,"ĠÐ°ÐºÑĨÐ¸Ð¹":10759,"ĠÐ¶ÐµÐºÐ¿Ðµ":10760,"Ð°ÑĤÐ°Ñĥ":10761,"ĠÓĻÑĥÐµ":10762,"Ġag":10763,"Ð¸Ð»Ð¸Ñı":10764,"bottom":10765,"sk":10766,"ÑĭÐ¼Ð½ÑĭÒ£":10767,"ĠÐłÐµÑģÐ¿ÑĥÐ±Ð»Ð¸ÐºÐ°Ð»ÑĭÒĽ":10768,"urn":10769,"53":10770,"ĠÐ¿ÑĥÑĤÐµ":10771,"ÐŀÐ¹":10772,"ÐµÐ»Ð¸Ð³Ð¸Ð¾Ð·":10773,"Ġphone":10774,"ĠBank":10775,"ĠÑģÐ¼Ð¾Ð³Ð»Ð¸":10776,"Ð´Ð°Ð½ÒĵÐ°Ð½":10777,"];":10778,"ĠÐ¿Ð°ÑĤÑĢÐ¸Ð¾ÑĤ":10779,"ÐµÑģÑĸÐ½Ð´ÐµÐ³Ñĸ":10780,"ĠÐ¼Ð°Ð¼Ð°Ð½Ð´ÑĭÒĽ":10781,"ĠÐ²Ð°ÐºÑĨÐ¸":10782,"ÐµÐ»ÐµÑĤ":10783,"ĠPh":10784,"ĠÐ¿Ð¾Ð¼Ð¾ÑĩÑĮ":10785,"Ð¾ÑĤÑĮ":10786,"ĠÐ±Ó©Ð»ÑĸÐ½Ð³ÐµÐ½":10787,"Ð¾ÐºÑģ":10788,"ĠÐĹÐ°ÑĢ":10789,"ĠÐ»ÐµÑĩÐµÐ½Ð¸Ðµ":10790,"Ð°Ð½Ð¾Ð²Ð°":10791,"ĠÐºÐ¸Ð»Ð¾Ð¼ÐµÑĤÑĢÐ¾Ð²":10792,"ÑĸÑģÑĸÐ½ÑĪÐµ":10793,"ĠÐľÐµÐ¹":10794,"\\/":10795,"ĠÑģÐ¾Ð»ÑĤÒ¯ÑģÑĤÑĸÐº":10796,"ÑĢÐ°Ð½Ñģ":10797,"Ð¡Ð¢ÐĲÐĿÐĲ":10798,"ĠÐ¿ÑĥÐ±":10799,"Ð»ÐµÑĥÐ³Ðµ":10800,"ĠÒĽÐ°Ð¼ÑĤÐ¸":10801,"ĠÐ¾ÑĢÐ³Ð°Ð½Ð´Ð°ÑĢÐ´ÑĭÒ£":10802,"ĠÑĩÐµÐ»Ð¾Ð²ÐµÑĩ":10803,"ĠÐ·Ð°ÑģÑĤÐ°Ð²":10804,"ĠÐ±ÑĥÐ´ÑĥÑīÐµÐ¼":10805,"Ð»ÑİÑģ":10806,"Ð½Ð¾Ð»ÐµÑĤ":10807,"ĠÑĤÑĢÐ°Ð³ÐµÐ´":10808,"ÐµÐºÐµÐ³Ðµ":10809,"ÑĭÒ£Ð´Ð°ÑĢ":10810,"ĠSh":10811,"ÐĵÐĨ":10812,"ĠÐĴÑĭÑģ":10813,"ĠÑĥÐ½Ð¸Ðº":10814,"88":10815,"Ð¶ÓĻÐ½Ðµ":10816,"51":10817,"ÑģÑĤÐ²Ð°Ñħ":10818,"ĠÐ²ÑģÑĤÑĢÐµÑĩÐµ":10819,"ĠÐºÐ¾Ð½ÑĤÑĢÐ°ÐºÑĤ":10820,"ĠÐ¶ÐµÑĤÐµÐ´Ñĸ":10821,"Ġid":10822,"ÐµÐ´Ð½ÐµÐ²":10823,"ĠÐºÓ©ÑĢÑģÐµÑĤÑĸÐ»ÐµÐ´Ñĸ":10824,"ĠÐ°Ð³ÐµÐ½ÑĤÑĤÑĸÐ³Ñĸ":10825,"ĠÐĳÐ°Ð»Ð°Ð»Ð°ÑĢ":10826,"ĠÐ½ÐµÐ´Ð²Ð¸Ð¶":10827,"ĠÑĢÑıÐ´Ð°":10828,"ĠÐ½ÐµÐ³ÑĸÐ·Ð´ÐµÑĢÑĸ":10829,"ĠÑĪÓĻ":10830,"ĠÐºÒ¯Ð½Ð´ÐµÐ»ÑĸÐºÑĤÑĸ":10831,"ĠÑĤÑĭÐ½ÑĭÑģ":10832,"ata":10833,"ÐµÑĢÐ³":10834,"ĠÐµÐ´Ð¸Ð½Ð¸ÑĨ":10835,"ÐºÐ°ÑĩÐ°ÑĤÑĮ":10836,"Ð°Ñĩ":10837,"ĠÑĩÐ°ÑģÐ°":10838,"ÑģÑĸÒ£":10839,"ĠÐ°Ð·Ð°Ð¹ÑĤÑĥ":10840,"ome":10841,"ÑĨÐ¸ÑıÑģÑĭÐ½ÑĭÒ£":10842,"Auto":10843,"ÑĪÐ¸ÐµÑģÑı":10844,"ĠÑģÐµÐ·Ð¾Ð½":10845,"ĠÑĪÑĤÐ°ÑĤ":10846,"ĠÐ¶ÑĭÐ»Ð´Ð°ÑĢÒĵÐ°":10847,"ĠÑģÐ»ÐµÐ´ÑĥÑİÑīÐ¸Ðµ":10848,"Ġtablet":10849,"Ð¸ÑĢÑĥÐµÐ¼":10850,"ÑĢÐ°ÑģÑĭÐ½ÑĭÒ£":10851,"ĠÐ´ÐµÐºÐ»Ð°ÑĢ":10852,"ĠÐ¢ÐµÐ¼Ð¸ÑĢ":10853,"Ġtheir":10854,"ĠÑĦÐ¸Ðº":10855,"ĠÐ´Ð¾ÑĢÐ¾Ð³Ð¸":10856,"ĠÒĽÐ¸Ð¼ÑĭÐ»":10857,"713":10858,"ual":10859,"ĠÑĢÐ°ÑģÑģÐ¼Ð¾ÑĤÑĢ":10860,"ĠâĢ¦":10861,"ĠÑĢÐµÐ·ÑĥÐ»ÑĮÑĤÐ°ÑĤÐ¾Ð²":10862,"Ð´ÑĸÐºÑĤÑĸÒ£":10863,"Ð°Ð¼Ñĭ":10864,"ĠÐĿÐµÐº":10865,"ĠÐ¿Ñı":10866,"ĠÐ±ÑĸÐ»Ð´ÑĸÑĢÐ´Ñĸ":10867,"ĠÐ¿Ð»Ð¾ÑĤ":10868,"Ġ250":10869,"ĠÒĽÐ°Ð¹Ð´Ð°":10870,"Ð¸Ð±Ð»Ð¸":10871,"ĠÐ¿Ð»Ð°Ð½Ð¸ÑĢÑĥÐµÑĤ":10872,"ĠÑģÑĦÐ¾ÑĢÐ¼":10873,"ĠÐ±ÐµÐ»Ð³ÑĸÑģÑĸ":10874,"ĠÐ²ÑĢÐµÐ´":10875,"ĠÐ·Ð°Ò£Ð´ÑĭÐ»ÑĭÒĽ":10876,"ĠÐ½ÐµÑĦÑĤÑı":10877,"ĠÐłÐ¾ÑģÑģÐ¸Ñİ":10878,"Ð¾Ð¼Ð°":10879,"Ġ59":10880,"Ð°Ð´ÐµÐ½Ð¸Ñı":10881,"Ð²Ð¾Ð¹":10882,"ĠÐ½ÐµÐ¾Ð±ÑħÐ¾Ð´Ð¸Ð¼Ð¾ÑģÑĤÑĮ":10883,"ĠÐĴÐµÑĢÑħ":10884,"Ð´ÐµÐ¼Ñĸ":10885,"ĠÐĲÐ½Ð°Ð»":10886,"ĠÑĢÐµÑĪÐ¸Ð»":10887,"ÑĭÑģÐº":10888,"ĠÑĢÐµÐºÐ¾Ð½ÑģÑĤÑĢÑĥ":10889,"Ð¸ÑĤÐ¾Ð¼":10890,"ĠÑĥÑģÐ¸Ð»ÐµÐ½Ð¸Ðµ":10891,"ĠÐ¶Ð¾Ð»Ð¼ÐµÐ½":10892,"Ð¾ÑģÑĭÐ½":10893,"Ð¸ÑģÑģÐ¸Ñı":10894,"ĠÐ±Ð°Ð½ÐºÐ¸":10895,"Ð°Ð½Ð¸Ð¼":10896,"Ð¸ÑĦÐ¸ÐºÐ°":10897,"ĠÐ²ÐµÐ´Ð¾Ð¼ÑģÑĤÐ²Ðµ":10898,"ĠÐ½Ð°Ð²":10899,"ĠÐºÐµÑĢÐ½Ðµ":10900,"ĠÐ°ÑĥÑĭÑģÑĤÑĭÑĢÑĥ":10901,"ÐĲÑĤÑĭÑĢÐ°Ñĥ":10902,"full":10903,"ĠÐ½Ð°ÑĩÐ°Ð»ÑĮÐ½Ð¸Ðº":10904,"ĠÐ¾ÑĤÐ´ÐµÐ»ÑĮÐ½ÑĭÑħ":10905,"Ð°ÒĽÑĭÑĢÑĭÐ¿":10906,"ĠÑĤÑĸÑĢÑĸ":10907,"ÑĸÑĢÑĸÐ¼":10908,"ÑĢÐ¼":10909,"ĠÐºÐµÐ»Ñĸ":10910,"ĠÐĳÐ°ÑĥÑĭÑĢÐ¶Ð°Ð½":10911,"ÑĭÐ»Ð¼ÑĭÑģÑĤÑĭÒĽ":10912,"ĠÑĦÐ¸Ð½Ð°Ð½ÑģÐ¾Ð²ÑĭÑħ":10913,"Ð¶Ð°Ð±":10914,"aph":10915,"Ð¿Ð°Ð¹Ð´Ñĭ":10916,"ĠÐ´Ð¾Ð»Ñı":10917,"photos":10918,"ĠÐ¶Ð°ÑĢÐ°ÑĤ":10919,"ĠAstana":10920,"ĠÐ·Ð°Ð¼Ð°Ð½Ð°ÑĥÐ¸":10921,"Ð´ÑĸÐºÑĤÑĸ":10922,"ĠÐĿÐ°ÑĤ":10923,"ĠÑįÐºÑģÐº":10924,"ĠÑĪÐ°ÑĢÑĤÑĭ":10925,"ÑīÐ¸ÐºÐ¸":10926,"Ġrender":10927,"ĠÐ£ÑģÑĤÑĮ":10928,"ÐĲÑĤÐ°Ð¼":10929,"ĠÓĻÐ»ÐµÐ¼Ð½ÑĸÒ£":10930,"ĠÐ¼ÐµÐ½Ñĸ":10931,"ĠÐ¾ÑĢÐ³Ð°Ð½Ð´Ð°ÑĢÑĭÐ½ÑĭÒ£":10932,"ĠÐĴÐµÐ»Ð¸ÐºÐ¾Ð±ÑĢÐ¸ÑĤÐ°Ð½Ð¸Ð¸":10933,"Ġ67":10934,"ĠÐºÐµÒ£ÐµÐ¹ÑĤÑĥ":10935,"ÑĩÐ¸ÐºÐ¸":10936,"Ð´ÑĭÑĢÒĵÐ°Ð½":10937,"ÐµÐ¸":10938,"Ð°ÑĢÐ¼":10939,"ĠÐ¿ÑĢÐ¾ÑĪÐ»Ð¸":10940,"ÑĭÐ¼Ð´Ð°ÑĢ":10941,"Ð¡ÑĤ":10942,"ĠÐŁÐ¾ÑģÐ»ÐµÐ´":10943,"ĠÐ´ÐµÐ¼Ð°Ð»ÑĭÑģ":10944,"led":10945,"ÐĸÐµÑĢ":10946,"Ð·Ð²ÐµÑĪ":10947,"ĠÐ¢Ð°Ð´Ð¶Ð¸ÐºÐ¸":10948,"ons":10949,"ments":10950,"ĠÐ³ÑĢÐ°Ð´ÑĥÑģÐ¾Ð²":10951,"ĠÐ±ÑĸÑĢÐ»ÐµÑģÑĸÐ¿":10952,"ĠÐ¸Ð¼Ð¿ÐµÑĢ":10953,"ĠÐĸÐ¾Ð»Ð´Ð°Ñĥ":10954,"Ð°ÑĨÐ¸ÑıÐ»Ð°ÑĢ":10955,"eth":10956,"ĠÐºÐµÑĤÑĥ":10957,"ĠÐĸÐµÒ£":10958,"ĠÑĸÑģÐºÐµÑĢ":10959,"Ð³Ð¾ÑĢÐ¾Ð´":10960,"ÐºÐ¾ÑģÑĤÐ¸":10961,"ĠÐ·Ð°Ð²Ð¾Ð´":10962,"Ð°Ð±Ð°ÑĤÑĭÐ²":10963,"ÑĢÐ¸ÑĦ":10964,"ĠÐ¾ÑģÐ½Ð¾Ð²Ð½ÑĭÐµ":10965,"\")":10966,"iter":10967,"ÐľÐ°ÒĽ":10968,"61":10969,"ĠÐ¿Ð¾Ð·Ð¸ÑĨÐ¸Ð¸":10970,"ĠÐµÑĤÐµ":10971,"ree":10972,"ĠÐ·Ð°ÐºÐ¾Ð½Ð¾Ð´Ð°ÑĤÐµÐ»ÑĮÑģÑĤÐ²Ð°":10973,"Ð°Ð¹ÑģÑı":10974,"ĠÑĤÐµÑĢÐµÐ·":10975,"ÑĤÐ°ÐºÐ¸":10976,"Ð¾Ð½ÑĤÐµÑĢ":10977,"ositphotos":10978,"68":10979,"ĠÑĤÓ©Ð»ÐµÐ½":10980,"ĠÐ¼ÑĸÐ½Ð´ÐµÑĤÑĸ":10981,"Ð´Ð¾ÑĢ":10982,"ĠÐºÐ°Ð´ÑĢÐ¾Ð²":10983,"Ð±Ð°ÑģÑĭÐ½ÑĭÒ£":10984,"Ð°ÑİÑīÐ¸ÑħÑģÑı":10985,"ĠÐ»ÑİÐ´ÑıÐ¼":10986,"ĠÐ¶Ð°ÑģÐ°Ð»Ð°Ð´Ñĭ":10987,"ĠÐ¶ÐµÑĢÐ´ÐµÐ½":10988,"ĠÐ´ÐµÐ²ÑĥÑĪÐºÐ°":10989,"ĠÐ°Ð»Ð¼Ð°Ñģ":10990,"ĠÑģÐ°Ð»ÒĵÐ°Ð½":10991,"Ġ['":10992,"ĠÐ¨ÑĭÐ½":10993,"ĠÑĥÑģÑĤÑĢÐ°Ð½":10994,"ĠÐ½Ð°Ð»Ð¸ÑĩÐ¸Ðµ":10995,"ÐŀÐĹ":10996,"ÑĭÐ¼ÐºÐµÐ½ÑĤ":10997,"ĠÐĿÐ°Ð²":10998,"ĠÐ½Ð¸ÐºÐ°ÐºÐ¸Ñħ":10999,"ĠÐ²Ð¾ÐµÐ½Ð½Ð¾ÑģÐ»ÑĥÐ¶":11000,"AutoR":11001,"eloads":11002,"ĠisAutoR":11003,"ĠphoneWidth":11004,"ĠtabletWidth":11005,"ĠisAutoReloads":11006,"ĠÐ¼ÓĻÑģÐµÐ»ÐµÐ½Ñĸ":11007,"ÐºÐ¸Ð¼Ð¸":11008,"ÑĤÐ°ÑģÑĤ":11009,"ade":11010,"ĠÐ¿Ð¾ÑĤÐµÐ½ÑĨÐ¸Ð°Ð»":11011,"ÐĺÐĹ":11012,"ĠÐ±Ð¾Ð»ÑĮÐ½Ð¸ÑĨÑĭ":11013,"ĠÐŁÐ¾ÐºÐ°":11014,"ĠÒĽÑĥÐ°Ð½ÑĭÑĪ":11015,"Ð±Ó©Ð»":11016,"ĠÐ°ÑģÑĭÐ»":11017,"ĠÑĥÑĩÑĢÐµÐ¶Ð´ÐµÐ½Ð¸Ñı":11018,"ĠÐ´Ð¾Ð±Ñĭ":11019,"ĠÐ¸Ð¼ÑĥÑīÐµÑģÑĤÐ²Ð°":11020,"ĠÐ¾Ð±ÑĢÐ°Ð·Ð¾Ð²Ð°Ð½Ð¸Ðµ":11021,"ĠÐ·Ð°Ð½Ð¸Ð¼Ð°ÐµÑĤ":11022,"ĠÐ½ÓĻÑĤÐ¸Ð¶ÐµÐ»ÐµÑĢÑĸ":11023,"ÑģÑĤÒ¯ÑĢ":11024,"ÐļÐ°Ð¼ÐµÐ½Ð¾Ð³Ð¾ÑĢ":11025,"ÐļÐ°Ð·Ð°ÑħÑģÑĤÐ°Ð½ÑģÐºÐ°Ñı":11026,"ĠÑįÑĦÐ¸ÑĢ":11027,"ĠÐ³Ð¸Ð¼":11028,"ĠÐ¶Ð°Ð¿Ð¿Ð°Ð¹":11029,"ĠÐ¸Ð½ÑģÐ¿ÐµÐº":11030,"ĠÑģÑĤÐ°Ð´Ð¸":11031,"ĠÐĸÐ¸":11032,"ĠÓĻÐ´ÐµÑĤÑĤÐµ":11033,"ÐĲÐ±Ð°Ð¹":11034,"ĠÒĽÐ¾Ð»Ð¶ÐµÑĤ":11035,"ĠÑĥÑģÐºÐ¾ÑĢ":11036,"ĠÐ±ÑĸÐ»ÐµÐ´Ñĸ":11037,"ĠÐ¿ÑĢÐ¾ÑĤÑıÐ¶ÐµÐ½Ð¸Ð¸":11038,"ÑīÐµÐ½Ð¸Ðµ":11039,"ÑĢÐ¸Ñĩ":11040,"ĠÐ½Ð°Ð¿ÑĢÐ°Ð²Ð»ÐµÐ½":11041,"ĠÐľÓĻÐ¶":11042,"ĠÐ¢Ð°Ð±Ð¸Òĵ":11043,"ĠÐ·Ð°Ð¿ÑĥÑģÑĤ":11044,"ĠÐºÐ°Ð¶Ð´Ð¾Ð¹":11045,"ĠÐ°Ð»ÑĭÐ½Ð´Ñĭ":11046,"ĠÐĴÐļÐŀ":11047,"ĠÑĥÑħÐ¾Ð´":11048,"ĠÐ±Ò±Ð»ÑĪÑĭÒĽ":11049,"ĠÐ·Ð°ÑĤÑĤÐ°ÑĢÐ´Ñĭ":11050,"ĠÐ¥Ð¾ÑĢ":11051,"aptive":11052,"ĠÐ¶ÐµÐºÐµÐ»ÐµÐ³ÐµÐ½":11053,"ĠÐ¶Ð°Ð·Ð´Ñĭ":11054,"ĠÐ´Ð²ÑĥÐ¼Ñı":11055,"Ð´Ð°ÑģÑĤÑĭÑĢÑĥ":11056,"ĠÐľÐ¸Ð½Ð¸ÑģÑĤÐµÑĢÑģÑĤÐ²Ð¾":11057,"ĠÐºÑĢÐ°ÑĤ":11058,"ÑĢÐ°Ð¹ÑĤÑĭÐ½":11059,"ĠÐ°ÐºÑĤÐ¸Ð²Ð¾Ð²":11060,"ÐºÐµÐ½ÑĤÐ°Ð¹":11061,"ĠÐºÐµÐ»ÑģÐµ":11062,"ÒļÐ°ÑĢÐ°":11063,"ĠÑģÐ¾ÑģÑĤÐ¾ÑıÐ½Ð¸Ñı":11064,"ĠÐ±Ò¯Ð¹":11065,"ĠÐµÐ½Ð³ÑĸÐ·ÑĸÐ»Ð³ÐµÐ½":11066,"ÑĭÐ²Ð°Ð»":11067,"ency":11068,"ĠÐ±Ð°ÑģÑĪÑĭÐ»Ð°ÑĢ":11069,"fo":11070,"Ġspe":11071,"ĠÒĽÒ±Ð¿Ð¸Ñı":11072,"ĠÑĦÐ¸Ð½Ð°Ð½ÑģÐ¾Ð²Ð¾Ð¹":11073,"ĠÒĽÐ°ÑģÐ¸ÐµÑĤÑĤÐµÑĢÑĸ":11074,"ĠÐ´Ð¾ÐºÑĤÐ¾ÑĢ":11075,"ĠÐľÐ¸ÑĢ":11076,"ÑĤÑĸÐ½ÑĪÑĸ":11077,"ĠÐ¼Ð°ÑĢÐºÐ¸":11078,"ĠÑģÐµÐºÑĤÐ¾ÑĢÐ°":11079,"ĠÐ³ÑĢÑĥÐ¿Ð¿Ðµ":11080,"ĠÑģÑĤÐ°ÑĨÐ¸Ð¾Ð½Ð°ÑĢ":11081,"ĠÐ¶ÐµÐ»ÐµÐ·Ð½Ð¾Ð´Ð¾ÑĢÐ¾Ð¶":11082,"ĠÐ¾ÑĤÑĢÐ°ÑģÐ»":11083,"order":11084,"ĠÐ±ÑĸÐ»Ð³ÐµÐ½":11085,"ÐĳÑĸÐ»ÑĸÐ¼":11086,"ĠÐ¿Ð°Ð¹Ð´Ð°Ð»Ð°Ð½Ð°":11087,"ĠÐ±ÐµÑĢÑĥÐ´Ñĸ":11088,"ĠÐ¶Ð°ÒĵÐ´Ð°Ð¹Ð´Ñĭ":11089,"ĠÐ¼ÐµÐ´Ð¸Ð°":11090,"ĠÐ´ÐµÐ»ÑĸÐ½Ð³ÐµÐ½":11091,"ĠEx":11092,"Ð½Ð¾Ð¿":11093,"ÑģÑĤÐ²Ð¸Ð¹":11094,"Ð¸ÑĢÐ¾Ð²Ð°Ð½Ð½ÑĭÑħ":11095,"Ð¼Ð°ÑģÑĭ":11096,"ÐļÐ¾Ð¼ÑģÐ¾Ð¼":11097,"ĠÑĤÓ©Ð·":11098,"ĠÐ¶ÐµÐ»ÑĸÑģÑĸÐ½Ð´Ðµ":11099,"Ð°ÑĤÐµÐ»ÑĮÐ½ÑĭÐ¹":11100,"ĠÑĦÐ¾ÑĢÐ¼Ð°ÑĤ":11101,"ĠÑĤÐ°ÑĢÑĤÑĭÐ¿":11102,"ĠÐ·Ð°Ð´Ð°ÑĩÐ°":11103,"ÑĪÐµÑĩ":11104,"ĠÐ°Ð»ÑĥÑĪÑĭ":11105,"ĠÐļÐ¡Ðł":11106,"ÐºÐ»":11107,"ÐµÐ²ÑĭÐµ":11108,"ĠÐ£Ð¶Ðµ":11109,"Ð°ÑıÑĥ":11110,"ize":11111,"ĠÐ°Ð¹ÑĤÑĥÒĵÐ°":11112,"ĠÐºÐµÐ·Ð´ÐµÐ³Ñĸ":11113,"ÓĻÐ»Ñĸ":11114,"ĠÑĸÐ·Ð´ÐµÑĥ":11115,"ÑĸÐ»ÑĤÐµÐ¼Ðµ":11116,"Ð¾Ð³Ðµ":11117,"ĠÐ¢Ð°ÑĪ":11118,"Ð¾Ð¶Ð°":11119,"ĠÐ²Ð¾ÑģÐº":11120,"ĠÐ¼Ð¾Ð´ÐµÐ»Ð¸":11121,"ĠÐ½Ð°Ð½ÐµÑģ":11122,"ÑĸÑĪÐºÐµ":11123,"ĠÒĽÐ°ÑĢÐ°ÑģÑĤÑĭÑĢÑĥ":11124,"ÐµÐ²Ð¾Ð³Ð¾":11125,"ĠÑĤÒ¯ÑģÑĸ":11126,"ĠÐĴÐµÑĢ":11127,"ĠÐ¿ÑĢÐ°Ð²Ð¸Ð»Ð¾":11128,"Ġ52":11129,"ĠÑĪÐ°":11130,"ĠÒĽÒ±ÑĤÒĽÐ°ÑĢ":11131,"ÑĤÑĭÐ¼Ð´Ñĭ":11132,"ĠIt":11133,"ĠÐ¿Ð¾ÐµÐ´Ð¸Ð½":11134,"ĠÐ´Ð¸Ð°Ð³Ð½Ð¾Ð·":11135,"ĠÐ³ÑĢÐ°Ð¶Ð´Ð°Ð½Ðµ":11136,"ĠÑģÑĤÐ¾Ñı":11137,"ÑıÐ¶":11138,"ĠÑĥÐ´ÐµÐ»":11139,"ÐĲÑģÑĤÐ°Ð½":11140,"ĠAm":11141,"After":11142,"Ð»ÑİÐ·":11143,"ÑĢÐ¸Ð¼Ð¸Ð½":11144,"ĠÐ¿Ð¾Ð´ÑĢÐ¾Ð±Ð½Ð¾ÑģÑĤÐ¸":11145,"ĠÐŁÐ¾Ð¼Ð¸Ð¼Ð¾":11146,"ÑĪÐ°ÑİÑĤ":11147,"ĠÑģÑĢÐ¾ÐºÐ¸":11148,"Ð°Ð´Ð°Ð¼":11149,"ĠÐ¸Ð½Ð²Ð°Ð»Ð¸":11150,"ÑģÑĤÐ°ÑĤÐ¸":11151,"ĠÐ¡ÑĤÐ°Ð½":11152,"ÒĽÑĭÐ»Ñĭ":11153,"ĠÐ¡Ð¾Ð¾Ð±Ñī":11154,"ĠPol":11155,"ĠÒĽÐ°ÑĢÑģÑĭÐ»":11156,"ĠÐ½Ð°ÑĥÐº":11157,"ĠÐ³Ð¾Ð´Ð¾Ð²":11158,"ĠÐĶÐ§Ð¡":11159,"ĠÑĪÑĭÐ½Ð°Ð¹Ñĭ":11160,"ĠÓ©ÑĤÐºÑĸÐ·ÑĸÐ»Ð´Ñĸ":11161,"ĠÐºÐ¾Ð»Ð»ÐµÐº":11162,"Ð½Ð¸ÑĩÑĤÐ¾":11163,"ĠÐºÐµÑĤÑĸÐ¿":11164,"ĠÑĢÐ°Ð·Ð½ÑĭÐµ":11165,"ÑĸÐ¼Ðµ":11166,"';":11167,"Ð¾ÐºÐ°Ð·":11168,"Adaptive":11169,"ĠÐ¥Ð¥":11170,"createAdaptive":11171,"ĠÐºÐ°Ð·Ð°ÑħÑģÑĤÐ°Ð½ÑģÐºÐ¸Ðµ":11172,"ĠÐ´Ð¾Ð¼Ð¾Ð¹":11173,"ĠÐĶÐĴÐĶ":11174,"ĠÐŃÑĤÐ°":11175,"ĠÐĺÐ·Ð²":11176,"ĠÐºÐµÐ»Ð³ÐµÐ½Ð´Ðµ":11177,"Ġyear":11178,"ĠÑĢÐ¸Ñģ":11179,"ities":11180,"ÐĿÐķ":11181,"ĠÑıÐ·ÑĭÐºÐµ":11182,"ĠÐĲÑĥÐ´Ð°Ð½":11183,"Ð¸ÑĤÐ¸Ð²":11184,"ÑĭÐ»Ð¼Ð°Ð¹Ð´Ñĭ":11185,"ĠÐ¿ÐµÑĢÐµÑħ":11186,"ĠÐ¡Ð¸ÑĢÐ¸Ð¸":11187,"ĠAt":11188,"ĠÐ²Ð·ÑıÑĤ":11189,"ĠÑĭÒĽÑĤÐ¸Ð¼":11190,"ĠÐ§ÐŁ":11191,"ĠÑĢÐ°ÑģÑģÐ¼Ð¾ÑĤÑĢÐµÐ½":11192,"ĠÑĦÐ¸Ð»Ð¸Ð°Ð»":11193,"ĠÐĳÐ¸ÑĪ":11194,"ĠÑģÐ¼Ð¾Ð¶ÐµÑĤ":11195,"Ð¾Ð·Ð½":11196,"ĠÐºÓ©Ð»ÐµÐ¼ÑĸÐ½Ð´Ðµ":11197,"ĠÑģÐ¾ÑİÐ·Ð°":11198,"ĠÐ¾Ð±Ð¾ÑĢÑĥÐ´Ð¾Ð²Ð°Ð½Ð¸Ñı":11199,"iss":11200,"ĠÐľÐ°ÑĢÐ°ÑĤ":11201,"ĠÐ¼Ð°ÑģÑĤÐµÑĢ":11202,"ÑĩÐµÑĢÐ°":11203,"ĠÐ¿Ð»ÐµÐ½":11204,"\":\"\\":11205,"ÑĸÐ»Ðµ":11206,"ĠÐºÐ°Ð»ÑĮ":11207,"ĠÐ½Ð°ÑģÐ»ÐµÐ´":11208,"ĠÑĤÐµÑĢÑĢÐ¸ÑĤÐ¾ÑĢÐ¸Ñı":11209,"ĠÐ¿Ð½ÐµÐ²Ð¼Ð¾Ð½":11210,"ĠÒĽÐ°ÑĢÒĽÑĭÐ½Ð´Ñĭ":11211,"Ð°Ð¹Ð´":11212,"ĠÐºÐµÑĢÐµÐ¼ÐµÑĤ":11213,"ĠÑĪÐ°ÒĽÑĭÑĢÑĭÐ¼":11214,"ĠÑĪÒ±ÒĵÑĭÐ»":11215,"Ġac":11216,"ÑĨÐ¸ÑıÒĵÐ°":11217,"Ð¾ÑĢÐ¾Ð¼":11218,"ĠÑĦÐ¸Ð·Ð¸":11219,"ĠÑĤÐ¾Ð²Ð°ÑĢÑĭ":11220,"ĠÑģÐ¾Ð¶Ð°Ð»ÐµÐ½Ð¸Ñİ":11221,"ĠÐĲÑĤÐ°Ð»ÒĵÐ°Ð½":11222,"ĠÑĸÐ½":11223,"ĠÐĲÐ¡Ð¢ÐĲÐĿÐĲ":11224,"Ð¼ÐµÑĤÑĤÑĸ":11225,"ÐĺÐ½ÑĤÐµÑĢ":11226,"ipp":11227,"ÐŀÐļ":11228,"Ġwww":11229,"ĠÐ´Ð¸ÑģÑĨÐ¸":11230,"ĠÒĽÐ¾ÑıÐ´Ñĭ":11231,"Ð°Ð²ÑĪÐ¸Ñħ":11232,"Ð±Ò±ÑĢ":11233,"Ð¾ÑĩÐ½Ð¸Ðº":11234,"ĠÐ²Ð¸Ð´Ð°":11235,"ĠÐ°Ð²ÑĤÐ¾Ð±Ñĥ":11236,"ÑĸÑĢÐµÐº":11237,"ĠÐ¡Ð°Ð³":11238,"ĠÐºÐ¾Ð»Ð»Ðµ":11239,"Ð°ÑĤÐµÐ»ÑıÐ¼Ð¸":11240,"Ð¿ÑĸÐ½":11241,"ĠÐ°ÒĵÑĭÐ¼Ð´Ð°ÒĵÑĭ":11242,"Ð±ÐµÐºÐ°":11243,"ĠÑĤÑĢÐµÐ±Ð¾Ð²Ð°Ð½Ð¸Ð¹":11244,"ĠÐ²ÑĢÑĥÑĩ":11245,"ĠÐ¿ÑĢÐµÐ´Ð»Ð¾Ð¶Ð¸Ð»":11246,"ĠÑģÐµÐ·Ð¾Ð½Ð°":11247,"ĠÐľÐ¸":11248,"ĠÐ±Ð¾ÑĢÑĮÐ±Ñĭ":11249,"ĠÓ©Ð½ÑĸÐ¼Ð´ÐµÑĢÑĸÐ½":11250,"uss":11251,"Ð»Ð°ÑĢÐ¼ÐµÐ½":11252,"Ð¸ÑıÐ½Ñĭ":11253,"ĠÐ¿Ð¾Ð´Ð½Ð¸Ð¼":11254,"Ð°Ð±ÐµÐº":11255,"ÑĢÐ¾Ð»ÑĭÒĽ":11256,"ĠÐ¿ÓĻÑĤÐµÑĢ":11257,"ĠÑģÐ¾Ð¾Ð±ÑīÐµ":11258,"ĠÐĲÐºÐ°Ð´ÐµÐ¼":11259,"ÑĤÐ¸Ðº":11260,"ÒļÑĭÐ·ÑĭÐ»":11261,"Ð´Ð°Ð¹ÑĤÑĭÐ½":11262,"ĠÒĽÐ°ÑĤÑĭÑģÑĥÑĭÐ¼ÐµÐ½":11263,"Ð°Ð½Ðµ":11264,"Ð³Ð¾ÑĤ":11265,"ĠÐ²ÑĭÑĪÐµÐ»":11266,"ĠÐ¶Ð°ÑĤÒĽÐ°Ð½ÑĭÐ½":11267,"ĠÐļÐ¾Ð½ÐµÑĩÐ½Ð¾":11268,"ÒĽÐ¾Ð¹":11269,"Ð»ÑĭÒĵÑĭÐ½ÑĭÒ£":11270,"Ð¸Ð²ÑĪÐµÐ³Ð¾":11271,"ĠÑģÐµÐ¼ÑĮÐµ":11272,"Ð°Ð»Ð°ÑĢÐ´Ð°Ð½":11273,"ĠÐºÒ¯Ð½ÑĤÑĸÐ·Ð±ÐµÐ»ÑĸÐº":11274,"Ð°Ð»Ð»ÐµÐ»ÑĮ":11275,"ĠÐĽÐµ":11276,"ÐĸÐ°Ð½":11277,"ĠÓĻÐ»ÐµÐ¼Ð´ÐµÐ³Ñĸ":11278,"ĠÐĶÒ¯Ð½Ð¸Ðµ":11279,"Ġgr":11280,"ĠÐ¶Ð°Ð½ÑĭÐ½Ð´Ð°ÒĵÑĭ":11281,"ĠÑįÐºÑģÐ¿ÐµÑĢÐ¸Ð¼ÐµÐ½ÑĤ":11282,"ĠÐ¿ÑĢÐ¾ÐºÐ¾Ð¼Ð¼ÐµÐ½ÑĤÐ¸ÑĢÐ¾Ð²Ð°Ð»":11283,"uf":11284,"FC":11285,"ĠÐ¾ÑĢÐ¸ÐµÐ½ÑĤ":11286,"ĠÑģÑĤÐ°Ð½ÑĨÐ¸Ð¸":11287,"ĠÑĸÑĢÑĸÐº":11288,"Ð¸ÑĤÐµÑĢ":11289,"ĠÑĤÐ°Ð¿ÑĤÑĭ":11290,"ĠÐºÐ²Ð°ÑĢÑĤÐ¸ÑĢÑĭ":11291,"ĠÐ°Ð¹Ð½Ð°Ð»ÑĭÐ¿":11292,"ĠÐ¿Ð¾Ð»ÑĥÑĩÐ¸Ð»Ð°":11293,"ÑīÐ¸Ñħ":11294,"Ð³ÑĢÐ¾":11295,"ages":11296,"ĠÐ¿ÑĢÐ¾Ð¸Ð·Ð¾ÑĪÐ»Ð°":11297,"ĠÐ¿Ð¾ÑģÐ°Ð´":11298,"Ð°Ð¼Ð°Ð¹":11299,"ĠÑģÐ»ÑĥÑĪ":11300,"Ð°ÒĽÑĤÑĭÒĵÑĭ":11301,"ms":11302,"ĠÑģÒ±ÑħÐ±Ð°ÑĤ":11303,"ÐĲÐĽÐ«Òļ":11304,"ĠÐĶÐ¶Ð¾Ð½":11305,"Ð¼Ð°ÒĵÑĭÐ½ÑĭÒ£":11306,"ĠÑĤÒ¯ÑĢÑĸÐ½":11307,"ĠÐ°ÑĥÐ¼Ð°ÒĵÑĭ":11308,"ĠÐ¿Ð¾Ð´ÐºÐ»ÑİÑĩ":11309,"ÑģÑĤÐ²Ð°Ð¼Ð¸":11310,"ĠÐºÐ¾ÑĢÐ¾ÑĤ":11311,"Ġ2001":11312,"ÑħÐ¸ÑĤ":11313,"ĠÐ°Ð½ÑĭÒĽÑĤÐ°ÑĥÒĵÐ°":11314,"ĠÐ±ÐµÑĤÑĸÐ½ÐµÐ½":11315,"ĠÐĳÒ°":11316,"ĠÑıÐºÐ¾Ð±Ñĭ":11317,"ĠÑģÑĤÑĢÐ°Ð¶":11318,"ĠÐ¿ÑĥÐ½ÐºÑĤÐ¾Ð²":11319,"ĠÐµÑīÑĳ":11320,"ĠÐ¼Ò±ÑĢ":11321,"ĠÐºÓĻ":11322,"pi":11323,"ĠÐ¼ÐµÑģÑĤÐ½ÑĭÐµ":11324,"ould":11325,"ĠÐºÑĢÐ¾Ð¼Ðµ":11326,"ĠÐºÐ°Ð·Ð°ÑħÑģÑĤÐ°Ð½ÑģÐºÐ¸Ð¹":11327,"ÑĸÐ»ÐµÑĥ":11328,"ĠÐŀÑĢÐ°Ð·":11329,"ĠÐĲÐ»ÑĤÐ°Ð¹":11330,"ÑģÐ°Ò£ÑĭÐ·":11331,"ĠÒļÐ°Ð·Ð°ÒĽÑģÑĤÐ°Ð½ÒĵÐ°":11332,"ĠÐ¶Ð°ÑģÑĭ":11333,"ĠÒ±Ð¼ÑĭÑĤ":11334,"ĠÒĽÐ°Ð¼ÑĤÐ¸Ð´Ñĭ":11335,"ĠÑģÐµÐ³":11336,"ÑĥÐ»Ð¸Ð½":11337,"ĠÓ©Ð·Ð³ÐµÑĢÑĸÑģ":11338,"ÐµÐ»ÐµÐ³":11339,"ĠÐŀÐ»Ð¸Ð¼Ð¿Ð¸Ð°Ð´Ð°":11340,"ĠÐºÐµÒ£ÐµÑģÑĸÐ½ÑĸÒ£":11341,"ĠÐ½Ð°ÐºÐ°Ð·Ð°Ð½Ð¸Ðµ":11342,"ĠNur":11343,"ĠÐ´Ð°Ð¼ÑĥÑĭÐ½ÑĭÒ£":11344,"ĠÑģÐ»ÐµÐ´ÑĥÑİÑīÐ¸Ð¹":11345,"ĠÑĥÐ³Ð¾Ð»Ð¾Ð²Ð½Ð¾Ð³Ð¾":11346,"ĠÐ¿ÑĢÐµÐ¿Ð¾Ð´Ð°Ð²":11347,"ĠÐ±Ð¾Ð»ÑĮÑĪÐ¸Ð½ÑģÑĤÐ²Ð¾":11348,"ĠÐ²ÑĭÐ±Ð¾ÑĢÑĭ":11349,"ÒĵÑĭÑģÑĭÐ½Ð°Ð½":11350,"ĠÑģÐµÐ¿":11351,"Ð¸Ð¼Ð¾Ð²Ð°":11352,"ĠÐ·Ð°ÑĢÐ°Ð¶ÐµÐ½Ð¸Ñı":11353,"ÑĭÐ¼ÑģÑĭÐ·":11354,"ĠÐ¾Ð¶Ð¸Ð´Ð°ÑİÑĤÑģÑı":11355,"ĠÐ¸Ð´":11356,"ĠÒ±Ð¶":11357,"ÐĿÐ«":11358,"ĠÐ¾Ð±ÑĬÐµÐºÑĤÑĸ":11359,"ĠÐĶÐ¸Ð¼":11360,"'s":11361,"ĠÑĢÐ°ÑģÑħÐ¾Ð´Ñĭ":11362,"ĠÐ¼Ð°ÒĽÑĤÐ°Ð½":11363,"ound":11364,"Ð°ÑİÑīÐ°Ñı":11365,"ĠÐ¡Ð°Ñı":11366,"ĠÐ¼ÐµÐ³":11367,"cond":11368,"1016":11369,"ĠAs":11370,"Ð¿Ò±Ð»":11371,"ĠÐ¾ÑģÑĤÐ°Ð½":11372,"ĠÑĦÐ°Ð½":11373,"ĠÐ°Ð»ÐºÐ¾Ð³Ð¾Ð»ÑĮ":11374,"ĠÐ³ÑĢÐ°Ð½Ð¸ÑĨÑĭ":11375,"ĠÐ½Ð°ÒĽÑĤ":11376,"ĠÐ¶Ð°ÒĵÐ´Ð°Ð¹ÒĵÐ°":11377,"tab":11378,"ĠÓĻÐ´ÑĸÑģÑĤÐµÐ¼":11379,"ĠÑģÑĥÐ¿ÑĢÑĥÐ³":11380,"ĠÐ³Ð»Ð°Ð²Ð½Ð¾Ðµ":11381,"Ð¸Ð½Ð¾Ðº":11382,"Ġset":11383,"ĠÐļÐ¸ÑĤÐ°Ðµ":11384,"ĠÐ¿ÑĢÐ¸Ð·Ð½Ð°Ð½":11385,"ĠÐ¿ÑĢÐ¾Ð´Ð¾Ð²Ð¾Ð»ÑĮ":11386,"ĠÐ·Ð°Ð³ÑĢÑıÐ·":11387,"ĠÐ±Ð°ÑģÑĪÑĭÐ»Ð°ÑĢÑĭ":11388,"ĠÐ±Ð°Ð·Ðµ":11389,"ĠÓ©Ð·Ð´ÐµÑĢÑĸ":11390,"Ð¾Ð¾Ð±ÑĢÐ°Ð·":11391,"Ò¯ÑĢÐ³ÑĸÐ·":11392,"ĠÐ¼ÑĭÒĽÑĤÑĭ":11393,"ĠÐ²ÑĭÐ±Ð¾ÑĢÐ°Ñħ":11394,"ĠÑĥÐ²Ð¸":11395,"lect":11396,"ĠÐ°Ð´Ð°Ð¼Ð´Ð°ÑĢÐ´Ñĭ":11397,"Ð¸ÑĩÐµÑģÐºÐ¾Ð¼Ñĥ":11398,"ĠÐºÐ¾Ð½ÑĤÐ°Ðº":11399,"ĠÓĻÑģÐµÑĢÑĸÐ½":11400,"ĠNews":11401,"ÑĪÐµÐ½Ð¸Ð¸":11402,"ÑĭÐ»ÑĥÑĭÐ½Ð°":11403,"ĠÑĥÑģÑĤÑĥÐ¿":11404,"ĠÐĳÐ°ÒĽ":11405,"ĠÐ±ÐµÑĢÐµÐ³":11406,"ĠÑĤÐ¸ÑĸÐ¼Ð´ÑĸÐ»ÑĸÐ³ÑĸÐ½":11407,"ĠÓ©Ð·Ð³ÐµÑĢÑĤ":11408,"ÐķÐĶ":11409,"ĠÐ½ÐµÐ´Ð°Ð²Ð½Ð¾":11410,"ĠÐ¶Ò±Ð¼ÑĭÑģÑĭÐ½ÑĭÒ£":11411,"ĠÑĪÐ°ÑĢÐ°Ð»Ð°ÑĢÑĭ":11412,"ĠÐĳÐ¾Ð»Ð°ÑĤ":11413,"ÑĨÐ¸ÑıÐ»Ð°Ñĥ":11414,"ĠÐ¿ÑģÐ¸ÑħÐ¾Ð»Ð¾Ð³Ð¸Ñı":11415,"ĠÐľÑĸÐ½Ðµ":11416,"Ð°Ð½Ð½ÑĭÒ£":11417,"ÐµÐ»ÐµÐ¿":11418,"ĠÑĢÐµÑĨÐµÐ¿":11419,"ÐºÐ¸Ð¿Ð°Ð¶":11420,"Ð¾ÑĩÐºÐ¸":11421,"ĠÐ¿Ð¾Ð´Ð²ÐµÑĢÐ³":11422,"ĠÑĢÓĻÑģÑĸÐ¼":11423,"ĠÐµÐ´":11424,"ĠÐ¶ÐµÑĤÐºÑĸÐ·Ð´Ñĸ":11425,"ĠÐ¾Ð·Ð½Ð°ÐºÐ¾Ð¼":11426,"ÑĪÐ°ÑĢÑĥÐ°ÑĪ":11427,"Ð°ÑĤÑĭÑĢ":11428,"ĠÐķÑĥÑĢÐ°Ð·":11429,"ĠÑģÑĤÑĢÐ°":11430,"ĠÑĤÑĸÐ»ÑĸÐ½ÑĸÒ£":11431,"ĠÑĥÐ½Ð¸ÑĩÑĤÐ¾":11432,"ĠÑģÑĤÐ°ÑĤÑĥ":11433,"ĠÐ¼Ò¯Ð¼ÐºÑĸÐ½Ð´ÑĸÐ³ÑĸÐ½":11434,"ÑĤÐµÑĢÐµÐº":11435,"ĠDepositphotos":11436,"Ð½Ð¾Ð²ÑĢÐµÐ¼ÐµÐ½Ð½Ð¾":11437,"Ð°Ð¼Ð¼ÐµÐ´":11438,"Ġ69":11439,"ĠÐĳÐ°ÑģÑĤÑĭ":11440,"ĠÐĳÐ°Ð»Ð°":11441,"ĠÐ´Ð°ÒĽÑĭÐ»":11442,"ĠÐºÓ©Ð¼ÐµÐºÑĤÐµÑģÐµÐ´Ñĸ":11443,"ĠÐ½ÐµÑģÐ¾Ð²ÐµÑĢÑĪÐµÐ½":11444,"ÐŀÐĶ":11445,"ĠÑĸÑģÑĤÐµÑĢÑĸ":11446,"ÑĭÑĪÑĤÑĭ":11447,"ĠÐ¿ÐµÑĢÐµÐ³Ð¾Ð²Ð¾ÑĢ":11448,"ÑĭÒĽÑĤÐ°ÑĢ":11449,"ĠÐ¿Ð¾ÑĤÐ¾":11450,"ĠâĨĴ":11451,"aw":11452,"ĠÐ¢Ð¾Ð¼":11453,"ĠÐ¿Ð¾Ð»Ð¾Ð¶ÐµÐ½Ð¸Ñı":11454,"script":11455,"ĠÐ¼Ð¾Ð³Ñĥ":11456,"ĠÑįÑĤÐ°Ð¿Ðµ":11457,"ĠÐ¶Ð°ÒĵÑĭ":11458,"ĠÐºÓĻÑģÑĸÐ¿ÐºÐµÑĢ":11459,"ĠÒĽÐ°Ð±ÑĸÐ»ÐµÑĤÑĤÑĸ":11460,"ĠÐºÐ»Ð°":11461,"ĠÐĲÐ»ÑĮÐ²Ð°ÑĢ":11462,"ĠÐ¿Ð¾ÑģÐ»ÐµÐ´Ð½Ð¸Ð¹":11463,"ÐĹÐ°":11464,"ĠÐ¿ÑĢÐ¸ÑĩÐ¸Ð½Ð¾Ð¹":11465,"ÐĳÐ¸":11466,"ĠÑĤÒ±Ò£ÒĵÑĭÑĪ":11467,"ĠÑģÒ¯Ð¹ÐµÐ½":11468,"ĠÐ¿Ð»Ð°ÑĤÑĦÐ¾ÑĢÐ¼":11469,"ĠÐ¼Ð¾Ð¶ÐµÐ¼":11470,"Ġ-.":11471,"ĠÐ¢Ð°Ð½":11472,"Ð¾Ð²Ð°Ð½Ð°":11473,"ĠHe":11474,"ĠÐ²ÑĭÐ¿Ð¾Ð»Ð½ÐµÐ½":11475,"ÑĭÒ£ÑĭÐ·Ð´Ñĭ":11476,"ĠÐĺÐ³Ð¾ÑĢ":11477,
[...]
